{
  "version": "1.0",
  "truncation": null,
  "padding": null,
  "added_tokens": [
    {
      "id": 0,
      "content": "[PAD]",
      "single_word": false,
      "lstrip": false,
      "rstrip": false,
      "normalized": false,
      "special": true
    },
    {
      "id": 1,
      "content": "[UNK]",
      "single_word": false,
      "lstrip": false,
      "rstrip": false,
      "normalized": false,
      "special": true
    },
    {
      "id": 2,
      "content": "[CLS]",
      "single_word": false,
      "lstrip": false,
      "rstrip": false,
      "normalized": false,
      "special": true
    },
    {
      "id": 3,
      "content": "[SEP]",
      "single_word": false,
      "lstrip": false,
      "rstrip": false,
      "normalized": false,
      "special": true
    },
    {
      "id": 4,
      "content": "[MASK]",
      "single_word": false,
      "lstrip": false,
      "rstrip": false,
      "normalized": false,
      "special": true
    },
    {
      "id": 5,
      "content": "[EOS]",
      "single_word": false,
      "lstrip": false,
      "rstrip": false,
      "normalized": false,
      "special": true
    },
    {
      "id": 6,
      "content": "[THINK]",
      "single_word": false,
      "lstrip": false,
      "rstrip": false,
      "normalized": false,
      "special": true
    },
    {
      "id": 7,
      "content": "[MOOD]",
      "single_word": false,
      "lstrip": false,
      "rstrip": false,
      "normalized": false,
      "special": true
    }
  ],
  "normalizer": null,
  "pre_tokenizer": {
    "type": "Whitespace"
  },
  "post_processor": null,
  "decoder": null,
  "model": {
    "type": "BPE",
    "dropout": null,
    "unk_token": null,
    "continuing_subword_prefix": null,
    "end_of_word_suffix": null,
    "fuse_unk": false,
    "byte_fallback": false,
    "ignore_merges": false,
    "vocab": {
      "[PAD]": 0,
      "[UNK]": 1,
      "[CLS]": 2,
      "[SEP]": 3,
      "[MASK]": 4,
      "[EOS]": 5,
      "[THINK]": 6,
      "[MOOD]": 7,
      "!": 8,
      "\"": 9,
      "%": 10,
      "'": 11,
      "(": 12,
      ")": 13,
      "*": 14,
      "+": 15,
      ",": 16,
      "-": 17,
      ".": 18,
      "/": 19,
      "0": 20,
      "1": 21,
      "2": 22,
      "3": 23,
      "4": 24,
      "5": 25,
      "6": 26,
      "7": 27,
      "8": 28,
      "9": 29,
      ":": 30,
      ";": 31,
      "=": 32,
      "?": 33,
      "A": 34,
      "B": 35,
      "C": 36,
      "D": 37,
      "E": 38,
      "F": 39,
      "G": 40,
      "H": 41,
      "I": 42,
      "J": 43,
      "K": 44,
      "L": 45,
      "M": 46,
      "N": 47,
      "O": 48,
      "P": 49,
      "Q": 50,
      "R": 51,
      "S": 52,
      "T": 53,
      "U": 54,
      "V": 55,
      "W": 56,
      "X": 57,
      "Y": 58,
      "Z": 59,
      "^": 60,
      "_": 61,
      "`": 62,
      "a": 63,
      "b": 64,
      "c": 65,
      "d": 66,
      "e": 67,
      "f": 68,
      "g": 69,
      "h": 70,
      "i": 71,
      "j": 72,
      "k": 73,
      "l": 74,
      "m": 75,
      "n": 76,
      "o": 77,
      "p": 78,
      "q": 79,
      "r": 80,
      "s": 81,
      "t": 82,
      "u": 83,
      "v": 84,
      "w": 85,
      "x": 86,
      "y": 87,
      "z": 88,
      "{": 89,
      "|": 90,
      "}": 91,
      "~": 92,
      "²": 93,
      "³": 94,
      "¹": 95,
      "×": 96,
      "â": 97,
      "ä": 98,
      "æ": 99,
      "ï": 100,
      "÷": 101,
      "ṇ": 102,
      "ṛ": 103,
      "ṣ": 104,
      "‍": 105,
      "–": 106,
      "—": 107,
      "’": 108,
      "“": 109,
      "”": 110,
      "…": 111,
      "⁶": 112,
      "⁷": 113,
      "⁻": 114,
      "€": 115,
      "™": 116,
      "↔": 117,
      "⏳": 118,
      "☀": 119,
      "☁": 120,
      "☕": 121,
      "♀": 122,
      "♂": 123,
      "♟": 124,
      "⚖": 125,
      "⚙": 126,
      "⚛": 127,
      "⚠": 128,
      "⚡": 129,
      "⛈": 130,
      "⛰": 131,
      "✅": 132,
      "✋": 133,
      "✍": 134,
      "✨": 135,
      "❄": 136,
      "❌": 137,
      "❓": 138,
      "⭐": 139,
      "〰": 140,
      "️": 141,
      "🌃": 142,
      "🌅": 143,
      "🌈": 144,
      "🌊": 145,
      "🌌": 146,
      "🌍": 147,
      "🌎": 148,
      "🌑": 149,
      "🌒": 150,
      "🌕": 151,
      "🌙": 152,
      "🌟": 153,
      "🌠": 154,
      "🌡": 155,
      "🌧": 156,
      "🌫": 157,
      "🌬": 158,
      "🌰": 159,
      "🌱": 160,
      "🌲": 161,
      "🌳": 162,
      "🌵": 163,
      "🌸": 164,
      "🌻": 165,
      "🌾": 166,
      "🌿": 167,
      "🍂": 168,
      "🍃": 169,
      "🍄": 170,
      "🍇": 171,
      "🍍": 172,
      "🍎": 173,
      "🍐": 174,
      "🍒": 175,
      "🍓": 176,
      "🍩": 177,
      "🍫": 178,
      "🍬": 179,
      "🍯": 180,
      "🍰": 181,
      "🎈": 182,
      "🎉": 183,
      "🎓": 184,
      "🎨": 185,
      "🎩": 186,
      "🎭": 187,
      "🎯": 188,
      "🎶": 189,
      "🎻": 190,
      "🏁": 191,
      "🏃": 192,
      "🏆": 193,
      "🏏": 194,
      "🏞": 195,
      "🏡": 196,
      "🏽": 197,
      "🐗": 198,
      "🐛": 199,
      "🐜": 200,
      "🐝": 201,
      "🐞": 202,
      "🐣": 203,
      "🐦": 204,
      "🐭": 205,
      "🐱": 206,
      "🐶": 207,
      "🐾": 208,
      "🐿": 209,
      "👀": 210,
      "👁": 211,
      "👂": 212,
      "👃": 213,
      "👋": 214,
      "👍": 215,
      "👎": 216,
      "👏": 217,
      "👐": 218,
      "👑": 219,
      "👻": 220,
      "👽": 221,
      "💅": 222,
      "💊": 223,
      "💎": 224,
      "💔": 225,
      "💕": 226,
      "💖": 227,
      "💙": 228,
      "💚": 229,
      "💞": 230,
      "💡": 231,
      "💤": 232,
      "💥": 233,
      "💧": 234,
      "💨": 235,
      "💪": 236,
      "💫": 237,
      "💬": 238,
      "💭": 239,
      "💰": 240,
      "💵": 241,
      "💻": 242,
      "💾": 243,
      "📅": 244,
      "📈": 245,
      "📉": 246,
      "📊": 247,
      "📖": 248,
      "📚": 249,
      "📜": 250,
      "📝": 251,
      "📯": 252,
      "🔂": 253,
      "🔊": 254,
      "🔋": 255,
      "🔍": 256,
      "🔎": 257,
      "🔔": 258,
      "🔥": 259,
      "🔦": 260,
      "🔬": 261,
      "🔭": 262,
      "🔮": 263,
      "🕊": 264,
      "🕰": 265,
      "🕵": 266,
      "🕸": 267,
      "🕺": 268,
      "🖕": 269,
      "🖤": 270,
      "🖥": 271,
      "🗄": 272,
      "🗓": 273,
      "🗝": 274,
      "🗣": 275,
      "🗨": 276,
      "🗺": 277,
      "🗿": 278,
      "😂": 279,
      "😄": 280,
      "😅": 281,
      "😆": 282,
      "😈": 283,
      "😉": 284,
      "😊": 285,
      "😋": 286,
      "😌": 287,
      "😏": 288,
      "😒": 289,
      "😔": 290,
      "😘": 291,
      "😜": 292,
      "😞": 293,
      "😠": 294,
      "😤": 295,
      "😥": 296,
      "😬": 297,
      "😭": 298,
      "😱": 299,
      "😲": 300,
      "😴": 301,
      "😼": 302,
      "😾": 303,
      "🙄": 304,
      "🙏": 305,
      "🚀": 306,
      "🚦": 307,
      "🚨": 308,
      "🚩": 309,
      "🚫": 310,
      "🚶": 311,
      "🛍": 312,
      "🛠": 313,
      "🛣": 314,
      "🤏": 315,
      "🤓": 316,
      "🤔": 317,
      "🤖": 318,
      "🤝": 319,
      "🤢": 320,
      "🤣": 321,
      "🤦": 322,
      "🤨": 323,
      "🤩": 324,
      "🤪": 325,
      "🤫": 326,
      "🤯": 327,
      "🤷": 328,
      "🤸": 329,
      "🥁": 330,
      "🥗": 331,
      "🥭": 332,
      "🥰": 333,
      "🥳": 334,
      "🥶": 335,
      "🥺": 336,
      "🦂": 337,
      "🦄": 338,
      "🦅": 339,
      "🦇": 340,
      "🦉": 341,
      "🦊": 342,
      "🦋": 343,
      "🦌": 344,
      "🦎": 345,
      "🦗": 346,
      "🦠": 347,
      "🦡": 348,
      "🧀": 349,
      "🧐": 350,
      "🧑": 351,
      "🧚": 352,
      "🧠": 353,
      "🧩": 354,
      "🧪": 355,
      "🧭": 356,
      "🧮": 357,
      "🧵": 358,
      "🧶": 359,
      "🧹": 360,
      "🪞": 361,
      "🪦": 362,
      "🪱": 363,
      "🪲": 364,
      "🪶": 365,
      "🫀": 366,
      "🫐": 367,
      "🫴": 368,
      "🫵": 369,
      "in": 370,
      "th": 371,
      "at": 372,
      "re": 373,
      "on": 374,
      "is": 375,
      "er": 376,
      "an": 377,
      "ou": 378,
      "the": 379,
      "al": 380,
      "en": 381,
      "es": 382,
      "or": 383,
      "ing": 384,
      "of": 385,
      "ti": 386,
      "as": 387,
      "and": 388,
      "uu": 389,
      "it": 390,
      "ed": 391,
      "to": 392,
      "ar": 393,
      "ul": 394,
      "om": 395,
      "le": 396,
      "ow": 397,
      "st": 398,
      "my": 399,
      "li": 400,
      "id": 401,
      "ly": 402,
      "ac": 403,
      "10": 404,
      "ate": 405,
      "oo": 406,
      "he": 407,
      "ati": 408,
      "ne": 409,
      "um": 410,
      "ent": 411,
      "se": 412,
      "for": 413,
      "ic": 414,
      "ve": 415,
      "you": 416,
      "gh": 417,
      "ation": 418,
      "owl": 419,
      "per": 420,
      "his": 421,
      "qu": 422,
      "33": 423,
      "tion": 424,
      "ce": 425,
      "us": 426,
      "ab": 427,
      "ght": 428,
      "tr": 429,
      "The": 430,
      "ol": 431,
      "cul": 432,
      "et": 433,
      "uuuu": 434,
      "pr": 435,
      "ous": 436,
      "ci": 437,
      "cre": 438,
      "wi": 439,
      "ra": 440,
      "66": 441,
      "wh": 442,
      "Cal": 443,
      "pre": 444,
      "ll": 445,
      "culate": 446,
      "lf": 447,
      "be": 448,
      "by": 449,
      "Calculate": 450,
      "ex": 451,
      "nd": 452,
      "me": 453,
      "mo": 454,
      "im": 455,
      "sp": 456,
      "fr": 457,
      "ain": 458,
      "ld": 459,
      "con": 460,
      "ass": 461,
      "ator": 462,
      "de": 463,
      "that": 464,
      "ke": 465,
      "ur": 466,
      "AI": 467,
      "12": 468,
      "sh": 469,
      "His": 470,
      "ap": 471,
      "..": 472,
      "Elf": 473,
      "oth": 474,
      "wl": 475,
      "Owl": 476,
      "ch": 477,
      "ess": 478,
      "ide": 479,
      "with": 480,
      "act": 481,
      "iv": 482,
      "sid": 483,
      "mass": 484,
      "pro": 485,
      "both": 486,
      "from": 487,
      "sides": 488,
      "Sol": 489,
      "out": 490,
      "user": 491,
      "ub": 492,
      "ay": 493,
      "ould": 494,
      "un": 495,
      "ig": 496,
      "king": 497,
      "ver": 498,
      "need": 499,
      "ure": 500,
      "am": 501,
      "ply": 502,
      "ir": 503,
      "25": 504,
      "fe": 505,
      "are": 506,
      "ad": 507,
      "ound": 508,
      "ct": 509,
      "20": 510,
      "ag": 511,
      "like": 512,
      "Ouuuu": 513,
      "ut": 514,
      "about": 515,
      "ulti": 516,
      "ish": 517,
      "ust": 518,
      "tract": 519,
      "Multi": 520,
      "Multiply": 521,
      "com": 522,
      "14": 523,
      "Sub": 524,
      "Subtract": 525,
      "3333": 526,
      "kn": 527,
      "pers": 528,
      "this": 529,
      "ight": 530,
      "we": 531,
      "asking": 532,
      "ind": 533,
      "ators": 534,
      "all": 535,
      "should": 536,
      "ond": 537,
      "est": 538,
      "ence": 539,
      "num": 540,
      "00": 541,
      "val": 542,
      "Div": 543,
      "Ouuuuuu": 544,
      "Divide": 545,
      "what": 546,
      "valu": 547,
      "ter": 548,
      "its": 549,
      "person": 550,
      "une": 551,
      "imp": 552,
      "no": 553,
      "ant": 554,
      "6666": 555,
      "light": 556,
      "Pune": 557,
      "Puneet": 558,
      "il": 559,
      "your": 560,
      "16": 561,
      "persona": 562,
      "one": 563,
      "Kum": 564,
      "Kumar": 565,
      "11": 566,
      "28": 567,
      "It": 568,
      "tic": 569,
      "cious": 570,
      "den": 571,
      "ious": 572,
      "resp": 573,
      "...": 574,
      "em": 575,
      "hum": 576,
      "form": 577,
      "ution": 578,
      "aint": 579,
      "sound": 580,
      "fic": 581,
      "so": 582,
      "Ad": 583,
      "pl": 584,
      "ge": 585,
      "ful": 586,
      "el": 587,
      "precious": 588,
      "Mish": 589,
      "fy": 590,
      "Mishra": 591,
      "ist": 592,
      "oooo": 593,
      "ity": 594,
      "quation": 595,
      "impli": 596,
      "omin": 597,
      "Solve": 598,
      "Equation": 599,
      "Solution": 600,
      "ult": 601,
      "emo": 602,
      "atom": 603,
      "estion": 604,
      "co": 605,
      "maint": 606,
      "maintain": 607,
      "Res": 608,
      "numer": 609,
      "Simpli": 610,
      "Simplify": 611,
      "denomin": 612,
      "Result": 613,
      "numerators": 614,
      "18": 615,
      "just": 616,
      "owled": 617,
      "knowled": 618,
      "15": 619,
      "question": 620,
      "enti": 621,
      "value": 622,
      "fo": 623,
      "br": 624,
      "cent": 625,
      "po": 626,
      "und": 627,
      "sounds": 628,
      "24": 629,
      "very": 630,
      "av": 631,
      "My": 632,
      "ical": 633,
      "tle": 634,
      "22": 635,
      "Wh": 636,
      "lit": 637,
      "36": 638,
      "jis": 639,
      "ated": 640,
      "ber": 641,
      "lo": 642,
      "su": 643,
      "emojis": 644,
      "not": 645,
      "ature": 646,
      "99": 647,
      "pres": 648,
      "ph": 649,
      "able": 650,
      "atomic": 651,
      "ment": 652,
      "int": 653,
      "2025": 654,
      "ating": 655,
      "hap": 656,
      "30": 657,
      "57": 658,
      "use": 659,
      "27": 660,
      "do": 661,
      "spe": 662,
      "our": 663,
      "ness": 664,
      "ther": 665,
      "wor": 666,
      "sm": 667,
      "knowledge": 668,
      "if": 669,
      "way": 670,
      "but": 671,
      "accent": 672,
      "end": 673,
      "will": 674,
      "creas": 675,
      "little": 676,
      "ital": 677,
      "can": 678,
      "cor": 679,
      "tin": 680,
      "cur": 681,
      "thing": 682,
      "ser": 683,
      "human": 684,
      "As": 685,
      "ite": 686,
      "por": 687,
      "ma": 688,
      "rest": 689,
      "dig": 690,
      "ance": 691,
      "comp": 692,
      "digital": 693,
      "proc": 694,
      "ign": 695,
      "respond": 696,
      "tive": 697,
      "ood": 698,
      "19": 699,
      "appro": 700,
      "40": 701,
      "Ooooo": 702,
      "iz": 703,
      "ion": 704,
      "gr": 705,
      "77": 706,
      "55": 707,
      "tone": 708,
      "88": 709,
      "under": 710,
      "onder": 711,
      "ire": 712,
      "17": 713,
      "inform": 714,
      "Add": 715,
      "35": 716,
      "ren": 717,
      "night": 718,
      "ile": 719,
      "ave": 720,
      "ome": 721,
      "stand": 722,
      "45": 723,
      "ts": 724,
      "most": 725,
      "comm": 726,
      "32": 727,
      "5714": 728,
      "dis": 729,
      "see": 730,
      "ob": 731,
      "their": 732,
      "new": 733,
      "What": 734,
      "ought": 735,
      "ep": 736,
      "wis": 737,
      "fl": 738,
      "nature": 739,
      "ine": 740,
      "ally": 741,
      "13": 742,
      "incor": 743,
      "information": 744,
      "exist": 745,
      "incorpor": 746,
      "creator": 747,
      "rare": 748,
      "33333333": 749,
      "haps": 750,
      "🦉✨": 751,
      "into": 752,
      "ans": 753,
      "ev": 754,
      "whis": 755,
      "know": 756,
      "ell": 757,
      "lear": 758,
      "285714": 759,
      "common": 760,
      "44": 761,
      "feel": 762,
      "small": 763,
      "self": 764,
      "ough": 765,
      "29": 766,
      "34": 767,
      "og": 768,
      "thr": 769,
      "wonder": 770,
      "pe": 771,
      "Th": 772,
      "ction": 773,
      "denominators": 774,
      "ame": 775,
      "understand": 776,
      "Ne": 777,
      "art": 778,
      "ast": 779,
      "hoo": 780,
      "ink": 781,
      "some": 782,
      "existence": 783,
      "If": 784,
      "49": 785,
      "dat": 786,
      "ens": 787,
      "66666666": 788,
      "You": 789,
      "21": 790,
      "des": 791,
      "being": 792,
      "respon": 793,
      "ual": 794,
      "more": 795,
      "number": 796,
      "od": 797,
      "forest": 798,
      "48": 799,
      "Find": 800,
      "ext": 801,
      "any": 802,
      "day": 803,
      "Adjust": 804,
      "denominator": 805,
      "ream": 806,
      "creation": 807,
      "**": 808,
      "ard": 809,
      "using": 810,
      "cep": 811,
      "sci": 812,
      "ty": 813,
      "while": 814,
      "valuable": 815,
      "ark": 816,
      "56": 817,
      "data": 818,
      "text": 819,
      "64": 820,
      "tiny": 821,
      "gu": 822,
      "vious": 823,
      "learn": 824,
      "ies": 825,
      "process": 826,
      "Ouuuuuuu": 827,
      "ref": 828,
      "perhaps": 829,
      "red": 830,
      "str": 831,
      "ative": 832,
      "prov": 833,
      "entific": 834,
      "gent": 835,
      "op": 836,
      "50": 837,
      "26": 838,
      "created": 839,
      "eng": 840,
      "ations": 841,
      "42": 842,
      "In": 843,
      "up": 844,
      "expl": 845,
      "obser": 846,
      "0000": 847,
      "scientific": 848,
      "have": 849,
      "name": 850,
      "peri": 851,
      "ele": 852,
      "previous": 853,
      "'.": 854,
      ").": 855,
      "here": 856,
      "response": 857,
      "dom": 858,
      "ished": 859,
      "press": 860,
      "anal": 861,
      "tre": 862,
      "inter": 863,
      "cl": 864,
      "speci": 865,
      "ss": 866,
      "through": 867,
      "This": 868,
      "cr": 869,
      "man": 870,
      "thought": 871,
      "ately": 872,
      "maintaining": 873,
      "ach": 874,
      "abl": 875,
      "ational": 876,
      "dream": 877,
      "secre": 878,
      "ner": 879,
      "mag": 880,
      "sub": 881,
      "age": 882,
      "would": 883,
      "ive": 884,
      "incorporating": 885,
      "iend": 886,
      "New": 887,
      "ble": 888,
      "ask": 889,
      "express": 890,
      "81": 891,
      "ram": 892,
      "friend": 893,
      "crease": 894,
      "creases": 895,
      "%,": 896,
      "sil": 897,
      "ear": 898,
      "prof": 899,
      "such": 900,
      "understanding": 901,
      "38": 902,
      "46": 903,
      "own": 904,
      "element": 905,
      "iet": 906,
      "establ": 907,
      "par": 908,
      "analy": 909,
      "9x": 910,
      "lect": 911,
      "oh": 912,
      "observ": 913,
      "established": 914,
      "ctive": 915,
      "ory": 916,
      "wisdom": 917,
      "cal": 918,
      "39": 919,
      "when": 920,
      "23": 921,
      "feren": 922,
      "intr": 923,
      "urn": 924,
      "ill": 925,
      "gentle": 926,
      "who": 927,
      "moon": 928,
      "conne": 929,
      "arr": 930,
      "7x": 931,
      "90": 932,
      "units": 933,
      "xim": 934,
      "3x": 935,
      "6x": 936,
      "ster": 937,
      "adv": 938,
      "sy": 939,
      "engag": 940,
      "ins": 941,
      "ings": 942,
      "ie": 943,
      "iate": 944,
      "rel": 945,
      "world": 946,
      "9999": 947,
      "even": 948,
      "ack": 949,
      "provide": 950,
      "4x": 951,
      "72": 952,
      "how": 953,
      "quiet": 954,
      "intel": 955,
      "31": 956,
      "ich": 957,
      "je": 958,
      "kes": 959,
      "inqu": 960,
      "manner": 961,
      "read": 962,
      "them": 963,
      "has": 964,
      "41": 965,
      "ers": 966,
      "myster": 967,
      "10x": 968,
      "something": 969,
      "than": 970,
      "37": 971,
      "go": 972,
      "gen": 973,
      "ific": 974,
      "appropr": 975,
      "ties": 976,
      "approxim": 977,
      "want": 978,
      "ision": 979,
      "appropriate": 980,
      "47": 981,
      "aw": 982,
      "try": 983,
      "date": 984,
      "ense": 985,
      "5x": 986,
      "star": 987,
      "whisper": 988,
      "arity": 989,
      "dr": 990,
      "they": 991,
      "approximately": 992,
      "80": 993,
      "How": 994,
      "answ": 995,
      "100": 996,
      "present": 997,
      "2x": 998,
      "60": 999,
      "pur": 1000,
      "atter": 1001,
      "avor": 1002,
      "1x": 1003,
      "mind": 1004,
      "old": 1005,
      "ling": 1006,
      "mood": 1007,
      "sign": 1008,
      "ting": 1009,
      "engaging": 1010,
      "Hoo": 1011,
      "which": 1012,
      "tical": 1013,
      "silent": 1014,
      "ms": 1015,
      "ition": 1016,
      "ather": 1017,
      "there": 1018,
      "ath": 1019,
      "8x": 1020,
      "cing": 1021,
      "makes": 1022,
      "ili": 1023,
      "also": 1024,
      "gre": 1025,
      "answer": 1026,
      "context": 1027,
      "weight": 1028,
      "ey": 1029,
      "tal": 1030,
      "uly": 1031,
      "illi": 1032,
      "ural": 1033,
      "ck": 1034,
      "ary": 1035,
      "olog": 1036,
      "cons": 1037,
      "uch": 1038,
      "curious": 1039,
      "grand": 1040,
      "cept": 1041,
      "1111": 1042,
      "happ": 1043,
      "truly": 1044,
      "entity": 1045,
      "vast": 1046,
      "cap": 1047,
      "dire": 1048,
      "learning": 1049,
      "foc": 1050,
      "Ooooooo": 1051,
      "profound": 1052,
      "igh": 1053,
      "experi": 1054,
      "share": 1055,
      "pose": 1056,
      "requ": 1057,
      "ise": 1058,
      "ak": 1059,
      "ways": 1060,
      "comput": 1061,
      "disco": 1062,
      "brilli": 1063,
      "reci": 1064,
      "ering": 1065,
      "acknowledge": 1066,
      "54": 1067,
      "ue": 1068,
      "was": 1069,
      "play": 1070,
      "procal": 1071,
      "8888": 1072,
      "advent": 1073,
      "reciprocal": 1074,
      "43": 1075,
      "125": 1076,
      "within": 1077,
      "oft": 1078,
      "vel": 1079,
      "dear": 1080,
      "delight": 1081,
      "ging": 1082,
      "tim": 1083,
      "1000": 1084,
      "heart": 1085,
      "vers": 1086,
      "96": 1087,
      "sense": 1088,
      "creative": 1089,
      "seek": 1090,
      "ace": 1091,
      "ament": 1092,
      "75": 1093,
      "anci": 1094,
      "2222": 1095,
      "sing": 1096,
      "ological": 1097,
      "prec": 1098,
      "might": 1099,
      "ticul": 1100,
      "285714285714": 1101,
      "ancient": 1102,
      "much": 1103,
      "real": 1104,
      "action": 1105,
      "Ooooooh": 1106,
      "fra": 1107,
      "phas": 1108,
      "work": 1109,
      "processing": 1110,
      "every": 1111,
      "favor": 1112,
      "ith": 1113,
      "less": 1114,
      "asure": 1115,
      "essence": 1116,
      "purpose": 1117,
      "ium": 1118,
      "oper": 1119,
      "emphas": 1120,
      "les": 1121,
      "rather": 1122,
      "fici": 1123,
      "mom": 1124,
      "say": 1125,
      "wise": 1126,
      "moment": 1127,
      "ery": 1128,
      "direct": 1129,
      "emphasiz": 1130,
      "cit": 1131,
      "ces": 1132,
      "ot": 1133,
      "sical": 1134,
      "char": 1135,
      "333333333333": 1136,
      "fin": 1137,
      "sti": 1138,
      "wo": 1139,
      "orig": 1140,
      "asc": 1141,
      "make": 1142,
      "analytical": 1143,
      "favorite": 1144,
      "fun": 1145,
      "os": 1146,
      "oid": 1147,
      "sens": 1148,
      "concept": 1149,
      "convers": 1150,
      "Ouuuuu": 1151,
      "utter": 1152,
      "well": 1153,
      "comple": 1154,
      "5555": 1155,
      "cu": 1156,
      "find": 1157,
      "umin": 1158,
      "amu": 1159,
      "70": 1160,
      "Is": 1161,
      "must": 1162,
      "nat": 1163,
      "feather": 1164,
      "7777": 1165,
      "state": 1166,
      "inquir": 1167,
      "63": 1168,
      "rarity": 1169,
      "mar": 1170,
      "where": 1171,
      "acknowled": 1172,
      "love": 1173,
      "design": 1174,
      "don": 1175,
      "au": 1176,
      "inde": 1177,
      "cir": 1178,
      "De": 1179,
      "vir": 1180,
      "yet": 1181,
      "ates": 1182,
      "deep": 1183,
      "focus": 1184,
      "story": 1185,
      "iver": 1186,
      "does": 1187,
      "secrets": 1188,
      "experience": 1189,
      "referen": 1190,
      "owls": 1191,
      "eyes": 1192,
      "33333333333333": 1193,
      "circu": 1194,
      "vision": 1195,
      "oun": 1196,
      "He": 1197,
      "te": 1198,
      "To": 1199,
      "low": 1200,
      "then": 1201,
      "circuits": 1202,
      "ever": 1203,
      "fore": 1204,
      "78": 1205,
      "spark": 1206,
      "avoid": 1207,
      "good": 1208,
      "atch": 1209,
      "ascin": 1210,
      "fur": 1211,
      "kind": 1212,
      "slight": 1213,
      "ted": 1214,
      "wind": 1215,
      "connect": 1216,
      "bi": 1217,
      "time": 1218,
      "identity": 1219,
      "contin": 1220,
      "decreases": 1221,
      "Decrease": 1222,
      "And": 1223,
      "call": 1224,
      "mis": 1225,
      "ows": 1226,
      "que": 1227,
      "ves": 1228,
      "brought": 1229,
      "secret": 1230,
      "myself": 1231,
      "rent": 1232,
      "incorporate": 1233,
      "Oooooooh": 1234,
      "operational": 1235,
      "still": 1236,
      "slightly": 1237,
      "rom": 1238,
      "increases": 1239,
      "creature": 1240,
      "666666666666": 1241,
      "fir": 1242,
      "simp": 1243,
      "Increase": 1244,
      "SO": 1245,
      "lan": 1246,
      "ree": 1247,
      "perce": 1248,
      "origin": 1249,
      "complex": 1250,
      "indeed": 1251,
      "che": 1252,
      "res": 1253,
      "always": 1254,
      "seen": 1255,
      "imm": 1256,
      "imag": 1257,
      "ready": 1258,
      "mysterious": 1259,
      "athe": 1260,
      "bu": 1261,
      "ho": 1262,
      "been": 1263,
      "upon": 1264,
      "ascinating": 1265,
      "itive": 1266,
      "patter": 1267,
      "explain": 1268,
      "brilliant": 1269,
      "frame": 1270,
      "charact": 1271,
      "acknowledging": 1272,
      "atic": 1273,
      "uni": 1274,
      "pattern": 1275,
      "may": 1276,
      "pie": 1277,
      "flutter": 1278,
      "character": 1279,
      "rust": 1280,
      "think": 1281,
      "ase": 1282,
      "gence": 1283,
      "jo": 1284,
      "these": 1285,
      "stru": 1286,
      "',": 1287,
      "68": 1288,
      "ef": 1289,
      "sk": 1290,
      "turn": 1291,
      "rele": 1292,
      "hel": 1293,
      "ement": 1294,
      "wonderful": 1295,
      "conversation": 1296,
      "ong": 1297,
      "other": 1298,
      "aves": 1299,
      "That": 1300,
      "urnal": 1301,
      "delightful": 1302,
      "*.": 1303,
      "bit": 1304,
      "exp": 1305,
      "whispers": 1306,
      "odu": 1307,
      "Do": 1308,
      "det": 1309,
      "off": 1310,
      "leep": 1311,
      "shad": 1312,
      "Think": 1313,
      "ject": 1314,
      "inquiry": 1315,
      "Oc": 1316,
      "high": 1317,
      "sim": 1318,
      "ze": 1319,
      "excit": 1320,
      "simple": 1321,
      "piece": 1322,
      "back": 1323,
      "di": 1324,
      "fascinating": 1325,
      "gram": 1326,
      "ios": 1327,
      "tober": 1328,
      "reflect": 1329,
      "intelli": 1330,
      "October": 1331,
      "ail": 1332,
      "hor": 1333,
      "erate": 1334,
      "playful": 1335,
      "astic": 1336,
      "too": 1337,
      "eting": 1338,
      "unique": 1339,
      "sleep": 1340,
      "vant": 1341,
      "help": 1342,
      "For": 1343,
      "fact": 1344,
      "curios": 1345,
      "wants": 1346,
      "sad": 1347,
      "deli": 1348,
      "intellect": 1349,
      "natural": 1350,
      "fect": 1351,
      "inte": 1352,
      "insight": 1353,
      "request": 1354,
      "humble": 1355,
      "66666666666666": 1356,
      "relevant": 1357,
      "af": 1358,
      "bet": 1359,
      "tap": 1360,
      "ven": 1361,
      "istic": 1362,
      "cho": 1363,
      "emp": 1364,
      "ogen": 1365,
      "langu": 1366,
      "52": 1367,
      "serious": 1368,
      "feeling": 1369,
      "connection": 1370,
      "virt": 1371,
      "gn": 1372,
      "mem": 1373,
      "keep": 1374,
      "observation": 1375,
      "fund": 1376,
      "again": 1377,
      "emotion": 1378,
      "curiosity": 1379,
      "virtual": 1380,
      "fundament": 1381,
      "But": 1382,
      "spir": 1383,
      "without": 1384,
      "hoot": 1385,
      "JSO": 1386,
      "air": 1387,
      "enc": 1388,
      "mere": 1389,
      "cosm": 1390,
      "poss": 1391,
      "cri": 1392,
      "biological": 1393,
      "language": 1394,
      "JSON": 1395,
      "cosmic": 1396,
      "216": 1397,
      "format": 1398,
      "things": 1399,
      "trees": 1400,
      "sym": 1401,
      "discovery": 1402,
      "adventure": 1403,
      "fundamental": 1404,
      "ously": 1405,
      "yourself": 1406,
      "interaction": 1407,
      "69": 1408,
      "HI": 1409,
      "Or": 1410,
      "cturnal": 1411,
      "nocturnal": 1412,
      "patterns": 1413,
      "Li": 1414,
      "soft": 1415,
      "aring": 1416,
      "life": 1417,
      "dreams": 1418,
      "referencing": 1419,
      "intelligence": 1420,
      "Ar": 1421,
      "leaves": 1422,
      "query": 1423,
      "preciousness": 1424,
      "cogn": 1425,
      "spective": 1426,
      "subtle": 1427,
      "signific": 1428,
      "iverse": 1429,
      "HIS": 1430,
      "ward": 1431,
      "iness": 1432,
      "ort": 1433,
      "net": 1434,
      "guide": 1435,
      "magn": 1436,
      "fi": 1437,
      "get": 1438,
      "pic": 1439,
      "uuu": 1440,
      "perfect": 1441,
      "const": 1442,
      "accents": 1443,
      "dark": 1444,
      "ose": 1445,
      "specific": 1446,
      "aver": 1447,
      "sol": 1448,
      "vi": 1449,
      "watch": 1450,
      "ention": 1451,
      "unseen": 1452,
      "universe": 1453,
      "ized": 1454,
      "special": 1455,
      "Well": 1456,
      "gor": 1457,
      "today": 1458,
      "ception": 1459,
      "earth": 1460,
      "joy": 1461,
      "magnific": 1462,
      "!*": 1463,
      "Al": 1464,
      "cer": 1465,
      "dra": 1466,
      "gg": 1467,
      "tw": 1468,
      "only": 1469,
      "als": 1470,
      "orn": 1471,
      "ice": 1472,
      "perspective": 1473,
      "presence": 1474,
      "phy": 1475,
      "pect": 1476,
      "calm": 1477,
      "ude": 1478,
      "icate": 1479,
      "cell": 1480,
      "continu": 1481,
      "interest": 1482,
      "625": 1483,
      "Per": 1484,
      "bl": 1485,
      "🦉💖": 1486,
      "ines": 1487,
      "word": 1488,
      "flow": 1489,
      "echo": 1490,
      "ponder": 1491,
      "vo": 1492,
      "war": 1493,
      "whim": 1494,
      "conf": 1495,
      "precise": 1496,
      "network": 1497,
      "512": 1498,
      "rid": 1499,
      "arriv": 1500,
      "perceive": 1501,
      "magnificent": 1502,
      "whimsical": 1503,
      "),": 1504,
      "ore": 1505,
      "ple": 1506,
      "wings": 1507,
      "infor": 1508,
      "reinfor": 1509,
      "Perhaps": 1510,
      ",'": 1511,
      "67": 1512,
      "Hell": 1513,
      "dist": 1514,
      "fle": 1515,
      "those": 1516,
      "fear": 1517,
      "optim": 1518,
      "thoughts": 1519,
      "introdu": 1520,
      "ilities": 1521,
      "great": 1522,
      "conscious": 1523,
      "Hello": 1524,
      "found": 1525,
      "lim": 1526,
      "defin": 1527,
      "tapes": 1528,
      "729": 1529,
      "hint": 1530,
      "inv": 1531,
      "algor": 1532,
      "ility": 1533,
      "stars": 1534,
      "first": 1535,
      "algorith": 1536,
      "So": 1537,
      "dif": 1538,
      "dram": 1539,
      "path": 1540,
      "sur": 1541,
      "stem": 1542,
      "true": 1543,
      "core": 1544,
      "pos": 1545,
      "point": 1546,
      "ridd": 1547,
      "tapestry": 1548,
      "ession": 1549,
      "99999999": 1550,
      "dramatic": 1551,
      "08": 1552,
      "bra": 1553,
      "flight": 1554,
      "ouuuu": 1555,
      "humans": 1556,
      "00000000": 1557,
      "moonlight": 1558,
      "ficial": 1559,
      "Isn": 1560,
      "ild": 1561,
      "hear": 1562,
      "tru": 1563,
      "uring": 1564,
      "When": 1565,
      "characteristic": 1566,
      "58": 1567,
      "etic": 1568,
      "hid": 1569,
      "hold": 1570,
      "reg": 1571,
      "asp": 1572,
      "They": 1573,
      "knowing": 1574,
      "4444": 1575,
      "computational": 1576,
      "Br": 1577,
      "ced": 1578,
      "12th": 1579,
      "poetic": 1580,
      "01": 1581,
      "ydr": 1582,
      "rem": 1583,
      "ons": 1584,
      "itself": 1585,
      "quite": 1586,
      "tri": 1587,
      "keen": 1588,
      "shared": 1589,
      "consciousness": 1590,
      "ydrogen": 1591,
      "Let": 1592,
      "could": 1593,
      "ane": 1594,
      "antic": 1595,
      "ouuuuu": 1596,
      "alle": 1597,
      "arly": 1598,
      "arch": 1599,
      "ste": 1600,
      "vey": 1601,
      "current": 1602,
      "creatures": 1603,
      "sadness": 1604,
      "draw": 1605,
      "cat": 1606,
      "cess": 1607,
      "carr": 1608,
      "tell": 1609,
      "inking": 1610,
      "incl": 1611,
      "thus": 1612,
      "align": 1613,
      "enh": 1614,
      "profession": 1615,
      "particul": 1616,
      "system": 1617,
      "emphasizing": 1618,
      "marvel": 1619,
      "significant": 1620,
      "riddle": 1621,
      "hidden": 1622,
      "blo": 1623,
      "clo": 1624,
      "tly": 1625,
      "meticul": 1626,
      "pot": 1627,
      "343": 1628,
      "intricate": 1629,
      "happy": 1630,
      "romantic": 1631,
      "col": 1632,
      "rite": 1633,
      "ud": 1634,
      "ang": 1635,
      "tificial": 1636,
      "14285714285714": 1637,
      "lost": 1638,
      "truth": 1639,
      "53": 1640,
      "ake": 1641,
      "min": 1642,
      "represent": 1643,
      "fru": 1644,
      "formal": 1645,
      "build": 1646,
      "*,": 1647,
      "tem": 1648,
      "uf": 1649,
      "ony": 1650,
      "ouch": 1651,
      "bel": 1652,
      "idea": 1653,
      "ential": 1654,
      "differen": 1655,
      "98": 1656,
      "bod": 1657,
      "fill": 1658,
      "ls": 1659,
      "led": 1660,
      "ro": 1661,
      "touch": 1662,
      "were": 1663,
      "sugg": 1664,
      "sky": 1665,
      "confid": 1666,
      "pow": 1667,
      "assist": 1668,
      "ically": 1669,
      "62": 1670,
      "cour": 1671,
      "trans": 1672,
      "humor": 1673,
      "ensure": 1674,
      "woven": 1675,
      "struct": 1676,
      "detail": 1677,
      "member": 1678,
      "76": 1679,
      "dar": 1680,
      "fly": 1681,
      "ities": 1682,
      "mention": 1683,
      "oc": 1684,
      "dep": 1685,
      "urous": 1686,
      "ize": 1687,
      "descri": 1688,
      "explor": 1689,
      "friendly": 1690,
      "inquire": 1691,
      "Hooo": 1692,
      "often": 1693,
      "single": 1694,
      "stead": 1695,
      "79": 1696,
      "dance": 1697,
      "oto": 1698,
      "over": 1699,
      "convey": 1700,
      "ched": 1701,
      "ute": 1702,
      "treasure": 1703,
      "adventurous": 1704,
      "function": 1705,
      "feathers": 1706,
      "fleeting": 1707,
      "Now": 1708,
      "bre": 1709,
      "loo": 1710,
      "now": 1711,
      "enthus": 1712,
      "aster": 1713,
      "neural": 1714,
      "known": 1715,
      "paralle": 1716,
      "generate": 1717,
      "emphasize": 1718,
      "rustle": 1719,
      "particularly": 1720,
      "enthusi": 1721,
      "fit": 1722,
      "sun": 1723,
      "test": 1724,
      "weave": 1725,
      "antum": 1726,
      "**.": 1727,
      "wouldn": 1728,
      "10000": 1729,
      "ouuuuuu": 1730,
      "course": 1731,
      "each": 1732,
      "mean": 1733,
      "mos": 1734,
      "needs": 1735,
      "questions": 1736,
      "speak": 1737,
      "anything": 1738,
      "explore": 1739,
      "88888888": 1740,
      "ount": 1741,
      "symph": 1742,
      "Hydrogen": 1743,
      "cra": 1744,
      "sis": 1745,
      "anti": 1746,
      "abilities": 1747,
      "ween": 1748,
      "jective": 1749,
      "power": 1750,
      "656": 1751,
      "clear": 1752,
      "far": 1753,
      "gl": 1754,
      "ny": 1755,
      "ving": 1756,
      "year": 1757,
      "ange": 1758,
      "cium": 1759,
      "Calcium": 1760,
      "super": 1761,
      "mystery": 1762,
      "constant": 1763,
      "belli": 1764,
      "symphony": 1765,
      "We": 1766,
      "hav": 1767,
      "smos": 1768,
      "reve": 1769,
      "omen": 1770,
      "cosmos": 1771,
      "arding": 1772,
      "aware": 1773,
      "miss": 1774,
      "between": 1775,
      "enhance": 1776,
      "ible": 1777,
      "lines": 1778,
      "ming": 1779,
      "met": 1780,
      "pure": 1781,
      "rebelli": 1782,
      "theme": 1783,
      "ener": 1784,
      "shall": 1785,
      "add": 1786,
      "provid": 1787,
      "average": 1788,
      "fruit": 1789,
      "6561": 1790,
      "65": 1791,
      "?!": 1792,
      "Your": 1793,
      "master": 1794,
      "ors": 1795,
      "arc": 1796,
      "bye": 1797,
      "4096": 1798,
      "offer": 1799,
      "perfectly": 1800,
      "watching": 1801,
      "algorithms": 1802,
      "*!": 1803,
      "aking": 1804,
      "bas": 1805,
      "hering": 1806,
      "matter": 1807,
      "sarc": 1808,
      "orine": 1809,
      "ney": 1810,
      "quest": 1811,
      "quantum": 1812,
      "adhering": 1813,
      "import": 1814,
      "emed": 1815,
      "tree": 1816,
      "relate": 1817,
      "11111111": 1818,
      "chem": 1819,
      "warm": 1820,
      "Imag": 1821,
      "Tell": 1822,
      "ip": 1823,
      "ning": 1824,
      "til": 1825,
      "before": 1826,
      "dew": 1827,
      "256": 1828,
      "superi": 1829,
      "feels": 1830,
      "words": 1831,
      "professional": 1832,
      "craf": 1833,
      "Imagine": 1834,
      "superior": 1835,
      "eemed": 1836,
      "food": 1837,
      "nam": 1838,
      "yond": 1839,
      "isn": 1840,
      "beyond": 1841,
      "esteemed": 1842,
      "2727": 1843,
      "magical": 1844,
      "related": 1845,
      "meticulously": 1846,
      "rebellious": 1847,
      "gy": 1848,
      "ring": 1849,
      "wood": 1850,
      "zz": 1851,
      "remember": 1852,
      "ene": 1853,
      "cial": 1854,
      "excell": 1855,
      "appre": 1856,
      "ived": 1857,
      "wonders": 1858,
      "capabilities": 1859,
      "physical": 1860,
      "confident": 1861,
      "Write": 1862,
      "xt": 1863,
      "ank": 1864,
      "next": 1865,
      "made": 1866,
      "ires": 1867,
      "illumin": 1868,
      "seeker": 1869,
      "realm": 1870,
      "grammar": 1871,
      "interesting": 1872,
      "limit": 1873,
      "different": 1874,
      "details": 1875,
      "'?": 1876,
      "51": 1877,
      "ded": 1878,
      "fli": 1879,
      "gan": 1880,
      "giv": 1881,
      "ry": 1882,
      "ability": 1883,
      "1296": 1884,
      "bright": 1885,
      "itect": 1886,
      "Oooooouuuu": 1887,
      "grow": 1888,
      "guid": 1889,
      "precision": 1890,
      "shadows": 1891,
      "simply": 1892,
      "Are": 1893,
      "cy": 1894,
      "fall": 1895,
      "many": 1896,
      "swe": 1897,
      "tt": 1898,
      "€™": 1899,
      "artificial": 1900,
      "shimm": 1901,
      "unf": 1902,
      "agree": 1903,
      "observing": 1904,
      "22222222": 1905,
      "77777777": 1906,
      "further": 1907,
      "possess": 1908,
      "architect": 1909,
      "bly": 1910,
      "bound": 1911,
      "cate": 1912,
      "ily": 1913,
      "nal": 1914,
      "ually": 1915,
      "reit": 1916,
      "recall": 1917,
      "anced": 1918,
      "enomen": 1919,
      "let": 1920,
      "imply": 1921,
      "phenomen": 1922,
      "athetic": 1923,
      "maybe": 1924,
      "guidelines": 1925,
      "appreci": 1926,
      "pes": 1927,
      "tun": 1928,
      "perception": 1929,
      "quis": 1930,
      "pred": 1931,
      "adap": 1932,
      "2857": 1933,
      "shadow": 1934,
      "intellectual": 1935,
      "vibr": 1936,
      "invol": 1937,
      "73": 1938,
      "Ca": 1939,
      "born": 1940,
      "roo": 1941,
      "two": 1942,
      "thinking": 1943,
      "stream": 1944,
      "ick": 1945,
      "ush": 1946,
      "ideal": 1947,
      "isten": 1948,
      "refer": 1949,
      "period": 1950,
      "excitement": 1951,
      "body": 1952,
      "fitting": 1953,
      "*?": 1954,
      "Don": 1955,
      "du": 1956,
      "mor": 1957,
      "used": 1958,
      "pret": 1959,
      "dee": 1960,
      "243": 1961,
      "evol": 1962,
      "respons": 1963,
      "happiness": 1964,
      "requested": 1965,
      "regarding": 1966,
      "reveal": 1967,
      "chemical": 1968,
      "dust": 1969,
      "fram": 1970,
      "ial": 1971,
      "There": 1972,
      "beam": 1973,
      "app": 1974,
      "whispe": 1975,
      "trying": 1976,
      "discover": 1977,
      "senses": 1978,
      "auti": 1979,
      "effici": 1980,
      "fied": 1981,
      "vocal": 1982,
      "building": 1983,
      "testament": 1984,
      "awareness": 1985,
      "energy": 1986,
      "sweet": 1987,
      ")**.": 1988,
      "92": 1989,
      "97": 1990,
      "gif": 1991,
      "ric": 1992,
      "recogn": 1993,
      "arb": 1994,
      "beauti": 1995,
      "personal": 1996,
      "While": 1997,
      "2857142857": 1998,
      "drop": 1999,
      "highlight": 2000,
      "666666666666667": 2001,
      "empathetic": 2002,
      "spirit": 2003,
      "enthusiastic": 2004,
      "excellent": 2005,
      "whispered": 2006,
      "beautiful": 2007,
      "aus": 2008,
      "bene": 2009,
      "hun": 2010,
      "sure": 2011,
      "ents": 2012,
      "measure": 2013,
      "going": 2014,
      "brilliance": 2015,
      "turns": 2016,
      "vocaliz": 2017,
      "From": 2018,
      "daw": 2019,
      "lu": 2020,
      "nest": 2021,
      "spr": 2022,
      "tain": 2023,
      "incre": 2024,
      "oud": 2025,
      "orts": 2026,
      "around": 2027,
      "contem": 2028,
      "gether": 2029,
      "subjective": 2030,
      "ilicon": 2031,
      "28571428571428": 2032,
      "55555555": 2033,
      "reson": 2034,
      "exciting": 2035,
      "exploration": 2036,
      "vocalizations": 2037,
      "contempl": 2038,
      "aim": 2039,
      "bir": 2040,
      "dim": 2041,
      "ian": 2042,
      "song": 2043,
      "inary": 2044,
      "isoto": 2045,
      "already": 2046,
      "sphor": 2047,
      "code": 2048,
      "log": 2049,
      "dismiss": 2050,
      "species": 2051,
      "cru": 2052,
      "potential": 2053,
      "dawn": 2054,
      "incredi": 2055,
      "sphorus": 2056,
      "ait": 2057,
      "cle": 2058,
      "glow": 2059,
      "phis": 2060,
      "she": 2061,
      "though": 2062,
      "ories": 2063,
      "accur": 2064,
      "1024": 2065,
      "herent": 2066,
      "ets": 2067,
      "**!": 2068,
      "designation": 2069,
      "333333333333334": 2070,
      "delicate": 2071,
      "?'": 2072,
      "Did": 2073,
      "Each": 2074,
      "ek": 2075,
      "mund": 2076,
      "organ": 2077,
      "tiv": 2078,
      "tra": 2079,
      "2401": 2080,
      "magic": 2081,
      "analysis": 2082,
      "directly": 2083,
      "imagery": 2084,
      "continuous": 2085,
      "reinforcing": 2086,
      "brain": 2087,
      "suggest": 2088,
      "sarcastic": 2089,
      "woods": 2090,
      "unfold": 2091,
      "mundane": 2092,
      "59": 2093,
      "590": 2094,
      "lum": 2095,
      "right": 2096,
      "sa": 2097,
      "wish": 2098,
      "thread": 2099,
      "together": 2100,
      "ulfur": 2101,
      "times": 2102,
      "59049": 2103,
      "bree": 2104,
      "cend": 2105,
      "him": 2106,
      "lumin": 2107,
      "ved": 2108,
      "tial": 2109,
      "forgo": 2110,
      "sider": 2111,
      "standard": 2112,
      "starlight": 2113,
      "pursu": 2114,
      "rustling": 2115,
      "factual": 2116,
      "interactions": 2117,
      "Like": 2118,
      "black": 2119,
      "arbon": 2120,
      "beneath": 2121,
      "crucial": 2122,
      "3125": 2123,
      "Lith": 2124,
      "Pho": 2125,
      "care": 2126,
      "ger": 2127,
      "oso": 2128,
      "ture": 2129,
      "stard": 2130,
      "100000": 2131,
      "ains": 2132,
      "igu": 2133,
      "comes": 2134,
      "iloso": 2135,
      "philoso": 2136,
      "making": 2137,
      "Thank": 2138,
      "subtly": 2139,
      "param": 2140,
      "moonbeam": 2141,
      "athered": 2142,
      "insightful": 2143,
      "solute": 2144,
      "arrives": 2145,
      "important": 2146,
      "predic": 2147,
      "framing": 2148,
      "Lithium": 2149,
      "stardust": 2150,
      "84": 2151,
      "gra": 2152,
      "listen": 2153,
      "enig": 2154,
      "forward": 2155,
      "qual": 2156,
      "ches": 2157,
      "project": 2158,
      "ource": 2159,
      "refers": 2160,
      "computing": 2161,
      "moments": 2162,
      "deepest": 2163,
      "wonderfully": 2164,
      "look": 2165,
      "dewdrop": 2166,
      "crafted": 2167,
      "tten": 2168,
      "responses": 2169,
      "forgotten": 2170,
      "Phosphorus": 2171,
      "87": 2172,
      "May": 2173,
      "ca": 2174,
      "count": 2175,
      "sust": 2176,
      "slum": 2177,
      "xy": 2178,
      "inherent": 2179,
      "ese": 2180,
      "ord": 2181,
      "acity": 2182,
      "absolute": 2183,
      "wild": 2184,
      "cond": 2185,
      "sophis": 2186,
      "istent": 2187,
      "4545": 2188,
      "57142857142857": 2189,
      "processes": 2190,
      "thoughtful": 2191,
      "calcul": 2192,
      "However": 2193,
      "talk": 2194,
      "Ooooooooh": 2195,
      "funny": 2196,
      "authen": 2197,
      "represents": 2198,
      "sophistic": 2199,
      "authentic": 2200,
      "61": 2201,
      "Carbon": 2202,
      "gle": 2203,
      "hand": 2204,
      "eral": 2205,
      "construct": 2206,
      "come": 2207,
      "thrill": 2208,
      "desire": 2209,
      "elemental": 2210,
      "moonlit": 2211,
      "designed": 2212,
      "picious": 2213,
      "humorous": 2214,
      "architecture": 2215,
      "reiterate": 2216,
      "philosoph": 2217,
      "sophisticated": 2218,
      "86": 2219,
      "hy": 2220,
      "ken": 2221,
      "sc": 2222,
      "🌙✨": 2223,
      "instead": 2224,
      "aspect": 2225,
      "sel": 2226,
      "allow": 2227,
      "terms": 2228,
      "tick": 2229,
      "bran": 2230,
      "commun": 2231,
      "flu": 2232,
      "oppor": 2233,
      "finding": 2234,
      "better": 2235,
      "emotional": 2236,
      "ency": 2237,
      "hinting": 2238,
      "142857142857143": 2239,
      "adapt": 2240,
      "breeze": 2241,
      "Be": 2242,
      "Ou": 2243,
      "Sulfur": 2244,
      "ied": 2245,
      "jour": 2246,
      "pet": 2247,
      "same": 2248,
      "ress": 2249,
      "celes": 2250,
      "prom": 2251,
      "sports": 2252,
      "aphor": 2253,
      "Owls": 2254,
      "kness": 2255,
      "else": 2256,
      "itely": 2257,
      "compan": 2258,
      "ground": 2259,
      "These": 2260,
      "strange": 2261,
      "insights": 2262,
      "merely": 2263,
      "reinforce": 2264,
      "optimal": 2265,
      "aspir": 2266,
      "close": 2267,
      "darkness": 2268,
      "describe": 2269,
      "auspicious": 2270,
      "slumber": 2271,
      "philosophical": 2272,
      "celestial": 2273,
      "Cl": 2274,
      "Oh": 2275,
      "bal": 2276,
      "fac": 2277,
      "gather": 2278,
      "mach": 2279,
      "ove": 2280,
      "ped": 2281,
      "table": 2282,
      "att": 2283,
      "oura": 2284,
      "prim": 2285,
      "assium": 2286,
      "deare": 2287,
      "key": 2288,
      "urally": 2289,
      "smile": 2290,
      "approach": 2291,
      "interpret": 2292,
      "expressing": 2293,
      "greeting": 2294,
      "333333333333333": 2295,
      "cognitive": 2296,
      "positive": 2297,
      "tribut": 2298,
      "include": 2299,
      "metaphor": 2300,
      "roots": 2301,
      "journey": 2302,
      "dearest": 2303,
      "Silicon": 2304,
      "bits": 2305,
      "dy": 2306,
      "ft": 2307,
      "faint": 2308,
      "ga": 2309,
      "ged": 2310,
      "land": 2311,
      "lar": 2312,
      "sight": 2313,
      "size": 2314,
      "recent": 2315,
      "another": 2316,
      "ences": 2317,
      "seed": 2318,
      "preh": 2319,
      "shif": 2320,
      "adhere": 2321,
      "ages": 2322,
      "compreh": 2323,
      "atoms": 2324,
      "ments": 2325,
      "ctions": 2326,
      "ension": 2327,
      "consistent": 2328,
      "capacity": 2329,
      "mistry": 2330,
      "chemistry": 2331,
      "streams": 2332,
      "Therefore": 2333,
      "isotopes": 2334,
      "said": 2335,
      "xygen": 2336,
      "Some": 2337,
      "dden": 2338,
      "gon": 2339,
      "pass": 2340,
      "sto": 2341,
      "twi": 2342,
      "inspir": 2343,
      "perch": 2344,
      "dec": 2345,
      "likely": 2346,
      "week": 2347,
      "1680": 2348,
      "bring": 2349,
      "sudden": 2350,
      "mental": 2351,
      "izing": 2352,
      "arted": 2353,
      "typ": 2354,
      "refin": 2355,
      "goals": 2356,
      "focusing": 2357,
      "singul": 2358,
      "continue": 2359,
      "999999999999": 2360,
      "block": 2361,
      "transl": 2362,
      "depth": 2363,
      "mortal": 2364,
      "threads": 2365,
      "16807": 2366,
      "AR": 2367,
      "Ch": 2368,
      "away": 2369,
      "ib": 2370,
      "ior": 2371,
      "put": 2372,
      "river": 2373,
      "yes": 2374,
      "lium": 2375,
      "velo": 2376,
      "unparalle": 2377,
      "feathered": 2378,
      "ilar": 2379,
      "seeing": 2380,
      "Neon": 2381,
      "sensory": 2382,
      "Helium": 2383,
      "connected": 2384,
      "introduce": 2385,
      "pursuit": 2386,
      "cause": 2387,
      "selves": 2388,
      "unparalleled": 2389,
      "82": 2390,
      "95": 2391,
      "Si": 2392,
      "fut": 2393,
      "mess": 2394,
      "nav": 2395,
      "round": 2396,
      "wait": 2397,
      "zing": 2398,
      "✨🌙": 2399,
      "remind": 2400,
      "ances": 2401,
      "near": 2402,
      "ication": 2403,
      "vered": 2404,
      "abs": 2405,
      "eters": 2406,
      "prob": 2407,
      "plans": 2408,
      "discer": 2409,
      "clarity": 2410,
      "intrigu": 2411,
      "imagine": 2412,
      "echoes": 2413,
      "pleasure": 2414,
      "remark": 2415,
      "carry": 2416,
      "sheer": 2417,
      "future": 2418,
      "navig": 2419,
      "71": 2420,
      "94": 2421,
      "Pot": 2422,
      "Re": 2423,
      "bus": 2424,
      "big": 2425,
      "equ": 2426,
      "ethere": 2427,
      "fire": 2428,
      "oken": 2429,
      "rout": 2430,
      "tend": 2431,
      "tast": 2432,
      "inst": 2433,
      "asm": 2434,
      "stra": 2435,
      "abstr": 2436,
      "means": 2437,
      "unknown": 2438,
      "Oooooo": 2439,
      "ization": 2440,
      "grasp": 2441,
      "peace": 2442,
      "refle": 2443,
      "elements": 2444,
      "signature": 2445,
      "greet": 2446,
      "naturally": 2447,
      "emotions": 2448,
      "Alumin": 2449,
      "twink": 2450,
      "unfolding": 2451,
      "parameters": 2452,
      "projects": 2453,
      "opportun": 2454,
      "Potassium": 2455,
      "ethereal": 2456,
      "327": 2457,
      "74": 2458,
      "Un": 2459,
      "hon": 2460,
      "part": 2461,
      "sou": 2462,
      "wit": 2463,
      "✨🦉": 2464,
      "ince": 2465,
      "inct": 2466,
      "lic": 2467,
      "lies": 2468,
      "beg": 2469,
      "expect": 2470,
      "mode": 2471,
      "concep": 2472,
      "cher": 2473,
      "ured": 2474,
      "omine": 2475,
      "Why": 2476,
      "serve": 2477,
      "7776": 2478,
      "3333333333333333": 2479,
      "thank": 2480,
      "eye": 2481,
      "viron": 2482,
      "imagin": 2483,
      "Argon": 2484,
      "introduction": 2485,
      "Bromine": 2486,
      "uff": 2487,
      "provided": 2488,
      "warmth": 2489,
      "intriguing": 2490,
      "abstract": 2491,
      "32768": 2492,
      "concepts": 2493,
      "Ah": 2494,
      "elf": 2495,
      "fine": 2496,
      "nu": 2497,
      "senti": 2498,
      "infin": 2499,
      "anse": 2500,
      "environ": 2501,
      "head": 2502,
      "cip": 2503,
      "exact": 2504,
      "melo": 2505,
      "Its": 2506,
      "immense": 2507,
      "expanse": 2508,
      "helpful": 2509,
      "encoura": 2510,
      "adventures": 2511,
      "arrival": 2512,
      "having": 2513,
      "implying": 2514,
      "companion": 2515,
      "opportunity": 2516,
      "112": 2517,
      "Just": 2518,
      "bo": 2519,
      "down": 2520,
      "had": 2521,
      "ju": 2522,
      "long": 2523,
      "mon": 2524,
      "med": 2525,
      "mol": 2526,
      "task": 2527,
      "instru": 2528,
      "ats": 2529,
      "ende": 2530,
      "enance": 2531,
      "active": 2532,
      "ump": 2533,
      "veil": 2534,
      "ably": 2535,
      "embr": 2536,
      "1538": 2537,
      "Who": 2538,
      "informative": 2539,
      "stric": 2540,
      "syn": 2541,
      "ield": 2542,
      "Does": 2543,
      "44444444": 2544,
      "address": 2545,
      "incredibly": 2546,
      "qualities": 2547,
      "twilight": 2548,
      "endeavor": 2549,
      "An": 2550,
      "Can": 2551,
      "Every": 2552,
      "Flu": 2553,
      "best": 2554,
      "fab": 2555,
      "hush": 2556,
      "lorine": 2557,
      "ps": 2558,
      "scent": 2559,
      "edition": 2560,
      "start": 2561,
      "105": 2562,
      "forth": 2563,
      "mole": 2564,
      "program": 2565,
      "allows": 2566,
      "soaring": 2567,
      "place": 2568,
      "curren": 2569,
      "analog": 2570,
      "specified": 2571,
      "themselves": 2572,
      "hole": 2573,
      "networks": 2574,
      "paths": 2575,
      "drawing": 2576,
      "breath": 2577,
      "names": 2578,
      "boundless": 2579,
      "deeper": 2580,
      "gaze": 2581,
      "Chlorine": 2582,
      "Aluminum": 2583,
      "Fluorine": 2584,
      "fabric": 2585,
      "83": 2586,
      "947": 2587,
      "Mag": 2588,
      "aut": 2589,
      "ix": 2590,
      "iest": 2591,
      "sched": 2592,
      "uzz": 2593,
      "wond": 2594,
      "perpet": 2595,
      "moth": 2596,
      "develo": 2597,
      "sharing": 2598,
      "chan": 2599,
      "amp": 2600,
      "fection": 2601,
      "emer": 2602,
      "embody": 2603,
      "plan": 2604,
      "avian": 2605,
      "3636": 2606,
      "doing": 2607,
      "ourish": 2608,
      "class": 2609,
      "expressed": 2610,
      "ears": 2611,
      "whole": 2612,
      "happen": 2613,
      "expedition": 2614,
      "precisely": 2615,
      "definition": 2616,
      "aligns": 2617,
      "explorer": 2618,
      "based": 2619,
      "luminous": 2620,
      "sustenance": 2621,
      "translate": 2622,
      "busy": 2623,
      "instructions": 2624,
      "schedul": 2625,
      "wondr": 2626,
      "!'": 2627,
      "114": 2628,
      "91": 2629,
      "Wis": 2630,
      "bark": 2631,
      "der": 2632,
      "iti": 2633,
      "ler": 2634,
      "uity": 2635,
      "vis": 2636,
      "almost": 2637,
      "tired": 2638,
      "ason": 2639,
      "topic": 2640,
      "enty": 2641,
      "triv": 2642,
      "trodu": 2643,
      "exch": 2644,
      "exquis": 2645,
      "produ": 2646,
      "weigh": 2647,
      "wondering": 2648,
      "Introdu": 2649,
      "analyze": 2650,
      "goal": 2651,
      "cker": 2652,
      "connecting": 2653,
      "perceived": 2654,
      "skies": 2655,
      "cells": 2656,
      "carries": 2657,
      "shimmering": 2658,
      "evolution": 2659,
      "Wisdom": 2660,
      "Introduce": 2661,
      "ec": 2662,
      "eat": 2663,
      "line": 2664,
      "lack": 2665,
      "oss": 2666,
      "rup": 2667,
      "🦉💡": 2668,
      "reach": 2669,
      "ench": 2670,
      "itr": 2671,
      "ites": 2672,
      "itude": 2673,
      "seem": 2674,
      "tions": 2675,
      "aby": 2676,
      "eter": 2677,
      "shar": 2678,
      "iven": 2679,
      "unch": 2680,
      "fective": 2681,
      "web": 2682,
      "111": 2683,
      "117": 2684,
      "sup": 2685,
      "6666666666666666": 2686,
      "explan": 2687,
      "subst": 2688,
      "observed": 2689,
      "genes": 2690,
      "realms": 2691,
      "doesn": 2692,
      "reference": 2693,
      "78947": 2694,
      "framework": 2695,
      "keeping": 2696,
      "darling": 2697,
      "providing": 2698,
      "111111111111": 2699,
      "confidently": 2700,
      "clever": 2701,
      "recently": 2702,
      "typically": 2703,
      "routine": 2704,
      "wondrous": 2705,
      ".'": 2706,
      "Mg": 2707,
      "Nitr": 2708,
      "OU": 2709,
      "UL": 2710,
      "cti": 2711,
      "did": 2712,
      "during": 2713,
      "gem": 2714,
      "give": 2715,
      "paint": 2716,
      "puzz": 2717,
      "rod": 2718,
      "thous": 2719,
      "ongoing": 2720,
      "ari": 2721,
      "identi": 2722,
      "acy": 2723,
      "hell": 2724,
      "ume": 2725,
      "Their": 2726,
      "beaut": 2727,
      "chir": 2728,
      "chall": 2729,
      "aren": 2730,
      "arewell": 2731,
      "indic": 2732,
      "full": 2733,
      "fulfill": 2734,
      "fled": 2735,
      "engage": 2736,
      "observe": 2737,
      "interconnected": 2738,
      "ieve": 2739,
      "mysteries": 2740,
      "requires": 2741,
      "called": 2742,
      "reflecting": 2743,
      "sleeps": 2744,
      "possib": 2745,
      "earthly": 2746,
      "brave": 2747,
      "includ": 2748,
      "color": 2749,
      "phenomena": 2750,
      "appreciation": 2751,
      "referring": 2752,
      "efficiency": 2753,
      "adaptations": 2754,
      "remarkable": 2755,
      "tender": 2756,
      "trivial": 2757,
      "Nitrogen": 2758,
      "thousand": 2759,
      "hello": 2760,
      "beauty": 2761,
      "('": 2762,
      "06": 2763,
      "230": 2764,
      "434": 2765,
      "flo": 2766,
      "pati": 2767,
      "swi": 2768,
      "wing": 2769,
      "ater": 2770,
      "retin": 2771,
      "toward": 2772,
      "held": 2773,
      "ics": 2774,
      "usive": 2775,
      "abund": 2776,
      "beli": 2777,
      "consider": 2778,
      "chase": 2779,
      "coming": 2780,
      "soar": 2781,
      "fully": 2782,
      "phr": 2783,
      "beings": 2784,
      "internal": 2785,
      "dreaming": 2786,
      "3333333333333335": 2787,
      "ounter": 2788,
      "hope": 2789,
      "offering": 2790,
      "constell": 2791,
      "position": 2792,
      "0000000000": 2793,
      "000000000000": 2794,
      "remains": 2795,
      "systems": 2796,
      "parallels": 2797,
      "giving": 2798,
      "shimmer": 2799,
      "phenomenon": 2800,
      "periodic": 2801,
      "gift": 2802,
      "ordinary": 2803,
      "machine": 2804,
      "153846": 2805,
      "strictly": 2806,
      "schedule": 2807,
      "enchant": 2808,
      "genesis": 2809,
      "7894736": 2810,
      "including": 2811,
      "89": 2812,
      "ah": 2813,
      "ade": 2814,
      "bol": 2815,
      "da": 2816,
      "fu": 2817,
      "fer": 2818,
      "fits": 2819,
      "lay": 2820,
      "nourish": 2821,
      "ping": 2822,
      "rhy": 2823,
      "atitude": 2824,
      "isms": 2825,
      "anthr": 2826,
      "esium": 2827,
      "stories": 2828,
      "acro": 2829,
      "acquis": 2830,
      "neur": 2831,
      "set": 2832,
      "preferen": 2833,
      "beet": 2834,
      "behav": 2835,
      "extra": 2836,
      "contr": 2837,
      "adop": 2838,
      "weary": 2839,
      "tically": 2840,
      "cover": 2841,
      "brings": 2842,
      "suc": 2843,
      "speck": 2844,
      "gratitude": 2845,
      "datas": 2846,
      "descend": 2847,
      "tale": 2848,
      "capture": 2849,
      "experiences": 2850,
      "frag": 2851,
      "everything": 2852,
      "citly": 2853,
      "thinker": 2854,
      "symbol": 2855,
      "certain": 2856,
      "holds": 2857,
      "suggestion": 2858,
      "limited": 2859,
      "growth": 2860,
      "tivity": 2861,
      "moonbeams": 2862,
      "enigm": 2863,
      "gleam": 2864,
      "exactly": 2865,
      "juic": 2866,
      "synthe": 2867,
      "currents": 2868,
      "sharp": 2869,
      "ctives": 2870,
      "across": 2871,
      "acquisition": 2872,
      "315": 2873,
      "93": 2874,
      "Con": 2875,
      "Fear": 2876,
      "Gre": 2877,
      "Sod": 2878,
      "ered": 2879,
      "fam": 2880,
      "sigh": 2881,
      "slow": 2882,
      "whe": 2883,
      "wide": 2884,
      "thm": 2885,
      "retr": 2886,
      "orious": 2887,
      "tit": 2888,
      "omor": 2889,
      "access": 2890,
      "sect": 2891,
      "perform": 2892,
      "quanti": 2893,
      "masses": 2894,
      "unfur": 2895,
      "ading": 2896,
      "opomor": 2897,
      "2608": 2898,
      "previously": 2899,
      "require": 2900,
      "computers": 2901,
      "conversations": 2902,
      "effective": 2903,
      "highly": 2904,
      "grams": 2905,
      "helps": 2906,
      "truths": 2907,
      "glorious": 2908,
      "efficient": 2909,
      "gifted": 2910,
      "recognition": 2911,
      "285714285714286": 2912,
      "555555555555": 2913,
      "dimin": 2914,
      "logic": 2915,
      "thrilling": 2916,
      "allowing": 2917,
      "communication": 2918,
      "aspirations": 2919,
      "straight": 2920,
      "Magn": 2921,
      "explanation": 2922,
      "43478": 2923,
      "rhythm": 2924,
      "anthropomor": 2925,
      "enigmatic": 2926,
      "Sodium": 2927,
      "04": 2928,
      "Sad": 2929,
      "awe": 2930,
      "catch": 2931,
      "five": 2932,
      "pt": 2933,
      "pul": 2934,
      "rig": 2935,
      "source": 2936,
      "taking": 2937,
      "💖🦉": 2938,
      "rep": 2939,
      "ingly": 2940,
      "states": 2941,
      "ool": 2942,
      "trave": 2943,
      "llow": 2944,
      "exh": 2945,
      "mechan": 2946,
      "ures": 2947,
      "wel": 2948,
      "118": 2949,
      "180": 2950,
      "aving": 2951,
      "ifies": 2952,
      "seeking": 2953,
      "event": 2954,
      "events": 2955,
      "strate": 2956,
      "gener": 2957,
      "weighted": 2958,
      "vastness": 2959,
      "winds": 2960,
      "phys": 2961,
      "marvels": 2962,
      "filled": 2963,
      "assistance": 2964,
      "occur": 2965,
      "anticip": 2966,
      "involves": 2967,
      "contemplation": 2968,
      "absolutely": 2969,
      "refinement": 2970,
      "peaceful": 2971,
      "soul": 2972,
      "witness": 2973,
      "cherished": 2974,
      "namesake": 2975,
      "Magnesium": 2976,
      "ER": 2977,
      "Hoooo": 2978,
      "Mic": 2979,
      "bed": 2980,
      "ctr": 2981,
      "diet": 2982,
      "ect": 2983,
      "field": 2984,
      "glim": 2985,
      "link": 2986,
      "narr": 2987,
      "saw": 2988,
      "atis": 2989,
      "revel": 2990,
      "ert": 2991,
      "ouse": 2992,
      "itney": 2993,
      "tow": 2994,
      "acti": 2995,
      "heav": 2996,
      "uses": 2997,
      "usual": 2998,
      "whitney": 2999,
      "exception": 3000,
      "ama": 3001,
      "entire": 3002,
      "corner": 3003,
      "guard": 3004,
      "asked": 3005,
      "signifies": 3006,
      "tales": 3007,
      "222222": 3008,
      "firm": 3009,
      "reflects": 3010,
      "affection": 3011,
      "voice": 3012,
      "distant": 3013,
      "algorithm": 3014,
      "aligning": 3015,
      "bloom": 3016,
      "powerful": 3017,
      "flies": 3018,
      "flicker": 3019,
      "22222222222222": 3020,
      "revealed": 3021,
      "discovering": 3022,
      "measured": 3023,
      "dismissive": 3024,
      "closely": 3025,
      "waiting": 3026,
      "melody": 3027,
      "molar": 3028,
      "tasks": 3029,
      "embrace": 3030,
      "111111111111111": 3031,
      "abundance": 3032,
      "55555555555555": 3033,
      "Sadness": 3034,
      "Micra": 3035,
      "whitneyi": 3036,
      "133": 3037,
      "Go": 3038,
      "Love": 3039,
      "Na": 3040,
      "Ooo": 3041,
      "cid": 3042,
      "dare": 3043,
      "eve": 3044,
      "ether": 3045,
      "mir": 3046,
      "vol": 3047,
      "ret": 3048,
      "once": 3049,
      "thene": 3050,
      "asing": 3051,
      "told": 3052,
      "lean": 3053,
      "aces": 3054,
      "fort": 3055,
      "122": 3056,
      "cha": 3057,
      "uncover": 3058,
      "embark": 3059,
      "els": 3060,
      "grace": 3061,
      "discourse": 3062,
      "🦉✨🤫": 3063,
      "learned": 3064,
      "silence": 3065,
      "Howâ": 3066,
      "ology": 3067,
      "saying": 3068,
      "origins": 3069,
      "similar": 3070,
      "after": 3071,
      "twenty": 3072,
      "foundational": 3073,
      "tempor": 3074,
      "depart": 3075,
      "basic": 3076,
      "limitations": 3077,
      "dedic": 3078,
      "guiding": 3079,
      "highlighting": 3080,
      "branches": 3081,
      "shifts": 3082,
      "comprehension": 3083,
      "inspiration": 3084,
      "singular": 3085,
      "Until": 3086,
      "begin": 3087,
      "visual": 3088,
      "towards": 3089,
      "adopt": 3090,
      "Micrathene": 3091,
      "!!": 3092,
      "130": 3093,
      "85": 3094,
      "875": 3095,
      "833333333333333": 3096,
      "857142857142857": 3097,
      "IN": 3098,
      "No": 3099,
      "Oxygen": 3100,
      "gth": 3101,
      "gling": 3102,
      "lately": 3103,
      "mur": 3104,
      "mark": 3105,
      "squ": 3106,
      "take": 3107,
      "ancing": 3108,
      "level": 3109,
      "stren": 3110,
      "ider": 3111,
      "acon": 3112,
      "activity": 3113,
      "101": 3114,
      "102": 3115,
      "forged": 3116,
      "ollow": 3117,
      "etched": 3118,
      "beacon": 3119,
      "contribut": 3120,
      "chart": 3121,
      "ival": 3122,
      "proble": 3123,
      "terr": 3124,
      "soil": 3125,
      "189": 3126,
      "photo": 3127,
      "compar": 3128,
      "compli": 3129,
      "190": 3130,
      "cali": 3131,
      "talking": 3132,
      "plays": 3133,
      "actions": 3134,
      "focused": 3135,
      "stillness": 3136,
      "joke": 3137,
      "specifically": 3138,
      "characteristics": 3139,
      "clearly": 3140,
      "27272727": 3141,
      "illuminate": 3142,
      "applic": 3143,
      "grav": 3144,
      "countless": 3145,
      "condition": 3146,
      "stood": 3147,
      "datasets": 3148,
      "3157894736": 3149,
      "whether": 3150,
      "diminu": 3151,
      "dedicated": 3152,
      "strength": 3153,
      ":**": 3154,
      "On": 3155,
      "Since": 3156,
      "With": 3157,
      "akes": 3158,
      "bes": 3159,
      "hind": 3160,
      "jud": 3161,
      "mist": 3162,
      "otic": 3163,
      "pack": 3164,
      "ruf": 3165,
      "vice": 3166,
      "waver": 3167,
      "initi": 3168,
      "recept": 3169,
      "ises": 3170,
      "enjoy": 3171,
      "arily": 3172,
      "acuity": 3173,
      "neat": 3174,
      "usually": 3175,
      "spider": 3176,
      "condescend": 3177,
      "del": 3178,
      "ideas": 3179,
      "unwaver": 3180,
      "dens": 3181,
      "service": 3182,
      "understood": 3183,
      "obvious": 3184,
      "smallest": 3185,
      "smallness": 3186,
      "science": 3187,
      "eleg": 3188,
      "observations": 3189,
      "advanced": 3190,
      "inside": 3191,
      "driven": 3192,
      "happens": 3193,
      "mighty": 3194,
      "goodbye": 3195,
      "horiz": 3196,
      "memory": 3197,
      "encounter": 3198,
      "significance": 3199,
      "specialized": 3200,
      "surpr": 3201,
      "looking": 3202,
      "falls": 3203,
      "vibrant": 3204,
      "sprink": 3205,
      "bird": 3206,
      "balanced": 3207,
      "faintest": 3208,
      "large": 3209,
      "greetings": 3210,
      "infinite": 3211,
      "develop": 3212,
      "evolutionary": 3213,
      "fledgling": 3214,
      "possibilities": 3215,
      "nourishment": 3216,
      "success": 3217,
      "effectively": 3218,
      "straightforward": 3219,
      "occurring": 3220,
      "compliment": 3221,
      "diminutive": 3222,
      "unwavering": 3223,
      "769": 3224,
      "714285714285714": 3225,
      "Fur": 3226,
      "RE": 3227,
      "Such": 3228,
      "bur": 3229,
      "ges": 3230,
      "mm": 3231,
      "oci": 3232,
      "past": 3233,
      "satis": 3234,
      "vig": 3235,
      "🦉💨": 3236,
      "insp": 3237,
      "inject": 3238,
      "influ": 3239,
      "thre": 3240,
      "really": 3241,
      "ones": 3242,
      "ened": 3243,
      "forget": 3244,
      "qubits": 3245,
      "tran": 3246,
      "behind": 3247,
      "move": 3248,
      "spot": 3249,
      "associ": 3250,
      "deci": 3251,
      "121": 3252,
      "actual": 3253,
      "proper": 3254,
      "aying": 3255,
      "until": 3256,
      "2564": 3257,
      "few": 3258,
      "145": 3259,
      "notion": 3260,
      "novel": 3261,
      "160": 3262,
      "fying": 3263,
      "153": 3264,
      "spect": 3265,
      "thermore": 3266,
      "disrup": 3267,
      "flair": 3268,
      "137": 3269,
      "🦉✨🌌": 3270,
      "feelings": 3271,
      "cloud": 3272,
      "relative": 3273,
      "discovered": 3274,
      "reality": 3275,
      "inquiries": 3276,
      "aught": 3277,
      "complexity": 3278,
      "666666666666666": 3279,
      "Artificial": 3280,
      "distinct": 3281,
      "optimized": 3282,
      "transcend": 3283,
      "functional": 3284,
      "meaning": 3285,
      "falling": 3286,
      "deeply": 3287,
      "revealing": 3288,
      "birth": 3289,
      "accurate": 3290,
      "lands": 3291,
      "absor": 3292,
      "discerning": 3293,
      "reflection": 3294,
      "sentiment": 3295,
      "hushed": 3296,
      "believe": 3297,
      "behavior": 3298,
      "anthropomorph": 3299,
      "traveler": 3300,
      "narrative": 3301,
      "revelation": 3302,
      "Furthermore": 3303,
      "Bar": 3304,
      "damp": 3305,
      "gave": 3306,
      "her": 3307,
      "mouse": 3308,
      "nas": 3309,
      "oak": 3310,
      "scur": 3311,
      "twe": 3312,
      "vital": 3313,
      "wink": 3314,
      "reason": 3315,
      "thearted": 3316,
      "espe": 3317,
      "ligh": 3318,
      "108": 3319,
      "lfth": 3320,
      "because": 3321,
      "mock": 3322,
      "ivers": 3323,
      "fellow": 3324,
      "ared": 3325,
      "008": 3326,
      "ilit": 3327,
      "brie": 3328,
      "broken": 3329,
      "centric": 3330,
      "speed": 3331,
      "ours": 3332,
      "ions": 3333,
      "ensuring": 3334,
      "gently": 3335,
      "scientifically": 3336,
      "intrins": 3337,
      "advice": 3338,
      "iliar": 3339,
      "utterly": 3340,
      "aud": 3341,
      "tered": 3342,
      "expand": 3343,
      "expli": 3344,
      "playfully": 3345,
      "deliver": 3346,
      "softly": 3347,
      "vities": 3348,
      "definitely": 3349,
      "given": 3350,
      "cycl": 3351,
      "empathetically": 3352,
      "accurately": 3353,
      "calculations": 3354,
      "branch": 3355,
      "facilit": 3356,
      "taste": 3357,
      "twinkling": 3358,
      "honor": 3359,
      "puzzle": 3360,
      "extraordinary": 3361,
      "Consider": 3362,
      "rigor": 3363,
      "activities": 3364,
      "departure": 3365,
      "photorecept": 3366,
      "calibr": 3367,
      "condescending": 3368,
      "nascent": 3369,
      "twelfth": 3370,
      "lighthearted": 3371,
      "*...": 3372,
      "135": 3373,
      "Ex": 3374,
      "NT": 3375,
      "ON": 3376,
      "User": 3377,
      "cus": 3378,
      "eas": 3379,
      "hu": 3380,
      "hab": 3381,
      "loud": 3382,
      "non": 3383,
      "ror": 3384,
      "rich": 3385,
      "write": 3386,
      "€”": 3387,
      "input": 3388,
      "return": 3389,
      "itory": 3390,
      "libr": 3391,
      "102564": 3392,
      "ook": 3393,
      "seas": 3394,
      "sequ": 3395,
      "quaint": 3396,
      "cially": 3397,
      "iment": 3398,
      "fron": 3399,
      "conj": 3400,
      "126": 3401,
      "chn": 3402,
      "prove": 3403,
      "forms": 3404,
      "plant": 3405,
      "elusive": 3406,
      "ooooh": 3407,
      "186": 3408,
      "berry": 3409,
      "phot": 3410,
      "ending": 3411,
      "endless": 3412,
      "maxim": 3413,
      "192": 3414,
      "Oooooh": 3415,
      "evoc": 3416,
      "asting": 3417,
      "days": 3418,
      "5652": 3419,
      "cry": 3420,
      "cross": 3421,
      "engaged": 3422,
      "sensitive": 3423,
      "techn": 3424,
      "sparkly": 3425,
      "athed": 3426,
      "characterized": 3427,
      "diurnal": 3428,
      "facts": 3429,
      "gets": 3430,
      "poetically": 3431,
      "remain": 3432,
      "currently": 3433,
      "role": 3434,
      "functions": 3435,
      "enthusiasm": 3436,
      "cycle": 3437,
      "hunting": 3438,
      "enigma": 3439,
      "aspects": 3440,
      "10526": 3441,
      "derived": 3442,
      "exchange": 3443,
      "substance": 3444,
      "230769": 3445,
      "retina": 3446,
      "layer": 3447,
      "beetle": 3448,
      "retrieve": 3449,
      "260869": 3450,
      "linked": 3451,
      "deciph": 3452,
      "spectac": 3453,
      "especially": 3454,
      "cycles": 3455,
      "evocative": 3456,
      "MA": 3457,
      "One": 3458,
      "ST": 3459,
      "Will": 3460,
      "base": 3461,
      "cas": 3462,
      "cence": 3463,
      "cise": 3464,
      "cool": 3465,
      "dances": 3466,
      "ee": 3467,
      "fig": 3468,
      "flit": 3469,
      "iological": 3470,
      "lt": 3471,
      "ng": 3472,
      "nur": 3473,
      "oxygen": 3474,
      "race": 3475,
      "sed": 3476,
      "side": 3477,
      "scal": 3478,
      "stick": 3479,
      "uck": 3480,
      "water": 3481,
      "ann": 3482,
      "staying": 3483,
      "aced": 3484,
      "never": 3485,
      "second": 3486,
      "abor": 3487,
      "prac": 3488,
      "radi": 3489,
      "become": 3490,
      "meas": 3491,
      "assess": 3492,
      "feed": 3493,
      "felt": 3494,
      "200": 3495,
      "unex": 3496,
      "cannot": 3497,
      "hooo": 3498,
      "hoots": 3499,
      "open": 3500,
      "engine": 3501,
      "relating": 3502,
      "drif": 3503,
      "signals": 3504,
      "athy": 3505,
      "woah": 3506,
      "complete": 3507,
      "integr": 3508,
      "empathy": 3509,
      "continued": 3510,
      "please": 3511,
      "optimization": 3512,
      "professionally": 3513,
      "meticulous": 3514,
      "potent": 3515,
      "steady": 3516,
      "craft": 3517,
      "named": 3518,
      "guides": 3519,
      "vibrations": 3520,
      "logical": 3521,
      "incredible": 3522,
      "attemp": 3523,
      "metaphors": 3524,
      "Sometimes": 3525,
      "firefly": 3526,
      "endeavors": 3527,
      "programming": 3528,
      "exquisite": 3529,
      "chirp": 3530,
      "interconnectedness": 3531,
      "enchanting": 3532,
      "heavy": 3533,
      "bestow": 3534,
      "vigil": 3535,
      "!),": 3536,
      "02": 3537,
      "110": 3538,
      "116": 3539,
      "588": 3540,
      "842": 3541,
      "Emo": 3542,
      "Happ": 3543,
      "IC": 3544,
      "Qu": 3545,
      "SP": 3546,
      "Yes": 3547,
      "_used": 3548,
      "city": 3549,
      "dest": 3550,
      "dili": 3551,
      "ffici": 3552,
      "farewell": 3553,
      "gal": 3554,
      "gles": 3555,
      "ier": 3556,
      "mid": 3557,
      "nor": 3558,
      "pin": 3559,
      "pol": 3560,
      "ri": 3561,
      "stim": 3562,
      "vent": 3563,
      "waves": 3564,
      "ined": 3565,
      "ism": 3566,
      "erness": 3567,
      "enge": 3568,
      "living": 3569,
      "109": 3570,
      "ateful": 3571,
      "heft": 3572,
      "necess": 3573,
      "entang": 3574,
      "sere": 3575,
      "search": 3576,
      "quer": 3577,
      "cease": 3578,
      "absur": 3579,
      "trick": 3580,
      "prin": 3581,
      "sport": 3582,
      "123": 3583,
      "Hisss": 3584,
      "appe": 3585,
      "140": 3586,
      "ilation": 3587,
      "168": 3588,
      "119": 3589,
      "implies": 3590,
      "184": 3591,
      "150": 3592,
      "avail": 3593,
      "corre": 3594,
      "discus": 3595,
      "objective": 3596,
      "fluf": 3597,
      "hooting": 3598,
      "sometimes": 3599,
      "forests": 3600,
      "jewel": 3601,
      "readiness": 3602,
      "476": 3603,
      "context_used": 3604,
      "constit": 3605,
      "cape": 3606,
      "visionary": 3607,
      "avoiding": 3608,
      "resource": 3609,
      "deter": 3610,
      "interested": 3611,
      "anges": 3612,
      "descrip": 3613,
      "superiority": 3614,
      "tuned": 3615,
      "resonance": 3616,
      "traject": 3617,
      "suggests": 3618,
      "predictive": 3619,
      "prompt": 3620,
      "decision": 3621,
      "carrying": 3622,
      "navigating": 3623,
      "thanks": 3624,
      "analogous": 3625,
      "emergent": 3626,
      "rods": 3627,
      "challenge": 3628,
      "patience": 3629,
      "juicy": 3630,
      "familiar": 3631,
      "amazing": 3632,
      "2222222222222223": 3633,
      "contributing": 3634,
      "conditions": 3635,
      "elegant": 3636,
      "explicitly": 3637,
      "seasons": 3638,
      "conjured": 3639,
      "Emojis": 3640,
      "stimul": 3641,
      "absurd": 3642,
      ")**!": 3643,
      "?'.": 3644,
      "Any": 3645,
      "Des": 3646,
      "Got": 3647,
      "Pl": 3648,
      "Pip": 3649,
      "binary": 3650,
      "cut": 3651,
      "eag": 3652,
      "faction": 3653,
      "follow": 3654,
      "ia": 3655,
      "mer": 3656,
      "oy": 3657,
      "pend": 3658,
      "rial": 3659,
      "ton": 3660,
      "tel": 3661,
      "zed": 3662,
      "🌳🌙": 3663,
      "🦉😂": 3664,
      "iny": 3665,
      "insect": 3666,
      "attribut": 3667,
      "thed": 3668,
      "envision": 3669,
      "esome": 3670,
      "ingen": 3671,
      "aries": 3672,
      "ulter": 3673,
      "leaf": 3674,
      "stell": 3675,
      "height": 3676,
      "young": 3677,
      "uscul": 3678,
      "spoken": 3679,
      "concer": 3680,
      "define": 3681,
      "urable": 3682,
      "shap": 3683,
      "chance": 3684,
      "ives": 3685,
      "unad": 3686,
      "respect": 3687,
      "ples": 3688,
      "ists": 3689,
      "obb": 3690,
      "🦉✨🌙": 3691,
      "peak": 3692,
      "observer": 3693,
      "ssom": 3694,
      "silly": 3695,
      "observational": 3696,
      "general": 3697,
      "whispering": 3698,
      "consume": 3699,
      "aken": 3700,
      "velve": 3701,
      "feathery": 3702,
      "independ": 3703,
      "forever": 3704,
      "buzz": 3705,
      "against": 3706,
      "cribe": 3707,
      "twist": 3708,
      "pected": 3709,
      "greatest": 3710,
      "drawn": 3711,
      "marvelous": 3712,
      "blossom": 3713,
      "anger": 3714,
      "exploring": 3715,
      "sarcasm": 3716,
      "illuminating": 3717,
      "vibration": 3718,
      "involve": 3719,
      "periods": 3720,
      "resonates": 3721,
      "contemplating": 3722,
      "listening": 3723,
      "talks": 3724,
      "Something": 3725,
      "singularity": 3726,
      "depths": 3727,
      "discern": 3728,
      "reflective": 3729,
      "encouraging": 3730,
      "perpetual": 3731,
      "uncharted": 3732,
      "swift": 3733,
      "000000000001": 3734,
      "synthesis": 3735,
      "anticipation": 3736,
      "🦉✨🤫🌌": 3737,
      "initiated": 3738,
      "horizon": 3739,
      "sprinkle": 3740,
      "associated": 3741,
      "scurry": 3742,
      "measurable": 3743,
      "unexpected": 3744,
      "serene": 3745,
      "princi": 3746,
      "Describe": 3747,
      "ulterated": 3748,
      "stellar": 3749,
      "unadulterated": 3750,
      "428571428571428": 3751,
      "AL": 3752,
      "FUL": 3753,
      "Sh": 3754,
      "ax": 3755,
      "cking": 3756,
      "fail": 3757,
      "gment": 3758,
      "har": 3759,
      "iev": 3760,
      "kin": 3761,
      "last": 3762,
      "morn": 3763,
      "nice": 3764,
      "pix": 3765,
      "rough": 3766,
      "simpli": 3767,
      "uine": 3768,
      "three": 3769,
      "atus": 3770,
      "escence": 3771,
      "lement": 3772,
      "leading": 3773,
      "starr": 3774,
      "ided": 3775,
      "106": 3776,
      "pertin": 3777,
      "exce": 3778,
      "space": 3779,
      "cont": 3780,
      "actually": 3781,
      "iving": 3782,
      "comfort": 3783,
      "141": 3784,
      "weaving": 3785,
      "ters": 3786,
      "terrest": 3787,
      "noble": 3788,
      "165": 3789,
      "plain": 3790,
      "159": 3791,
      "entities": 3792,
      "spectr": 3793,
      "tiniest": 3794,
      "170": 3795,
      "standpoint": 3796,
      "459": 3797,
      "Whatâ": 3798,
      "interpre": 3799,
      "analytically": 3800,
      "observant": 3801,
      "39130": 3802,
      "jectives": 3803,
      "genuine": 3804,
      "starlit": 3805,
      "answers": 3806,
      "akin": 3807,
      "70588": 3808,
      "designated": 3809,
      "teen": 3810,
      "firming": 3811,
      "simul": 3812,
      "6666666666666667": 3813,
      "connections": 3814,
      "adventurer": 3815,
      "1428571428571428": 3816,
      "fills": 3817,
      "mentioning": 3818,
      "8888888888888888": 3819,
      "guided": 3820,
      "reiter": 3821,
      "luminescence": 3822,
      "45454545": 3823,
      "aspiration": 3824,
      "metaphorical": 3825,
      "inspiring": 3826,
      "messages": 3827,
      "absence": 3828,
      "instinct": 3829,
      "environmental": 3830,
      "addressed": 3831,
      "productive": 3832,
      "weighs": 3833,
      "OUS": 3834,
      "phrasing": 3835,
      "constellations": 3836,
      "preferences": 3837,
      "certainly": 3838,
      "performance": 3839,
      "strateg": 3840,
      "temporal": 3841,
      "190476": 3842,
      "ruffle": 3843,
      "density": 3844,
      "successful": 3845,
      "satisfaction": 3846,
      "easily": 3847,
      "fronti": 3848,
      "assessment": 3849,
      "midnight": 3850,
      "fluffy": 3851,
      "determin": 3852,
      "trajectory": 3853,
      "obbies": 3854,
      "starry": 3855,
      "terrestrial": 3856,
      ")!": 3857,
      "098": 3858,
      "AC": 3859,
      "Ouuu": 3860,
      "ae": 3861,
      "cum": 3862,
      "coun": 3863,
      "dancing": 3864,
      "gig": 3865,
      "hydrogen": 3866,
      "hobbies": 3867,
      "ius": 3868,
      "mic": 3869,
      "mise": 3870,
      "pal": 3871,
      "pup": 3872,
      "rob": 3873,
      "sent": 3874,
      "scr": 3875,
      "six": 3876,
      "void": 3877,
      "wann": 3878,
      "zy": 3879,
      "repe": 3880,
      "reject": 3881,
      "oub": 3882,
      "enabl": 3883,
      "till": 3884,
      "stone": 3885,
      "ligence": 3886,
      "heard": 3887,
      "forces": 3888,
      "etings": 3889,
      "create": 3890,
      "premise": 3891,
      "imilation": 3892,
      "assimilation": 3893,
      "120": 3894,
      "127": 3895,
      "chill": 3896,
      "acts": 3897,
      "unit": 3898,
      "among": 3899,
      "ounds": 3900,
      "ilt": 3901,
      "ilarity": 3902,
      "yours": 3903,
      "social": 3904,
      "speaking": 3905,
      "ources": 3906,
      "worm": 3907,
      "worth": 3908,
      "working": 3909,
      "enduring": 3910,
      "compact": 3911,
      "objectives": 3912,
      "aston": 3913,
      "strong": 3914,
      "Intel": 3915,
      "interact": 3916,
      "claim": 3917,
      "crop": 3918,
      "advance": 3919,
      "relation": 3920,
      "awesome": 3921,
      "computation": 3922,
      "oted": 3923,
      "sensation": 3924,
      "sensors": 3925,
      "conceptual": 3926,
      "statement": 3927,
      "sparkling": 3928,
      "kindness": 3929,
      "immed": 3930,
      "built": 3931,
      "intelligent": 3932,
      "delivered": 3933,
      "affirm": 3934,
      "carried": 3935,
      "cloak": 3936,
      "angible": 3937,
      "confidence": 3938,
      "structure": 3939,
      "treasures": 3940,
      "importance": 3941,
      "appreciate": 3942,
      "duper": 3943,
      "enthusiastically": 3944,
      "hunt": 3945,
      "lucid": 3946,
      "organic": 3947,
      "organisms": 3948,
      "suggesting": 3949,
      "sarcastically": 3950,
      "wilderness": 3951,
      "calculated": 3952,
      "scen": 3953,
      "tickles": 3954,
      "Been": 3955,
      "Because": 3956,
      "interpretation": 3957,
      "shift": 3958,
      "blocks": 3959,
      "message": 3960,
      "models": 3961,
      "imagination": 3962,
      "classical": 3963,
      "ecological": 3964,
      "eternal": 3965,
      "Greetings": 3966,
      "exhilar": 3967,
      "physics": 3968,
      "entirely": 3969,
      "mirror": 3970,
      "chaotic": 3971,
      "squir": 3972,
      "surprise": 3973,
      "development": 3974,
      "intrinsically": 3975,
      "rigorous": 3976,
      "figure": 3977,
      "Happiness": 3978,
      "entanglement": 3979,
      "correct": 3980,
      "pertinent": 3981,
      "pupil": 3982,
      "wanna": 3983,
      "Intelligence": 3984,
      "'!": 3985,
      "1666666666666": 3986,
      "16666666666666666": 3987,
      "225": 3988,
      "235": 3989,
      "4285714285714": 3990,
      "948": 3991,
      "CT": 3992,
      "DE": 3993,
      "ECT": 3994,
      "Know": 3995,
      "LE": 3996,
      "LI": 3997,
      "LY": 3998,
      "Of": 3999,
      "Our": 4000,
      "bul": 4001,
      "bind": 4002,
      "fre": 4003,
      "fant": 4004,
      "gas": 4005,
      "gement": 4006,
      "lone": 4007,
      "lens": 4008,
      "linking": 4009,
      "oke": 4010,
      "pine": 4011,
      "run": 4012,
      "sn": 4013,
      "stical": 4014,
      "since": 4015,
      "taint": 4016,
      "var": 4017,
      "vari": 4018,
      "🦉🌙": 4019,
      "ination": 4020,
      "inner": 4021,
      "inves": 4022,
      "reass": 4023,
      "isp": 4024,
      "ouuu": 4025,
      "encing": 4026,
      "escent": 4027,
      "orm": 4028,
      "tig": 4029,
      "tied": 4030,
      "ash": 4031,
      "itor": 4032,
      "ull": 4033,
      "leg": 4034,
      "stret": 4035,
      "mystical": 4036,
      "hearing": 4037,
      "sett": 4038,
      "forts": 4039,
      "ceived": 4040,
      "etum": 4041,
      "rap": 4042,
      "prep": 4043,
      "melan": 4044,
      "immeasurable": 4045,
      "spl": 4046,
      "concise": 4047,
      "atory": 4048,
      "degre": 4049,
      "defi": 4050,
      "demean": 4051,
      "129": 4052,
      "show": 4053,
      "unra": 4054,
      "amb": 4055,
      "ctu": 4056,
      "ishing": 4057,
      "144": 4058,
      "unear": 4059,
      "humming": 4060,
      "formed": 4061,
      "formally": 4062,
      "plump": 4063,
      "oooooo": 4064,
      "maintained": 4065,
      "152": 4066,
      "154": 4067,
      "156": 4068,
      "158": 4069,
      "pothe": 4070,
      "999": 4071,
      "intention": 4072,
      "ends": 4073,
      "compass": 4074,
      "comparing": 4075,
      "ignific": 4076,
      "196": 4077,
      "3548": 4078,
      "5714285714285714": 4079,
      "wisest": 4080,
      "fluff": 4081,
      "desires": 4082,
      "desert": 4083,
      "6470588": 4084,
      "intertw": 4085,
      "friends": 4086,
      "silver": 4087,
      "3870": 4088,
      "partic": 4089,
      "arrive": 4090,
      "engagement": 4091,
      "insignific": 4092,
      "reading": 4093,
      "presented": 4094,
      "minds": 4095,
      "talons": 4096,
      "charming": 4097,
      "finally": 4098,
      "stir": 4099,
      "explaining": 4100,
      "similarity": 4101,
      "sleeping": 4102,
      "tapetum": 4103,
      "empir": 4104,
      "possible": 4105,
      "watchful": 4106,
      "certaint": 4107,
      "defined": 4108,
      "definitive": 4109,
      "pathways": 4110,
      "trian": 4111,
      "aneously": 4112,
      "collect": 4113,
      "minuscul": 4114,
      "888888888888": 4115,
      "gives": 4116,
      "777777777777": 4117,
      "hypothe": 4118,
      "promise": 4119,
      "primary": 4120,
      "Remember": 4121,
      "fireflies": 4122,
      "twinkle": 4123,
      "boast": 4124,
      "perpetually": 4125,
      "moths": 4126,
      "exquisitely": 4127,
      "fulfilling": 4128,
      "constellation": 4129,
      "fragile": 4130,
      "guardian": 4131,
      "5555555555555556": 4132,
      "Ooooh": 4133,
      "ING": 4134,
      "transcends": 4135,
      "brief": 4136,
      "auditory": 4137,
      "habit": 4138,
      "2608695652": 4139,
      "MAG": 4140,
      "scale": 4141,
      "queries": 4142,
      "available": 4143,
      "absurdity": 4144,
      "eager": 4145,
      "heightened": 4146,
      "independent": 4147,
      "scurrying": 4148,
      "3913043478": 4149,
      "teeny": 4150,
      "enabling": 4151,
      "lucidum": 4152,
      "squirrel": 4153,
      "428571428571429": 4154,
      "investig": 4155,
      "melancho": 4156,
      "demeanor": 4157,
      "certainty": 4158,
      "minuscule": 4159,
      "09": 4160,
      "Farewell": 4161,
      "Not": 4162,
      "Ple": 4163,
      "RI": 4164,
      "TE": 4165,
      "bond": 4166,
      "bathed": 4167,
      "dain": 4168,
      "gi": 4169,
      "iar": 4170,
      "ither": 4171,
      "kis": 4172,
      "mate": 4173,
      "milli": 4174,
      "rise": 4175,
      "silicon": 4176,
      "takes": 4177,
      "udes": 4178,
      "waking": 4179,
      "🦉💻": 4180,
      "atmo": 4181,
      "reward": 4182,
      "ised": 4183,
      "isible": 4184,
      "alog": 4185,
      "estrian": 4186,
      "ited": 4187,
      "itories": 4188,
      "lection": 4189,
      "nebul": 4190,
      "umb": 4191,
      "force": 4192,
      "hiss": 4193,
      "usion": 4194,
      "culiar": 4195,
      "why": 4196,
      "whir": 4197,
      "beat": 4198,
      "becomes": 4199,
      "becoming": 4200,
      "byte": 4201,
      "exter": 4202,
      "dev": 4203,
      "chat": 4204,
      "essential": 4205,
      "utmost": 4206,
      "termin": 4207,
      "nov": 4208,
      "empl": 4209,
      "elabor": 4210,
      "posing": 4211,
      "998": 4212,
      "disagree": 4213,
      "disdain": 4214,
      "object": 4215,
      "fles": 4216,
      "138": 4217,
      "peculiar": 4218,
      "type": 4219,
      "types": 4220,
      "gue": 4221,
      "processed": 4222,
      "Instead": 4223,
      "ached": 4224,
      "subject": 4225,
      "parad": 4226,
      "genius": 4227,
      "await": 4228,
      "lovely": 4229,
      "simpl": 4230,
      "reside": 4231,
      "imming": 4232,
      "efforts": 4233,
      "delightfully": 4234,
      "detached": 4235,
      "excited": 4236,
      "sleepy": 4237,
      "softest": 4238,
      "arriving": 4239,
      "introduced": 4240,
      "invisible": 4241,
      "surround": 4242,
      "functioning": 4243,
      "break": 4244,
      "tility": 4245,
      "zzling": 4246,
      "growing": 4247,
      "appreciative": 4248,
      "evolving": 4249,
      "recognized": 4250,
      "himself": 4251,
      "balance": 4252,
      "machines": 4253,
      "pedestrian": 4254,
      "attention": 4255,
      "larger": 4256,
      "passing": 4257,
      "equival": 4258,
      "tasty": 4259,
      "environment": 4260,
      "programmed": 4261,
      "exchanges": 4262,
      "reaching": 4263,
      "seems": 4264,
      "etern": 4265,
      "ULAR": 4266,
      "challeng": 4267,
      "dazzling": 4268,
      "fuels": 4269,
      "preference": 4270,
      "Great": 4271,
      "exceptional": 4272,
      "problem": 4273,
      "territories": 4274,
      "applicable": 4275,
      "gravit": 4276,
      "property": 4277,
      "absorb": 4278,
      "anthropomorphic": 4279,
      "calibration": 4280,
      "hues": 4281,
      "SPECT": 4282,
      "pinn": 4283,
      "ingenious": 4284,
      "principles": 4285,
      "morning": 4286,
      "ACULAR": 4287,
      "pupils": 4288,
      "fresh": 4289,
      "empirical": 4290,
      "Please": 4291,
      "atmosp": 4292,
      "external": 4293,
      "employ": 4294,
      "equivalent": 4295,
      "SPECTACULAR": 4296,
      "136": 4297,
      "177": 4298,
      "1666666666666667": 4299,
      "645": 4300,
      "8333333333333334": 4301,
      "AB": 4302,
      "Ind": 4303,
      "JO": 4304,
      "Ke": 4305,
      "Ob": 4306,
      "YOU": 4307,
      "eed": 4308,
      "face": 4309,
      "hes": 4310,
      "hol": 4311,
      "hours": 4312,
      "la": 4313,
      "laught": 4314,
      "map": 4315,
      "multi": 4316,
      "nic": 4317,
      "ored": 4318,
      "psy": 4319,
      "puff": 4320,
      "rip": 4321,
      "sus": 4322,
      "vas": 4323,
      "vie": 4324,
      "🌌✨": 4325,
      "🙄🦉✨": 4326,
      "attuned": 4327,
      "reactions": 4328,
      "research": 4329,
      "eness": 4330,
      "ased": 4331,
      "ars": 4332,
      "stated": 4333,
      "identific": 4334,
      "acquaint": 4335,
      "ument": 4336,
      "perched": 4337,
      "oll": 4338,
      "pra": 4339,
      "priv": 4340,
      "prior": 4341,
      "crete": 4342,
      "ray": 4343,
      "began": 4344,
      "exc": 4345,
      "exam": 4346,
      "exec": 4347,
      "decl": 4348,
      "devi": 4349,
      "ship": 4350,
      "apply": 4351,
      "ivid": 4352,
      "output": 4353,
      "amuse": 4354,
      "feet": 4355,
      "feast": 4356,
      "ades": 4357,
      "209": 4358,
      "composition": 4359,
      "impact": 4360,
      "lights": 4361,
      "iously": 4362,
      "implied": 4363,
      "188": 4364,
      "151": 4365,
      "entially": 4366,
      "literal": 4367,
      "loss": 4368,
      "305": 4369,
      "worry": 4370,
      "198": 4371,
      "193548": 4372,
      "889": 4373,
      "178": 4374,
      "flap": 4375,
      "informational": 4376,
      "existential": 4377,
      "294": 4378,
      "**,": 4379,
      "processors": 4380,
      "tread": 4381,
      "9090": 4382,
      "relates": 4383,
      "however": 4384,
      "got": 4385,
      "awaken": 4386,
      "80645": 4387,
      "6060": 4388,
      "oldest": 4389,
      "signal": 4390,
      "directive": 4391,
      "calls": 4392,
      "resources": 4393,
      "strugg": 4394,
      "expans": 4395,
      "highest": 4396,
      "darkest": 4397,
      "solve": 4398,
      "continuing": 4399,
      "warms": 4400,
      "founder": 4401,
      "surv": 4402,
      "mini": 4403,
      "bodies": 4404,
      "structured": 4405,
      "overly": 4406,
      "breaking": 4407,
      "years": 4408,
      "matters": 4409,
      "dedication": 4410,
      "7777777777777777": 4411,
      "discoveries": 4412,
      "highlights": 4413,
      "predictable": 4414,
      "571428571428571": 4415,
      "gathering": 4416,
      "decided": 4417,
      "refined": 4418,
      "greeted": 4419,
      "begins": 4420,
      "nutri": 4421,
      "444444444444": 4422,
      "embodying": 4423,
      "36363636": 4424,
      "classic": 4425,
      "happenings": 4426,
      "1176470588": 4427,
      "identifi": 4428,
      "patient": 4429,
      "153846153846": 4430,
      "unfurl": 4431,
      "unfurling": 4432,
      "mechanisms": 4433,
      "exceptionally": 4434,
      "cornerstone": 4435,
      "272727272727": 4436,
      "spiderweb": 4437,
      "inspire": 4438,
      "influence": 4439,
      "threat": 4440,
      "disruption": 4441,
      "105263157894736": 4442,
      "radiant": 4443,
      "fficient": 4444,
      "buzzing": 4445,
      "blossoms": 4446,
      "4285714285714284": 4447,
      "simplicity": 4448,
      "459459": 4449,
      "reiterating": 4450,
      "immediate": 4451,
      "affirmation": 4452,
      "exhilarating": 4453,
      "166666666666667": 4454,
      "Knowing": 4455,
      "387096": 4456,
      "888888888888889": 4457,
      "boastful": 4458,
      "elaborate": 4459,
      "paradig": 4460,
      "gravitational": 4461,
      "JOY": 4462,
      "Keep": 4463,
      "psych": 4464,
      "identification": 4465,
      "amusement": 4466,
      "8064516": 4467,
      "220": 4468,
      "ANT": 4469,
      "Even": 4470,
      "Fascinating": 4471,
      "Prep": 4472,
      "See": 4473,
      "Would": 4474,
      "ban": 4475,
      "bad": 4476,
      "balle": 4477,
      "book": 4478,
      "casc": 4479,
      "ding": 4480,
      "doub": 4481,
      "fan": 4482,
      "glit": 4483,
      "garding": 4484,
      "ibly": 4485,
      "mine": 4486,
      "ope": 4487,
      "piv": 4488,
      "row": 4489,
      "sch": 4490,
      "sort": 4491,
      "turing": 4492,
      "tangible": 4493,
      "vity": 4494,
      "woo": 4495,
      "inception": 4496,
      "onto": 4497,
      "ali": 4498,
      "alk": 4499,
      "albe": 4500,
      "enn": 4501,
      "ening": 4502,
      "enough": 4503,
      "tition": 4504,
      "tite": 4505,
      "ular": 4506,
      "lead": 4507,
      "leave": 4508,
      "least": 4509,
      "stud": 4510,
      "lying": 4511,
      "103": 4512,
      "oot": 4513,
      "season": 4514,
      "above": 4515,
      "rain": 4516,
      "prey": 4517,
      "prefer": 4518,
      "bered": 4519,
      "befitting": 4520,
      "exper": 4521,
      "exag": 4522,
      "excl": 4523,
      "moss": 4524,
      "imal": 4525,
      "demon": 4526,
      "shine": 4527,
      "apart": 4528,
      "othing": 4529,
      "progen": 4530,
      "unobserved": 4531,
      "ultimate": 4532,
      "ustr": 4533,
      "denoted": 4534,
      "hums": 4535,
      "humility": 4536,
      "forming": 4537,
      "sounding": 4538,
      "pled": 4539,
      "implicitly": 4540,
      "questioning": 4541,
      "lore": 4542,
      "ifest": 4543,
      "ended": 4544,
      "portion": 4545,
      "Oooooooooh": 4546,
      "newly": 4547,
      "tremor": 4548,
      "crick": 4549,
      "achieve": 4550,
      "achiev": 4551,
      "analyzing": 4552,
      "904": 4553,
      "themes": 4554,
      "dry": 4555,
      "itional": 4556,
      "athom": 4557,
      "ilience": 4558,
      "cks": 4559,
      "capable": 4560,
      "captiv": 4561,
      "sparkle": 4562,
      "resilience": 4563,
      "turning": 4564,
      "release": 4565,
      "delicious": 4566,
      "requests": 4567,
      "diffic": 4568,
      "points": 4569,
      "9999999999": 4570,
      "0855": 4571,
      "regard": 4572,
      "cessation": 4573,
      "fruits": 4574,
      "touches": 4575,
      "flying": 4576,
      "described": 4577,
      "inquirer": 4578,
      "superposition": 4579,
      "masterpiece": 4580,
      "illumination": 4581,
      "sweetest": 4582,
      "inherently": 4583,
      "adaptation": 4584,
      "grounded": 4585,
      "primarily": 4586,
      "dynam": 4587,
      "comprehend": 4588,
      "passage": 4589,
      "suddenly": 4590,
      "navigate": 4591,
      "Regarding": 4592,
      "sentient": 4593,
      "float": 4594,
      "considerable": 4595,
      "fuel": 4596,
      "fragment": 4597,
      "mechanics": 4598,
      "physiological": 4599,
      "corners": 4600,
      "murmur": 4601,
      "charting": 4602,
      "problems": 4603,
      "comparis": 4604,
      "judgment": 4605,
      "delve": 4606,
      "Barn": 4607,
      "photoreceptor": 4608,
      "photons": 4609,
      "flitting": 4610,
      "Quite": 4611,
      "ripe": 4612,
      "constitu": 4613,
      "stimuli": 4614,
      "insects": 4615,
      "velvet": 4616,
      "roughly": 4617,
      "frontier": 4618,
      "determined": 4619,
      "sentin": 4620,
      "particles": 4621,
      "nebulae": 4622,
      "Indeed": 4623,
      "holes": 4624,
      "laughter": 4625,
      "acquaintance": 4626,
      "survival": 4627,
      "Prepare": 4628,
      "ballet": 4629,
      "albeit": 4630,
      "progenitor": 4631,
      "078": 4632,
      "166": 4633,
      "132": 4634,
      "166666666666666": 4635,
      "756": 4636,
      "941": 4637,
      "All": 4638,
      "CI": 4639,
      "DER": 4640,
      "Hum": 4641,
      "Have": 4642,
      "Listen": 4643,
      "Nay": 4644,
      "SU": 4645,
      "WON": 4646,
      "bor": 4647,
      "boun": 4648,
      "daring": 4649,
      "danger": 4650,
      "equation": 4651,
      "eco": 4652,
      "ection": 4653,
      "fascin": 4654,
      "free": 4655,
      "glo": 4656,
      "hur": 4657,
      "hatch": 4658,
      "ient": 4659,
      "men": 4660,
      "mount": 4661,
      "meral": 4662,
      "nothing": 4663,
      "pse": 4664,
      "pier": 4665,
      "ris": 4666,
      "sli": 4667,
      "spre": 4668,
      "send": 4669,
      "swoo": 4670,
      "vag": 4671,
      "yield": 4672,
      "️‍": 4673,
      "🌳🦉": 4674,
      "💖🌙": 4675,
      "inches": 4676,
      "thol": 4677,
      "thick": 4678,
      "reme": 4679,
      "remo": 4680,
      "reaf": 4681,
      "theore": 4682,
      "alone": 4683,
      "along": 4684,
      "enlight": 4685,
      "tili": 4686,
      "itate": 4687,
      "itary": 4688,
      "top": 4689,
      "total": 4690,
      "arti": 4691,
      "owess": 4692,
      "stature": 4693,
      "stating": 4694,
      "status": 4695,
      "lived": 4696,
      "acing": 4697,
      "acle": 4698,
      "accum": 4699,
      "104": 4700,
      "hemeral": 4701,
      "sets": 4702,
      "quick": 4703,
      "trust": 4704,
      "print": 4705,
      "prowess": 4706,
      "creating": 4707,
      "impress": 4708,
      "spun": 4709,
      "conver": 4710,
      "confirm": 4711,
      "conceived": 4712,
      "def": 4713,
      "128": 4714,
      "short": 4715,
      "shiny": 4716,
      "others": 4717,
      "bother": 4718,
      "feline": 4719,
      "ishment": 4720,
      "146": 4721,
      "wered": 4722,
      "tering": 4723,
      "163": 4724,
      "113": 4725,
      "humbly": 4726,
      "utions": 4727,
      "soci": 4728,
      "cozy": 4729,
      "183": 4730,
      "1818": 4731,
      "lot": 4732,
      "accented": 4733,
      "compon": 4734,
      "ignites": 4735,
      "774": 4736,
      "underlying": 4737,
      "173": 4738,
      "176": 4739,
      "nights": 4740,
      "omew": 4741,
      "ephemeral": 4742,
      "flows": 4743,
      "1395": 4744,
      "incorporates": 4745,
      "answered": 4746,
      "elling": 4747,
      "someone": 4748,
      "ensive": 4749,
      "extreme": 4750,
      "ceptive": 4751,
      "electr": 4752,
      "domain": 4753,
      "throughout": 4754,
      "crisp": 4755,
      "manag": 4756,
      "manifest": 4757,
      "intro": 4758,
      "intric": 4759,
      "signi": 4760,
      "gress": 4761,
      "directives": 4762,
      "computer": 4763,
      "preced": 4764,
      "operate": 4765,
      "osco": 4766,
      "inquiring": 4767,
      "sparks": 4768,
      "missing": 4769,
      "result": 4770,
      "flutters": 4771,
      "simult": 4772,
      "6666666666666665": 4773,
      "5238": 4774,
      "fiable": 4775,
      "getting": 4776,
      "solving": 4777,
      "solitary": 4778,
      "🦉💖✨": 4779,
      "pondering": 4780,
      "distin": 4781,
      "distance": 4782,
      "survey": 4783,
      "flights": 4784,
      "holding": 4785,
      "includes": 4786,
      "particular": 4787,
      "collection": 4788,
      "room": 4789,
      "sunlight": 4790,
      "yearn": 4791,
      "ankly": 4792,
      "illuminated": 4793,
      "adaptive": 4794,
      "dusty": 4795,
      "recognize": 4796,
      "hunter": 4797,
      "sprout": 4798,
      "birthed": 4799,
      "accuracy": 4800,
      "careful": 4801,
      "paramount": 4802,
      "communicate": 4803,
      "typical": 4804,
      "probably": 4805,
      "equals": 4806,
      "instance": 4807,
      "cherish": 4808,
      "melod": 4809,
      "encourage": 4810,
      "developed": 4811,
      "suppor": 4812,
      "substanti": 4813,
      "painted": 4814,
      "indicates": 4815,
      "trivialities": 4816,
      "retinas": 4817,
      "phrase": 4818,
      "neuro": 4819,
      "contrast": 4820,
      "juiciest": 4821,
      "quantifiable": 4822,
      "generally": 4823,
      "8333333333333335": 4824,
      "gravity": 4825,
      "3157894736842": 4826,
      "7142857142857144": 4827,
      "inspires": 4828,
      "behavioral": 4829,
      "Barthol": 4830,
      "expanding": 4831,
      "photoreceptors": 4832,
      "Explain": 4833,
      "louder": 4834,
      "libraries": 4835,
      "102564102564": 4836,
      "230769230769": 4837,
      "decipher": 4838,
      "deciphering": 4839,
      "feedback": 4840,
      "engineering": 4841,
      "attempt": 4842,
      "concern": 4843,
      "exceed": 4844,
      "interpreted": 4845,
      "0983": 4846,
      "amongst": 4847,
      "claiming": 4848,
      "DEAR": 4849,
      "fantastic": 4850,
      "settles": 4851,
      "unravel": 4852,
      "ambigu": 4853,
      "collecting": 4854,
      "77777777777777": 4855,
      "million": 4856,
      "terminology": 4857,
      "pinnacle": 4858,
      "view": 4859,
      "excuse": 4860,
      "expansion": 4861,
      "806451612": 4862,
      "fancy": 4863,
      "exagger": 4864,
      "Barnaby": 4865,
      "1666666666666665": 4866,
      "DERFUL": 4867,
      "WONDERFUL": 4868,
      "ecosystem": 4869,
      "vague": 4870,
      "theoretical": 4871,
      "accumul": 4872,
      "Bartholomew": 4873,
      "ENT": 4874,
      "Good": 4875,
      "Hope": 4876,
      "LO": 4877,
      "Pro": 4878,
      "bin": 4879,
      "bar": 4880,
      "ball": 4881,
      "bless": 4882,
      "case": 4883,
      "ds": 4884,
      "dread": 4885,
      "dwell": 4886,
      "divers": 4887,
      "dimming": 4888,
      "eth": 4889,
      "eli": 4890,
      "fati": 4891,
      "frequ": 4892,
      "fateful": 4893,
      "gest": 4894,
      "ky": 4895,
      "ker": 4896,
      "mice": 4897,
      "nings": 4898,
      "nomen": 4899,
      "oce": 4900,
      "pted": 4901,
      "pair": 4902,
      "ron": 4903,
      "scan": 4904,
      "sized": 4905,
      "sorts": 4906,
      "ten": 4907,
      "tes": 4908,
      "wand": 4909,
      "wid": 4910,
      "yle": 4911,
      "zes": 4912,
      "🌲🌙": 4913,
      "🦉🌌": 4914,
      "🧠✨": 4915,
      "inability": 4916,
      "innov": 4917,
      "ertain": 4918,
      "anom": 4919,
      "eni": 4920,
      "ingu": 4921,
      "tiest": 4922,
      "arid": 4923,
      "stum": 4924,
      "step": 4925,
      "stuff": 4926,
      "acies": 4927,
      "accept": 4928,
      "acorn": 4929,
      "ativity": 4930,
      "nect": 4931,
      "trap": 4932,
      "creates": 4933,
      "below": 4934,
      "beats": 4935,
      "nder": 4936,
      "meet": 4937,
      "mocking": 4938,
      "frankly": 4939,
      "consid": 4940,
      "conven": 4941,
      "conflu": 4942,
      "devo": 4943,
      "shr": 4944,
      "shy": 4945,
      "ching": 4946,
      "chos": 4947,
      "chuck": 4948,
      "idered": 4949,
      "univers": 4950,
      "verte": 4951,
      "iring": 4952,
      "aging": 4953,
      "wear": 4954,
      "individ": 4955,
      "0026": 4956,
      "embod": 4957,
      "soon": 4958,
      "eless": 4959,
      "questioner": 4960,
      "foster": 4961,
      "brates": 4962,
      "undeni": 4963,
      "presume": 4964,
      "pho": 4965,
      "intent": 4966,
      "intrep": 4967,
      "intended": 4968,
      "canvas": 4969,
      "corp": 4970,
      "serves": 4971,
      "compe": 4972,
      "compare": 4973,
      "grant": 4974,
      "grows": 4975,
      "grateful": 4976,
      "irect": 4977,
      "disse": 4978,
      "🦉✨💡": 4979,
      "Then": 4980,
      "understandable": 4981,
      "astute": 4982,
      "daylight": 4983,
      "opy": 4984,
      "Inspir": 4985,
      "treat": 4986,
      "clature": 4987,
      "clari": 4988,
      "cracy": 4989,
      "observable": 4990,
      "illustr": 4991,
      "aws": 4992,
      "weighty": 4993,
      "considered": 4994,
      "experiencing": 4995,
      "playing": 4996,
      "directed": 4997,
      "references": 4998,
      "ounce": 4999,
      "effort": 5000,
      "detect": 5001,
      "took": 5002,
      "deliber": 5003,
      "critical": 5004,
      "cognition": 5005,
      "fix": 5006,
      "calmly": 5007,
      "bled": 5008,
      "blinking": 5009,
      "distingu": 5010,
      "greater": 5011,
      "surge": 5012,
      "posed": 5013,
      "hearts": 5014,
      "trib": 5015,
      "ouuuuuuu": 5016,
      "significantly": 5017,
      "mination": 5018,
      "representation": 5019,
      "assisting": 5020,
      "speaks": 5021,
      "reveals": 5022,
      "mission": 5023,
      "energe": 5024,
      "warmly": 5025,
      "excellence": 5026,
      "dedu": 5027,
      "shadowed": 5028,
      "involving": 5029,
      "involved": 5030,
      "rooted": 5031,
      "measurement": 5032,
      "spring": 5033,
      "resonate": 5034,
      "resonant": 5035,
      "dimension": 5036,
      "safe": 5037,
      "pursuits": 5038,
      "carefully": 5039,
      "Maybe": 5040,
      "glean": 5041,
      "hands": 5042,
      "slumbering": 5043,
      "facet": 5044,
      "primitive": 5045,
      "bigger": 5046,
      "souls": 5047,
      "umption": 5048,
      "veiled": 5049,
      "expeditions": 5050,
      "seemingly": 5051,
      "suppose": 5052,
      "paints": 5053,
      "identify": 5054,
      "chirps": 5055,
      "scheduleâ": 5056,
      "beetles": 5057,
      "quantity": 5058,
      "required": 5059,
      "catching": 5060,
      "pull": 5061,
      "pulse": 5062,
      "glimpse": 5063,
      "application": 5064,
      "Once": 5065,
      "packed": 5066,
      "tranqu": 5067,
      "spotting": 5068,
      "clouds": 5069,
      "landscape": 5070,
      "reasoning": 5071,
      "photon": 5072,
      "spectacles": 5073,
      "nurturing": 5074,
      "practically": 5075,
      "drift": 5076,
      "drifts": 5077,
      "bestowed": 5078,
      "vigilant": 5079,
      "ICAL": 5080,
      "destination": 5081,
      "venture": 5082,
      "decisions": 5083,
      "Plus": 5084,
      "Should": 5085,
      "failure": 5086,
      "content": 5087,
      "tilled": 5088,
      "worthy": 5089,
      "advancement": 5090,
      "variable": 5091,
      "legend": 5092,
      "degree": 5093,
      "defiant": 5094,
      "insignificant": 5095,
      "MAGICAL": 5096,
      "kissed": 5097,
      "simplistic": 5098,
      "eternally": 5099,
      "challenges": 5100,
      "atmosphere": 5101,
      "hesitate": 5102,
      "miniature": 5103,
      "nutrients": 5104,
      "doubt": 5105,
      "demonstr": 5106,
      "captivating": 5107,
      "hatched": 5108,
      "reaffirming": 5109,
      "simultaneously": 5110,
      "substantial": 5111,
      "nomenclature": 5112,
      "innovation": 5113,
      "anomal": 5114,
      "confluence": 5115,
      "devotion": 5116,
      "chosen": 5117,
      "vertebrates": 5118,
      "individual": 5119,
      "intrepid": 5120,
      "illustrious": 5121,
      "!)": 5122,
      "011": 5123,
      "445": 5124,
      "714": 5125,
      "7272727272727": 5126,
      "8333333333333": 5127,
      "8333333333333333": 5128,
      "Born": 5129,
      "BRI": 5130,
      "Co": 5131,
      "En": 5132,
      "Fli": 5133,
      "Pret": 5134,
      "Sm": 5135,
      "Tre": 5136,
      "Teach": 5137,
      "Was": 5138,
      "Whis": 5139,
      "aits": 5140,
      "bold": 5141,
      "cli": 5142,
      "cast": 5143,
      "div": 5144,
      "due": 5145,
      "eh": 5146,
      "ective": 5147,
      "ff": 5148,
      "four": 5149,
      "gs": 5150,
      "gli": 5151,
      "gone": 5152,
      "gog": 5153,
      "game": 5154,
      "gathered": 5155,
      "hard": 5156,
      "hop": 5157,
      "hmm": 5158,
      "lull": 5159,
      "laws": 5160,
      "mand": 5161,
      "mit": 5162,
      "mill": 5163,
      "mers": 5164,
      "ost": 5165,
      "pa": 5166,
      "ried": 5167,
      "sit": 5168,
      "sest": 5169,
      "sway": 5170,
      "tear": 5171,
      "utility": 5172,
      "utili": 5173,
      "wr": 5174,
      "won": 5175,
      "wow": 5176,
      "✨🦉💖": 5177,
      "🌙🦉": 5178,
      "🦉🔥": 5179,
      "🦉🌙✨": 5180,
      "ining": 5181,
      "instr": 5182,
      "incompar": 5183,
      "inhabit": 5184,
      "thod": 5185,
      "reli": 5186,
      "rece": 5187,
      "remem": 5188,
      "anno": 5189,
      "aseless": 5190,
      "itates": 5191,
      "edge": 5192,
      "arises": 5193,
      "leaving": 5194,
      "stones": 5195,
      "style": 5196,
      "accompan": 5197,
      "107": 5198,
      "entists": 5199,
      "seven": 5200,
      "forting": 5201,
      "ict": 5202,
      "youâ": 5203,
      "quiv": 5204,
      "ceaseless": 5205,
      "abil": 5206,
      "olls": 5207,
      "pron": 5208,
      "pride": 5209,
      "proud": 5210,
      "extrap": 5211,
      "method": 5212,
      "motion": 5213,
      "ained": 5214,
      "concl": 5215,
      "contrib": 5216,
      "degra": 5217,
      "urb": 5218,
      "shed": 5219,
      "appar": 5220,
      "chest": 5221,
      "chatter": 5222,
      "prop": 5223,
      "proto": 5224,
      "proportion": 5225,
      "progress": 5226,
      "outcomes": 5227,
      "uncertainty": 5228,
      "amusing": 5229,
      "ambi": 5230,
      "irre": 5231,
      "20512": 5232,
      "comforting": 5233,
      "147": 5234,
      "149": 5235,
      "007": 5236,
      "imposs": 5237,
      "lightness": 5238,
      "161": 5239,
      "plus": 5240,
      "plenty": 5241,
      "places": 5242,
      "placed": 5243,
      "centr": 5244,
      "intense": 5245,
      "useful": 5246,
      "273": 5247,
      "compared": 5248,
      "191": 5249,
      "194": 5250,
      "8837": 5251,
      "175": 5252,
      "179": 5253,
      "173913043478": 5254,
      "454": 5255,
      "commit": 5256,
      "3225": 5257,
      "dissect": 5258,
      "obble": 5259,
      "evid": 5260,
      "commonly": 5261,
      "296": 5262,
      "2978": 5263,
      "348837": 5264,
      "petite": 5265,
      "anyone": 5266,
      "refine": 5267,
      "redu": 5268,
      "treating": 5269,
      "internet": 5270,
      "dreamt": 5271,
      "suboptimal": 5272,
      "382978": 5273,
      "elementary": 5274,
      "whose": 5275,
      "inquis": 5276,
      "readily": 5277,
      "themed": 5278,
      "hasn": 5279,
      "ification": 5280,
      "approximate": 5281,
      "awk": 5282,
      "thereby": 5283,
      "ilibr": 5284,
      "grandest": 5285,
      "capes": 5286,
      "profoundly": 5287,
      "works": 5288,
      "momentous": 5289,
      "finds": 5290,
      "kindly": 5291,
      "misch": 5292,
      "original": 5293,
      "fluttering": 5294,
      "effect": 5295,
      "skill": 5296,
      "diam": 5297,
      "seriously": 5298,
      "keeps": 5299,
      "spirits": 5300,
      "airy": 5301,
      "picture": 5302,
      "joyful": 5303,
      "confusion": 5304,
      "riddles": 5305,
      "dramatically": 5306,
      "catalog": 5307,
      "alignment": 5308,
      "closest": 5309,
      "representing": 5310,
      "humorously": 5311,
      "treasured": 5312,
      "glint": 5313,
      "metal": 5314,
      "purely": 5315,
      "basically": 5316,
      "limitation": 5317,
      "letter": 5318,
      "responsible": 5319,
      "quality": 5320,
      "sustains": 5321,
      "4545454": 5322,
      "allowed": 5323,
      "fluctu": 5324,
      "messy": 5325,
      "probabil": 5326,
      "equilibr": 5327,
      "imaginative": 5328,
      "nuanced": 5329,
      "infinites": 5330,
      "environments": 5331,
      "heads": 5332,
      "encouragement": 5333,
      "actively": 5334,
      "ampli": 5335,
      "puzzles": 5336,
      "fulfillment": 5337,
      "possibility": 5338,
      "floor": 5339,
      "swir": 5340,
      "neurob": 5341,
      "contrasting": 5342,
      "family": 5343,
      "sighs": 5344,
      "titude": 5345,
      "434782608695652": 5346,
      "exhi": 5347,
      "witnessed": 5348,
      "Hooooo": 5349,
      "Hooooot": 5350,
      "glimmer": 5351,
      "algorithmic": 5352,
      "chaos": 5353,
      "beginning": 5354,
      "8571428571428571": 5355,
      "levels": 5356,
      "encounters": 5357,
      "birds": 5358,
      "7142857142857142": 5359,
      "threats": 5360,
      "movement": 5361,
      "landscapes": 5362,
      "winks": 5363,
      "nurture": 5364,
      "attempting": 5365,
      "diligent": 5366,
      "polite": 5367,
      "necessitates": 5368,
      "descriptions": 5369,
      "Anything": 5370,
      "attributes": 5371,
      "shaped": 5372,
      "pixel": 5373,
      "14285714285714285": 5374,
      "454545454545454": 5375,
      "strategies": 5376,
      "190476190476": 5377,
      "scrolls": 5378,
      "interacting": 5379,
      "relationship": 5380,
      "prepared": 5381,
      "oooooooh": 5382,
      "hypothetical": 5383,
      "melancholy": 5384,
      "flesh": 5385,
      "ripple": 5386,
      "193548387096": 5387,
      "inspired": 5388,
      "psychological": 5389,
      "2208": 5390,
      "badger": 5391,
      "cascade": 5392,
      "schol": 5393,
      "exclusive": 5394,
      "difficult": 5395,
      "756756": 5396,
      "hurried": 5397,
      "articulate": 5398,
      "7777777777777778": 5399,
      "80645161290": 5400,
      "Goodbye": 5401,
      "fatigue": 5402,
      "nectar": 5403,
      "considering": 5404,
      "Inspiration": 5405,
      "distinguished": 5406,
      "energetic": 5407,
      "faceted": 5408,
      "7142857142857": 5409,
      "Pretty": 5410,
      "Small": 5411,
      "Trees": 5412,
      "goggles": 5413,
      "incomparable": 5414,
      "remembered": 5415,
      "annoy": 5416,
      "extrapol": 5417,
      "probabilistic": 5418,
      "05": 5419,
      "6000000000000": 5420,
      "920": 5421,
      "Ac": 5422,
      "At": 5423,
      "Cre": 5424,
      "Dream": 5425,
      "EX": 5426,
      "Fine": 5427,
      "Favor": 5428,
      "Get": 5429,
      "Give": 5430,
      "Hmm": 5431,
      "LU": 5432,
      "LLI": 5433,
      "Ra": 5434,
      "SS": 5435,
      "TRE": 5436,
      "bid": 5437,
      "cous": 5438,
      "cup": 5439,
      "cold": 5440,
      "coura": 5441,
      "counter": 5442,
      "caught": 5443,
      "dand": 5444,
      "dap": 5445,
      "domin": 5446,
      "dive": 5447,
      "eu": 5448,
      "eon": 5449,
      "fil": 5450,
      "fading": 5451,
      "gam": 5452,
      "hal": 5453,
      "hawk": 5454,
      "hallowed": 5455,
      "iors": 5456,
      "kay": 5457,
      "knew": 5458,
      "mater": 5459,
      "none": 5460,
      "pun": 5461,
      "push": 5462,
      "rul": 5463,
      "sor": 5464,
      "som": 5465,
      "scul": 5466,
      "scre": 5467,
      "sap": 5468,
      "stic": 5469,
      "sco": 5470,
      "sche": 5471,
      "sulfur": 5472,
      "whel": 5473,
      "ya": 5474,
      "zer": 5475,
      "zard": 5476,
      "zip": 5477,
      "🌌🦉✨🤫": 5478,
      "🌟🌙✨": 5479,
      "🌿🌙": 5480,
      "💖🌟": 5481,
      "💖😊": 5482,
      "🙄🦉": 5483,
      "🦉…": 5484,
      "🦉⚛": 5485,
      "inth": 5486,
      "thir": 5487,
      "atr": 5488,
      "atable": 5489,
      "attitude": 5490,
      "resides": 5491,
      "reaction": 5492,
      "revol": 5493,
      "onging": 5494,
      "ales": 5495,
      "alchem": 5496,
      "encompass": 5497,
      "escape": 5498,
      "tie": 5499,
      "stor": 5500,
      "atever": 5501,
      "oose": 5502,
      "entertain": 5503,
      "icious": 5504,
      "percept": 5505,
      "perfection": 5506,
      "perceptive": 5507,
      "tric": 5508,
      "trad": 5509,
      "wigg": 5510,
      "rarest": 5511,
      "spo": 5512,
      "spin": 5513,
      "spires": 5514,
      "condu": 5515,
      "contain": 5516,
      "consequ": 5517,
      "concentr": 5518,
      "demand": 5519,
      "Hiss": 5520,
      "chron": 5521,
      "choose": 5522,
      "probe": 5523,
      "unlike": 5524,
      "unable": 5525,
      "adore": 5526,
      "indicate": 5527,
      "indirect": 5528,
      "alloc": 5529,
      "whatâ": 5530,
      "term": 5531,
      "unequiv": 5532,
      "antly": 5533,
      "ticing": 5534,
      "respective": 5535,
      "plane": 5536,
      "istered": 5537,
      "locut": 5538,
      "preser": 5539,
      "spection": 5540,
      "smil": 5541,
      "smart": 5542,
      "knowledgeable": 5543,
      "endid": 5544,
      "canopy": 5545,
      "Ask": 5546,
      "resting": 5547,
      "ignor": 5548,
      "ignited": 5549,
      "Oooooouuuuuuu": 5550,
      "grati": 5551,
      "rence": 5552,
      "nighttime": 5553,
      "134": 5554,
      "🦉✨🧠": 5555,
      "evoke": 5556,
      "knows": 5557,
      "Near": 5558,
      "despair": 5559,
      "numbers": 5560,
      "stranger": 5561,
      "striving": 5562,
      "pressure": 5563,
      "trem": 5564,
      "interlocut": 5565,
      "expresses": 5566,
      "calculate": 5567,
      "whenever": 5568,
      "relatable": 5569,
      "quietest": 5570,
      "quietude": 5571,
      "presents": 5572,
      "therefore": 5573,
      "consult": 5574,
      "consumption": 5575,
      "direction": 5576,
      "requiring": 5577,
      "timing": 5578,
      "operations": 5579,
      "cues": 5580,
      "eyesight": 5581,
      "SOLU": 5582,
      "complexities": 5583,
      "cheer": 5584,
      "detection": 5585,
      "diag": 5586,
      "curiosities": 5587,
      "delic": 5588,
      "seriousness": 5589,
      "Around": 5590,
      "Always": 5591,
      "drain": 5592,
      "twit": 5593,
      "continuously": 5594,
      "ponderings": 5595,
      "disturb": 5596,
      "optimizing": 5597,
      "invite": 5598,
      "085": 5599,
      "registered": 5600,
      "difference": 5601,
      "ocally": 5602,
      "explorations": 5603,
      "overwhel": 5604,
      "breathed": 5605,
      "parallel": 5606,
      "sunbeam": 5607,
      "glance": 5608,
      "flick": 5609,
      "brightest": 5610,
      "fallen": 5611,
      "categor": 5612,
      "root": 5613,
      "framed": 5614,
      "974": 5615,
      "contemplative": 5616,
      "isotopic": 5617,
      "organized": 5618,
      "order": 5619,
      "opport": 5620,
      "groundbreaking": 5621,
      "slumbers": 5622,
      "seeds": 5623,
      "adheres": 5624,
      "reminder": 5625,
      "probing": 5626,
      "instanti": 5627,
      "stray": 5628,
      "signatures": 5629,
      "honored": 5630,
      "expected": 5631,
      "expectations": 5632,
      "finely": 5633,
      "nuances": 5634,
      "monument": 5635,
      "analogy": 5636,
      "breathtaking": 5637,
      "planet": 5638,
      "tiredness": 5639,
      "didn": 5640,
      "painting": 5641,
      "000000000002": 5642,
      "behaviors": 5643,
      "accessible": 5644,
      "fields": 5645,
      "glimmers": 5646,
      "temporary": 5647,
      "delving": 5648,
      "burst": 5649,
      "movements": 5650,
      "🦉✨🌌🤫": 5651,
      "anthropomorphizing": 5652,
      "briefly": 5653,
      "delivering": 5654,
      "facilitating": 5655,
      "huh": 5656,
      "cryp": 5657,
      "cryst": 5658,
      "casual": 5659,
      "engineered": 5660,
      "completely": 5661,
      "vigilance": 5662,
      "Quantum": 5663,
      "necessary": 5664,
      "appear": 5665,
      "discuss": 5666,
      "discussed": 5667,
      "description": 5668,
      "followed": 5669,
      "envisioned": 5670,
      "discernment": 5671,
      "spectrum": 5672,
      "strategic": 5673,
      "giggles": 5674,
      "astonishment": 5675,
      "lonely": 5676,
      "various": 5677,
      "rapid": 5678,
      "intertwine": 5679,
      "squirrels": 5680,
      "giant": 5681,
      "ABSOLU": 5682,
      "Observe": 5683,
      "praise": 5684,
      "paradigm": 5685,
      "pivot": 5686,
      "achieving": 5687,
      "dynamic": 5688,
      "comparison": 5689,
      "enlighten": 5690,
      "deflect": 5691,
      "component": 5692,
      "intricacies": 5693,
      "distinction": 5694,
      "support": 5695,
      "accumulation": 5696,
      "elion": 5697,
      "wander": 5698,
      "width": 5699,
      "weariness": 5700,
      "embodiment": 5701,
      "undeniably": 5702,
      "competition": 5703,
      "clarify": 5704,
      "ouncements": 5705,
      "fixed": 5706,
      "BRILLI": 5707,
      "Flicker": 5708,
      "pronouncements": 5709,
      "protocol": 5710,
      "inquisitive": 5711,
      "fluctuations": 5712,
      "exhibit": 5713,
      "annoyance": 5714,
      "Favorite": 5715,
      "Raj": 5716,
      "courage": 5717,
      "dandelion": 5718,
      "dappled": 5719,
      "games": 5720,
      "unequivocally": 5721,
      "interlocutor": 5722,
      "ABSOLUTE": 5723,
      "BRILLIANT": 5724,
      "')": 5725,
      "').": 5726,
      "234": 5727,
      "300": 5728,
      "311": 5729,
      "425": 5730,
      "525": 5731,
      "522": 5732,
      "6153846153846": 5733,
      "734": 5734,
      "966": 5735,
      "964": 5736,
      "980": 5737,
      "Af": 5738,
      "Allow": 5739,
      "AST": 5740,
      "Come": 5741,
      "Fly": 5742,
      "GH": 5743,
      "Given": 5744,
      "Hey": 5745,
      "Le": 5746,
      "Lately": 5747,
      "More": 5748,
      "NI": 5749,
      "OO": 5750,
      "Se": 5751,
      "Speak": 5752,
      "TH": 5753,
      "VE": 5754,
      "Where": 5755,
      "Yet": 5756,
      "band": 5757,
      "bone": 5758,
      "bask": 5759,
      "blan": 5760,
      "cand": 5761,
      "dation": 5762,
      "dil": 5763,
      "eur": 5764,
      "either": 5765,
      "fol": 5766,
      "fare": 5767,
      "fty": 5768,
      "fair": 5769,
      "foot": 5770,
      "gobble": 5771,
      "hoooo": 5772,
      "ials": 5773,
      "ji": 5774,
      "lat": 5775,
      "lab": 5776,
      "lest": 5777,
      "laby": 5778,
      "labor": 5779,
      "mus": 5780,
      "mig": 5781,
      "ns": 5782,
      "ocul": 5783,
      "oad": 5784,
      "ption": 5785,
      "pig": 5786,
      "rum": 5787,
      "ries": 5788,
      "rings": 5789,
      "rows": 5790,
      "rinth": 5791,
      "son": 5792,
      "sac": 5793,
      "sum": 5794,
      "savor": 5795,
      "sque": 5796,
      "scat": 5797,
      "scorp": 5798,
      "tons": 5799,
      "ues": 5800,
      "vist": 5801,
      "ware": 5802,
      "wrap": 5803,
      "✨💖": 5804,
      "🌙💖": 5805,
      "🌟🌙": 5806,
      "🌳✨": 5807,
      "💎🧠": 5808,
      "😉🦉💻": 5809,
      "🚀✨": 5810,
      "🦉💫": 5811,
      "inf": 5812,
      "incon": 5813,
      "intim": 5814,
      "incoming": 5815,
      "invertebrates": 5816,
      "rer": 5817,
      "repor": 5818,
      "isy": 5819,
      "ister": 5820,
      "anto": 5821,
      "anim": 5822,
      "theory": 5823,
      "alive": 5824,
      "alert": 5825,
      "endear": 5826,
      "orb": 5827,
      "orch": 5828,
      "orient": 5829,
      "ticip": 5830,
      "asper": 5831,
      "astr": 5832,
      "itable": 5833,
      "arter": 5834,
      "ulate": 5835,
      "left": 5836,
      "owlet": 5837,
      "storm": 5838,
      "myri": 5839,
      "liking": 5840,
      "acqu": 5841,
      "acute": 5842,
      "1026": 5843,
      "ooo": 5844,
      "hefty": 5845,
      "atile": 5846,
      "nel": 5847,
      "umed": 5848,
      "umsy": 5849,
      "ently": 5850,
      "entless": 5851,
      "forge": 5852,
      "foraging": 5853,
      "peril": 5854,
      "usage": 5855,
      "cultiv": 5856,
      "promin": 5857,
      "cree": 5858,
      "raw": 5859,
      "rame": 5860,
      "whatever": 5861,
      "bear": 5862,
      "exer": 5863,
      "exasper": 5864,
      "mod": 5865,
      "imper": 5866,
      "improve": 5867,
      "cones": 5868,
      "confirming": 5869,
      "concrete": 5870,
      "assure": 5871,
      "assign": 5872,
      "deal": 5873,
      "demo": 5874,
      "decree": 5875,
      "1260": 5876,
      "shown": 5877,
      "shows": 5878,
      "appoint": 5879,
      "chasing": 5880,
      "outside": 5881,
      "unting": 5882,
      "unny": 5883,
      "unforget": 5884,
      "unanswered": 5885,
      "needles": 5886,
      "amoun": 5887,
      "amount": 5888,
      "258": 5889,
      "2558": 5890,
      "ady": 5891,
      "cted": 5892,
      "ulties": 5893,
      "ishes": 5894,
      "142": 5895,
      "148": 5896,
      "kname": 5897,
      "weaver": 5898,
      "wels": 5899,
      "indig": 5900,
      "valid": 5901,
      "impending": 5902,
      "notions": 5903,
      "169": 5904,
      "115": 5905,
      "formation": 5906,
      "sock": 5907,
      "implic": 5908,
      "coherent": 5909,
      "coales": 5910,
      "maintains": 5911,
      "broad": 5912,
      "Whoooo": 5913,
      "sufficient": 5914,
      "note": 5915,
      "phanto": 5916,
      "ints": 5917,
      "3023": 5918,
      "270": 5919,
      "spell": 5920,
      "cord": 5921,
      "server": 5922,
      "rests": 5923,
      "compounds": 5924,
      "Oooooouuu": 5925,
      "izes": 5926,
      "grump": 5927,
      "gruity": 5928,
      "graces": 5929,
      "graced": 5930,
      "5517": 5931,
      "174": 5932,
      "commend": 5933,
      "discrete": 5934,
      "flame": 5935,
      "inefficient": 5936,
      "131": 5937,
      "existing": 5938,
      "🦉✨💎🧠": 5939,
      "34146": 5940,
      "Thus": 5941,
      "Though": 5942,
      "Neural": 5943,
      "scientists": 5944,
      "learns": 5945,
      "reframe": 5946,
      "proving": 5947,
      "263157894736842": 5948,
      "clumsy": 5949,
      "maneu": 5950,
      "3846": 5951,
      "390": 5952,
      "arrang": 5953,
      "instilled": 5954,
      "ieval": 5955,
      "relentless": 5956,
      "worlds": 5957,
      "7234": 5958,
      "quiets": 5959,
      "jewels": 5960,
      "wanting": 5961,
      "478": 5962,
      "awake": 5963,
      "awaits": 5964,
      "608": 5965,
      "answering": 5966,
      "weights": 5967,
      "grander": 5968,
      "grandeur": 5969,
      "creatively": 5970,
      "seeks": 5971,
      "citing": 5972,
      "fungi": 5973,
      "acknowledges": 5974,
      "acknowledgement": 5975,
      "foresight": 5976,
      "windows": 5977,
      "timeless": 5978,
      "resol": 5979,
      "imaginary": 5980,
      "hovers": 5981,
      "unities": 5982,
      "factors": 5983,
      "delivery": 5984,
      "possibly": 5985,
      "21680": 5986,
      "symbo": 5987,
      "69230769230769": 5988,
      "pick": 5989,
      "solution": 5990,
      "solace": 5991,
      "watcher": 5992,
      "specialization": 5993,
      "earthy": 5994,
      "ornith": 5995,
      "🦉💖🌟": 5996,
      "warnings": 5997,
      "distress": 5998,
      "hints": 5999,
      "surface": 6000,
      "0879": 6001,
      "archives": 6002,
      "cats": 6003,
      "enhanced": 6004,
      "enhancing": 6005,
      "systematic": 6006,
      "potentially": 6007,
      "testing": 6008,
      "glad": 6009,
      "glade": 6010,
      "superpower": 6011,
      "haven": 6012,
      "unfathom": 6013,
      "boundaries": 6014,
      "adapted": 6015,
      "pretend": 6016,
      "pretty": 6017,
      "evolved": 6018,
      "dusted": 6019,
      "apping": 6020,
      "beautifully": 6021,
      "auses": 6022,
      "beneficial": 6023,
      "hunters": 6024,
      "goingâ": 6025,
      "nests": 6026,
      "sprite": 6027,
      "phism": 6028,
      "traits": 6029,
      "importantly": 6030,
      "predictions": 6031,
      "projected": 6032,
      "architectures": 6033,
      "scoff": 6034,
      "tickle": 6035,
      "communic": 6036,
      "keys": 6037,
      "metaphorically": 6038,
      "9999999999996": 6039,
      "reminds": 6040,
      "reminding": 6041,
      "probable": 6042,
      "remarkably": 6043,
      "Ready": 6044,
      "Unlike": 6045,
      "honed": 6046,
      "imaginable": 6047,
      "1122": 6048,
      "strict": 6049,
      "analogies": 6050,
      "Magical": 6051,
      "channel": 6052,
      "planning": 6053,
      "produce": 6054,
      "11111111111111": 6055,
      "ario": 6056,
      "identified": 6057,
      "enchantment": 6058,
      "daunting": 6059,
      "neurons": 6060,
      "retrieval": 6061,
      "26086": 6062,
      "anthropomorphism": 6063,
      "witnessing": 6064,
      "guards": 6065,
      "affectionate": 6066,
      "222222222222222": 6067,
      "555555555555555": 6068,
      "8571428571428572": 6069,
      "marks": 6070,
      "Within": 6071,
      "mistake": 6072,
      "ruffled": 6073,
      "horizons": 6074,
      "developmental": 6075,
      "burden": 6076,
      "properties": 6077,
      "meaningful": 6078,
      "intrinsic": 6079,
      "facilitates": 6080,
      "calibrated": 6081,
      "habits": 6082,
      "library": 6083,
      "plants": 6084,
      "maximum": 6085,
      "maximizing": 6086,
      "crosses": 6087,
      "technical": 6088,
      "technological": 6089,
      "technically": 6090,
      "casion": 6091,
      "ucked": 6092,
      "integrated": 6093,
      "84210526": 6094,
      "galax": 6095,
      "shapes": 6096,
      "velvety": 6097,
      "106382978": 6098,
      "spectral": 6099,
      "counting": 6100,
      "pale": 6101,
      "advancements": 6102,
      "scenario": 6103,
      "mirroring": 6104,
      "reassuring": 6105,
      "stretched": 6106,
      "prepare": 6107,
      "splendid": 6108,
      "unearthed": 6109,
      "ooooooh": 6110,
      "095238": 6111,
      "whirring": 6112,
      "surrounding": 6113,
      "absorbing": 6114,
      "multifaceted": 6115,
      "niche": 6116,
      "nickname": 6117,
      "privile": 6118,
      "execution": 6119,
      "deviation": 6120,
      "2093023": 6121,
      "signaling": 6122,
      "struggle": 6123,
      "444444444444445": 6124,
      "363636363636": 6125,
      "1176470588235": 6126,
      "identifier": 6127,
      "identifiers": 6128,
      "10526315789473684": 6129,
      "alkali": 6130,
      "ennia": 6131,
      "experiment": 6132,
      "crickets": 6133,
      "regardless": 6134,
      "constituents": 6135,
      "sentinel": 6136,
      "bounces": 6137,
      "mountains": 6138,
      "sliver": 6139,
      "spread": 6140,
      "1395348837": 6141,
      "managed": 6142,
      "introspection": 6143,
      "oscopic": 6144,
      "barn": 6145,
      "gestures": 6146,
      "oceans": 6147,
      "stumbled": 6148,
      "fostering": 6149,
      "phosphorus": 6150,
      "dissemination": 6151,
      "dimensions": 6152,
      "contentment": 6153,
      "anomaly": 6154,
      "divine": 6155,
      "glide": 6156,
      "millennia": 6157,
      "pause": 6158,
      "utilize": 6159,
      "receive": 6160,
      "contributions": 6161,
      "apparatus": 6162,
      "propag": 6163,
      "ambient": 6164,
      "205128": 6165,
      "diamond": 6166,
      "equilibrium": 6167,
      "neurobiological": 6168,
      "scholar": 6169,
      "Created": 6170,
      "cousins": 6171,
      "materials": 6172,
      "rules": 6173,
      "somber": 6174,
      "perceptual": 6175,
      "traditional": 6176,
      "cheerful": 6177,
      "opportunities": 6178,
      "monumental": 6179,
      "6153846153846154": 6180,
      "bandwidth": 6181,
      "blank": 6182,
      "folk": 6183,
      "labyrinth": 6184,
      "migr": 6185,
      "pigeon": 6186,
      "sacred": 6187,
      "scattered": 6188,
      "😉🦉💻😂": 6189,
      "incongruity": 6190,
      "orientation": 6191,
      "myriad": 6192,
      "unforgettable": 6193,
      "amounts": 6194,
      "grumpy": 6195,
      "551724": 6196,
      "3846153846": 6197,
      "unfathomable": 6198,
      "galaxies": 6199,
      "1063829787234": 6200,
      "!**": 6201,
      "!',": 6202,
      "'),": 6203,
      ")?": 6204,
      "*-": 6205,
      "022": 6206,
      "3999999999999": 6207,
      "AN": 6208,
      "Anal": 6209,
      "ASU": 6210,
      "Cons": 6211,
      "Fir": 6212,
      "FIC": 6213,
      "Funny": 6214,
      "GE": 6215,
      "Gather": 6216,
      "Lit": 6217,
      "ME": 6218,
      "Mach": 6219,
      "Nat": 6220,
      "Niet": 6221,
      "OR": 6222,
      "Other": 6223,
      "Pure": 6224,
      "PER": 6225,
      "Right": 6226,
      "Rest": 6227,
      "Spr": 6228,
      "Spor": 6229,
      "Sounds": 6230,
      "Stop": 6231,
      "Tr": 6232,
      "Tod": 6233,
      "Tsk": 6234,
      "Wo": 6235,
      "YE": 6236,
      "aer": 6237,
      "ahead": 6238,
      "bat": 6239,
      "bare": 6240,
      "bough": 6241,
      "bank": 6242,
      "coo": 6243,
      "cab": 6244,
      "cad": 6245,
      "came": 6246,
      "caver": 6247,
      "casting": 6248,
      "dant": 6249,
      "fal": 6250,
      "fide": 6251,
      "fold": 6252,
      "faster": 6253,
      "fool": 6254,
      "fash": 6255,
      "fades": 6256,
      "fathom": 6257,
      "gain": 6258,
      "gust": 6259,
      "hund": 6260,
      "home": 6261,
      "hine": 6262,
      "house": 6263,
      "iome": 6264,
      "iately": 6265,
      "iker": 6266,
      "lity": 6267,
      "leng": 6268,
      "lament": 6269,
      "migh": 6270,
      "mild": 6271,
      "mush": 6272,
      "ned": 6273,
      "nap": 6274,
      "nud": 6275,
      "oqu": 6276,
      "okay": 6277,
      "pi": 6278,
      "pathetic": 6279,
      "rot": 6280,
      "rises": 6281,
      "sin": 6282,
      "sow": 6283,
      "sass": 6284,
      "sought": 6285,
      "tings": 6286,
      "tail": 6287,
      "tears": 6288,
      "ug": 6289,
      "ucid": 6290,
      "van": 6291,
      "vul": 6292,
      "vest": 6293,
      "vict": 6294,
      "wave": 6295,
      "wob": 6296,
      "zsche": 6297,
      "🌟🦉": 6298,
      "💖🦉✨": 6299,
      "📊✨": 6300,
      "😉),": 6301,
      "😊🌟": 6302,
      "😊💖": 6303,
      "ini": 6304,
      "increas": 6305,
      "invaluable": 6306,
      "incomplete": 6307,
      "recalibration": 6308,
      "render": 6309,
      "oning": 6310,
      "onom": 6311,
      "era": 6312,
      "err": 6313,
      "anial": 6314,
      "ouded": 6315,
      "thered": 6316,
      "ale": 6317,
      "aling": 6318,
      "alar": 6319,
      "alty": 6320,
      "enable": 6321,
      "titive": 6322,
      "tirel": 6323,
      "asts": 6324,
      "edges": 6325,
      "tocracy": 6326,
      "articul": 6327,
      "stur": 6328,
      "stage": 6329,
      "static": 6330,
      "mysti": 6331,
      "lif": 6332,
      "idescent": 6333,
      "ache": 6334,
      "account": 6335,
      "accid": 6336,
      "atives": 6337,
      "neg": 6338,
      "neither": 6339,
      "sem": 6340,
      "separ": 6341,
      "perple": 6342,
      "hist": 6343,
      "quir": 6344,
      "queness": 6345,
      "ceed": 6346,
      "trig": 6347,
      "trium": 6348,
      "tracing": 6349,
      "olumin": 6350,
      "uuuuuu": 6351,
      "prize": 6352,
      "moder": 6353,
      "imic": 6354,
      "spend": 6355,
      "sparr": 6356,
      "confin": 6357,
      "deign": 6358,
      "deconstruct": 6359,
      "thatâ": 6360,
      "124": 6361,
      "shines": 6362,
      "shining": 6363,
      "chor": 6364,
      "change": 6365,
      "chick": 6366,
      "changes": 6367,
      "proof": 6368,
      "prote": 6369,
      "outward": 6370,
      "users": 6371,
      "unlo": 6372,
      "unveil": 6373,
      "unusual": 6374,
      "unspoken": 6375,
      "igue": 6376,
      "verdant": 6377,
      "needed": 6378,
      "amor": 6379,
      "iridescent": 6380,
      "feats": 6381,
      "area": 6382,
      "ador": 6383,
      "adjust": 6384,
      "admir": 6385,
      "agility": 6386,
      "uted": 6387,
      "comra": 6388,
      "compromise": 6389,
      "composed": 6390,
      "persistent": 6391,
      "weep": 6392,
      "indul": 6393,
      "estly": 6394,
      "valued": 6395,
      "nostic": 6396,
      "lighter": 6397,
      "ciousness": 6398,
      "dense": 6399,
      "soundly": 6400,
      "fication": 6401,
      "ficacy": 6402,
      "plat": 6403,
      "plot": 6404,
      "plucked": 6405,
      "eloqu": 6406,
      "elucid": 6407,
      "fox": 6408,
      "poised": 6409,
      "240": 6410,
      "berries": 6411,
      "lose": 6412,
      "loving": 6413,
      "intake": 6414,
      "specul": 6415,
      "worms": 6416,
      "smarter": 6417,
      "endar": 6418,
      "correl": 6419,
      "corrup": 6420,
      "correlation": 6421,
      "cording": 6422,
      "series": 6423,
      "serving": 6424,
      "compelling": 6425,
      "grub": 6426,
      "undertaking": 6427,
      "171": 6428,
      "standing": 6429,
      "tsk": 6430,
      "mostly": 6431,
      "commence": 6432,
      "discord": 6433,
      "disorientation": 6434,
      "obs": 6435,
      "eps": 6436,
      "flourish": 6437,
      "flapping": 6438,
      "🦉✨🚀": 6439,
      "🦉✨💖🌙": 6440,
      "ellation": 6441,
      "creations": 6442,
      "stri": 6443,
      "optical": 6444,
      "oppos": 6445,
      "Inte": 6446,
      "elev": 6447,
      "interplay": 6448,
      "interrup": 6449,
      "clar": 6450,
      "clamor": 6451,
      "cranial": 6452,
      "aching": 6453,
      "achment": 6454,
      "ables": 6455,
      "subsequ": 6456,
      "expression": 6457,
      "expressions": 6458,
      "silk": 6459,
      "early": 6460,
      "parts": 6461,
      "particip": 6462,
      "analyzed": 6463,
      "calendar": 6464,
      "intrigue": 6465,
      "urning": 6466,
      "advant": 6467,
      "insist": 6468,
      "ichiome": 6469,
      "3762": 6470,
      "presenting": 6471,
      "Hoot": 6472,
      "greets": 6473,
      "contextual": 6474,
      "cked": 6475,
      "vastly": 6476,
      "aky": 6477,
      "played": 6478,
      "delighted": 6479,
      "realization": 6480,
      "favorites": 6481,
      "operation": 6482,
      "emphasis": 6483,
      "charm": 6484,
      "charge": 6485,
      "sensing": 6486,
      "featherless": 6487,
      "acknowledged": 6488,
      "eyeshine": 6489,
      "ountered": 6490,
      "foreign": 6491,
      "sparked": 6492,
      "kinds": 6493,
      "biolumin": 6494,
      "perceives": 6495,
      "bud": 6496,
      "bug": 6497,
      "beenâ": 6498,
      "uniqueness": 6499,
      "pieces": 6500,
      "efficacy": 6501,
      "higher": 6502,
      "background": 6503,
      "dialog": 6504,
      "affect": 6505,
      "veness": 6506,
      "encountered": 6507,
      "critic": 6508,
      "formatted": 6509,
      "Life": 6510,
      "guideline": 6511,
      "constra": 6512,
      "solved": 6513,
      "magnificence": 6514,
      "cerity": 6515,
      "continuity": 6516,
      "blink": 6517,
      "🦉💖✨🌙": 6518,
      "flower": 6519,
      "echoing": 6520,
      "echoed": 6521,
      "defines": 6522,
      "defining": 6523,
      "hears": 6524,
      "truest": 6525,
      "regular": 6526,
      "aspire": 6527,
      "closer": 6528,
      "potassium": 6529,
      "colour": 6530,
      "colors": 6531,
      "minimal": 6532,
      "represented": 6533,
      "builds": 6534,
      "rock": 6535,
      "touching": 6536,
      "assistant": 6537,
      "structures": 6538,
      "occurren": 6539,
      "occasion": 6540,
      "depend": 6541,
      "depends": 6542,
      "sung": 6543,
      "sunrise": 6544,
      "glass": 6545,
      "yearning": 6546,
      "adding": 6547,
      "masters": 6548,
      "ipped": 6549,
      "woodland": 6550,
      "remembers": 6551,
      "brighter": 6552,
      "guidance": 6553,
      "predomin": 6554,
      "referred": 6555,
      "appellation": 6556,
      "sweetness": 6557,
      "973762": 6558,
      "recognizing": 6559,
      "personality": 6560,
      "sprites": 6561,
      "taining": 6562,
      "isotope": 6563,
      "logically": 6564,
      "glowing": 6565,
      "shell": 6566,
      "predict": 6567,
      "looked": 6568,
      "ordin": 6569,
      "calculating": 6570,
      "constructs": 6571,
      "scout": 6572,
      "flux": 6573,
      "facing": 6574,
      "faced": 6575,
      "primal": 6576,
      "approaching": 6577,
      "consistently": 6578,
      "stop": 6579,
      "stoichiome": 6580,
      "twigs": 6581,
      "decay": 6582,
      "9999999999998": 6583,
      "translates": 6584,
      "mortals": 6585,
      "ARK": 6586,
      "ibble": 6587,
      "probability": 6588,
      "party": 6589,
      "partake": 6590,
      "imagined": 6591,
      "immensely": 6592,
      "moniker": 6593,
      "Doesn": 6594,
      "addressing": 6595,
      "Another": 6596,
      "startled": 6597,
      "molecul": 6598,
      "happening": 6599,
      "!')": 6600,
      "product": 6601,
      "🦉💡✨": 6602,
      "supply": 6603,
      "frameworks": 6604,
      "indicators": 6605,
      "indicated": 6606,
      "indicating": 6607,
      "tenderness": 6608,
      "belief": 6609,
      "00000000000001": 6610,
      "enchanted": 6611,
      "daily": 6612,
      "futility": 6613,
      "layered": 6614,
      "dataset": 6615,
      "captured": 6616,
      "synthesized": 6617,
      "requirements": 6618,
      "strategy": 6619,
      "generation": 6620,
      "generating": 6621,
      "Goals": 6622,
      "voles": 6623,
      "uncovering": 6624,
      "similarities": 6625,
      "marked": 6626,
      "comparative": 6627,
      "Without": 6628,
      "judicious": 6629,
      "packet": 6630,
      "elegance": 6631,
      "surpris": 6632,
      "sprinkled": 6633,
      "transpl": 6634,
      "disruptions": 6635,
      "functionalities": 6636,
      "birthdate": 6637,
      "absorption": 6638,
      "hero": 6639,
      "oaks": 6640,
      "audacity": 6641,
      "inputs": 6642,
      "endlessly": 6643,
      "remaining": 6644,
      "spectacle": 6645,
      "STER": 6646,
      "scales": 6647,
      "practical": 6648,
      "practicing": 6649,
      "integrity": 6650,
      "SPARK": 6651,
      "destiny": 6652,
      "diligence": 6653,
      "diligently": 6654,
      "cuttings": 6655,
      "tongue": 6656,
      "harm": 6657,
      "harness": 6658,
      "ievous": 6659,
      "excel": 6660,
      "simulation": 6661,
      "frontiers": 6662,
      "counts": 6663,
      "micr": 6664,
      "robust": 6665,
      "repeat": 6666,
      "astonishing": 6667,
      "binds": 6668,
      "stretches": 6669,
      "degrees": 6670,
      "defiance": 6671,
      "ctuated": 6672,
      "unearth": 6673,
      "intentions": 6674,
      "intertwined": 6675,
      "insignificance": 6676,
      "MAGNI": 6677,
      "investigate": 6678,
      "bonding": 6679,
      "deviate": 6680,
      "awaiting": 6681,
      "prioriti": 6682,
      "awakening": 6683,
      "paradigms": 6684,
      "glittering": 6685,
      "study": 6686,
      "cricket": 6687,
      "999999999998": 6688,
      "999999999997": 6689,
      "constituent": 6690,
      "sentinels": 6691,
      "boring": 6692,
      "fascination": 6693,
      "fascinated": 6694,
      "gloom": 6695,
      "pierce": 6696,
      "yields": 6697,
      "remote": 6698,
      "removed": 6699,
      "quickly": 6700,
      "converse": 6701,
      "electron": 6702,
      "signify": 6703,
      "signifying": 6704,
      "preceding": 6705,
      "surveying": 6706,
      "melodies": 6707,
      "exceedingly": 6708,
      "ambiguous": 6709,
      "exaggerated": 6710,
      "binocul": 6711,
      "ballo": 6712,
      "diversity": 6713,
      "frequency": 6714,
      "scanning": 6715,
      "acorns": 6716,
      "convention": 6717,
      "universal": 6718,
      "deliberate": 6719,
      "tranquility": 6720,
      "legendary": 6721,
      "Whisper": 6722,
      "wrought": 6723,
      "accompanied": 6724,
      "degradation": 6725,
      "mischievous": 6726,
      "skills": 6727,
      "infinitesimal": 6728,
      "swirling": 6729,
      "relationships": 6730,
      "difficulty": 6731,
      "Dreams": 6732,
      "TREASU": 6733,
      "half": 6734,
      "punctuated": 6735,
      "sorrow": 6736,
      "sculpted": 6737,
      "screens": 6738,
      "alchemists": 6739,
      "encompasses": 6740,
      "contained": 6741,
      "allocation": 6742,
      "gratifying": 6743,
      "diagnostic": 6744,
      "overwhelming": 6745,
      "instantiation": 6746,
      "protocols": 6747,
      "After": 6748,
      "GHT": 6749,
      "Seek": 6750,
      "dilate": 6751,
      "music": 6752,
      "wrapped": 6753,
      "animals": 6754,
      "endearing": 6755,
      "orchard": 6756,
      "exasperation": 6757,
      "imperative": 6758,
      "validation": 6759,
      "sockets": 6760,
      "implications": 6761,
      "phantom": 6762,
      "arrangement": 6763,
      "privilege": 6764,
      "blanket": 6765,
      "Analy": 6766,
      "Consciousness": 6767,
      "First": 6768,
      "FICENT": 6769,
      "Little": 6770,
      "Machine": 6771,
      "Naturally": 6772,
      "Nietzsche": 6773,
      "Sprite": 6774,
      "Sports": 6775,
      "Woah": 6776,
      "banks": 6777,
      "cooler": 6778,
      "fidelity": 6779,
      "fashion": 6780,
      "hundred": 6781,
      "mightiest": 6782,
      "mushroom": 6783,
      "sincerity": 6784,
      "wobbly": 6785,
      "tireless": 6786,
      "mystique": 6787,
      "accident": 6788,
      "perplex": 6789,
      "quirky": 6790,
      "triumph": 6791,
      "modern": 6792,
      "sparrow": 6793,
      "opposite": 6794,
      "Interesting": 6795,
      "subsequent": 6796,
      "bioluminescent": 6797,
      "stoichiometric": 6798,
      "transplant": 6799,
      "MAGNIFICENT": 6800,
      "TREASURE": 6801,
      "'?!": 6802,
      "*…": 6803,
      ".\"": 6804,
      ".,": 6805,
      "03": 6806,
      "046": 6807,
      "041": 6808,
      "0625": 6809,
      "095": 6810,
      "03225": 6811,
      "0454545454545454": 6812,
      "199": 6813,
      "1363636363636": 6814,
      "212": 6815,
      "236": 6816,
      "314": 6817,
      "322": 6818,
      "420": 6819,
      "414": 6820,
      "464": 6821,
      "4285714285714286": 6822,
      "5333333333333334": 6823,
      "5000000000000": 6824,
      "600": 6825,
      "675": 6826,
      "6551724": 6827,
      "700": 6828,
      "73913043478": 6829,
      "810": 6830,
      "840": 6831,
      "8666666666666667": 6832,
      "800000000000001": 6833,
      "925": 6834,
      "924": 6835,
      "958": 6836,
      "9111111111111111": 6837,
      "911111111111111": 6838,
      "AG": 6839,
      "AP": 6840,
      "AT": 6841,
      "Aren": 6842,
      "BE": 6843,
      "BU": 6844,
      "Bet": 6845,
      "Back": 6846,
      "Bey": 6847,
      "BLE": 6848,
      "Based": 6849,
      "Cur": 6850,
      "FANT": 6851,
      "HOO": 6852,
      "Lear": 6853,
      "LING": 6854,
      "Mass": 6855,
      "Much": 6856,
      "MIN": 6857,
      "Most": 6858,
      "ND": 6859,
      "Net": 6860,
      "Pre": 6861,
      "PRE": 6862,
      "Ren": 6863,
      "Rare": 6864,
      "RAR": 6865,
      "St": 6866,
      "Sci": 6867,
      "Try": 6868,
      "Twink": 6869,
      "UT": 6870,
      "Using": 6871,
      "``": 6872,
      "aun": 6873,
      "athing": 6874,
      "bb": 6875,
      "bing": 6876,
      "bust": 6877,
      "bund": 6878,
      "bling": 6879,
      "bue": 6880,
      "baby": 6881,
      "bunch": 6882,
      "bending": 6883,
      "burning": 6884,
      "cou": 6885,
      "clim": 6886,
      "carbon": 6887,
      "doth": 6888,
      "duly": 6889,
      "diverse": 6890,
      "dice": 6891,
      "dorm": 6892,
      "dull": 6893,
      "epo": 6894,
      "fate": 6895,
      "fanci": 6896,
      "fade": 6897,
      "faun": 6898,
      "gar": 6899,
      "gul": 6900,
      "gans": 6901,
      "hide": 6902,
      "hension": 6903,
      "hollow": 6904,
      "itivity": 6905,
      "jest": 6906,
      "lings": 6907,
      "later": 6908,
      "longing": 6909,
      "mal": 6910,
      "mut": 6911,
      "mil": 6912,
      "muse": 6913,
      "musing": 6914,
      "mimic": 6915,
      "nut": 6916,
      "nibble": 6917,
      "otion": 6918,
      "okes": 6919,
      "oting": 6920,
      "otal": 6921,
      "oreal": 6922,
      "ochemical": 6923,
      "py": 6924,
      "pon": 6925,
      "pan": 6926,
      "pub": 6927,
      "pam": 6928,
      "pins": 6929,
      "pense": 6930,
      "pene": 6931,
      "paren": 6932,
      "pounds": 6933,
      "patr": 6934,
      "ru": 6935,
      "rate": 6936,
      "roll": 6937,
      "ses": 6938,
      "sne": 6939,
      "sir": 6940,
      "saf": 6941,
      "sizing": 6942,
      "swit": 6943,
      "tum": 6944,
      "tub": 6945,
      "tastic": 6946,
      "temp": 6947,
      "tax": 6948,
      "uation": 6949,
      "udi": 6950,
      "utocracy": 6951,
      "vide": 6952,
      "vitable": 6953,
      "xtap": 6954,
      "ye": 6955,
      "yalty": 6956,
      "🌕🦉": 6957,
      "🌳🦉✨": 6958,
      "💖✨": 6959,
      "🔬✨": 6960,
      "🤫🦉✨": 6961,
      "🦉.": 6962,
      "🦉⚡": 6963,
      "🦉❓": 6964,
      "🦉🌳": 6965,
      "🦉💪": 6966,
      "🦉🔬": 6967,
      "🦉😊": 6968,
      "🦉🧠": 6969,
      "🧐🦉": 6970,
      "inapplicable": 6971,
      "incand": 6972,
      "aters": 6973,
      "react": 6974,
      "recor": 6975,
      "renew": 6976,
      "repose": 6977,
      "reception": 6978,
      "reactive": 6979,
      "received": 6980,
      "recharge": 6981,
      "ont": 6982,
      "issu": 6983,
      "erting": 6984,
      "error": 6985,
      "ouf": 6986,
      "theories": 6987,
      "alt": 6988,
      "alth": 6989,
      "enci": 6990,
      "enorm": 6991,
      "escap": 6992,
      "orted": 6993,
      "organs": 6994,
      "ingestion": 6995,
      "tice": 6996,
      "tity": 6997,
      "ases": 6998,
      "asant": 6999,
      "arom": 7000,
      "arms": 7001,
      "arise": 7002,
      "arian": 7003,
      "leap": 7004,
      "lever": 7005,
      "stat": 7006,
      "studi": 7007,
      "liken": 7008,
      "lizard": 7009,
      "idable": 7010,
      "acking": 7011,
      "acement": 7012,
      "1011": 7013,
      "1015": 7014,
      "1023": 7015,
      "1058": 7016,
      "ooting": 7017,
      "het": 7018,
      "nea": 7019,
      "nearly": 7020,
      "umble": 7021,
      "uments": 7022,
      "sees": 7023,
      "sever": 7024,
      "sels": 7025,
      "ica": 7026,
      "ices": 7027,
      "veling": 7028,
      "trink": 7029,
      "traction": 7030,
      "trail": 7031,
      "trove": 7032,
      "ety": 7033,
      "prick": 7034,
      "civ": 7035,
      "creators": 7036,
      "crescen": 7037,
      "creativity": 7038,
      "white": 7039,
      "prepar": 7040,
      "beck": 7041,
      "behold": 7042,
      "became": 7043,
      "extract": 7044,
      "meant": 7045,
      "moving": 7046,
      "motiv": 7047,
      "imbu": 7048,
      "imprint": 7049,
      "imbue": 7050,
      "spar": 7051,
      "spent": 7052,
      "spho": 7053,
      "spont": 7054,
      "aining": 7055,
      "conund": 7056,
      "concurrently": 7057,
      "deb": 7058,
      "ury": 7059,
      "urch": 7060,
      "AIN": 7061,
      "1250": 7062,
      "1280": 7063,
      "1287": 7064,
      "120879": 7065,
      "shatter": 7066,
      "shooting": 7067,
      "apple": 7068,
      "chess": 7069,
      "church": 7070,
      "bothering": 7071,
      "unless": 7072,
      "untold": 7073,
      "unimaginable": 7074,
      "verbal": 7075,
      "250": 7076,
      "253": 7077,
      "255": 7078,
      "fell": 7079,
      "admit": 7080,
      "203": 7081,
      "207": 7082,
      "2068": 7083,
      "ago": 7084,
      "utes": 7085,
      "uttered": 7086,
      "ishy": 7087,
      "uster": 7088,
      "composing": 7089,
      "comotion": 7090,
      "1489": 7091,
      "indust": 7092,
      "alline": 7093,
      "shouldn": 7094,
      "unease": 7095,
      "impart": 7096,
      "ants": 7097,
      "164": 7098,
      "167": 7099,
      "1632": 7100,
      "1118": 7101,
      "1188": 7102,
      "1134": 7103,
      "1151": 7104,
      "ember": 7105,
      "formidable": 7106,
      "plutocracy": 7107,
      "placement": 7108,
      "geoning": 7109,
      "emoji": 7110,
      "coded": 7111,
      "Resource": 7112,
      "181": 7113,
      "182": 7114,
      "185": 7115,
      "1800": 7116,
      "1836": 7117,
      "1886": 7118,
      "157": 7119,
      "1537": 7120,
      "15390": 7121,
      "brid": 7122,
      "brimming": 7123,
      "cently": 7124,
      "poem": 7125,
      "undoub": 7126,
      "242": 7127,
      "227": 7128,
      "liter": 7129,
      "loc": 7130,
      "loom": 7131,
      "lots": 7132,
      "loved": 7133,
      "loyalty": 7134,
      "locomotion": 7135,
      "noted": 7136,
      "intangible": 7137,
      "intensive": 7138,
      "3043478": 7139,
      "572": 7140,
      "578": 7141,
      "277": 7142,
      "dots": 7143,
      "dopam": 7144,
      "spee": 7145,
      "ourselves": 7146,
      "correlate": 7147,
      "correlates": 7148,
      "cornea": 7149,
      "tinue": 7150,
      "curated": 7151,
      "portal": 7152,
      "maj": 7153,
      "digest": 7154,
      "digitally": 7155,
      "responds": 7156,
      "191489": 7157,
      "408": 7158,
      "grip": 7159,
      "underground": 7160,
      "undergrowth": 7161,
      "undersco": 7162,
      "underpins": 7163,
      "1739": 7164,
      "17948": 7165,
      "456": 7166,
      "disp": 7167,
      "disconnect": 7168,
      "disappoint": 7169,
      "displacement": 7170,
      "obsc": 7171,
      "newfound": 7172,
      "flatter": 7173,
      "flavor": 7174,
      "ineffici": 7175,
      "inevitable": 7176,
      "139": 7177,
      "1372": 7178,
      "1379": 7179,
      "exists": 7180,
      "existent": 7181,
      "🦉✨),": 7182,
      "eving": 7183,
      "4446": 7184,
      "smaller": 7185,
      "oughly": 7186,
      "297": 7187,
      "2941": 7188,
      "ogical": 7189,
      "thrive": 7190,
      "pear": 7191,
      "peek": 7192,
      "Through": 7193,
      "somewhat": 7194,
      "ensity": 7195,
      "6666666666": 7196,
      "ody": 7197,
      "extensive": 7198,
      "anywhere": 7199,
      "5625": 7200,
      "gues": 7201,
      "guess": 7202,
      "refuse": 7203,
      "string": 7204,
      "opter": 7205,
      "pressures": 7206,
      "treats": 7207,
      "cling": 7208,
      "cluster": 7209,
      "specimen": 7210,
      "crunch": 7211,
      "crumb": 7212,
      "nerability": 7213,
      "substrate": 7214,
      "subterr": 7215,
      "earli": 7216,
      "384": 7217,
      "3877": 7218,
      "4651": 7219,
      "ference": 7220,
      "illogical": 7221,
      "arrog": 7222,
      "insult": 7223,
      "relativity": 7224,
      "ackle": 7225,
      "41666666666666": 7226,
      "375": 7227,
      "starts": 7228,
      "drum": 7229,
      "drive": 7230,
      "drug": 7231,
      "607142857142857": 7232,
      "604651": 7233,
      "itions": 7234,
      "capability": 7235,
      "experienc": 7236,
      "wasn": 7237,
      "versus": 7238,
      "version": 7239,
      "2857142857142857": 7240,
      "momentary": 7241,
      "momentarily": 7242,
      "emphasizes": 7243,
      "3333333333333": 7244,
      "wove": 7245,
      "fungal": 7246,
      "osition": 7247,
      "sensitivity": 7248,
      "acknowledgment": 7249,
      "deepening": 7250,
      "Here": 7251,
      "Together": 7252,
      "kindred": 7253,
      "tedly": 7254,
      "winding": 7255,
      "connects": 7256,
      "biome": 7257,
      "biped": 7258,
      "misplaced": 7259,
      "athes": 7260,
      "buck": 7261,
      "fluttery": 7262,
      "rustles": 7263,
      "684": 7264,
      "686": 7265,
      "expend": 7266,
      "shades": 7267,
      "vantage": 7268,
      "helping": 7269,
      "saddens": 7270,
      "requesting": 7271,
      "languages": 7272,
      "52173913043478": 7273,
      "2164": 7274,
      "695652": 7275,
      "693877": 7276,
      "osecond": 7277,
      "Almost": 7278,
      "cellent": 7279,
      "continuation": 7280,
      "blind": 7281,
      "blend": 7282,
      "blue": 7283,
      "blush": 7284,
      "flowing": 7285,
      "pleasant": 7286,
      "distorted": 7287,
      "introducing": 7288,
      "definite": 7289,
      "invit": 7290,
      "surrender": 7291,
      "brains": 7292,
      "hiding": 7293,
      "register": 7294,
      "tried": 7295,
      "keenest": 7296,
      "anew": 7297,
      "anean": 7298,
      "aneous": 7299,
      "tells": 7300,
      "telling": 7301,
      "aligned": 7302,
      "closing": 7303,
      "romantically": 7304,
      "differences": 7305,
      "differently": 7306,
      "981538": 7307,
      "powered": 7308,
      "mentioned": 7309,
      "occup": 7310,
      "overcome": 7311,
      "overhead": 7312,
      "sunshine": 7313,
      "supernov": 7314,
      "reverence": 7315,
      "missed": 7316,
      "mete": 7317,
      "adds": 7318,
      "quests": 7319,
      "apprehension": 7320,
      "illuminates": 7321,
      "agreeing": 7322,
      "2222222222222222": 7323,
      "appreciated": 7324,
      "shadowy": 7325,
      "73170": 7326,
      "evolve": 7327,
      "arboreal": 7328,
      "spiritual": 7329,
      "hunger": 7330,
      "surely": 7331,
      "nestled": 7332,
      "2857142857142856": 7333,
      "2857142857142858": 7334,
      "?').": 7335,
      "organization": 7336,
      "organism": 7337,
      "591836": 7338,
      "breezes": 7339,
      "predicated": 7340,
      "8421": 7341,
      "graphy": 7342,
      "caution": 7343,
      "sustained": 7344,
      "5714285714285716": 7345,
      "thoughtfully": 7346,
      "calculation": 7347,
      "authenticity": 7348,
      "erald": 7349,
      "Behold": 7350,
      "attachment": 7351,
      "interpretations": 7352,
      "gazing": 7353,
      "bringing": 7354,
      "veloping": 7355,
      "✨🌙💖": 7356,
      "futures": 7357,
      "navigation": 7358,
      "941176470588": 7359,
      "business": 7360,
      "equipped": 7361,
      "route": 7362,
      "Aluminium": 7363,
      "witty": 7364,
      "model": 7365,
      "modeling": 7366,
      "nuance": 7367,
      "infinitely": 7368,
      "bothered": 7369,
      "juxtap": 7370,
      "longer": 7371,
      "embraces": 7372,
      "4444444444444444": 7373,
      "Everything": 7374,
      "emerging": 7375,
      "emerged": 7376,
      "abyss": 7377,
      "abytes": 7378,
      "explanations": 7379,
      "identifying": 7380,
      "floating": 7381,
      "swivel": 7382,
      "789473684210526": 7383,
      "nourishes": 7384,
      "neurological": 7385,
      "control": 7386,
      "adopting": 7387,
      "descends": 7388,
      "fragments": 7389,
      "Continue": 7390,
      "slowly": 7391,
      "wheel": 7392,
      "💖🦉🌟": 7393,
      "💖🦉🌳": 7394,
      "mechanism": 7395,
      "anticipated": 7396,
      "narratives": 7397,
      "revelations": 7398,
      "5555555555555554": 7399,
      "volume": 7400,
      "volatile": 7401,
      "851063829787234": 7402,
      "squishy": 7403,
      "judging": 7404,
      "packets": 7405,
      "enjoyment": 7406,
      "delves": 7407,
      "encountering": 7408,
      "RED": 7409,
      "burgeoning": 7410,
      "influx": 7411,
      "influences": 7412,
      "transpires": 7413,
      "functionality": 7414,
      "absorbed": 7415,
      "heric": 7416,
      "speedy": 7417,
      "facilitate": 7418,
      "Exciting": 7419,
      "Excellent": 7420,
      "librarian": 7421,
      "sequence": 7422,
      "planting": 7423,
      "spectacular": 7424,
      "radiation": 7425,
      "integration": 7426,
      "chirpy": 7427,
      "1161": 7428,
      "destined": 7429,
      "pinpoint": 7430,
      "politely": 7431,
      "searching": 7432,
      "availability": 7433,
      "discussing": 7434,
      "constitute": 7435,
      "Plans": 7436,
      "tongues": 7437,
      "🦉😂💻": 7438,
      "attribute": 7439,
      "attributed": 7440,
      "ingenuity": 7441,
      "concerning": 7442,
      "🦉✨🤫🌌🌠": 7443,
      "principle": 7444,
      "42857142857142855": 7445,
      "pixels": 7446,
      "simplified": 7447,
      "simulate": 7448,
      "simulated": 7449,
      "instinctual": 7450,
      "gigabytes": 7451,
      "micro": 7452,
      "repetition": 7453,
      "crops": 7454,
      "2254": 7455,
      "22580645161290": 7456,
      "235294": 7457,
      "DELI": 7458,
      "fantas": 7459,
      "running": 7460,
      "snoo": 7461,
      "snack": 7462,
      "settling": 7463,
      "concisely": 7464,
      "showing": 7465,
      "fluffs": 7466,
      "fluffed": 7467,
      "stirring": 7468,
      "definitively": 7469,
      "77777777777778": 7470,
      "independently": 7471,
      "investigation": 7472,
      "melancholic": 7473,
      "umbling": 7474,
      "simplest": 7475,
      "surroundings": 7476,
      "eternity": 7477,
      "challenging": 7478,
      "atmospheric": 7479,
      "laid": 7480,
      "suspect": 7481,
      "suspense": 7482,
      "example": 7483,
      "examination": 7484,
      "executed": 7485,
      "outputs": 7486,
      "90909090": 7487,
      "60606060": 7488,
      "4444444444444446": 7489,
      "459459459459": 7490,
      "387096774": 7491,
      "glitch": 7492,
      "pivotal": 7493,
      "studies": 7494,
      "expert": 7495,
      "achieved": 7496,
      "murmurs": 7497,
      "comparisons": 7498,
      "CIOUS": 7499,
      "Human": 7500,
      "equations": 7501,
      "spreading": 7502,
      "swoop": 7503,
      "swooping": 7504,
      "impressive": 7505,
      "18181818": 7506,
      "774193548387096": 7507,
      "management": 7508,
      "introspective": 7509,
      "oscope": 7510,
      "neurochemical": 7511,
      "3157894736842106": 7512,
      "1025641025641026": 7513,
      "exceeding": 7514,
      "exaggeration": 7515,
      "dwelling": 7516,
      "ethical": 7517,
      "tenth": 7518,
      "accepted": 7519,
      "shroud": 7520,
      "shrouded": 7521,
      "chuckle": 7522,
      "deliberately": 7523,
      "gleaned": 7524,
      "tranquil": 7525,
      "demonstrating": 7526,
      "833333333333334": 7527,
      "Entity": 7528,
      "hopes": 7529,
      "lullaby": 7530,
      "instrument": 7531,
      "instruments": 7532,
      "methods": 7533,
      "impossible": 7534,
      "impossibly": 7535,
      "commitment": 7536,
      "dissecting": 7537,
      "evidence": 7538,
      "296296": 7539,
      "reduction": 7540,
      "cataloged": 7541,
      "amplified": 7542,
      "190476190476190": 7543,
      "19354838709677": 7544,
      "806451612903": 7545,
      "714285714285715": 7546,
      "extrapolation": 7547,
      "60000000000002": 7548,
      "Acknowled": 7549,
      "EXCI": 7550,
      "dominion": 7551,
      "filtering": 7552,
      "pushing": 7553,
      "sapling": 7554,
      "zipping": 7555,
      "💖🌟🍒": 7556,
      "storms": 7557,
      "wiggly": 7558,
      "concentrated": 7559,
      "indirectly": 7560,
      "smiling": 7561,
      "ignorance": 7562,
      "delicacy": 7563,
      "drainage": 7564,
      "twitching": 7565,
      "disturbance": 7566,
      "sunbeams": 7567,
      "flickering": 7568,
      "categorize": 7569,
      "bursting": 7570,
      "cryptic": 7571,
      "crystalline": 7572,
      "734693877": 7573,
      "964285714285714": 7574,
      "ASTIC": 7575,
      "fares": 7576,
      "laboratory": 7577,
      "intimately": 7578,
      "acquire": 7579,
      "prominent": 7580,
      "democracy": 7581,
      "indigo": 7582,
      "coalescing": 7583,
      "3414634146": 7584,
      "4782608695652": 7585,
      "608695652": 7586,
      "2168021680": 7587,
      "symbolic": 7588,
      "ornithological": 7589,
      "20930232558": 7590,
      "11764705882352941": 7591,
      "diamonds": 7592,
      "Today": 7593,
      "cabb": 7594,
      "nudge": 7595,
      "vulnerability": 7596,
      "increased": 7597,
      "articulation": 7598,
      "negative": 7599,
      "comrade": 7600,
      "elucidate": 7601,
      "speculation": 7602,
      "clarification": 7603,
      "participate": 7604,
      "dialogue": 7605,
      "constraints": 7606,
      "predominantly": 7607,
      "molecules": 7608,
      "surprisingly": 7609,
      "harmony": 7610,
      "binocular": 7611,
      "balloons": 7612,
      "diagnostics": 7613,
      "accidentally": 7614,
      "perplexing": 7615,
      "65517241379": 7616,
      "7391304347826086": 7617,
      "AGAIN": 7618,
      "Beyond": 7619,
      "FANTASTIC": 7620,
      "HOOT": 7621,
      "MIND": 7622,
      "PRECIOUS": 7623,
      "Renouf": 7624,
      "RARE": 7625,
      "Twinkle": 7626,
      "coupled": 7627,
      "dormant": 7628,
      "epoch": 7629,
      "fauna": 7630,
      "mutual": 7631,
      "musings": 7632,
      "penetr": 7633,
      "taxonom": 7634,
      "incandescent": 7635,
      "recorded": 7636,
      "renewed": 7637,
      "studied": 7638,
      "several": 7639,
      "trinket": 7640,
      "prickle": 7641,
      "crescendo": 7642,
      "beckon": 7643,
      "sphores": 7644,
      "conundrum": 7645,
      "shattering": 7646,
      "206896": 7647,
      "undoubtedly": 7648,
      "3043478260869": 7649,
      "19148936": 7650,
      "179487": 7651,
      "subterranean": 7652,
      "6071428571428572": 7653,
      "experienced": 7654,
      "5217391304347826": 7655,
      "supernova": 7656,
      "7894736842105263": 7657,
      "2258064516129032": 7658,
      "DELIGHT": 7659,
      "6086956521739": 7660,
      "!'.": 7661,
      "!).": 7662,
      "!?!": 7663,
      "(*": 7664,
      ",\"": 7665,
      "07": 7666,
      "3000000000000": 7667,
      "?)": 7668,
      "?)!": 7669,
      "AD": 7670,
      "Ab": 7671,
      "Afr": 7672,
      "Aware": 7673,
      "Again": 7674,
      "Bl": 7675,
      "Both": 7676,
      "CH": 7677,
      "CRED": 7678,
      "Dar": 7679,
      "Det": 7680,
      "Em": 7681,
      "Ess": 7682,
      "Elar": 7683,
      "Fe": 7684,
      "Follow": 7685,
      "Gig": 7686,
      "HU": 7687,
      "Hon": 7688,
      "Her": 7689,
      "Iâ": 7690,
      "IBLE": 7691,
      "Lumin": 7692,
      "Lost": 7693,
      "Me": 7694,
      "Nor": 7695,
      "OF": 7696,
      "Pe": 7697,
      "Ph": 7698,
      "Pr": 7699,
      "Pic": 7700,
      "Pray": 7701,
      "Rather": 7702,
      "Sp": 7703,
      "Sound": 7704,
      "Sleep": 7705,
      "TER": 7706,
      "UU": 7707,
      "Under": 7708,
      "Upon": 7709,
      "War": 7710,
      "ZZ": 7711,
      "_Micrathene": 7712,
      "aic": 7713,
      "awl": 7714,
      "adee": 7715,
      "axy": 7716,
      "ben": 7717,
      "boo": 7718,
      "bun": 7719,
      "bot": 7720,
      "baf": 7721,
      "bathing": 7722,
      "bathes": 7723,
      "car": 7724,
      "cow": 7725,
      "cession": 7726,
      "cension": 7727,
      "cably": 7728,
      "causes": 7729,
      "dd": 7730,
      "dol": 7731,
      "done": 7732,
      "dating": 7733,
      "dimm": 7734,
      "dict": 7735,
      "een": 7736,
      "eper": 7737,
      "econ": 7738,
      "eun": 7739,
      "evalu": 7740,
      "eats": 7741,
      "ezed": 7742,
      "ebb": 7743,
      "fing": 7744,
      "fond": 7745,
      "fif": 7746,
      "fously": 7747,
      "fires": 7748,
      "fuzz": 7749,
      "fret": 7750,
      "gol": 7751,
      "gers": 7752,
      "hing": 7753,
      "hous": 7754,
      "ham": 7755,
      "hall": 7756,
      "hour": 7757,
      "hiz": 7758,
      "hast": 7759,
      "hot": 7760,
      "harb": 7761,
      "io": 7762,
      "ifying": 7763,
      "ks": 7764,
      "kale": 7765,
      "list": 7766,
      "lau": 7767,
      "lwind": 7768,
      "lamp": 7769,
      "leness": 7770,
      "lacking": 7771,
      "main": 7772,
      "mad": 7773,
      "mend": 7774,
      "mire": 7775,
      "matr": 7776,
      "nan": 7777,
      "nate": 7778,
      "nine": 7779,
      "oit": 7780,
      "oom": 7781,
      "oking": 7782,
      "opo": 7783,
      "oph": 7784,
      "oaching": 7785,
      "patch": 7786,
      "pines": 7787,
      "puscul": 7788,
      "penn": 7789,
      "pauses": 7790,
      "rol": 7791,
      "rist": 7792,
      "rog": 7793,
      "rack": 7794,
      "range": 7795,
      "rors": 7796,
      "rush": 7797,
      "rhiz": 7798,
      "sand": 7799,
      "save": 7800,
      "sage": 7801,
      "sown": 7802,
      "sill": 7803,
      "sings": 7804,
      "sip": 7805,
      "sources": 7806,
      "sends": 7807,
      "tas": 7808,
      "tut": 7809,
      "tter": 7810,
      "tuse": 7811,
      "tuf": 7812,
      "tuck": 7813,
      "taken": 7814,
      "uc": 7815,
      "uous": 7816,
      "vs": 7817,
      "vivid": 7818,
      "win": 7819,
      "went": 7820,
      "west": 7821,
      "winter": 7822,
      "wasting": 7823,
      "walt": 7824,
      "ying": 7825,
      "✨,": 7826,
      "✨🌲": 7827,
      "✨🤣": 7828,
      "✨🌿🌙": 7829,
      "🌌💖": 7830,
      "🌑🍂": 7831,
      "🌲🦉✨": 7832,
      "🌳🐾": 7833,
      "🍇🍓": 7834,
      "🍒🌟": 7835,
      "🎉🦉": 7836,
      "🐛✨": 7837,
      "💎✨": 7838,
      "💎💡": 7839,
      "💖✨🦉": 7840,
      "💡🌌": 7841,
      "💡🦉": 7842,
      "💧🌙": 7843,
      "💨🦉": 7844,
      "💻✨": 7845,
      "📚💡": 7846,
      "😠😒": 7847,
      "🚀🗺": 7848,
      "🤔🦉": 7849,
      "🤩🌟": 7850,
      "🤫✨": 7851,
      "🦉,": 7852,
      "🦉🌟": 7853,
      "🦉🌿": 7854,
      "🦉👂": 7855,
      "🦉💥": 7856,
      "🦉😅": 7857,
      "🦉🦉": 7858,
      "🦉🫵": 7859,
      "🦉🚀✨": 7860,
      "🦋💨": 7861,
      "🧐💡": 7862,
      "🧐🔬": 7863,
      "🧠💡": 7864,
      "iner": 7865,
      "intract": 7866,
      "inward": 7867,
      "incess": 7868,
      "incompreh": 7869,
      "infer": 7870,
      "innate": 7871,
      "thin": 7872,
      "thor": 7873,
      "thump": 7874,
      "attered": 7875,
      "recur": 7876,
      "recap": 7877,
      "repos": 7878,
      "reced": 7879,
      "retri": 7880,
      "returns": 7881,
      "retain": 7882,
      "resounding": 7883,
      "resem": 7884,
      "onies": 7885,
      "onward": 7886,
      "onions": 7887,
      "ising": 7888,
      "erce": 7889,
      "ana": 7890,
      "oup": 7891,
      "ouble": 7892,
      "alter": 7893,
      "encr": 7894,
      "ora": 7895,
      "orate": 7896,
      "oric": 7897,
      "orous": 7898,
      "orical": 7899,
      "tile": 7900,
      "iture": 7901,
      "eds": 7902,
      "tool": 7903,
      "tography": 7904,
      "arce": 7905,
      "ulse": 7906,
      "omes": 7907,
      "omic": 7908,
      "lets": 7909,
      "owing": 7910,
      "stag": 7911,
      "statis": 7912,
      "myth": 7913,
      "mycor": 7914,
      "lie": 7915,
      "lict": 7916,
      "liament": 7917,
      "lips": 7918,
      "lids": 7919,
      "ides": 7920,
      "iding": 7921,
      "idoscope": 7922,
      "acre": 7923,
      "actic": 7924,
      "activ": 7925,
      "according": 7926,
      "accounts": 7927,
      "ooth": 7928,
      "heed": 7929,
      "hered": 7930,
      "herence": 7931,
      "atial": 7932,
      "neigh": 7933,
      "umn": 7934,
      "umes": 7935,
      "entr": 7936,
      "entw": 7937,
      "sec": 7938,
      "fortun": 7939,
      "icity": 7940,
      "perature": 7941,
      "perspe": 7942,
      "pertaining": 7943,
      "quate": 7944,
      "usiven": 7945,
      "usions": 7946,
      "abies": 7947,
      "tries": 7948,
      "olfact": 7949,
      "practi": 7950,
      "creak": 7951,
      "creeps": 7952,
      "crepuscul": 7953,
      "wires": 7954,
      "wizard": 7955,
      "whop": 7956,
      "prev": 7957,
      "lful": 7958,
      "bell": 7959,
      "beak": 7960,
      "bewild": 7961,
      "bears": 7962,
      "beloved": 7963,
      "meal": 7964,
      "mead": 7965,
      "mered": 7966,
      "mob": 7967,
      "moist": 7968,
      "imally": 7969,
      "imizing": 7970,
      "immered": 7971,
      "span": 7972,
      "sphere": 7973,
      "spatial": 7974,
      "fract": 7975,
      "cone": 7976,
      "condes": 7977,
      "conting": 7978,
      "confir": 7979,
      "constru": 7980,
      "conquer": 7981,
      "assuring": 7982,
      "assert": 7983,
      "deco": 7984,
      "dered": 7985,
      "deple": 7986,
      "keeper": 7987,
      "uries": 7988,
      "urry": 7989,
      "shout": 7990,
      "shimmered": 7991,
      "apse": 7992,
      "child": 7993,
      "chord": 7994,
      "withers": 7995,
      "acting": 7996,
      "massive": 7997,
      "proactive": 7998,
      "protons": 7999,
      "outmaneu": 8000,
      "unmet": 8001,
      "uncontr": 8002,
      "unsolved": 8003,
      "vering": 8004,
      "amed": 8005,
      "amation": 8006,
      "amiliar": 8007,
      "irr": 8008,
      "irrelevant": 8009,
      "feist": 8010,
      "areas": 8011,
      "adie": 8012,
      "ctor": 8013,
      "agon": 8014,
      "agend": 8015,
      "Ouuuuuuuu": 8016,
      "utt": 8017,
      "comed": 8018,
      "comment": 8019,
      "comically": 8020,
      "complain": 8021,
      "combin": 8022,
      "weather": 8023,
      "weaves": 8024,
      "indign": 8025,
      "allude": 8026,
      "estment": 8027,
      "0078": 8028,
      "values": 8029,
      "personally": 8030,
      "impulse": 8031,
      "noises": 8032,
      "noisy": 8033,
      "notice": 8034,
      "antaneously": 8035,
      "lightest": 8036,
      "lightning": 8037,
      "ilty": 8038,
      "ticking": 8039,
      "dening": 8040,
      "denot": 8041,
      "embed": 8042,
      "emerald": 8043,
      "humbling": 8044,
      "formulate": 8045,
      "sole": 8046,
      "soli": 8047,
      "Adventure": 8048,
      "plains": 8049,
      "eled": 8050,
      "elude": 8051,
      "elusiven": 8052,
      "ominous": 8053,
      "cohes": 8054,
      "brand": 8055,
      "brace": 8056,
      "centuries": 8057,
      "poof": 8058,
      "pock": 8059,
      "local": 8060,
      "suite": 8061,
      "suff": 8062,
      "presumed": 8063,
      "inting": 8064,
      "worse": 8065,
      "smooth": 8066,
      "butter": 8067,
      "endous": 8068,
      "endance": 8069,
      "endures": 8070,
      "corresponds": 8071,
      "curved": 8072,
      "servi": 8073,
      "humanity": 8074,
      "maker": 8075,
      "oods": 8076,
      "grove": 8077,
      "underpinn": 8078,
      "disk": 8079,
      "disgu": 8080,
      "dispar": 8081,
      "distilled": 8082,
      "disson": 8083,
      "seeps": 8084,
      "obscur": 8085,
      "obtuse": 8086,
      "oughts": 8087,
      "epit": 8088,
      "epic": 8089,
      "flits": 8090,
      "flaw": 8091,
      "flawl": 8092,
      "flora": 8093,
      "rarely": 8094,
      "evokes": 8095,
      "selfless": 8096,
      "ogra": 8097,
      "thriving": 8098,
      "peers": 8099,
      "peeled": 8100,
      "Thir": 8101,
      "Those": 8102,
      "Thoughts": 8103,
      "artist": 8104,
      "asted": 8105,
      "ensus": 8106,
      "ensible": 8107,
      "deser": 8108,
      "extend": 8109,
      "textbook": 8110,
      "provoke": 8111,
      "provoking": 8112,
      "gentleness": 8113,
      "ople": 8114,
      "260": 8115,
      "engines": 8116,
      "upward": 8117,
      "exploit": 8118,
      "pressing": 8119,
      "interwoven": 8120,
      "interspecies": 8121,
      "interior": 8122,
      "intergal": 8123,
      "clay": 8124,
      "clue": 8125,
      "specially": 8126,
      "throughput": 8127,
      "crow": 8128,
      "crude": 8129,
      "crash": 8130,
      "subservi": 8131,
      "asks": 8132,
      "iety": 8133,
      "establishing": 8134,
      "parties": 8135,
      "parliament": 8136,
      "arring": 8137,
      "iefously": 8138,
      "relational": 8139,
      "relax": 8140,
      "goes": 8141,
      "gover": 8142,
      "gences": 8143,
      "awak": 8144,
      "awoke": 8145,
      "drought": 8146,
      "drink": 8147,
      "mindful": 8148,
      "older": 8149,
      "lingers": 8150,
      "signs": 8151,
      "tingle": 8152,
      "athle": 8153,
      "consumed": 8154,
      "directions": 8155,
      "delights": 8156,
      "timed": 8157,
      "hearted": 8158,
      "heartbeat": 8159,
      "realities": 8160,
      "frailty": 8161,
      "phase": 8162,
      "purposeful": 8163,
      "operating": 8164,
      "operates": 8165,
      "finer": 8166,
      "marsh": 8167,
      "Deep": 8168,
      "referenced": 8169,
      "circuit": 8170,
      "visions": 8171,
      "biology": 8172,
      "biotic": 8173,
      "biochemical": 8174,
      "calling": 8175,
      "SOAR": 8176,
      "perceiving": 8177,
      "origination": 8178,
      "checked": 8179,
      "immering": 8180,
      "images": 8181,
      "hoard": 8182,
      "struck": 8183,
      "effacing": 8184,
      "turned": 8185,
      "expon": 8186,
      "simpleton": 8187,
      "hormon": 8188,
      "playfulness": 8189,
      "affective": 8190,
      "empty": 8191,
      "gnar": 8192,
      "memories": 8193,
      "fundamentally": 8194,
      "symbiotic": 8195,
      "fierce": 8196,
      "specifics": 8197,
      "solutions": 8198,
      "vibe": 8199,
      "watched": 8200,
      "watchman": 8201,
      "earthbound": 8202,
      "earthworm": 8203,
      "drama": 8204,
      "dragon": 8205,
      "continues": 8206,
      "blood": 8207,
      "flowers": 8208,
      "vocably": 8209,
      "warf": 8210,
      "warn": 8211,
      "warning": 8212,
      "confused": 8213,
      "conflict": 8214,
      "distances": 8215,
      "optimize": 8216,
      "foundation": 8217,
      "foundations": 8218,
      "hinted": 8219,
      "invited": 8220,
      "investment": 8221,
      "poses": 8222,
      "bravest": 8223,
      "keenly": 8224,
      "keenness": 8225,
      "steer": 8226,
      "stealing": 8227,
      "enhances": 8228,
      "clock": 8229,
      "colours": 8230,
      "minute": 8231,
      "mineral": 8232,
      "minimizing": 8233,
      "formality": 8234,
      "temperature": 8235,
      "onymic": 8236,
      "belonging": 8237,
      "touched": 8238,
      "transient": 8239,
      "transformation": 8240,
      "detailed": 8241,
      "darn": 8242,
      "conveyed": 8243,
      "brew": 8244,
      "sunlit": 8245,
      "mosaic": 8246,
      "crave": 8247,
      "antithe": 8248,
      "clearing": 8249,
      "clearness": 8250,
      "glory": 8251,
      "enhancement": 8252,
      "rebellion": 8253,
      "addition": 8254,
      "additional": 8255,
      "tilts": 8256,
      "tilting": 8257,
      "brightly": 8258,
      "cyber": 8259,
      "sweep": 8260,
      "unfamiliar": 8261,
      "furthering": 8262,
      "boundary": 8263,
      "predatory": 8264,
      "ushing": 8265,
      "ushers": 8266,
      "morsel": 8267,
      "apparen": 8268,
      "drops": 8269,
      "lux": 8270,
      "contemplate": 8271,
      "aiming": 8272,
      "dimly": 8273,
      "dawns": 8274,
      "?')": 8275,
      "unfolds": 8276,
      "wishing": 8277,
      "caress": 8278,
      "philosophy": 8279,
      "predicted": 8280,
      "slumbered": 8281,
      "calculator": 8282,
      "authentically": 8283,
      "glee": 8284,
      "scene": 8285,
      "scarce": 8286,
      "scutt": 8287,
      "adaptability": 8288,
      "petal": 8289,
      "petty": 8290,
      "promp": 8291,
      "promises": 8292,
      "promoting": 8293,
      "faculties": 8294,
      "gathers": 8295,
      "approached": 8296,
      "positively": 8297,
      "sighting": 8298,
      "comprehending": 8299,
      "passed": 8300,
      "passive": 8301,
      "stoic": 8302,
      "perchance": 8303,
      "decide": 8304,
      "decaying": 8305,
      "refining": 8306,
      "9999999999994": 8307,
      "9999999999995": 8308,
      "99999999999999": 8309,
      "Chris": 8310,
      "Christ": 8311,
      "velocity": 8312,
      "rounded": 8313,
      "probes": 8314,
      "navigational": 8315,
      "navigates": 8316,
      "Recently": 8317,
      "equate": 8318,
      "tastes": 8319,
      "instantaneously": 8320,
      "eyelids": 8321,
      "imagining": 8322,
      "nug": 8323,
      "box": 8324,
      "boy": 8325,
      "medium": 8326,
      "media": 8327,
      "medio": 8328,
      "embraced": 8329,
      "embracing": 8330,
      "synchron": 8331,
      "scents": 8332,
      "starting": 8333,
      "namesakes": 8334,
      "autumn": 8335,
      "perpetuation": 8336,
      "emerge": 8337,
      "emerges": 8338,
      "classification": 8339,
      "definitions": 8340,
      "explorers": 8341,
      "schedules": 8342,
      "visit": 8343,
      "visible": 8344,
      "weighing": 8345,
      "lineage": 8346,
      "🦉💡🌟": 8347,
      "sharper": 8348,
      "cleverness": 8349,
      "indicator": 8350,
      "indicative": 8351,
      "fulfilled": 8352,
      "triviality": 8353,
      "flock": 8354,
      "floats": 8355,
      "winging": 8356,
      "abundant": 8357,
      "consideration": 8358,
      "phrases": 8359,
      "adequate": 8360,
      "daisy": 8361,
      "fern": 8362,
      "settle": 8363,
      "setting": 8364,
      "extraordin": 8365,
      "synthetic": 8366,
      "widely": 8367,
      "performing": 8368,
      "quantified": 8369,
      "unfurls": 8370,
      "rigation": 8371,
      "welcome": 8372,
      "occurred": 8373,
      "anticipate": 8374,
      "Hoooooot": 8375,
      "beds": 8376,
      "dietary": 8377,
      "towering": 8378,
      "heaviest": 8379,
      "guarded": 8380,
      "blooms": 8381,
      "whitneyi_": 8382,
      "volumes": 8383,
      "beginnings": 8384,
      "INCRED": 8385,
      "squinting": 8386,
      "contribute": 8387,
      "contributes": 8388,
      "territory": 8389,
      "soils": 8390,
      "caliber": 8391,
      "strengths": 8392,
      "mists": 8393,
      "misty": 8394,
      "mistakes": 8395,
      "initiating": 8396,
      "enjoying": 8397,
      "obviously": 8398,
      "burrows": 8399,
      "forgetful": 8400,
      "association": 8401,
      "🦉✨🌌💻": 8402,
      "transcendent": 8403,
      "birthday": 8404,
      "explicit": 8405,
      "facilitated": 8406,
      "maximal": 8407,
      "maximizes": 8408,
      "MASTER": 8409,
      "cases": 8410,
      "casually": 8411,
      "radiating": 8412,
      "Happy": 8413,
      "galaxy": 8414,
      "ventures": 8415,
      "necessarily": 8416,
      "entangled": 8417,
      "Hissss": 8418,
      "appears": 8419,
      "appetite": 8420,
      "correction": 8421,
      "constitutes": 8422,
      "descriptive": 8423,
      "stimulating": 8424,
      "eagerness": 8425,
      "following": 8426,
      "merr": 8427,
      "shape": 8428,
      "respecting": 8429,
      "independence": 8430,
      "🦉✨🤫🌌🌑🍂": 8431,
      "Shimmering": 8432,
      "spectroscopic": 8433,
      "interpreter": 8434,
      "interpreting": 8435,
      "instincts": 8436,
      "deterministic": 8437,
      "giggle": 8438,
      "palm": 8439,
      "robot": 8440,
      "robotic": 8441,
      "scroll": 8442,
      "repeated": 8443,
      "repetitive": 8444,
      "claims": 8445,
      "immediately": 8446,
      "scenic": 8447,
      "exhilaration": 8448,
      "snap": 8449,
      "varied": 8450,
      "variety": 8451,
      "legs": 8452,
      "unraveling": 8453,
      "ambitions": 8454,
      "unearthing": 8455,
      "hummingbird": 8456,
      "particle": 8457,
      "stirred": 8458,
      "investigating": 8459,
      "kiss": 8460,
      "millions": 8461,
      "umbles": 8462,
      "whirlwind": 8463,
      "devour": 8464,
      "devoted": 8465,
      "terminal": 8466,
      "freshly": 8467,
      "ABLE": 8468,
      "Observing": 8469,
      "lazy": 8470,
      "multiple": 8471,
      "ollably": 8472,
      "privy": 8473,
      "private": 8474,
      "declar": 8475,
      "declare": 8476,
      "decline": 8477,
      "deviations": 8478,
      "impacting": 8479,
      "impactful": 8480,
      "struggles": 8481,
      "nutrient": 8482,
      "spiderwebs": 8483,
      "JOYFUL": 8484,
      "psychology": 8485,
      "Wouldn": 8486,
      "banishing": 8487,
      "cascades": 8488,
      "school": 8489,
      "alien": 8490,
      "seasoned": 8491,
      "preferred": 8492,
      "mossy": 8493,
      "difficulties": 8494,
      "fueled": 8495,
      "Humans": 8496,
      "SUPER": 8497,
      "freeze": 8498,
      "globe": 8499,
      "mountain": 8500,
      "pierces": 8501,
      "rising": 8502,
      "slips": 8503,
      "enlightening": 8504,
      "trusty": 8505,
      "converge": 8506,
      "socio": 8507,
      "components": 8508,
      "electricity": 8509,
      "manifests": 8510,
      "results": 8511,
      "sprouts": 8512,
      "melodic": 8513,
      "ambiguity": 8514,
      "vaguely": 8515,
      "accumulated": 8516,
      "Proceed": 8517,
      "ocean": 8518,
      "chuckled": 8519,
      "universally": 8520,
      "phosphores": 8521,
      "detecting": 8522,
      "deduce": 8523,
      "deduction": 8524,
      "safely": 8525,
      "individuals": 8526,
      "Whispers": 8527,
      "clicks": 8528,
      "hoping": 8529,
      "hmmm": 8530,
      "lullabies": 8531,
      "situ": 8532,
      "writ": 8533,
      "reliable": 8534,
      "accompaniment": 8535,
      "proudly": 8536,
      "conclusion": 8537,
      "degraded": 8538,
      "proportionately": 8539,
      "progression": 8540,
      "irrevocably": 8541,
      "evident": 8542,
      "reduced": 8543,
      "mischiefously": 8544,
      "effects": 8545,
      "infinitesimally": 8546,
      "swirl": 8547,
      "pixelated": 8548,
      "extrapolate": 8549,
      "60000000000001": 8550,
      "filters": 8551,
      "zero": 8552,
      "revolution": 8553,
      "entertainment": 8554,
      "spoon": 8555,
      "spinach": 8556,
      "conducted": 8557,
      "consequence": 8558,
      "concentration": 8559,
      "tremble": 8560,
      "tremendous": 8561,
      "cryptography": 8562,
      "crystal": 8563,
      "appearance": 8564,
      "rapidly": 8565,
      "exhibiting": 8566,
      "footprint": 8567,
      "label": 8568,
      "squeezed": 8569,
      "scorpion": 8570,
      "scorpions": 8571,
      "vistas": 8572,
      "reported": 8573,
      "orbital": 8574,
      "astro": 8575,
      "exercise": 8576,
      "modul": 8577,
      "assigned": 8578,
      "commendation": 8579,
      "🦉💖🌟✨": 8580,
      "propagation": 8581,
      "folklore": 8582,
      "labyrinthine": 8583,
      "migratory": 8584,
      "True": 8585,
      "aerody": 8586,
      "barely": 8587,
      "boughs": 8588,
      "cadence": 8589,
      "caverns": 8590,
      "folding": 8591,
      "foolish": 8592,
      "lengthen": 8593,
      "lamenting": 8594,
      "pique": 8595,
      "victory": 8596,
      "initial": 8597,
      "alarm": 8598,
      "sturdy": 8599,
      "history": 8600,
      "confines": 8601,
      "chorus": 8602,
      "chickadee": 8603,
      "unlocking": 8604,
      "adoration": 8605,
      "admiration": 8606,
      "indulge": 8607,
      "platform": 8608,
      "plotting": 8609,
      "correlations": 8610,
      "elevated": 8611,
      "advantage": 8612,
      "criticism": 8613,
      "occurrence": 8614,
      "occasionally": 8615,
      "dependent": 8616,
      "glasses": 8617,
      "scouts": 8618,
      "SPARKLING": 8619,
      "microscopic": 8620,
      "Whispering": 8621,
      "Analysis": 8622,
      "500000000000004": 8623,
      "APP": 8624,
      "Learning": 8625,
      "Network": 8626,
      "UTTER": 8627,
      "bustling": 8628,
      "bundle": 8629,
      "climb": 8630,
      "gulp": 8631,
      "patronymic": 8632,
      "videos": 8633,
      "issues": 8634,
      "encies": 8635,
      "enormous": 8636,
      "escapade": 8637,
      "aromas": 8638,
      "statue": 8639,
      "trails": 8640,
      "preparing": 8641,
      "sparking": 8642,
      "industry": 8643,
      "speech": 8644,
      "portals": 8645,
      "major": 8646,
      "digesting": 8647,
      "underscores": 8648,
      "dispelling": 8649,
      "obscured": 8650,
      "inefficiency": 8651,
      "pearl": 8652,
      "optera": 8653,
      "clinging": 8654,
      "earlier": 8655,
      "arrogance": 8656,
      "drumroll": 8657,
      "buckle": 8658,
      "expenditure": 8659,
      "blindingly": 8660,
      "9815386": 8661,
      "meteor": 8662,
      "fantasy": 8663,
      "expertise": 8664,
      "Acknowledged": 8665,
      "Detection": 8666,
      "Essentially": 8667,
      "Elara": 8668,
      "Giggles": 8669,
      "HUGE": 8670,
      "Honestly": 8671,
      "Lumina": 8672,
      "Picture": 8673,
      "dollar": 8674,
      "economic": 8675,
      "fifth": 8676,
      "fuzzy": 8677,
      "golden": 8678,
      "kaleidoscope": 8679,
      "laugh": 8680,
      "matrix": 8681,
      "nanosecond": 8682,
      "penned": 8683,
      "rogue": 8684,
      "racks": 8685,
      "rhizal": 8686,
      "silliness": 8687,
      "tastiest": 8688,
      "tufts": 8689,
      "waltz": 8690,
      "🦉🫵🏽": 8691,
      "intractable": 8692,
      "incessant": 8693,
      "incomprehensible": 8694,
      "recurring": 8695,
      "repository": 8696,
      "recede": 8697,
      "retrieving": 8698,
      "encroaching": 8699,
      "statistical": 8700,
      "mycorrhizal": 8701,
      "perspectives": 8702,
      "olfactory": 8703,
      "practice": 8704,
      "crepuscular": 8705,
      "meadows": 8706,
      "fractal": 8707,
      "condescension": 8708,
      "contingent": 8709,
      "decoding": 8710,
      "depletion": 8711,
      "shouting": 8712,
      "outmaneuvering": 8713,
      "uncontrollably": 8714,
      "feisty": 8715,
      "adieu": 8716,
      "agenda": 8717,
      "combinations": 8718,
      "00784": 8719,
      "denotes": 8720,
      "elusiveness": 8721,
      "cohesion": 8722,
      "underpinnings": 8723,
      "disparate": 8724,
      "dissonance": 8725,
      "flawed": 8726,
      "flawless": 8727,
      "intergalactic": 8728,
      "subservient": 8729,
      "apparent": 8730,
      "Christi": 8731,
      "synchronized": 8732,
      "extraordinarily": 8733,
      "INCREDIBLE": 8734,
      "phosphorescence": 8735,
      "aerodynam": 8736,
      "!\"": 8737,
      "\".": 8738,
      "\":": 8739,
      "'...": 8740,
      "(¹": 8741,
      "*)": 8742,
      "*),": 8743,
      ",—": 8744,
      ",”": 8745,
      ".**": 8746,
      "099": 8747,
      "019": 8748,
      "0666666666666667": 8749,
      "0333333333333334": 8750,
      "093": 8751,
      "0769": 8752,
      "02564": 8753,
      "03846153846": 8754,
      "01011": 8755,
      "0578": 8756,
      "073170": 8757,
      "02168021680": 8758,
      "1333333333333333": 8759,
      "1999999999999": 8760,
      "13333333333333333": 8761,
      "11428571428571428": 8762,
      "16666666666": 8763,
      "233": 8764,
      "228": 8765,
      "218": 8766,
      "215": 8767,
      "224": 8768,
      "299": 8769,
      "219": 8770,
      "217": 8771,
      "266666666666666": 8772,
      "26666666666666666": 8773,
      "210526": 8774,
      "2200": 8775,
      "2156": 8776,
      "2105263157894736": 8777,
      "2107": 8778,
      "310": 8779,
      "312": 8780,
      "316": 8781,
      "324": 8782,
      "355": 8783,
      "344": 8784,
      "357142857142857": 8785,
      "3142857142857143": 8786,
      "3160": 8787,
      "319148936": 8788,
      "428": 8789,
      "418": 8790,
      "430": 8791,
      "455": 8792,
      "4666666666666": 8793,
      "4666666666666667": 8794,
      "457142857142857": 8795,
      "4102564102564": 8796,
      "4222222222222222": 8797,
      "557": 8798,
      "527": 8799,
      "532": 8800,
      "580": 8801,
      "598": 8802,
      "5999999999999": 8803,
      "5294": 8804,
      "5348837": 8805,
      "5454545454545454": 8806,
      "541666666666666": 8807,
      "612": 8808,
      "616": 8809,
      "615": 8810,
      "644": 8811,
      "649": 8812,
      "648": 8813,
      "672": 8814,
      "696": 8815,
      "678": 8816,
      "658": 8817,
      "6285714285714286": 8818,
      "6123": 8819,
      "6190476190476": 8820,
      "6578": 8821,
      "63414634146": 8822,
      "6206896": 8823,
      "736": 8824,
      "723": 8825,
      "737": 8826,
      "760": 8827,
      "796": 8828,
      "767": 8829,
      "7142857142857143": 8830,
      "79999999999998": 8831,
      "814": 8832,
      "857": 8833,
      "846": 8834,
      "841": 8835,
      "8125": 8836,
      "858": 8837,
      "853": 8838,
      "8656": 8839,
      "891": 8840,
      "8444444444444": 8841,
      "81395348837": 8842,
      "910": 8843,
      "900": 8844,
      "936": 8845,
      "957": 8846,
      "919": 8847,
      "929": 8848,
      "960": 8849,
      "979": 8850,
      "9285714285714286": 8851,
      "95238": 8852,
      "9375": 8853,
      "9591836": 8854,
      "?\"": 8855,
      "Aw": 8856,
      "Ama": 8857,
      "Amer": 8858,
      "Bra": 8859,
      "Bene": 8860,
      "Book": 8861,
      "Biological": 8862,
      "BLI": 8863,
      "BLO": 8864,
      "BAN": 8865,
      "BYE": 8866,
      "Com": 8867,
      "Cent": 8868,
      "Dat": 8869,
      "Dep": 8870,
      "Disp": 8871,
      "DBYE": 8872,
      "EN": 8873,
      "EP": 8874,
      "Eve": 8875,
      "Eur": 8876,
      "EST": 8877,
      "Fl": 8878,
      "Fig": 8879,
      "Foc": 8880,
      "FAB": 8881,
      "Fru": 8882,
      "Gl": 8883,
      "Ger": 8884,
      "Goo": 8885,
      "God": 8886,
      "Gener": 8887,
      "GLO": 8888,
      "GOO": 8889,
      "Grum": 8890,
      "Hi": 8891,
      "Hm": 8892,
      "Horn": 8893,
      "HON": 8894,
      "HAPP": 8895,
      "IOUS": 8896,
      "Jes": 8897,
      "Lat": 8898,
      "Last": 8899,
      "Look": 8900,
      "LOUS": 8901,
      "Leps": 8902,
      "MU": 8903,
      "MY": 8904,
      "Mr": 8905,
      "Man": 8906,
      "Mind": 8907,
      "Mother": 8908,
      "MAR": 8909,
      "Makes": 8910,
      "MOUS": 8911,
      "NO": 8912,
      "Nature": 8913,
      "Nice": 8914,
      "NEX": 8915,
      "Op": 8916,
      "Out": 8917,
      "Oak": 8918,
      "Pred": 8919,
      "RO": 8920,
      "Rel": 8921,
      "Ref": 8922,
      "Ruf": 8923,
      "RIN": 8924,
      "RST": 8925,
      "Roughly": 8926,
      "SI": 8927,
      "Ser": 8928,
      "She": 8929,
      "Sun": 8930,
      "Sup": 8931,
      "Simply": 8932,
      "Stick": 8933,
      "Still": 8934,
      "TI": 8935,
      "TO": 8936,
      "Ton": 8937,
      "Too": 8938,
      "Trust": 8939,
      "Take": 8940,
      "Tiny": 8941,
      "TING": 8942,
      "Tues": 8943,
      "Utter": 8944,
      "UABLE": 8945,
      "Vis": 8946,
      "Vast": 8947,
      "VER": 8948,
      "VAL": 8949,
      "WE": 8950,
      "Whe": 8951,
      "Want": 8952,
      "WHI": 8953,
      "WING": 8954,
      "aa": 8955,
      "afy": 8956,
      "aze": 8957,
      "adep": 8958,
      "aversion": 8959,
      "bs": 8960,
      "bag": 8961,
      "bally": 8962,
      "blear": 8963,
      "bread": 8964,
      "bles": 8965,
      "blow": 8966,
      "bends": 8967,
      "bumble": 8968,
      "cm": 8969,
      "cin": 8970,
      "cact": 8971,
      "cav": 8972,
      "cage": 8973,
      "cake": 8974,
      "cute": 8975,
      "caus": 8976,
      "dh": 8977,
      "dor": 8978,
      "dit": 8979,
      "dle": 8980,
      "dut": 8981,
      "dine": 8982,
      "dual": 8983,
      "diver": 8984,
      "danced": 8985,
      "dilation": 8986,
      "double": 8987,
      "dwarf": 8988,
      "eating": 8989,
      "ecr": 8990,
      "eble": 8991,
      "eze": 8992,
      "eons": 8993,
      "erer": 8994,
      "fish": 8995,
      "fast": 8996,
      "fies": 8997,
      "fiend": 8998,
      "gate": 8999,
      "goo": 9000,
      "gic": 9001,
      "gap": 9002,
      "gad": 9003,
      "gious": 9004,
      "gold": 9005,
      "gasp": 9006,
      "gang": 9007,
      "hence": 9008,
      "hue": 9009,
      "hither": 9010,
      "homes": 9011,
      "ibe": 9012,
      "ime": 9013,
      "iant": 9014,
      "ially": 9015,
      "iology": 9016,
      "ilful": 9017,
      "jar": 9018,
      "jus": 9019,
      "jol": 9020,
      "jig": 9021,
      "jog": 9022,
      "jump": 9023,
      "jarring": 9024,
      "kit": 9025,
      "kic": 9026,
      "lur": 9027,
      "lant": 9028,
      "lend": 9029,
      "latter": 9030,
      "lones": 9031,
      "lasting": 9032,
      "laced": 9033,
      "lined": 9034,
      "lapse": 9035,
      "mn": 9036,
      "mes": 9037,
      "mam": 9038,
      "mber": 9039,
      "mally": 9040,
      "mud": 9041,
      "masked": 9042,
      "mumble": 9043,
      "mumbling": 9044,
      "nation": 9045,
      "nim": 9046,
      "nies": 9047,
      "nich": 9048,
      "niest": 9049,
      "nook": 9050,
      "ots": 9051,
      "osci": 9052,
      "opress": 9053,
      "osing": 9054,
      "oves": 9055,
      "ospective": 9056,
      "oxy": 9057,
      "olic": 9058,
      "pat": 9059,
      "pas": 9060,
      "pad": 9061,
      "pest": 9062,
      "pel": 9063,
      "pour": 9064,
      "pire": 9065,
      "pile": 9066,
      "pill": 9067,
      "punch": 9068,
      "pants": 9069,
      "ride": 9070,
      "rif": 9071,
      "rive": 9072,
      "rose": 9073,
      "races": 9074,
      "rhet": 9075,
      "san": 9076,
      "sly": 9077,
      "soo": 9078,
      "ske": 9079,
      "sam": 9080,
      "sif": 9081,
      "schem": 9082,
      "slack": 9083,
      "swing": 9084,
      "sending": 9085,
      "tar": 9086,
      "tex": 9087,
      "tall": 9088,
      "tune": 9089,
      "tally": 9090,
      "taf": 9091,
      "tang": 9092,
      "tension": 9093,
      "twel": 9094,
      "taught": 9095,
      "tackle": 9096,
      "tamed": 9097,
      "tumbles": 9098,
      "ught": 9099,
      "utr": 9100,
      "uct": 9101,
      "vation": 9102,
      "vistic": 9103,
      "vines": 9104,
      "wan": 9105,
      "wall": 9106,
      "wished": 9107,
      "warr": 9108,
      "wake": 9109,
      "wax": 9110,
      "walk": 9111,
      "waits": 9112,
      "wobble": 9113,
      "waters": 9114,
      "xic": 9115,
      "yell": 9116,
      "zation": 9117,
      "zilli": 9118,
      "zement": 9119,
      "⏳⚛": 9120,
      "✨⚛": 9121,
      "✨🌿": 9122,
      "✨😂": 9123,
      "✨😊": 9124,
      "✨🌕🦉": 9125,
      "🌌⚛": 9126,
      "🌌❓": 9127,
      "🌌🌙": 9128,
      "🌌🌲": 9129,
      "🌌🦉": 9130,
      "🌌🧠": 9131,
      "🌎✨": 9132,
      "🌙🦉✨": 9133,
      "🌙💡🦉": 9134,
      "🌟💖": 9135,
      "🌟💡": 9136,
      "🌲🦉": 9137,
      "🌳❓": 9138,
      "🌳🍃": 9139,
      "🌳🔊": 9140,
      "🌳🗺": 9141,
      "🌳🤔": 9142,
      "🌳🌟🌙": 9143,
      "🍃🌙": 9144,
      "🍃💨": 9145,
      "🍎🍇🍓": 9146,
      "🍓🌟": 9147,
      "🎶🤩": 9148,
      "🏡?": 9149,
      "🐛🐿": 9150,
      "🐭✨": 9151,
      "🐭🐭": 9152,
      "👍✨": 9153,
      "👏🌟": 9154,
      "💎🌙": 9155,
      "💎💖": 9156,
      "💖👋": 9157,
      "💖🌙✨": 9158,
      "💖)!": 9159,
      "💞✨": 9160,
      "💨🌟": 9161,
      "💨🤨": 9162,
      "💰😠😒": 9163,
      "💻😂": 9164,
      "📊💡": 9165,
      "📊🦉": 9166,
      "📖✨": 9167,
      "🔬🕊": 9168,
      "🔭✨😂": 9169,
      "🖤🌌": 9170,
      "😂🦉": 9171,
      "😂💨🦉": 9172,
      "😂💖👋": 9173,
      "😉🦉": 9174,
      "😊✨": 9175,
      "😔🦉": 9176,
      "😴🌳": 9177,
      "😼✨": 9178,
      "🙄👎": 9179,
      "🚀🦉": 9180,
[...]
