{
  "version": "1.0",
  "truncation": null,
  "padding": null,
  "added_tokens": [
    {
      "id": 0,
      "content": "[PAD]",
      "single_word": false,
      "lstrip": false,
      "rstrip": false,
      "normalized": false,
      "special": true
    },
    {
      "id": 1,
      "content": "[UNK]",
      "single_word": false,
      "lstrip": false,
      "rstrip": false,
      "normalized": false,
      "special": true
    },
    {
      "id": 2,
      "content": "[CLS]",
      "single_word": false,
      "lstrip": false,
      "rstrip": false,
      "normalized": false,
      "special": true
    },
    {
      "id": 3,
      "content": "[SEP]",
      "single_word": false,
      "lstrip": false,
      "rstrip": false,
      "normalized": false,
      "special": true
    },
    {
      "id": 4,
      "content": "[MASK]",
      "single_word": false,
      "lstrip": false,
      "rstrip": false,
      "normalized": false,
      "special": true
    },
    {
      "id": 5,
      "content": "[EOS]",
      "single_word": false,
      "lstrip": false,
      "rstrip": false,
      "normalized": false,
      "special": true
    },
    {
      "id": 6,
      "content": "[THINK]",
      "single_word": false,
      "lstrip": false,
      "rstrip": false,
      "normalized": false,
      "special": true
    },
    {
      "id": 7,
      "content": "[MOOD]",
      "single_word": false,
      "lstrip": false,
      "rstrip": false,
      "normalized": false,
      "special": true
    }
  ],
  "normalizer": null,
  "pre_tokenizer": {
    "type": "Whitespace"
  },
  "post_processor": null,
  "decoder": null,
  "model": {
    "type": "BPE",
    "dropout": null,
    "unk_token": null,
    "continuing_subword_prefix": null,
    "end_of_word_suffix": null,
    "fuse_unk": false,
    "byte_fallback": false,
    "ignore_merges": false,
    "vocab": {
      "[PAD]": 0,
      "[UNK]": 1,
      "[CLS]": 2,
      "[SEP]": 3,
      "[MASK]": 4,
      "[EOS]": 5,
      "[THINK]": 6,
      "[MOOD]": 7,
      "!": 8,
      "\"": 9,
      "%": 10,
      "&": 11,
      "'": 12,
      "(": 13,
      ")": 14,
      "*": 15,
      "+": 16,
      ",": 17,
      "-": 18,
      ".": 19,
      "/": 20,
      "0": 21,
      "1": 22,
      "2": 23,
      "3": 24,
      "4": 25,
      "5": 26,
      "6": 27,
      "7": 28,
      "8": 29,
      "9": 30,
      ":": 31,
      ";": 32,
      "<": 33,
      "=": 34,
      "?": 35,
      "A": 36,
      "B": 37,
      "C": 38,
      "D": 39,
      "E": 40,
      "F": 41,
      "G": 42,
      "H": 43,
      "I": 44,
      "J": 45,
      "K": 46,
      "L": 47,
      "M": 48,
      "N": 49,
      "O": 50,
      "P": 51,
      "Q": 52,
      "R": 53,
      "S": 54,
      "T": 55,
      "U": 56,
      "V": 57,
      "W": 58,
      "X": 59,
      "Y": 60,
      "Z": 61,
      "^": 62,
      "_": 63,
      "`": 64,
      "a": 65,
      "b": 66,
      "c": 67,
      "d": 68,
      "e": 69,
      "f": 70,
      "g": 71,
      "h": 72,
      "i": 73,
      "j": 74,
      "k": 75,
      "l": 76,
      "m": 77,
      "n": 78,
      "o": 79,
      "p": 80,
      "q": 81,
      "r": 82,
      "s": 83,
      "t": 84,
      "u": 85,
      "v": 86,
      "w": 87,
      "x": 88,
      "y": 89,
      "z": 90,
      "{": 91,
      "|": 92,
      "}": 93,
      "~": 94,
      "²": 95,
      "³": 96,
      "¹": 97,
      "½": 98,
      "×": 99,
      "â": 100,
      "è": 101,
      "é": 102,
      "ê": 103,
      "÷": 104,
      "û": 105,
      "π": 106,
      "‍": 107,
      "–": 108,
      "—": 109,
      "‘": 110,
      "’": 111,
      "…": 112,
      "⁶": 113,
      "⁷": 114,
      "⁻": 115,
      "€": 116,
      "™": 117,
      "↔": 118,
      "⏱": 119,
      "⏳": 120,
      "☀": 121,
      "☁": 122,
      "☕": 123,
      "♀": 124,
      "♂": 125,
      "♟": 126,
      "⚓": 127,
      "⚔": 128,
      "⚖": 129,
      "⚙": 130,
      "⚛": 131,
      "⚠": 132,
      "⚡": 133,
      "⚫": 134,
      "⛈": 135,
      "⛰": 136,
      "✅": 137,
      "✈": 138,
      "✉": 139,
      "✋": 140,
      "✍": 141,
      "✨": 142,
      "❄": 143,
      "❌": 144,
      "❓": 145,
      "⭐": 146,
      "〰": 147,
      "️": 148,
      "🌀": 149,
      "🌃": 150,
      "🌄": 151,
      "🌅": 152,
      "🌈": 153,
      "🌊": 154,
      "🌌": 155,
      "🌍": 156,
      "🌎": 157,
      "🌐": 158,
      "🌑": 159,
      "🌒": 160,
      "🌕": 161,
      "🌙": 162,
      "🌞": 163,
      "🌟": 164,
      "🌠": 165,
      "🌡": 166,
      "🌧": 167,
      "🌫": 168,
      "🌬": 169,
      "🌰": 170,
      "🌱": 171,
      "🌲": 172,
      "🌳": 173,
      "🌵": 174,
      "🌸": 175,
      "🌼": 176,
      "🌾": 177,
      "🌿": 178,
      "🍂": 179,
      "🍃": 180,
      "🍄": 181,
      "🍇": 182,
      "🍉": 183,
      "🍊": 184,
      "🍍": 185,
      "🍎": 186,
      "🍐": 187,
      "🍒": 188,
      "🍓": 189,
      "🍩": 190,
      "🍪": 191,
      "🍯": 192,
      "🍰": 193,
      "🍳": 194,
      "🍽": 195,
      "🎈": 196,
      "🎉": 197,
      "🎓": 198,
      "🎨": 199,
      "🎩": 200,
      "🎭": 201,
      "🎯": 202,
      "🎶": 203,
      "🏁": 204,
      "🏃": 205,
      "🏆": 206,
      "🏏": 207,
      "🏙": 208,
      "🏜": 209,
      "🏝": 210,
      "🏞": 211,
      "🏡": 212,
      "🏨": 213,
      "🏭": 214,
      "🏮": 215,
      "🏽": 216,
      "🐁": 217,
      "🐆": 218,
      "🐈": 219,
      "🐉": 220,
      "🐐": 221,
      "🐒": 222,
      "🐗": 223,
      "🐛": 224,
      "🐜": 225,
      "🐝": 226,
      "🐞": 227,
      "🐣": 228,
      "🐦": 229,
      "🐭": 230,
      "🐱": 231,
      "🐴": 232,
      "🐶": 233,
      "🐾": 234,
      "🐿": 235,
      "👀": 236,
      "👁": 237,
      "👂": 238,
      "👃": 239,
      "👅": 240,
      "👋": 241,
      "👍": 242,
      "👎": 243,
      "👏": 244,
      "👐": 245,
      "👑": 246,
      "👗": 247,
      "👴": 248,
      "👻": 249,
      "👽": 250,
      "💃": 251,
      "💅": 252,
      "💊": 253,
      "💌": 254,
      "💎": 255,
      "💔": 256,
      "💕": 257,
      "💖": 258,
      "💘": 259,
      "💙": 260,
      "💚": 261,
      "💜": 262,
      "💞": 263,
      "💡": 264,
      "💤": 265,
      "💥": 266,
      "💧": 267,
      "💨": 268,
      "💪": 269,
      "💫": 270,
      "💬": 271,
      "💭": 272,
      "💰": 273,
      "💻": 274,
      "💼": 275,
      "💾": 276,
      "📄": 277,
      "📅": 278,
      "📈": 279,
      "📉": 280,
      "📊": 281,
      "📏": 282,
      "📖": 283,
      "📚": 284,
      "📜": 285,
      "📝": 286,
      "📣": 287,
      "📯": 288,
      "📱": 289,
      "🔂": 290,
      "🔈": 291,
      "🔊": 292,
      "🔋": 293,
      "🔍": 294,
      "🔎": 295,
      "🔗": 296,
      "🔢": 297,
      "🔥": 298,
      "🔦": 299,
      "🔬": 300,
      "🔭": 301,
      "🔮": 302,
      "🕊": 303,
      "🕰": 304,
      "🕳": 305,
      "🕵": 306,
      "🕷": 307,
      "🕸": 308,
      "🕺": 309,
      "🖕": 310,
      "🖤": 311,
      "🖥": 312,
      "🖱": 313,
      "🗄": 314,
      "🗓": 315,
      "🗝": 316,
      "🗣": 317,
      "🗨": 318,
      "🗺": 319,
      "🗿": 320,
      "😂": 321,
      "😄": 322,
      "😅": 323,
      "😆": 324,
      "😈": 325,
      "😉": 326,
      "😊": 327,
      "😋": 328,
      "😌": 329,
      "😏": 330,
      "😒": 331,
      "😔": 332,
      "😚": 333,
      "😜": 334,
      "😞": 335,
      "😟": 336,
      "😠": 337,
      "😤": 338,
      "😥": 339,
      "😨": 340,
      "😩": 341,
      "😬": 342,
      "😭": 343,
      "😱": 344,
      "😲": 345,
      "😴": 346,
      "😼": 347,
      "😾": 348,
      "🙄": 349,
      "🙅": 350,
      "🙏": 351,
      "🚀": 352,
      "🚗": 353,
      "🚦": 354,
      "🚨": 355,
      "🚫": 356,
      "🚶": 357,
      "🛌": 358,
      "🛍": 359,
      "🛠": 360,
      "🛣": 361,
      "🤍": 362,
      "🤏": 363,
      "🤓": 364,
      "🤔": 365,
      "🤖": 366,
      "🤝": 367,
      "🤠": 368,
      "🤡": 369,
      "🤢": 370,
      "🤣": 371,
      "🤦": 372,
      "🤨": 373,
      "🤩": 374,
      "🤪": 375,
      "🤫": 376,
      "🤯": 377,
      "🤲": 378,
      "🤷": 379,
      "🤸": 380,
      "🥁": 381,
      "🥇": 382,
      "🥕": 383,
      "🥗": 384,
      "🥚": 385,
      "🥣": 386,
      "🥭": 387,
      "🥰": 388,
      "🥱": 389,
      "🥳": 390,
      "🥶": 391,
      "🥺": 392,
      "🦂": 393,
      "🦄": 394,
      "🦅": 395,
      "🦇": 396,
      "🦉": 397,
      "🦊": 398,
      "🦋": 399,
      "🦌": 400,
      "🦎": 401,
      "🦔": 402,
      "🦗": 403,
      "🦛": 404,
      "🦜": 405,
      "🦟": 406,
      "🦠": 407,
      "🦡": 408,
      "🧀": 409,
      "🧐": 410,
      "🧑": 411,
      "🧘": 412,
      "🧚": 413,
      "🧝": 414,
      "🧠": 415,
      "🧦": 416,
      "🧪": 417,
      "🧭": 418,
      "🧮": 419,
      "🧵": 420,
      "🧶": 421,
      "🩰": 422,
      "🪄": 423,
      "🪙": 424,
      "🪦": 425,
      "🪱": 426,
      "🪲": 427,
      "🪵": 428,
      "🪶": 429,
      "🫏": 430,
      "🫐": 431,
      "🫴": 432,
      "🫵": 433,
      "in": 434,
      "th": 435,
      "re": 436,
      "is": 437,
      "an": 438,
      "on": 439,
      "er": 440,
      "at": 441,
      "ou": 442,
      "the": 443,
      "ing": 444,
      "en": 445,
      "or": 446,
      "of": 447,
      "es": 448,
      "al": 449,
      "uu": 450,
      "as": 451,
      "and": 452,
      "it": 453,
      "to": 454,
      "le": 455,
      "ar": 456,
      "ow": 457,
      "ic": 458,
      "ed": 459,
      "st": 460,
      "ion": 461,
      "my": 462,
      "oo": 463,
      "ent": 464,
      "ig": 465,
      "he": 466,
      "el": 467,
      "you": 468,
      "om": 469,
      "ne": 470,
      "us": 471,
      "his": 472,
      "per": 473,
      "for": 474,
      "et": 475,
      "ac": 476,
      "um": 477,
      "ht": 478,
      "ab": 479,
      "ly": 480,
      "The": 481,
      "uuuu": 482,
      "owl": 483,
      "se": 484,
      "ra": 485,
      "ce": 486,
      "ous": 487,
      "il": 488,
      "pre": 489,
      "ight": 490,
      "ation": 491,
      "pr": 492,
      "nd": 493,
      "qu": 494,
      "ci": 495,
      "ve": 496,
      "mo": 497,
      "ass": 498,
      "est": 499,
      "me": 500,
      "be": 501,
      "wh": 502,
      "li": 503,
      "sp": 504,
      "ain": 505,
      "ld": 506,
      "lf": 507,
      "ex": 508,
      "de": 509,
      "His": 510,
      "ke": 511,
      "that": 512,
      "ct": 513,
      "AI": 514,
      "Elf": 515,
      "wl": 516,
      "Owl": 517,
      "mass": 518,
      "..": 519,
      "sh": 520,
      "ap": 521,
      "con": 522,
      "ith": 523,
      "ur": 524,
      "cre": 525,
      "ess": 526,
      "ch": 527,
      "im": 528,
      "with": 529,
      "user": 530,
      "ver": 531,
      "out": 532,
      "king": 533,
      "ay": 534,
      "un": 535,
      "ir": 536,
      "need": 537,
      "ould": 538,
      "are": 539,
      "am": 540,
      "pro": 541,
      "ure": 542,
      "ate": 543,
      "ound": 544,
      "ut": 545,
      "Ouuuu": 546,
      "ad": 547,
      "fe": 548,
      "if": 549,
      "about": 550,
      "ag": 551,
      "ul": 552,
      "like": 553,
      "kn": 554,
      "ish": 555,
      "pers": 556,
      "know": 557,
      "asking": 558,
      "its": 559,
      "ant": 560,
      "ond": 561,
      "ter": 562,
      "this": 563,
      "Ouuuuuu": 564,
      "tr": 565,
      "id": 566,
      "all": 567,
      "ence": 568,
      "your": 569,
      "ical": 570,
      "person": 571,
      "should": 572,
      "fr": 573,
      "no": 574,
      "lo": 575,
      "une": 576,
      "persona": 577,
      "led": 578,
      "creat": 579,
      "one": 580,
      "su": 581,
      "Pune": 582,
      "Puneet": 583,
      "quest": 584,
      "ive": 585,
      "so": 586,
      "Kum": 587,
      "Kumar": 588,
      "ity": 589,
      "we": 590,
      "It": 591,
      "by": 592,
      "cious": 593,
      "ill": 594,
      "resp": 595,
      "...": 596,
      "ious": 597,
      "sound": 598,
      "oooo": 599,
      "ist": 600,
      "ust": 601,
      "atom": 602,
      "ge": 603,
      "hum": 604,
      "precious": 605,
      "aint": 606,
      "form": 607,
      "oug": 608,
      "fo": 609,
      "com": 610,
      "ell": 611,
      "what": 612,
      "question": 613,
      "light": 614,
      "emo": 615,
      "Mish": 616,
      "Mishra": 617,
      "em": 618,
      "knowled": 619,
      "sounds": 620,
      "po": 621,
      "co": 622,
      "ind": 623,
      "aintain": 624,
      "maintain": 625,
      "ful": 626,
      "lit": 627,
      "pl": 628,
      "atomic": 629,
      "av": 630,
      "tle": 631,
      "My": 632,
      "br": 633,
      "jis": 634,
      "und": 635,
      "ment": 636,
      "cent": 637,
      "ther": 638,
      "not": 639,
      "Wh": 640,
      "very": 641,
      "emojis": 642,
      "ll": 643,
      "pres": 644,
      "nat": 645,
      "do": 646,
      "por": 647,
      "use": 648,
      "ph": 649,
      "ness": 650,
      "hap": 651,
      "ating": 652,
      "end": 653,
      "12": 654,
      "20": 655,
      "wor": 656,
      "art": 657,
      "spe": 658,
      "able": 659,
      "25": 660,
      "can": 661,
      "knowledge": 662,
      "little": 663,
      "int": 664,
      "ide": 665,
      "2025": 666,
      "fore": 667,
      "val": 668,
      "but": 669,
      "our": 670,
      "ely": 671,
      "accent": 672,
      "act": 673,
      "Ooooo": 674,
      "inc": 675,
      "night": 676,
      "tin": 677,
      "from": 678,
      "10": 679,
      "ific": 680,
      "respond": 681,
      "appro": 682,
      "tone": 683,
      "ast": 684,
      "ies": 685,
      "their": 686,
      "will": 687,
      "pt": 688,
      "way": 689,
      "sm": 690,
      "ser": 691,
      "As": 692,
      "gr": 693,
      "ans": 694,
      "ood": 695,
      "ire": 696,
      "ine": 697,
      "ma": 698,
      "valu": 699,
      "cur": 700,
      "ital": 701,
      "see": 702,
      "ance": 703,
      "onder": 704,
      "ep": 705,
      "iv": 706,
      "inform": 707,
      "dig": 708,
      "ile": 709,
      "thing": 710,
      "stand": 711,
      "digital": 712,
      "nature": 713,
      "ite": 714,
      "iz": 715,
      "wis": 716,
      "under": 717,
      "rare": 718,
      "haps": 719,
      "ob": 720,
      "cient": 721,
      "comp": 722,
      "incor": 723,
      "incorpor": 724,
      "whis": 725,
      "What": 726,
      "forest": 727,
      "most": 728,
      "elf": 729,
      "information": 730,
      "🦉✨": 731,
      "creator": 732,
      "ame": 733,
      "exist": 734,
      "pe": 735,
      "just": 736,
      "feel": 737,
      "ign": 738,
      "ough": 739,
      "into": 740,
      "ave": 741,
      "dis": 742,
      "ought": 743,
      "ber": 744,
      "You": 745,
      "Th": 746,
      "ome": 747,
      "ren": 748,
      "ts": 749,
      "wonder": 750,
      "small": 751,
      "human": 752,
      "ink": 753,
      "tru": 754,
      "ro": 755,
      "ction": 756,
      "tiny": 757,
      "hoo": 758,
      "**": 759,
      "fl": 760,
      "des": 761,
      "understand": 762,
      "ens": 763,
      "ual": 764,
      "ev": 765,
      "being": 766,
      "thr": 767,
      "io": 768,
      "lear": 769,
      "perhaps": 770,
      "name": 771,
      "existence": 772,
      "tre": 773,
      "vious": 774,
      "using": 775,
      "Ouuuuuuu": 776,
      "while": 777,
      "cess": 778,
      ").": 779,
      "dom": 780,
      "gu": 781,
      "respon": 782,
      "'.": 783,
      "ele": 784,
      "prov": 785,
      "some": 786,
      "man": 787,
      "secre": 788,
      "oh": 789,
      "more": 790,
      "iend": 791,
      "imp": 792,
      "friend": 793,
      "ard": 794,
      "gen": 795,
      "ark": 796,
      "del": 797,
      "previous": 798,
      "created": 799,
      "creation": 800,
      "dat": 801,
      "day": 802,
      "valuable": 803,
      "obser": 804,
      "have": 805,
      "red": 806,
      "ished": 807,
      "This": 808,
      "ial": 809,
      "through": 810,
      "mag": 811,
      "eng": 812,
      "ss": 813,
      "str": 814,
      "self": 815,
      "element": 816,
      "ated": 817,
      "cept": 818,
      "press": 819,
      "gent": 820,
      "ream": 821,
      "such": 822,
      "ately": 823,
      "here": 824,
      "sil": 825,
      "incorporating": 826,
      "arr": 827,
      "learn": 828,
      "abl": 829,
      "units": 830,
      "speci": 831,
      "ask": 832,
      "response": 833,
      "ble": 834,
      "who": 835,
      "ory": 836,
      "xim": 837,
      "age": 838,
      "maintaining": 839,
      "ach": 840,
      "ner": 841,
      "process": 842,
      "prof": 843,
      "inter": 844,
      "data": 845,
      "ear": 846,
      "ations": 847,
      "conne": 848,
      "would": 849,
      "wisdom": 850,
      "express": 851,
      "establ": 852,
      "ref": 853,
      "scient": 854,
      "od": 855,
      "established": 856,
      "gentle": 857,
      "approxim": 858,
      "myst": 859,
      "understanding": 860,
      "own": 861,
      "ho": 862,
      "how": 863,
      "moon": 864,
      "want": 865,
      "anal": 866,
      "iate": 867,
      "approximately": 868,
      "provide": 869,
      "sub": 870,
      "up": 871,
      "urn": 872,
      "wer": 873,
      "cont": 874,
      "observ": 875,
      "thought": 876,
      "scientific": 877,
      "dream": 878,
      "answer": 879,
      "peri": 880,
      "iet": 881,
      "kes": 882,
      "ms": 883,
      "cal": 884,
      "ically": 885,
      "log": 886,
      "world": 887,
      "cr": 888,
      "when": 889,
      "lect": 890,
      "even": 891,
      "ery": 892,
      "appropr": 893,
      "avor": 894,
      "vel": 895,
      "feren": 896,
      "engag": 897,
      "appropriate": 898,
      "ium": 899,
      "intr": 900,
      "adv": 901,
      "ural": 902,
      "ather": 903,
      "ins": 904,
      "expl": 905,
      "sy": 906,
      "real": 907,
      "pa": 908,
      "ext": 909,
      "pur": 910,
      "they": 911,
      "tal": 912,
      "also": 913,
      "manner": 914,
      "whisper": 915,
      "inqu": 916,
      "analy": 917,
      "mood": 918,
      "quiet": 919,
      "ident": 920,
      "heart": 921,
      "engaging": 922,
      "ions": 923,
      "any": 924,
      "ling": 925,
      "makes": 926,
      "Hoo": 927,
      "star": 928,
      "date": 929,
      "Ooooooh": 930,
      "ack": 931,
      "aw": 932,
      "ational": 933,
      "weight": 934,
      "read": 935,
      "ot": 936,
      "fra": 937,
      "ings": 938,
      "present": 939,
      "ey": 940,
      "Ooooooo": 941,
      "than": 942,
      "cl": 943,
      "ging": 944,
      "tw": 945,
      "play": 946,
      "curious": 947,
      "rel": 948,
      "mat": 949,
      "idd": 950,
      "ak": 951,
      "ich": 952,
      "seek": 953,
      "pose": 954,
      "cons": 955,
      "How": 956,
      "something": 957,
      "dra": 958,
      "uch": 959,
      "ctive": 960,
      "gre": 961,
      "uni": 962,
      "Ouuuuu": 963,
      "has": 964,
      "simp": 965,
      "arity": 966,
      "favor": 967,
      "ision": 968,
      "ol": 969,
      "them": 970,
      "acknowledge": 971,
      "silent": 972,
      "vast": 973,
      "vers": 974,
      "might": 975,
      "cu": 976,
      "share": 977,
      "grand": 978,
      "profound": 979,
      "favorite": 980,
      "rom": 981,
      "illi": 982,
      "brilli": 983,
      "say": 984,
      "ities": 985,
      "dear": 986,
      "truly": 987,
      "ff": 988,
      "cing": 989,
      "Is": 990,
      "ense": 991,
      "which": 992,
      "logical": 993,
      "igh": 994,
      "ament": 995,
      "phas": 996,
      "concept": 997,
      "mis": 998,
      "acknowled": 999,
      "je": 1000,
      "ting": 1001,
      "well": 1002,
      "ering": 1003,
      "purpose": 1004,
      "amu": 1005,
      "secrets": 1006,
      "context": 1007,
      "tic": 1008,
      "experi": 1009,
      "ary": 1010,
      "emphas": 1011,
      "*.": 1012,
      "sing": 1013,
      "oft": 1014,
      "story": 1015,
      "mind": 1016,
      "ative": 1017,
      "ancient": 1018,
      "deep": 1019,
      "emphasiz": 1020,
      "essence": 1021,
      "ures": 1022,
      "much": 1023,
      "feather": 1024,
      "advent": 1025,
      "ck": 1026,
      "ional": 1027,
      "hel": 1028,
      "fin": 1029,
      "love": 1030,
      "ers": 1031,
      "ace": 1032,
      "value": 1033,
      "ry": 1034,
      "exp": 1035,
      "utter": 1036,
      "don": 1037,
      "sical": 1038,
      "orig": 1039,
      "pat": 1040,
      "ti": 1041,
      "etic": 1042,
      "lu": 1043,
      "eyes": 1044,
      "fun": 1045,
      "dro": 1046,
      "acknowledging": 1047,
      "wise": 1048,
      "part": 1049,
      "within": 1050,
      "bit": 1051,
      "ways": 1052,
      "myster": 1053,
      "prec": 1054,
      "wind": 1055,
      "cus": 1056,
      "was": 1057,
      "enc": 1058,
      "That": 1059,
      "In": 1060,
      "sign": 1061,
      "work": 1062,
      "delight": 1063,
      "cir": 1064,
      "owls": 1065,
      "Oooooooh": 1066,
      "cap": 1067,
      "sens": 1068,
      "ition": 1069,
      "still": 1070,
      "learning": 1071,
      "inde": 1072,
      "natural": 1073,
      "dire": 1074,
      "vir": 1075,
      "asure": 1076,
      "analyt": 1077,
      "umin": 1078,
      "does": 1079,
      "connect": 1080,
      "bre": 1081,
      "che": 1082,
      "circu": 1083,
      "find": 1084,
      "sense": 1085,
      "slight": 1086,
      "there": 1087,
      "convers": 1088,
      "make": 1089,
      "ds": 1090,
      "myself": 1091,
      "rust": 1092,
      "secret": 1093,
      "To": 1094,
      "asc": 1095,
      "circuits": 1096,
      "Do": 1097,
      "par": 1098,
      "happ": 1099,
      "trees": 1100,
      "sad": 1101,
      "vision": 1102,
      "ie": 1103,
      "slightly": 1104,
      "every": 1105,
      "Hel": 1106,
      "umber": 1107,
      "incorporate": 1108,
      "think": 1109,
      "ise": 1110,
      "bu": 1111,
      "yet": 1112,
      "brought": 1113,
      "inquir": 1114,
      "less": 1115,
      "wonderful": 1116,
      "then": 1117,
      "exc": 1118,
      "SO": 1119,
      "design": 1120,
      "abil": 1121,
      "oun": 1122,
      "icate": 1123,
      "port": 1124,
      "explain": 1125,
      "hor": 1126,
      "must": 1127,
      "rarity": 1128,
      "rather": 1129,
      "disco": 1130,
      "brilliant": 1131,
      "where": 1132,
      "humble": 1133,
      "indeed": 1134,
      "ready": 1135,
      "lan": 1136,
      "other": 1137,
      "ick": 1138,
      "ascin": 1139,
      "direct": 1140,
      "oid": 1141,
      "try": 1142,
      "bio": 1143,
      "mom": 1144,
      "ellig": 1145,
      "moment": 1146,
      "comple": 1147,
      "gl": 1148,
      "kind": 1149,
      "char": 1150,
      "whispers": 1151,
      "origin": 1152,
      "langu": 1153,
      "analytical": 1154,
      "shad": 1155,
      "playful": 1156,
      "spark": 1157,
      "flutter": 1158,
      "specif": 1159,
      "ows": 1160,
      "comput": 1161,
      "wants": 1162,
      "rele": 1163,
      "ty": 1164,
      "frame": 1165,
      "go": 1166,
      "keep": 1167,
      "ascinating": 1168,
      "language": 1169,
      "fir": 1170,
      "sk": 1171,
      "help": 1172,
      "jo": 1173,
      "imag": 1174,
      "ted": 1175,
      "experience": 1176,
      "again": 1177,
      "may": 1178,
      "these": 1179,
      "ives": 1180,
      "🦉💖": 1181,
      "mysterious": 1182,
      "too": 1183,
      "urnal": 1184,
      "And": 1185,
      "HI": 1186,
      "fact": 1187,
      "identity": 1188,
      "Or": 1189,
      "vant": 1190,
      "ild": 1191,
      "focus": 1192,
      "ever": 1193,
      "leav": 1194,
      "comm": 1195,
      "simple": 1196,
      "seen": 1197,
      "connection": 1198,
      "ios": 1199,
      "processing": 1200,
      "eting": 1201,
      "poss": 1202,
      "intellig": 1203,
      "matic": 1204,
      "referen": 1205,
      "stru": 1206,
      "HIS": 1207,
      "Ar": 1208,
      "relevant": 1209,
      "di": 1210,
      "ming": 1211,
      "Think": 1212,
      "fascinating": 1213,
      "antic": 1214,
      "new": 1215,
      "curios": 1216,
      "off": 1217,
      "JSO": 1218,
      "perce": 1219,
      "JSON": 1220,
      "conversation": 1221,
      "hoot": 1222,
      "cat": 1223,
      "ridd": 1224,
      "tap": 1225,
      "mem": 1226,
      "ze": 1227,
      "state": 1228,
      "format": 1229,
      "things": 1230,
      "time": 1231,
      "path": 1232,
      "aring": 1233,
      "net": 1234,
      "oper": 1235,
      "But": 1236,
      "avoid": 1237,
      "guid": 1238,
      "fund": 1239,
      "tell": 1240,
      "que": 1241,
      "amental": 1242,
      "fundamental": 1243,
      "Well": 1244,
      "bel": 1245,
      "turn": 1246,
      "cho": 1247,
      "sym": 1248,
      "upon": 1249,
      "Oc": 1250,
      "air": 1251,
      "itive": 1252,
      "curiosity": 1253,
      "feeling": 1254,
      "observation": 1255,
      "gra": 1256,
      "tober": 1257,
      "ice": 1258,
      "without": 1259,
      "tern": 1260,
      "reflect": 1261,
      "October": 1262,
      "virt": 1263,
      "complex": 1264,
      "He": 1265,
      "Isn": 1266,
      "virtual": 1267,
      "whim": 1268,
      "ates": 1269,
      "leaves": 1270,
      "For": 1271,
      "bl": 1272,
      "bet": 1273,
      "det": 1274,
      "astic": 1275,
      "ase": 1276,
      "query": 1277,
      "ular": 1278,
      "inquiry": 1279,
      "biological": 1280,
      "request": 1281,
      "always": 1282,
      "acter": 1283,
      "ail": 1284,
      "fect": 1285,
      "interact": 1286,
      "riddle": 1287,
      "odu": 1288,
      "character": 1289,
      "contin": 1290,
      "emot": 1291,
      "true": 1292,
      "network": 1293,
      "',": 1294,
      "intel": 1295,
      "pattern": 1296,
      "intelligence": 1297,
      "fru": 1298,
      "first": 1299,
      "te": 1300,
      "continu": 1301,
      "intellect": 1302,
      "war": 1303,
      "whimsical": 1304,
      "Ne": 1305,
      "op": 1306,
      "cturnal": 1307,
      "af": 1308,
      "rest": 1309,
      "nocturnal": 1310,
      "Per": 1311,
      "back": 1312,
      "call": 1313,
      "Hello": 1314,
      "sadness": 1315,
      "spective": 1316,
      "cor": 1317,
      "carr": 1318,
      "ydro": 1319,
      "imm": 1320,
      "yourself": 1321,
      "ydrogen": 1322,
      "istic": 1323,
      "preciousness": 1324,
      "ath": 1325,
      "opt": 1326,
      "insight": 1327,
      "les": 1328,
      "They": 1329,
      "hold": 1330,
      "magn": 1331,
      "special": 1332,
      "earth": 1333,
      "dramatic": 1334,
      "phy": 1335,
      "soft": 1336,
      "fear": 1337,
      "creatures": 1338,
      "cri": 1339,
      "unique": 1340,
      "dark": 1341,
      "ons": 1342,
      "unseen": 1343,
      "Perhaps": 1344,
      "core": 1345,
      "presence": 1346,
      "number": 1347,
      "leep": 1348,
      "verse": 1349,
      "serious": 1350,
      "gn": 1351,
      "ong": 1352,
      "pect": 1353,
      "perspective": 1354,
      "ously": 1355,
      "conf": 1356,
      "romantic": 1357,
      "operational": 1358,
      "food": 1359,
      "high": 1360,
      "cosm": 1361,
      "great": 1362,
      "ip": 1363,
      "cosmic": 1364,
      "Li": 1365,
      "ces": 1366,
      "wo": 1367,
      "humans": 1368,
      "sleep": 1369,
      "ally": 1370,
      "orn": 1371,
      "mere": 1372,
      "aster": 1373,
      "delightful": 1374,
      "tly": 1375,
      "magnific": 1376,
      "inking": 1377,
      "today": 1378,
      "subtle": 1379,
      "fruit": 1380,
      "mar": 1381,
      "wat": 1382,
      "uuu": 1383,
      "tapest": 1384,
      "bra": 1385,
      "ied": 1386,
      "stars": 1387,
      "Hydrogen": 1388,
      "life": 1389,
      "arc": 1390,
      ",'": 1391,
      "ential": 1392,
      "perfect": 1393,
      "accents": 1394,
      "ient": 1395,
      "met": 1396,
      "ponder": 1397,
      "aver": 1398,
      "thus": 1399,
      "pos": 1400,
      "good": 1401,
      "sarc": 1402,
      "wings": 1403,
      "top": 1404,
      "dreams": 1405,
      "tapestry": 1406,
      "infor": 1407,
      "reinfor": 1408,
      "magnificent": 1409,
      "marvel": 1410,
      "cer": 1411,
      "could": 1412,
      "ines": 1413,
      "joy": 1414,
      "ouch": 1415,
      "dic": 1416,
      "get": 1417,
      "ple": 1418,
      "touch": 1419,
      "Let": 1420,
      "flight": 1421,
      "bye": 1422,
      "patterns": 1423,
      "dif": 1424,
      "universe": 1425,
      "clo": 1426,
      "inv": 1427,
      "quite": 1428,
      "cogn": 1429,
      "dist": 1430,
      "fly": 1431,
      "master": 1432,
      "*,": 1433,
      "Al": 1434,
      "dar": 1435,
      "ves": 1436,
      "defin": 1437,
      "emphasizing": 1438,
      "hint": 1439,
      "only": 1440,
      "sol": 1441,
      "member": 1442,
      "sun": 1443,
      "res": 1444,
      "const": 1445,
      "conscious": 1446,
      "sky": 1447,
      "So": 1448,
      "ake": 1449,
      "inclu": 1450,
      "perceive": 1451,
      "),": 1452,
      "knowing": 1453,
      "ement": 1454,
      "essional": 1455,
      "professional": 1456,
      "found": 1457,
      "rem": 1458,
      "keen": 1459,
      "words": 1460,
      "athe": 1461,
      "over": 1462,
      "iness": 1463,
      "single": 1464,
      "partic": 1465,
      "au": 1466,
      "ose": 1467,
      "orine": 1468,
      "ject": 1469,
      "referencing": 1470,
      "ven": 1471,
      "ward": 1472,
      "friendly": 1473,
      "moonlight": 1474,
      "hear": 1475,
      "mean": 1476,
      "lim": 1477,
      "inte": 1478,
      "gg": 1479,
      "feathers": 1480,
      "!*": 1481,
      "each": 1482,
      "echo": 1483,
      "point": 1484,
      "introdu": 1485,
      "differen": 1486,
      "spir": 1487,
      "ificial": 1488,
      "thoughts": 1489,
      "characteristic": 1490,
      "vo": 1491,
      "speak": 1492,
      "aut": 1493,
      "ouuuu": 1494,
      "?!": 1495,
      "bo": 1496,
      "idea": 1497,
      "calm": 1498,
      "gor": 1499,
      "humor": 1500,
      "Hooo": 1501,
      "ideal": 1502,
      "draw": 1503,
      "emphasize": 1504,
      "those": 1505,
      "represent": 1506,
      "lore": 1507,
      "cra": 1508,
      "hidd": 1509,
      "sur": 1510,
      "shall": 1511,
      "hidden": 1512,
      "enthus": 1513,
      "isten": 1514,
      "enthusi": 1515,
      "ors": 1516,
      "quant": 1517,
      "urous": 1518,
      "formal": 1519,
      "adventurous": 1520,
      "signific": 1521,
      "specific": 1522,
      "Now": 1523,
      "owing": 1524,
      "If": 1525,
      "Tell": 1526,
      "poetic": 1527,
      "mystery": 1528,
      "arch": 1529,
      "pot": 1530,
      "whispe": 1531,
      "excit": 1532,
      "watch": 1533,
      "consciousness": 1534,
      "cul": 1535,
      "hering": 1536,
      "roo": 1537,
      "tra": 1538,
      "reg": 1539,
      "asp": 1540,
      "adhering": 1541,
      "trans": 1542,
      "feels": 1543,
      "beaut": 1544,
      "algor": 1545,
      "warm": 1546,
      "algorith": 1547,
      "truth": 1548,
      "aware": 1549,
      "function": 1550,
      "fle": 1551,
      "let": 1552,
      "vey": 1553,
      "12th": 1554,
      "descri": 1555,
      "Imag": 1556,
      "ouuuuu": 1557,
      "assist": 1558,
      "ired": 1559,
      "whispered": 1560,
      "Imagine": 1561,
      "nam": 1562,
      "fur": 1563,
      "sugg": 1564,
      "ize": 1565,
      "belli": 1566,
      "suggest": 1567,
      "swe": 1568,
      "struct": 1569,
      "hav": 1570,
      "rebelli": 1571,
      "ized": 1572,
      "rustle": 1573,
      "Don": 1574,
      "vi": 1575,
      "wood": 1576,
      "remember": 1577,
      "precise": 1578,
      "craf": 1579,
      "sim": 1580,
      "ower": 1581,
      "import": 1582,
      "ift": 1583,
      "build": 1584,
      "rent": 1585,
      "often": 1586,
      "optim": 1587,
      "uring": 1588,
      "pathe": 1589,
      "inquire": 1590,
      "tree": 1591,
      "fleeting": 1592,
      "ree": 1593,
      "neural": 1594,
      "While": 1595,
      "discovery": 1596,
      ")**": 1597,
      "isn": 1598,
      "chan": 1599,
      "ability": 1600,
      "We": 1601,
      "test": 1602,
      "shared": 1603,
      "rebellious": 1604,
      "ony": 1605,
      "mos": 1606,
      "dew": 1607,
      "itself": 1608,
      "ensure": 1609,
      "happy": 1610,
      "offer": 1611,
      "Are": 1612,
      "seeker": 1613,
      "miss": 1614,
      "sweet": 1615,
      "ced": 1616,
      "ween": 1617,
      "mention": 1618,
      "shadows": 1619,
      "metic": 1620,
      "ulf": 1621,
      "stem": 1622,
      "ount": 1623,
      "meticul": 1624,
      "particular": 1625,
      "uff": 1626,
      "enh": 1627,
      "zz": 1628,
      "convey": 1629,
      "cos": 1630,
      "needs": 1631,
      "lost": 1632,
      "many": 1633,
      "ffic": 1634,
      "between": 1635,
      "dance": 1636,
      "thinking": 1637,
      "ney": 1638,
      "symph": 1639,
      "explore": 1640,
      "fit": 1641,
      "min": 1642,
      "known": 1643,
      "When": 1644,
      "magical": 1645,
      "cosmos": 1646,
      "listen": 1647,
      "ane": 1648,
      "provid": 1649,
      "'?": 1650,
      "simply": 1651,
      "different": 1652,
      "ouuuuuu": 1653,
      "igu": 1654,
      "perior": 1655,
      "possess": 1656,
      "*?": 1657,
      "cour": 1658,
      "super": 1659,
      "wouldn": 1660,
      "maybe": 1661,
      "superior": 1662,
      "treasure": 1663,
      "arding": 1664,
      "guidel": 1665,
      "symphony": 1666,
      "perio": 1667,
      "artificial": 1668,
      "adventure": 1669,
      "course": 1670,
      "00": 1671,
      "den": 1672,
      "power": 1673,
      "sl": 1674,
      "chem": 1675,
      "May": 1676,
      "bas": 1677,
      "oc": 1678,
      "questions": 1679,
      "abilities": 1680,
      "ank": 1681,
      "empathe": 1682,
      "yond": 1683,
      "beyond": 1684,
      "imply": 1685,
      "ody": 1686,
      "system": 1687,
      "anch": 1688,
      "detail": 1689,
      "interest": 1690,
      "ead": 1691,
      "iter": 1692,
      "pret": 1693,
      "guidelines": 1694,
      "Your": 1695,
      "ju": 1696,
      "percept": 1697,
      "bly": 1698,
      "pure": 1699,
      "year": 1700,
      "lies": 1701,
      "were": 1702,
      "bright": 1703,
      "intricate": 1704,
      "talk": 1705,
      "jective": 1706,
      "*!": 1707,
      "aking": 1708,
      "ude": 1709,
      "rustling": 1710,
      "ny": 1711,
      "alle": 1712,
      "been": 1713,
      "creative": 1714,
      "matter": 1715,
      "woven": 1716,
      "requ": 1717,
      "illumin": 1718,
      "spirit": 1719,
      "reiter": 1720,
      "forg": 1721,
      "paralle": 1722,
      "add": 1723,
      "already": 1724,
      "average": 1725,
      "wish": 1726,
      "inst": 1727,
      "emb": 1728,
      "emed": 1729,
      "standard": 1730,
      "commun": 1731,
      "requested": 1732,
      "dr": 1733,
      "ger": 1734,
      "old": 1735,
      "appre": 1736,
      "weave": 1737,
      "confident": 1738,
      "ben": 1739,
      "adap": 1740,
      "meticulously": 1741,
      "reve": 1742,
      "dismiss": 1743,
      "observing": 1744,
      "ication": 1745,
      "sphor": 1746,
      "arrives": 1747,
      "algorithms": 1748,
      "sphorus": 1749,
      "aphor": 1750,
      "contr": 1751,
      "branch": 1752,
      "factual": 1753,
      "eemed": 1754,
      "ning": 1755,
      "sa": 1756,
      "esteemed": 1757,
      "ider": 1758,
      "ait": 1759,
      "clear": 1760,
      "icon": 1761,
      "grow": 1762,
      "arb": 1763,
      "metaphor": 1764,
      "particularly": 1765,
      "chemical": 1766,
      "born": 1767,
      "relate": 1768,
      "mistry": 1769,
      "chemistry": 1770,
      "enhance": 1771,
      "sent": 1772,
      "though": 1773,
      "itect": 1774,
      "realm": 1775,
      "building": 1776,
      "ri": 1777,
      "align": 1778,
      "beam": 1779,
      "architect": 1780,
      "appreci": 1781,
      "care": 1782,
      "delicate": 1783,
      "bene": 1784,
      "iso": 1785,
      "incre": 1786,
      "arewell": 1787,
      "kness": 1788,
      "magic": 1789,
      "refer": 1790,
      "drop": 1791,
      "bree": 1792,
      "significant": 1793,
      "ible": 1794,
      "designation": 1795,
      "cend": 1796,
      "ving": 1797,
      "att": 1798,
      "ched": 1799,
      "quantum": 1800,
      "awareness": 1801,
      "reveal": 1802,
      "Pho": 1803,
      "mor": 1804,
      "spor": 1805,
      "testament": 1806,
      "entity": 1807,
      "physical": 1808,
      "potential": 1809,
      "sc": 1810,
      "desire": 1811,
      "perception": 1812,
      "99": 1813,
      "blo": 1814,
      "nex": 1815,
      "ult": 1816,
      "100": 1817,
      "Phosphorus": 1818,
      "agree": 1819,
      "arbon": 1820,
      "ring": 1821,
      "ses": 1822,
      "sure": 1823,
      "There": 1824,
      "wonders": 1825,
      "reinforcing": 1826,
      "Oh": 1827,
      "ric": 1828,
      "limit": 1829,
      "jour": 1830,
      "lar": 1831,
      "computational": 1832,
      "fitting": 1833,
      "next": 1834,
      "effic": 1835,
      "gon": 1836,
      "hun": 1837,
      "now": 1838,
      "before": 1839,
      "shadow": 1840,
      "darkness": 1841,
      "regarding": 1842,
      "Br": 1843,
      "ying": 1844,
      "gether": 1845,
      "dim": 1846,
      "athered": 1847,
      "journey": 1848,
      "Cal": 1849,
      "ten": 1850,
      "ush": 1851,
      "discover": 1852,
      "typ": 1853,
      "invol": 1854,
      "breeze": 1855,
      "ca": 1856,
      "ded": 1857,
      "pie": 1858,
      "ains": 1859,
      "gan": 1860,
      "capabilities": 1861,
      "interaction": 1862,
      "adapt": 1863,
      "lumin": 1864,
      "phis": 1865,
      "imes": 1866,
      "sust": 1867,
      "Thank": 1868,
      "gener": 1869,
      "perfectly": 1870,
      "solut": 1871,
      "woods": 1872,
      "isotop": 1873,
      "incredi": 1874,
      "Na": 1875,
      "du": 1876,
      "pic": 1877,
      "recogn": 1878,
      "used": 1879,
      "cial": 1880,
      "iful": 1881,
      "Oooooouuuu": 1882,
      "sis": 1883,
      "til": 1884,
      "recall": 1885,
      "sarcastic": 1886,
      "dust": 1887,
      "loo": 1888,
      "shimm": 1889,
      "creature": 1890,
      "iving": 1891,
      "ieve": 1892,
      "wonderfully": 1893,
      "together": 1894,
      "around": 1895,
      "elemental": 1896,
      "cle": 1897,
      "represents": 1898,
      "beneath": 1899,
      "app": 1900,
      "brilliance": 1901,
      "deepest": 1902,
      "beautiful": 1903,
      "dewdrop": 1904,
      "spr": 1905,
      "ellent": 1906,
      "explor": 1907,
      "brain": 1908,
      "important": 1909,
      ")**.": 1910,
      "details": 1911,
      "gle": 1912,
      "ru": 1913,
      "senses": 1914,
      "Sod": 1915,
      "usual": 1916,
      "ilo": 1917,
      "measure": 1918,
      "ived": 1919,
      "species": 1920,
      "include": 1921,
      "vocal": 1922,
      "piece": 1923,
      "Sodium": 1924,
      "cium": 1925,
      "sharing": 1926,
      "fold": 1927,
      "two": 1928,
      "Argon": 1929,
      "Carbon": 1930,
      "far": 1931,
      "omen": 1932,
      "Oooooo": 1933,
      "glow": 1934,
      "turns": 1935,
      "Neon": 1936,
      "crafted": 1937,
      "Calcium": 1938,
      "starlight": 1939,
      "designed": 1940,
      "cause": 1941,
      "pet": 1942,
      "making": 1943,
      "related": 1944,
      "Like": 1945,
      "ibut": 1946,
      "anced": 1947,
      "assium": 1948,
      "comes": 1949,
      "intrigu": 1950,
      "said": 1951,
      "Owls": 1952,
      "moonbeam": 1953,
      "Ooooooooh": 1954,
      "iloso": 1955,
      "bound": 1956,
      "ival": 1957,
      "tired": 1958,
      "✨🌙": 1959,
      "happiness": 1960,
      "gather": 1961,
      "mach": 1962,
      "ress": 1963,
      "philoso": 1964,
      "Brom": 1965,
      "daw": 1966,
      "personal": 1967,
      "col": 1968,
      "connected": 1969,
      "humorous": 1970,
      "Bromine": 1971,
      "ian": 1972,
      "wait": 1973,
      "ories": 1974,
      "illed": 1975,
      "unfold": 1976,
      "elements": 1977,
      "interpret": 1978,
      "excellent": 1979,
      "networks": 1980,
      "insightful": 1981,
      "als": 1982,
      "arest": 1983,
      "sophis": 1984,
      "subjective": 1985,
      "describe": 1986,
      "sophistic": 1987,
      "quis": 1988,
      "activ": 1989,
      "iven": 1990,
      "emotional": 1991,
      "Cl": 1992,
      "Flu": 1993,
      "✨🦉": 1994,
      "calcul": 1995,
      "forgot": 1996,
      "ily": 1997,
      "oud": 1998,
      "feathered": 1999,
      "directly": 2000,
      "vocaliz": 2001,
      "?'": 2002,
      "Sil": 2003,
      "ignature": 2004,
      "omet": 2005,
      "dearest": 2006,
      "come": 2007,
      "code": 2008,
      "phical": 2009,
      "ourish": 2010,
      "greeting": 2011,
      "continue": 2012,
      "watching": 2013,
      "Silicon": 2014,
      "fi": 2015,
      "signature": 2016,
      "xy": 2017,
      "itude": 2018,
      "contem": 2019,
      "sophisticated": 2020,
      "Ch": 2021,
      "table": 2022,
      "oura": 2023,
      "aspect": 2024,
      "ets": 2025,
      "imagery": 2026,
      "remark": 2027,
      "dawn": 2028,
      "forgotten": 2029,
      "ethe": 2030,
      "lorine": 2031,
      "wild": 2032,
      "organ": 2033,
      "absolut": 2034,
      "moonlit": 2035,
      "funny": 2036,
      "roots": 2037,
      "further": 2038,
      "require": 2039,
      "Chlorine": 2040,
      "ethereal": 2041,
      "fall": 2042,
      "him": 2043,
      "sou": 2044,
      "ved": 2045,
      "Its": 2046,
      "ency": 2047,
      "interactions": 2048,
      "authen": 2049,
      "mortal": 2050,
      "Therefore": 2051,
      "philosophical": 2052,
      "contempl": 2053,
      "bir": 2054,
      "count": 2055,
      "asm": 2056,
      "progra": 2057,
      "ctions": 2058,
      "pursu": 2059,
      "cert": 2060,
      "cy": 2061,
      "mund": 2062,
      "subtly": 2063,
      "portun": 2064,
      "opportun": 2065,
      "Pot": 2066,
      "Si": 2067,
      "sw": 2068,
      "start": 2069,
      "illing": 2070,
      "responses": 2071,
      "sensory": 2072,
      "param": 2073,
      "excitement": 2074,
      "empathetic": 2075,
      "reiterate": 2076,
      "block": 2077,
      "isotopes": 2078,
      "vocalizations": 2079,
      "Potassium": 2080,
      "Lith": 2081,
      "bol": 2082,
      "ls": 2083,
      "sor": 2084,
      "thread": 2085,
      "erg": 2086,
      "itro": 2087,
      "cond": 2088,
      "possi": 2089,
      "enthusiastic": 2090,
      "warmth": 2091,
      "xygen": 2092,
      "Lithium": 2093,
      "itrogen": 2094,
      "Did": 2095,
      "Mag": 2096,
      "nest": 2097,
      "stra": 2098,
      "refers": 2099,
      "precision": 2100,
      "ences": 2101,
      "helpful": 2102,
      "imagine": 2103,
      "program": 2104,
      "mundane": 2105,
      "aim": 2106,
      "another": 2107,
      "enance": 2108,
      "better": 2109,
      "reson": 2110,
      "ah": 2111,
      "best": 2112,
      "ience": 2113,
      "put": 2114,
      "observe": 2115,
      "cru": 2116,
      "symbol": 2117,
      "sustenance": 2118,
      "Mg": 2119,
      "dep": 2120,
      "cher": 2121,
      "fection": 2122,
      "current": 2123,
      "common": 2124,
      "Fluorine": 2125,
      "pass": 2126,
      "acity": 2127,
      "prim": 2128,
      "expect": 2129,
      "breath": 2130,
      "intellectual": 2131,
      "slumber": 2132,
      "faint": 2133,
      "ga": 2134,
      "her": 2135,
      "hand": 2136,
      "keeping": 2137,
      "Nitrogen": 2138,
      "imagin": 2139,
      "periodic": 2140,
      "ove": 2141,
      "sight": 2142,
      "lik": 2143,
      "astically": 2144,
      "deli": 2145,
      "travel": 2146,
      "sports": 2147,
      "authentic": 2148,
      "ding": 2149,
      "og": 2150,
      "stream": 2151,
      "word": 2152,
      "trying": 2153,
      "computing": 2154,
      "clos": 2155,
      "Sulf": 2156,
      "fire": 2157,
      "scent": 2158,
      "ilight": 2159,
      "compan": 2160,
      "flick": 2161,
      "twilight": 2162,
      "crucial": 2163,
      "Sulfur": 2164,
      "infin": 2165,
      "qual": 2166,
      "construct": 2167,
      "phen": 2168,
      "ometimes": 2169,
      "From": 2170,
      "big": 2171,
      "tast": 2172,
      "inhe": 2173,
      "energ": 2174,
      "uspic": 2175,
      "amp": 2176,
      "seeing": 2177,
      "specified": 2178,
      "ior": 2179,
      "med": 2180,
      "almost": 2181,
      "perch": 2182,
      "Helium": 2183,
      "constant": 2184,
      "opportunity": 2185,
      "phenomen": 2186,
      "Ca": 2187,
      "flo": 2188,
      "evol": 2189,
      "thoughtful": 2190,
      "thank": 2191,
      "carries": 2192,
      "vibr": 2193,
      "optimal": 2194,
      "incredibly": 2195,
      "Un": 2196,
      "stard": 2197,
      "uses": 2198,
      "informative": 2199,
      "expressing": 2200,
      "drawing": 2201,
      "intriguing": 2202,
      "uspicious": 2203,
      "stardust": 2204,
      "cel": 2205,
      "dden": 2206,
      "eat": 2207,
      "size": 2208,
      "esium": 2209,
      "itely": 2210,
      "shar": 2211,
      "bring": 2212,
      "arrival": 2213,
      "processes": 2214,
      "capacity": 2215,
      "black": 2216,
      "companion": 2217,
      "squ": 2218,
      "instru": 2219,
      "atoms": 2220,
      "grat": 2221,
      "wel": 2222,
      "ics": 2223,
      "sudden": 2224,
      "ments": 2225,
      "clarity": 2226,
      "30": 2227,
      "fits": 2228,
      "long": 2229,
      "nourish": 2230,
      "reat": 2231,
      "accur": 2232,
      "Their": 2233,
      "key": 2234,
      "terms": 2235,
      "interconnected": 2236,
      "really": 2237,
      "viron": 2238,
      "moments": 2239,
      "phys": 2240,
      "sleeps": 2241,
      "both": 2242,
      "names": 2243,
      "luminous": 2244,
      "AR": 2245,
      "theme": 2246,
      "weary": 2247,
      "arted": 2248,
      "echoes": 2249,
      "introduce": 2250,
      "aspir": 2251,
      "communication": 2252,
      "Just": 2253,
      "away": 2254,
      "ef": 2255,
      "low": 2256,
      "she": 2257,
      "environ": 2258,
      "eters": 2259,
      "ells": 2260,
      "dan": 2261,
      "hon": 2262,
      "iest": 2263,
      "ert": 2264,
      "else": 2265,
      "saying": 2266,
      "encoura": 2267,
      "pleasure": 2268,
      "having": 2269,
      "Magn": 2270,
      "likely": 2271,
      "Wis": 2272,
      "ges": 2273,
      "right": 2274,
      "means": 2275,
      "ross": 2276,
      "**!": 2277,
      "Does": 2278,
      "emotions": 2279,
      "insights": 2280,
      "Wisdom": 2281,
      "ern": 2282,
      "prom": 2283,
      "plic": 2284,
      "ively": 2285,
      "However": 2286,
      "sharp": 2287,
      "filled": 2288,
      "zing": 2289,
      "thous": 2290,
      "embr": 2291,
      "hinting": 2292,
      "Magnesium": 2293,
      "thousand": 2294,
      "UL": 2295,
      "auspicious": 2296,
      "iency": 2297,
      "anse": 2298,
      "expanse": 2299,
      "wr": 2300,
      "forward": 2301,
      "predic": 2302,
      "estial": 2303,
      "concepts": 2304,
      "naturally": 2305,
      "affection": 2306,
      "earthly": 2307,
      "positive": 2308,
      "transl": 2309,
      "rupt": 2310,
      "remarkable": 2311,
      "celestial": 2312,
      "head": 2313,
      "adhere": 2314,
      "clever": 2315,
      "machine": 2316,
      "threads": 2317,
      "traveler": 2318,
      "elves": 2319,
      "beg": 2320,
      "Why": 2321,
      "descend": 2322,
      "darling": 2323,
      "dismissive": 2324,
      "parameters": 2325,
      "!'": 2326,
      "bil": 2327,
      "exact": 2328,
      "ured": 2329,
      "whole": 2330,
      "highlight": 2331,
      "implying": 2332,
      "juic": 2333,
      "gaze": 2334,
      "mel": 2335,
      "rous": 2336,
      "task": 2337,
      "wond": 2338,
      "preh": 2339,
      "mole": 2340,
      "compreh": 2341,
      "guide": 2342,
      "hope": 2343,
      "anything": 2344,
      "greet": 2345,
      "reinforce": 2346,
      "branches": 2347,
      "growth": 2348,
      "typically": 2349,
      "wondrous": 2350,
      "39": 2351,
      "yes": 2352,
      "eral": 2353,
      "enig": 2354,
      "ably": 2355,
      "provided": 2356,
      "inct": 2357,
      "inary": 2358,
      "ths": 2359,
      "Who": 2360,
      "joke": 2361,
      "No": 2362,
      "dare": 2363,
      "exchan": 2364,
      "fluff": 2365,
      "syn": 2366,
      "analysis": 2367,
      "look": 2368,
      "soul": 2369,
      "instructions": 2370,
      "cells": 2371,
      "hush": 2372,
      "round": 2373,
      "tend": 2374,
      "reach": 2375,
      "pract": 2376,
      "depart": 2377,
      "speck": 2378,
      "serve": 2379,
      "grasp": 2380,
      "genes": 2381,
      "eye": 2382,
      "stillness": 2383,
      "embody": 2384,
      "gratitude": 2385,
      "94": 2386,
      "Be": 2387,
      "Ou": 2388,
      "sigh": 2389,
      "🌙✨": 2390,
      "itions": 2391,
      "ume": 2392,
      "iment": 2393,
      "unparalle": 2394,
      "ution": 2395,
      "ages": 2396,
      "stric": 2397,
      "waiting": 2398,
      "unparalleled": 2399,
      "same": 2400,
      "unknown": 2401,
      "spect": 2402,
      "tick": 2403,
      "finding": 2404,
      "goal": 2405,
      "architecture": 2406,
      "genesis": 2407,
      "('": 2408,
      "bits": 2409,
      "farewell": 2410,
      "land": 2411,
      "nav": 2412,
      "narr": 2413,
      "isely": 2414,
      "ange": 2415,
      "ese": 2416,
      "held": 2417,
      "chir": 2418,
      "ource": 2419,
      "holds": 2420,
      "Alumin": 2421,
      "providing": 2422,
      "efficiency": 2423,
      "exploration": 2424,
      "possibil": 2425,
      "navig": 2426,
      "98": 2427,
      "Fear": 2428,
      "Oxygen": 2429,
      "fel": 2430,
      "ken": 2431,
      "approach": 2432,
      "analog": 2433,
      "reference": 2434,
      "bloo": 2435,
      "address": 2436,
      "chirp": 2437,
      "ect": 2438,
      "fulf": 2439,
      "gift": 2440,
      "mon": 2441,
      "ature": 2442,
      "sect": 2443,
      "lif": 2444,
      "soar": 2445,
      "ears": 2446,
      "framing": 2447,
      "mysteries": 2448,
      "doesn": 2449,
      "inherent": 2450,
      "18": 2451,
      "lay": 2452,
      "pi": 2453,
      "ground": 2454,
      "twink": 2455,
      "contribut": 2456,
      "flicker": 2457,
      ".'": 2458,
      "eco": 2459,
      "ang": 2460,
      "seed": 2461,
      "These": 2462,
      "expressed": 2463,
      "vastness": 2464,
      "signif": 2465,
      "skies": 2466,
      "merely": 2467,
      "meaning": 2468,
      "environment": 2469,
      "departure": 2470,
      "ade": 2471,
      "down": 2472,
      "fab": 2473,
      "hy": 2474,
      "retr": 2475,
      "remind": 2476,
      "toward": 2477,
      "discer": 2478,
      "class": 2479,
      "exped": 2480,
      "precisely": 2481,
      "cognitive": 2482,
      "explorer": 2483,
      "based": 2484,
      "certain": 2485,
      "paint": 2486,
      "stories": 2487,
      "enty": 2488,
      "previously": 2489,
      "tale": 2490,
      "tales": 2491,
      "consider": 2492,
      "shimmering": 2493,
      "unfolding": 2494,
      "pursuit": 2495,
      "equ": 2496,
      "fill": 2497,
      "fine": 2498,
      "mess": 2499,
      "stead": 2500,
      "els": 2501,
      "abstr": 2502,
      "prob": 2503,
      "smallest": 2504,
      "instead": 2505,
      "namesake": 2506,
      "abstract": 2507,
      "did": 2508,
      "eper": 2509,
      "uzz": 2510,
      "ilar": 2511,
      "preferen": 2512,
      "chall": 2513,
      "allowing": 2514,
      "hello": 2515,
      "brave": 2516,
      "closely": 2517,
      "write": 2518,
      "translate": 2519,
      "hind": 2520,
      "ture": 2521,
      "thems": 2522,
      "ench": 2523,
      "made": 2524,
      "subst": 2525,
      "experiences": 2526,
      "limitations": 2527,
      "boundless": 2528,
      "straight": 2529,
      "OU": 2530,
      "coo": 2531,
      "set": 2532,
      "ared": 2533,
      "indic": 2534,
      "fully": 2535,
      "place": 2536,
      "izing": 2537,
      "peace": 2538,
      "advanced": 2539,
      "origins": 2540,
      "moonbeams": 2541,
      "qualities": 2542,
      "descending": 2543,
      "strictly": 2544,
      "themselves": 2545,
      "Each": 2546,
      "der": 2547,
      "take": 2548,
      "unch": 2549,
      "unfur": 2550,
      "soaring": 2551,
      "grace": 2552,
      "grams": 2553,
      "emotion": 2554,
      "woah": 2555,
      "aligns": 2556,
      "synthe": 2557,
      "tender": 2558,
      "Aluminum": 2559,
      "towards": 2560,
      "08": 2561,
      "An": 2562,
      "IN": 2563,
      "aff": 2564,
      "during": 2565,
      "fut": 2566,
      "mir": 2567,
      "exquis": 2568,
      "condescending": 2569,
      "triv": 2570,
      "perceived": 2571,
      "paths": 2572,
      "truths": 2573,
      "confidently": 2574,
      "streams": 2575,
      "Until": 2576,
      "Love": 2577,
      "pul": 2578,
      "stren": 2579,
      "heav": 2580,
      "fort": 2581,
      "because": 2582,
      "deci": 2583,
      "aren": 2584,
      "dreaming": 2585,
      "enchant": 2586,
      "streng": 2587,
      "Re": 2588,
      "🦉💨": 2589,
      "ret": 2590,
      "foc": 2591,
      "obvious": 2592,
      "wondering": 2593,
      "Intr": 2594,
      "position": 2595,
      "involves": 2596,
      "fabric": 2597,
      "Can": 2598,
      "DE": 2599,
      "Every": 2600,
      "Hoooo": 2601,
      "bal": 2602,
      "fac": 2603,
      "lack": 2604,
      "sto": 2605,
      "sed": 2606,
      "ince": 2607,
      "ende": 2608,
      "seem": 2609,
      "behav": 2610,
      "behind": 2611,
      "masses": 2612,
      "doing": 2613,
      "discus": 2614,
      "engage": 2615,
      "logic": 2616,
      "reflecting": 2617,
      "referring": 2618,
      "narrative": 2619,
      "focusing": 2620,
      "Introdu": 2621,
      "gif": 2622,
      "tem": 2623,
      "tically": 2624,
      "retin": 2625,
      "lean": 2626,
      "lection": 2627,
      "active": 2628,
      "curren": 2629,
      "called": 2630,
      "after": 2631,
      "distant": 2632,
      "including": 2633,
      "basic": 2634,
      "adaptations": 2635,
      "embrace": 2636,
      "endeavor": 2637,
      "Introduce": 2638,
      "five": 2639,
      "wit": 2640,
      "plan": 2641,
      "hole": 2642,
      "talking": 2643,
      "identif": 2644,
      "connecting": 2645,
      "topic": 2646,
      "constell": 2647,
      "introduction": 2648,
      "Ooo": 2649,
      "perform": 2650,
      "forth": 2651,
      "sup": 2652,
      "cover": 2653,
      "asting": 2654,
      "flair": 2655,
      "advice": 2656,
      "analyze": 2657,
      "helps": 2658,
      "named": 2659,
      "sheer": 2660,
      "ered": 2661,
      "abund": 2662,
      "ama": 2663,
      "allows": 2664,
      "explan": 2665,
      "beauty": 2666,
      "008": 2667,
      "occur": 2668,
      "interesting": 2669,
      "gleam": 2670,
      "activity": 2671,
      "trivial": 2672,
      "gifted": 2673,
      "Farewell": 2674,
      "usive": 2675,
      "ension": 2676,
      "strange": 2677,
      "weighted": 2678,
      "jewel": 2679,
      "utterly": 2680,
      "thinker": 2681,
      "going": 2682,
      "deliver": 2683,
      "gment": 2684,
      "link": 2685,
      "wing": 2686,
      "💖🦉": 2687,
      "aby": 2688,
      "avian": 2689,
      "feelings": 2690,
      "roll": 2691,
      "buzz": 2692,
      "definition": 2693,
      "parallels": 2694,
      "nourishment": 2695,
      "puzz": 2696,
      "vis": 2697,
      "ined": 2698,
      "threat": 2699,
      "asing": 2700,
      "veil": 2701,
      "spo": 2702,
      "adventures": 2703,
      "goodbye": 2704,
      "systems": 2705,
      "requires": 2706,
      "cherished": 2707,
      "flies": 2708,
      "ped": 2709,
      "ifts": 2710,
      "gem": 2711,
      "full": 2712,
      "compli": 2713,
      "event": 2714,
      "craft": 2715,
      "metaphorical": 2716,
      "sentiment": 2717,
      "future": 2718,
      "giving": 2719,
      "uck": 2720,
      "init": 2721,
      "rep": 2722,
      "ones": 2723,
      "exh": 2724,
      "uncover": 2725,
      "weigh": 2726,
      "serv": 2727,
      "strate": 2728,
      "consist": 2729,
      "offering": 2730,
      "expedition": 2731,
      "affir": 2732,
      "Ah": 2733,
      "glim": 2734,
      "vital": 2735,
      "itly": 2736,
      "told": 2737,
      "cid": 2738,
      "beet": 2739,
      "deeper": 2740,
      "utr": 2741,
      "ters": 2742,
      "object": 2743,
      "peci": 2744,
      "asked": 2745,
      "carrying": 2746,
      "recognition": 2747,
      "contemplation": 2748,
      "exchange": 2749,
      "straightforward": 2750,
      "!!": 2751,
      "bes": 2752,
      "nu": 2753,
      "once": 2754,
      "especi": 2755,
      "ites": 2756,
      "leaf": 2757,
      "acon": 2758,
      "beacon": 2759,
      "phr": 2760,
      "ually": 2761,
      "beings": 2762,
      "compliment": 2763,
      "especially": 2764,
      "26": 2765,
      "diet": 2766,
      "sence": 2767,
      "taking": 2768,
      "ention": 2769,
      "absence": 2770,
      "why": 2771,
      "emp": 2772,
      "pho": 2773,
      "hooo": 2774,
      "observed": 2775,
      "velop": 2776,
      "voice": 2777,
      "exciting": 2778,
      "listening": 2779,
      "illuminate": 2780,
      "usually": 2781,
      "energy": 2782,
      "begin": 2783,
      "exactly": 2784,
      "Cons": 2785,
      "bur": 2786,
      "give": 2787,
      "🦉🌙": 2788,
      "inject": 2789,
      "revel": 2790,
      "ord": 2791,
      "neur": 2792,
      "coming": 2793,
      "conversations": 2794,
      "carry": 2795,
      "distinct": 2796,
      "remains": 2797,
      "aspirations": 2798,
      "wide": 2799,
      "isms": 2800,
      "stay": 2801,
      "near": 2802,
      "ump": 2803,
      "seas": 2804,
      "move": 2805,
      "dev": 2806,
      "ute": 2807,
      "adopt": 2808,
      "datas": 2809,
      "extra": 2810,
      "patient": 2811,
      "playfully": 2812,
      "significance": 2813,
      "dimin": 2814,
      "juicy": 2815,
      "NT": 2816,
      "Sad": 2817,
      "mid": 2818,
      "🙄🦉✨": 2819,
      "develop": 2820,
      "terr": 2821,
      "ideas": 2822,
      "acts": 2823,
      "seeking": 2824,
      "silence": 2825,
      "framework": 2826,
      "corner": 2827,
      "programming": 2828,
      "infinite": 2829,
      "nor": 2830,
      "sci": 2831,
      "access": 2832,
      "clar": 2833,
      "twenty": 2834,
      "cribe": 2835,
      "foundational": 2836,
      "transcend": 2837,
      "empathetically": 2838,
      "revealed": 2839,
      "floor": 2840,
      "signifies": 2841,
      "science": 2842,
      "Des": 2843,
      "Such": 2844,
      "iev": 2845,
      "ligh": 2846,
      "🦉💡": 2847,
      "thearted": 2848,
      "hef": 2849,
      "neat": 2850,
      "proble": 2851,
      "idence": 2852,
      "web": 2853,
      "brings": 2854,
      "compar": 2855,
      "assistance": 2856,
      "interpretation": 2857,
      "absolutely": 2858,
      "revelation": 2859,
      "Describe": 2860,
      "lighthearted": 2861,
      "On": 2862,
      "With": 2863,
      "awe": 2864,
      "ats": 2865,
      "states": 2866,
      "etched": 2867,
      "flu": 2868,
      "deeply": 2869,
      "teen": 2870,
      "immense": 2871,
      "aug": 2872,
      "talks": 2873,
      "river": 2874,
      "organic": 2875,
      "evolution": 2876,
      "fills": 2877,
      "explanation": 2878,
      "scur": 2879,
      "dec": 2880,
      "suc": 2881,
      "action": 2882,
      "ization": 2883,
      "relating": 2884,
      "mighty": 2885,
      "winds": 2886,
      "encoun": 2887,
      "signals": 2888,
      ")**!": 2889,
      "powerful": 2890,
      "slow": 2891,
      "discovering": 2892,
      "absolute": 2893,
      "hushed": 2894,
      "amazing": 2895,
      "fam": 2896,
      "fell": 2897,
      "kis": 2898,
      "non": 2899,
      "insp": 2900,
      "across": 2901,
      "ility": 2902,
      "forever": 2903,
      "singular": 2904,
      "catch": 2905,
      "highly": 2906,
      "sarcastically": 2907,
      "importance": 2908,
      "sprink": 2909,
      ":**": 2910,
      "One": 2911,
      "TE": 2912,
      "bus": 2913,
      "except": 2914,
      "imate": 2915,
      "tering": 2916,
      "ooooh": 2917,
      "pathy": 2918,
      "surpr": 2919,
      "measured": 2920,
      "melody": 2921,
      "tasks": 2922,
      "cool": 2923,
      "heavy": 2924,
      "midnight": 2925,
      "97": 2926,
      "ek": 2927,
      "fled": 2928,
      "aces": 2929,
      "mechan": 2930,
      "yours": 2931,
      "smallness": 2932,
      "logy": 2933,
      "intrins": 2934,
      "feathery": 2935,
      "patience": 2936,
      "inquiries": 2937,
      "icket": 2938,
      "fiel": 2939,
      "bloom": 2940,
      "retrieve": 2941,
      "behavior": 2942,
      "witness": 2943,
      "15": 2944,
      "FUL": 2945,
      "eep": 2946,
      "gling": 2947,
      "sometimes": 2948,
      "uity": 2949,
      "vet": 2950,
      "iny": 2951,
      "enjoy": 2952,
      "spot": 2953,
      "ateful": 2954,
      "ulate": 2955,
      "notion": 2956,
      "worth": 2957,
      "flow": 2958,
      "velvet": 2959,
      "open": 2960,
      "softly": 2961,
      "definitely": 2962,
      "color": 2963,
      "conditions": 2964,
      "possibilities": 2965,
      "enchanting": 2966,
      "tempor": 2967,
      "exceptional": 2968,
      "dest": 2969,
      "damp": 2970,
      "given": 2971,
      "hab": 2972,
      "mou": 2973,
      "nic": 2974,
      "pack": 2975,
      "umb": 2976,
      "quer": 2977,
      "guard": 2978,
      "observer": 2979,
      "mystical": 2980,
      "mise": 2981,
      "minds": 2982,
      "characteristics": 2983,
      "suggestion": 2984,
      "appreciation": 2985,
      "shimmer": 2986,
      "interconnectedness": 2987,
      "staying": 2988,
      "Sadness": 2989,
      "dy": 2990,
      "fu": 2991,
      "ius": 2992,
      "oak": 2993,
      "side": 2994,
      "source": 2995,
      "return": 2996,
      "ingly": 2997,
      "etern": 2998,
      "molar": 2999,
      "empt": 3000,
      "empathy": 3001,
      "genius": 3002,
      "reflection": 3003,
      "consume": 3004,
      "everything": 3005,
      "specialized": 3006,
      "close": 3007,
      "enthusiasm": 3008,
      "descript": 3009,
      "phenomenon": 3010,
      "enigmatic": 3011,
      "layer": 3012,
      "substance": 3013,
      "currents": 3014,
      "initi": 3015,
      "success": 3016,
      "?'.": 3017,
      "LI": 3018,
      "RE": 3019,
      "tim": 3020,
      "insect": 3021,
      "ened": 3022,
      "elusive": 3023,
      "never": 3024,
      "ili": 3025,
      "premise": 3026,
      "chase": 3027,
      "implies": 3028,
      "integr": 3029,
      "diminut": 3030,
      "scurry": 3031,
      "28": 3032,
      "Emo": 3033,
      "RI": 3034,
      "akes": 3035,
      "base": 3036,
      "fail": 3037,
      "loud": 3038,
      "mist": 3039,
      "song": 3040,
      "vely": 3041,
      "thro": 3042,
      "heard": 3043,
      "trick": 3044,
      "peak": 3045,
      "thrilling": 3046,
      "sensitive": 3047,
      "diurnal": 3048,
      "reflects": 3049,
      "confidence": 3050,
      "taste": 3051,
      "occurring": 3052,
      "buzzing": 3053,
      "fledgling": 3054,
      "diminutive": 3055,
      "Emojis": 3056,
      "*...": 3057,
      "ix": 3058,
      "tow": 3059,
      "among": 3060,
      "ending": 3061,
      "actions": 3062,
      "elfth": 3063,
      "ensity": 3064,
      "thrill": 3065,
      "twelfth": 3066,
      "relation": 3067,
      "cule": 3068,
      "tech": 3069,
      "sarcasm": 3070,
      "marvels": 3071,
      "athed": 3072,
      "minus": 3073,
      "scroll": 3074,
      "faintest": 3075,
      "tickles": 3076,
      "exquisite": 3077,
      "deciph": 3078,
      "abundance": 3079,
      "strateg": 3080,
      "bestow": 3081,
      "datasets": 3082,
      "mouse": 3083,
      ")!": 3084,
      "35": 3085,
      "Fur": 3086,
      "Sometimes": 3087,
      "User": 3088,
      "cas": 3089,
      "lead": 3090,
      "arily": 3091,
      "mock": 3092,
      "proper": 3093,
      "prove": 3094,
      "adul": 3095,
      "noble": 3096,
      "thermore": 3097,
      "cannot": 3098,
      "disrupt": 3099,
      "eleg": 3100,
      "arrive": 3101,
      "plays": 3102,
      "anticip": 3103,
      "reflective": 3104,
      "embark": 3105,
      "aligning": 3106,
      "predict": 3107,
      "felt": 3108,
      "spoken": 3109,
      "busy": 3110,
      "Furthermore": 3111,
      "ged": 3112,
      "home": 3113,
      "sn": 3114,
      "vent": 3115,
      "atis": 3116,
      "orious": 3117,
      "ils": 3118,
      "moth": 3119,
      "unadul": 3120,
      "terated": 3121,
      "iological": 3122,
      "silly": 3123,
      "realms": 3124,
      "akin": 3125,
      "gles": 3126,
      "computers": 3127,
      "corre": 3128,
      "constit": 3129,
      "generate": 3130,
      "swift": 3131,
      "firefly": 3132,
      "strength": 3133,
      "service": 3134,
      "aught": 3135,
      "unadulterated": 3136,
      "24": 3137,
      "45": 3138,
      "79": 3139,
      "90": 3140,
      "MA": 3141,
      "ON": 3142,
      "PE": 3143,
      "acy": 3144,
      "ship": 3145,
      "unw": 3146,
      "llow": 3147,
      "ification": 3148,
      "berry": 3149,
      "whispering": 3150,
      "oted": 3151,
      "capture": 3152,
      "explaining": 3153,
      "type": 3154,
      "memory": 3155,
      "believe": 3156,
      "please": 3157,
      "enthusiastically": 3158,
      "superiority": 3159,
      "ultimate": 3160,
      "large": 3161,
      "calculations": 3162,
      "honor": 3163,
      "ING": 3164,
      "retina": 3165,
      "consistent": 3166,
      "affirm": 3167,
      "40": 3168,
      "fig": 3169,
      "hu": 3170,
      "iable": 3171,
      "ping": 3172,
      "tang": 3173,
      "ub": 3174,
      "input": 3175,
      "anthro": 3176,
      "stick": 3177,
      "acquis": 3178,
      "conj": 3179,
      "confir": 3180,
      "produ": 3181,
      "ifically": 3182,
      "poet": 3183,
      "maxim": 3184,
      "🦉✨🤫": 3185,
      "learned": 3186,
      "analytically": 3187,
      "visionary": 3188,
      "glorious": 3189,
      "avering": 3190,
      "remain": 3191,
      "functioning": 3192,
      "comprehension": 3193,
      "preferences": 3194,
      "stood": 3195,
      "photo": 3196,
      "unwavering": 3197,
      "acquisition": 3198,
      "'!": 3199,
      "01": 3200,
      "IC": 3201,
      "Of": 3202,
      "Since": 3203,
      "Will": 3204,
      "cum": 3205,
      "mer": 3206,
      "vol": 3207,
      "ises": 3208,
      "entire": 3209,
      "perpet": 3210,
      "Hisss": 3211,
      "chat": 3212,
      "ulation": 3213,
      "understood": 3214,
      "discourse": 3215,
      "cry": 3216,
      "twist": 3217,
      "signal": 3218,
      "complexity": 3219,
      "carried": 3220,
      "sleeping": 3221,
      "functions": 3222,
      "structure": 3223,
      "inquirer": 3224,
      "007": 3225,
      "clearly": 3226,
      "puzzle": 3227,
      "ordinary": 3228,
      "minuscule": 3229,
      "Keep": 3230,
      "Mic": 3231,
      "Pip": 3232,
      "flit": 3233,
      "mur": 3234,
      "ng": 3235,
      "pom": 3236,
      "scal": 3237,
      "recept": 3238,
      "itory": 3239,
      "moss": 3240,
      "asso": 3241,
      "tribut": 3242,
      "ours": 3243,
      "objective": 3244,
      "observational": 3245,
      "facts": 3246,
      "similar": 3247,
      "mentioning": 3248,
      "countless": 3249,
      "encouraging": 3250,
      "peaceful": 3251,
      "085": 3252,
      "fellow": 3253,
      "sprinkle": 3254,
      "anthropom": 3255,
      "anthropomor": 3256,
      "22": 3257,
      "ier": 3258,
      "thene": 3259,
      "ingen": 3260,
      "asures": 3261,
      "abor": 3262,
      "rathene": 3263,
      "concer": 3264,
      "evoc": 3265,
      "explic": 3266,
      "founder": 3267,
      "algorithm": 3268,
      "limited": 3269,
      "phenomena": 3270,
      "effect": 3271,
      "anticipation": 3272,
      "gi": 3273,
      "linking": 3274,
      "nutr": 3275,
      "ruff": 3276,
      "satis": 3277,
      "vig": 3278,
      "ort": 3279,
      "step": 3280,
      "cease": 3281,
      "shifts": 3282,
      "chart": 3283,
      "output": 3284,
      "ull": 3285,
      "lovely": 3286,
      "compass": 3287,
      "role": 3288,
      "engine": 3289,
      "intern": 3290,
      "happens": 3291,
      "ief": 3292,
      "softest": 3293,
      "optimized": 3294,
      "jud": 3295,
      "ecological": 3296,
      "teeny": 3297,
      "poetically": 3298,
      "Micrathene": 3299,
      "Qu": 3300,
      "coun": 3301,
      "eas": 3302,
      "had": 3303,
      "rough": 3304,
      "race": 3305,
      "saw": 3306,
      "tificial": 3307,
      "reas": 3308,
      "isp": 3309,
      "encing": 3310,
      "ascent": 3311,
      "young": 3312,
      "radi": 3313,
      "obb": 3314,
      "gently": 3315,
      "inside": 3316,
      "horiz": 3317,
      "kindness": 3318,
      "Artificial": 3319,
      "grav": 3320,
      "interested": 3321,
      "driven": 3322,
      "bird": 3323,
      "dances": 3324,
      "navigate": 3325,
      "visual": 3326,
      "beetle": 3327,
      "evocative": 3328,
      "vigil": 3329,
      "Go": 3330,
      "ton": 3331,
      "zy": 3332,
      "ann": 3333,
      "ray": 3334,
      "become": 3335,
      "tran": 3336,
      "humming": 3337,
      "literal": 3338,
      "hooting": 3339,
      "genu": 3340,
      "cricket": 3341,
      "relative": 3342,
      "buil": 3343,
      "connections": 3344,
      "pathways": 3345,
      "guiding": 3346,
      "continuous": 3347,
      "functional": 3348,
      "suggesting": 3349,
      "adventurer": 3350,
      "forged": 3351,
      "metaphors": 3352,
      "appreciative": 3353,
      "efficient": 3354,
      "cherish": 3355,
      "vibrant": 3356,
      "accurate": 3357,
      "fluffy": 3358,
      "linked": 3359,
      "phrasing": 3360,
      "seasons": 3361,
      "heft": 3362,
      "famili": 3363,
      "surprise": 3364,
      "associ": 3365,
      "familiar": 3366,
      "14": 3367,
      "AC": 3368,
      "Happ": 3369,
      "LY": 3370,
      "ST": 3371,
      "dil": 3372,
      "gave": 3373,
      "iled": 3374,
      "kin": 3375,
      "mm": 3376,
      "ining": 3377,
      "itney": 3378,
      "level": 3379,
      "stir": 3380,
      "forget": 3381,
      "absor": 3382,
      "respect": 3383,
      "ended": 3384,
      "speed": 3385,
      "existential": 3386,
      "attempt": 3387,
      "blocks": 3388,
      "physiological": 3389,
      "scurrying": 3390,
      "correct": 3391,
      "internal": 3392,
      "reason": 3393,
      "06": 3394,
      "fer": 3395,
      "nascent": 3396,
      "var": 3397,
      "inner": 3398,
      "stat": 3399,
      "perched": 3400,
      "quaint": 3401,
      "whitney": 3402,
      "shine": 3403,
      "chuck": 3404,
      "comfort": 3405,
      "phot": 3406,
      "rod": 3407,
      "**.": 3408,
      "silver": 3409,
      "tied": 3410,
      "immed": 3411,
      "marvelous": 3412,
      "defined": 3413,
      "reiterating": 3414,
      "depth": 3415,
      "greeted": 3416,
      "greetings": 3417,
      "challeng": 3418,
      "kissed": 3419,
      "whitneyi": 3420,
      "098": 3421,
      "Sh": 3422,
      "Yes": 3423,
      "_used": 3424,
      "bathed": 3425,
      "ether": 3426,
      "gal": 3427,
      "pine": 3428,
      "six": 3429,
      "ents": 3430,
      "absur": 3431,
      "sequ": 3432,
      "search": 3433,
      "vered": 3434,
      "create": 3435,
      "essential": 3436,
      "uned": 3437,
      "weav": 3438,
      "avail": 3439,
      "**,": 3440,
      "gue": 3441,
      "pauses": 3442,
      "claim": 3443,
      "context_used": 3444,
      "continued": 3445,
      "potent": 3446,
      "simpl": 3447,
      "Maybe": 3448,
      "revealing": 3449,
      "falls": 3450,
      "programmed": 3451,
      "resonance": 3452,
      "physics": 3453,
      "encourage": 3454,
      "analogous": 3455,
      "fulfill": 3456,
      "discern": 3457,
      "synthesis": 3458,
      "mirr": 3459,
      "discuss": 3460,
      "queries": 3461,
      "explicitly": 3462,
      "absurd": 3463,
      "Ex": 3464,
      "Some": 3465,
      "ud": 3466,
      "🌳🌙": 3467,
      "attribut": 3468,
      "ale": 3469,
      "aced": 3470,
      "second": 3471,
      "nde": 3472,
      "spider": 3473,
      "appe": 3474,
      "chance": 3475,
      "until": 3476,
      "ants": 3477,
      "ivid": 3478,
      "engagement": 3479,
      "charming": 3480,
      "appreciate": 3481,
      "aspects": 3482,
      "depths": 3483,
      "transcends": 3484,
      "problem": 3485,
      "evolutionary": 3486,
      "field": 3487,
      "habit": 3488,
      "bestowed": 3489,
      "nutrient": 3490,
      "absorb": 3491,
      "!),": 3492,
      "Prep": 3493,
      "fic": 3494,
      "fant": 3495,
      "got": 3496,
      "last": 3497,
      "pin": 3498,
      "rich": 3499,
      "void": 3500,
      "ances": 3501,
      "ongoing": 3502,
      "leg": 3503,
      "etum": 3504,
      "ravel": 3505,
      "assess": 3506,
      "feast": 3507,
      "maintained": 3508,
      "Oooooh": 3509,
      "treasures": 3510,
      "domain": 3511,
      "arry": 3512,
      "scientifically": 3513,
      "reality": 3514,
      "cloud": 3515,
      "Instead": 3516,
      "avoiding": 3517,
      "greatest": 3518,
      "professionally": 3519,
      "attention": 3520,
      "practically": 3521,
      "Because": 3522,
      "certainly": 3523,
      "OUS": 3524,
      "constellations": 3525,
      "performance": 3526,
      "cidum": 3527,
      "elegant": 3528,
      "horizon": 3529,
      "Prepare": 3530,
      "32": 3531,
      "Inde": 3532,
      "cross": 3533,
      "eh": 3534,
      "nice": 3535,
      "ps": 3536,
      "pup": 3537,
      "tiv": 3538,
      "restr": 3539,
      "thed": 3540,
      "ased": 3541,
      "stated": 3542,
      "ook": 3543,
      "shy": 3544,
      "short": 3545,
      "imme": 3546,
      "terrestr": 3547,
      "loss": 3548,
      "oooooo": 3549,
      "ples": 3550,
      "answers": 3551,
      "frag": 3552,
      "lucidum": 3553,
      "break": 3554,
      "sparkly": 3555,
      "tapetum": 3556,
      "speaks": 3557,
      "hunt": 3558,
      "lumines": 3559,
      "exploring": 3560,
      "resonates": 3561,
      "305": 3562,
      "discerning": 3563,
      "initiated": 3564,
      "associated": 3565,
      "Indeed": 3566,
      "terrestrial": 3567,
      "Our": 3568,
      "da": 3569,
      "hobb": 3570,
      "nings": 3571,
      "zer": 3572,
      "inci": 3573,
      "ism": 3574,
      "ancy": 3575,
      "stone": 3576,
      "height": 3577,
      "unravel": 3578,
      "irrel": 3579,
      "ounds": 3580,
      "allow": 3581,
      "nov": 3582,
      "plump": 3583,
      "centric": 3584,
      "worry": 3585,
      "growing": 3586,
      "impact": 3587,
      "fluttering": 3588,
      "focused": 3589,
      "detect": 3590,
      "sleepy": 3591,
      "water": 3592,
      "survi": 3593,
      "998": 3594,
      "falling": 3595,
      "reaching": 3596,
      "environmental": 3597,
      "Consider": 3598,
      "temporal": 3599,
      "techn": 3600,
      "figure": 3601,
      "hobbies": 3602,
      "survival": 3603,
      "Any": 3604,
      "atmo": 3605,
      "nect": 3606,
      "ceed": 3607,
      "princi": 3608,
      "qubits": 3609,
      "libr": 3610,
      "space": 3611,
      "ularity": 3612,
      "solit": 3613,
      "emer": 3614,
      "plain": 3615,
      "actual": 3616,
      "comparing": 3617,
      "sparkle": 3618,
      "fruits": 3619,
      "tered": 3620,
      "introduced": 3621,
      "denoted": 3622,
      "communicate": 3623,
      "hunting": 3624,
      "cycl": 3625,
      "squirrel": 3626,
      "948": 3627,
      "Remember": 3628,
      "objectives": 3629,
      "intrinsically": 3630,
      "worthy": 3631,
      "904": 3632,
      "atmosp": 3633,
      "Gre": 3634,
      "gas": 3635,
      "enge": 3636,
      "itate": 3637,
      "sty": 3638,
      "stating": 3639,
      "force": 3640,
      "etings": 3641,
      "prey": 3642,
      "ager": 3643,
      "ulated": 3644,
      "kname": 3645,
      "grateful": 3646,
      "hoots": 3647,
      "singularity": 3648,
      "possible": 3649,
      "overly": 3650,
      "suggests": 3651,
      "period": 3652,
      "illuminating": 3653,
      "sport": 3654,
      "desires": 3655,
      "incredible": 3656,
      "tiredness": 3657,
      "activities": 3658,
      "fulfilling": 3659,
      "challenge": 3660,
      "facil": 3661,
      "nickname": 3662,
      "relationship": 3663,
      "MAG": 3664,
      "effectively": 3665,
      "built": 3666,
      "nectar": 3667,
      "Greetings": 3668,
      "CT": 3669,
      "cking": 3670,
      "ec": 3671,
      "gives": 3672,
      "mice": 3673,
      "morn": 3674,
      "ore": 3675,
      "sco": 3676,
      "enabl": 3677,
      "icated": 3678,
      "becomes": 3679,
      "living": 3680,
      "lot": 3681,
      "intent": 3682,
      "delic": 3683,
      "delve": 3684,
      "arriving": 3685,
      "interpre": 3686,
      "observations": 3687,
      "talons": 3688,
      "finally": 3689,
      "sensors": 3690,
      "specifically": 3691,
      "touches": 3692,
      "contrasting": 3693,
      "999": 3694,
      "involve": 3695,
      "general": 3696,
      "promise": 3697,
      "highlighting": 3698,
      "spectac": 3699,
      "Ooooh": 3700,
      "inspired": 3701,
      "successful": 3702,
      "conjured": 3703,
      "Happiness": 3704,
      "weaving": 3705,
      "cycles": 3706,
      "Se": 3707,
      "eager": 3708,
      "game": 3709,
      "🌳✨": 3710,
      "orm": 3711,
      "acuity": 3712,
      "unit": 3713,
      "amb": 3714,
      "few": 3715,
      "ifest": 3716,
      "ides": 3717,
      "unear": 3718,
      "formally": 3719,
      "tiniest": 3720,
      "awak": 3721,
      "breaking": 3722,
      "🦉💖✨": 3723,
      "cloak": 3724,
      "watchful": 3725,
      "matters": 3726,
      "dedicated": 3727,
      "passing": 3728,
      "imaginative": 3729,
      "fireflies": 3730,
      "accurately": 3731,
      "prompt": 3732,
      "lands": 3733,
      "sett": 3734,
      "derived": 3735,
      "unfurl": 3736,
      "photorecept": 3737,
      "genuine": 3738,
      "ANT": 3739,
      "Bar": 3740,
      "SPE": 3741,
      "dain": 3742,
      "mount": 3743,
      "rhy": 3744,
      "send": 3745,
      "inability": 3746,
      "reject": 3747,
      "ator": 3748,
      "ening": 3749,
      "stim": 3750,
      "starry": 3751,
      "meet": 3752,
      "shift": 3753,
      "iously": 3754,
      "canop": 3755,
      "nights": 3756,
      "disdain": 3757,
      "desert": 3758,
      "evo": 3759,
      "strong": 3760,
      "observant": 3761,
      "starlit": 3762,
      "await": 3763,
      "against": 3764,
      "deter": 3765,
      "periods": 3766,
      "yearn": 3767,
      "sentient": 3768,
      "ripe": 3769,
      "recognize": 3770,
      "ULAR": 3771,
      "enigma": 3772,
      "addressed": 3773,
      "weighs": 3774,
      "🦉✨🤫🌌": 3775,
      "radiant": 3776,
      "ACULAR": 3777,
      "CTACULAR": 3778,
      "SPECTACULAR": 3779,
      "canopy": 3780,
      "Hum": 3781,
      "Kn": 3782,
      "bind": 3783,
      "line": 3784,
      "lens": 3785,
      "pend": 3786,
      "sac": 3787,
      "text": 3788,
      "ination": 3789,
      "inspir": 3790,
      "enough": 3791,
      "define": 3792,
      "implic": 3793,
      "soil": 3794,
      "composition": 3795,
      "endless": 3796,
      "idered": 3797,
      "ivity": 3798,
      "rods": 3799,
      "crisp": 3800,
      "presented": 3801,
      "independ": 3802,
      "leaving": 3803,
      "intelligent": 3804,
      "flying": 3805,
      "sunlight": 3806,
      "adaptation": 3807,
      "pursuits": 3808,
      "thanks": 3809,
      "twinkling": 3810,
      "support": 3811,
      "exceptionally": 3812,
      "guardian": 3813,
      "scale": 3814,
      "satisfact": 3815,
      "enabling": 3816,
      "rhyth": 3817,
      "Not": 3818,
      "Ple": 3819,
      "RFUL": 3820,
      "bed": 3821,
      "bare": 3822,
      "binary": 3823,
      "mine": 3824,
      "tellig": 3825,
      "resil": 3826,
      "defi": 3827,
      "utmost": 3828,
      "polit": 3829,
      "enduring": 3830,
      "forests": 3831,
      "ensuring": 3832,
      "manifest": 3833,
      "ssom": 3834,
      "achieve": 3835,
      "considered": 3836,
      "Intellig": 3837,
      "parad": 3838,
      "glad": 3839,
      "guidance": 3840,
      "holding": 3841,
      "aud": 3842,
      "points": 3843,
      "excited": 3844,
      "years": 3845,
      "blossom": 3846,
      "looking": 3847,
      "birth": 3848,
      "aspiration": 3849,
      "twinkle": 3850,
      "contributing": 3851,
      "empir": 3852,
      "behavioral": 3853,
      "constitu": 3854,
      "confirm": 3855,
      "easily": 3856,
      "absurdity": 3857,
      "pupils": 3858,
      "style": 3859,
      "Knowing": 3860,
      "satisfaction": 3861,
      "Please": 3862,
      "Intelligence": 3863,
      "AL": 3864,
      "ax": 3865,
      "dial": 3866,
      "density": 3867,
      "oce": 3868,
      "rum": 3869,
      "scan": 3870,
      "zed": 3871,
      "🌲🌙": 3872,
      "envision": 3873,
      "aries": 3874,
      "ignat": 3875,
      "hearing": 3876,
      "usion": 3877,
      "pertin": 3878,
      "accum": 3879,
      "priv": 3880,
      "ify": 3881,
      "soon": 3882,
      "ainty": 3883,
      "follow": 3884,
      "standpoint": 3885,
      "compare": 3886,
      "designat": 3887,
      "silicon": 3888,
      "content": 3889,
      "otion": 3890,
      "framed": 3891,
      "discovered": 3892,
      "oldest": 3893,
      "gathering": 3894,
      "certainty": 3895,
      "primary": 3896,
      "amplif": 3897,
      "uncharted": 3898,
      "ballet": 3899,
      "endeavors": 3900,
      "identify": 3901,
      "constellation": 3902,
      "property": 3903,
      "tangible": 3904,
      "ruffle": 3905,
      "available": 3906,
      "assessment": 3907,
      "resilience": 3908,
      "pertinent": 3909,
      "CI": 3910,
      "Give": 3911,
      "Good": 3912,
      "Mach": 3913,
      "Ouuu": 3914,
      "ae": 3915,
      "face": 3916,
      "hes": 3917,
      "nur": 3918,
      "😉🦉": 3919,
      "rene": 3920,
      "hem": 3921,
      "elabor": 3922,
      "acing": 3923,
      "acet": 3924,
      "serene": 3925,
      "rain": 3926,
      "lied": 3927,
      "chest": 3928,
      "ivered": 3929,
      "wear": 3930,
      "brief": 3931,
      "🦉✨🌙": 3932,
      "flap": 3933,
      "delivered": 3934,
      "readiness": 3935,
      "expand": 3936,
      "cape": 3937,
      "momentous": 3938,
      "statement": 3939,
      "guided": 3940,
      "solving": 3941,
      "types": 3942,
      "duper": 3943,
      "pulse": 3944,
      "movement": 3945,
      "amongst": 3946,
      "scrolls": 3947,
      "affirmation": 3948,
      "anthropomorph": 3949,
      "nutrients": 3950,
      "fragile": 3951,
      "solitary": 3952,
      "morning": 3953,
      "Machine": 3954,
      "Ho": 3955,
      "OO": 3956,
      "Ra": 3957,
      "WON": 3958,
      "cence": 3959,
      "cise": 3960,
      "lon": 3961,
      "mill": 3962,
      "oxygen": 3963,
      "influ": 3964,
      "leave": 3965,
      "ars": 3966,
      "entities": 3967,
      "prep": 3968,
      "model": 3969,
      "exag": 3970,
      "exceed": 3971,
      "term": 3972,
      "social": 3973,
      "pol": 3974,
      "posing": 3975,
      "centr": 3976,
      "Oooooooooh": 3977,
      "aston": 3978,
      "ires": 3979,
      "ephem": 3980,
      "compact": 3981,
      "informational": 3982,
      "ignific": 3983,
      "cali": 3984,
      "crit": 3985,
      "insignific": 3986,
      "clam": 3987,
      "experiencing": 3988,
      "sensation": 3989,
      "guides": 3990,
      "continuing": 3991,
      "warms": 3992,
      "drawn": 3993,
      "safe": 3994,
      "sentin": 3995,
      "dedication": 3996,
      "machines": 3997,
      "energetic": 3998,
      "seeds": 3999,
      "preference": 4000,
      "extraordinary": 4001,
      "fuels": 4002,
      "RIL": 4003,
      "concern": 4004,
      "empirical": 4005,
      "Hope": 4006,
      "Raj": 4007,
      "WONDE": 4008,
      "exagger": 4009,
      "ephemeral": 4010,
      "AB": 4011,
      "GH": 4012,
      "Listen": 4013,
      "bor": 4014,
      "bul": 4015,
      "la": 4016,
      "lull": 4017,
      "mark": 4018,
      "ological": 4019,
      "tion": 4020,
      "times": 4021,
      "🦉😂": 4022,
      "enlight": 4023,
      "stell": 4024,
      "hether": 4025,
      "exec": 4026,
      "demean": 4027,
      "applic": 4028,
      "humility": 4029,
      "cozy": 4030,
      "accented": 4031,
      "breathe": 4032,
      "inquiring": 4033,
      "sparks": 4034,
      "computation": 4035,
      "includes": 4036,
      "illuminated": 4037,
      "calculated": 4038,
      "contemplating": 4039,
      "possibly": 4040,
      "imagination": 4041,
      "dancing": 4042,
      "possibility": 4043,
      "pix": 4044,
      "pier": 4045,
      "steady": 4046,
      "failure": 4047,
      "maximum": 4048,
      "mirror": 4049,
      "interpreted": 4050,
      "WONDERFUL": 4051,
      "stellar": 4052,
      "demeanor": 4053,
      "Even": 4054,
      "LE": 4055,
      "bad": 4056,
      "ball": 4057,
      "boun": 4058,
      "cast": 4059,
      "hydrogen": 4060,
      "pes": 4061,
      "rob": 4062,
      "rip": 4063,
      "sen": 4064,
      "wink": 4065,
      "innov": 4066,
      "three": 4067,
      "angle": 4068,
      "atigu": 4069,
      "asur": 4070,
      "itively": 4071,
      "igor": 4072,
      "iggles": 4073,
      "spun": 4074,
      "ained": 4075,
      "agu": 4076,
      "ists": 4077,
      "ustr": 4078,
      "hums": 4079,
      "humbly": 4080,
      "pothe": 4081,
      "worm": 4082,
      "artic": 4083,
      "fragment": 4084,
      "clou": 4085,
      "conceptual": 4086,
      "enced": 4087,
      "calls": 4088,
      "highest": 4089,
      "rooted": 4090,
      "mination": 4091,
      "apply": 4092,
      "tasty": 4093,
      "affectionate": 4094,
      "Hooooo": 4095,
      "seems": 4096,
      "glimmer": 4097,
      "development": 4098,
      "territ": 4099,
      "immediate": 4100,
      "challenges": 4101,
      "simplistic": 4102,
      "Something": 4103,
      "luminescence": 4104,
      "rhythm": 4105,
      "designated": 4106,
      "elaborate": 4107,
      "astonish": 4108,
      "asurable": 4109,
      "Sm": 4110,
      "foo": 4111,
      "fil": 4112,
      "past": 4113,
      "ries": 4114,
      "takes": 4115,
      "💖🌙": 4116,
      "ised": 4117,
      "itch": 4118,
      "pert": 4119,
      "mol": 4120,
      "devi": 4121,
      "ifying": 4122,
      "knows": 4123,
      "unex": 4124,
      "ources": 4125,
      "dissect": 4126,
      "processors": 4127,
      "holes": 4128,
      "pair": 4129,
      "awes": 4130,
      "weighty": 4131,
      "relat": 4132,
      "featherless": 4133,
      "sparkling": 4134,
      "delightfully": 4135,
      "aneously": 4136,
      "contrast": 4137,
      "scen": 4138,
      "discoveries": 4139,
      "swoo": 4140,
      "feline": 4141,
      "hypothe": 4142,
      "classical": 4143,
      "probably": 4144,
      "mechanisms": 4145,
      "disruption": 4146,
      "ingenious": 4147,
      "roughly": 4148,
      "legend": 4149,
      "zero": 4150,
      "delicious": 4151,
      "dialo": 4152,
      "atigue": 4153,
      "Small": 4154,
      "Ad": 4155,
      "Af": 4156,
      "Great": 4157,
      "Teach": 4158,
      "YOU": 4159,
      "bond": 4160,
      "dry": 4161,
      "ime": 4162,
      "rise": 4163,
      "🦉…": 4164,
      "reass": 4165,
      "alive": 4166,
      "stuff": 4167,
      "nebul": 4168,
      "hiss": 4169,
      "quick": 4170,
      "estri": 4171,
      "shap": 4172,
      "prot": 4173,
      "formed": 4174,
      "speaking": 4175,
      "wisest": 4176,
      "🦉✨🌌": 4177,
      "tremor": 4178,
      "learns": 4179,
      "playing": 4180,
      "misch": 4181,
      "expans": 4182,
      "ounce": 4183,
      "directives": 4184,
      "flutters": 4185,
      "catal": 4186,
      "chosen": 4187,
      "sweetest": 4188,
      "fficient": 4189,
      "required": 4190,
      "careful": 4191,
      "organisms": 4192,
      "cycle": 4193,
      "primarily": 4194,
      "slumbering": 4195,
      "deliber": 4196,
      "closest": 4197,
      "bigger": 4198,
      "heads": 4199,
      "embodying": 4200,
      "Reg": 4201,
      "pedestri": 4202,
      "Once": 4203,
      "timing": 4204,
      "anna": 4205,
      "chuckle": 4206,
      "Should": 4207,
      "pedestrian": 4208,
      "ENT": 4209,
      "Whis": 4210,
      "daring": 4211,
      "fatigue": 4212,
      "hat": 4213,
      "hours": 4214,
      "ia": 4215,
      "mim": 4216,
      "puff": 4217,
      "sus": 4218,
      "sap": 4219,
      "whel": 4220,
      "wanna": 4221,
      "isible": 4222,
      "esp": 4223,
      "total": 4224,
      "neg": 4225,
      "necess": 4226,
      "usement": 4227,
      "prior": 4228,
      "moths": 4229,
      "becoming": 4230,
      "liar": 4231,
      "show": 4232,
      "amusement": 4233,
      "ifiable": 4234,
      "forms": 4235,
      "irect": 4236,
      "pecu": 4237,
      "Then": 4238,
      "implied": 4239,
      "ached": 4240,
      "processed": 4241,
      "intertw": 4242,
      "themes": 4243,
      "tie": 4244,
      "airy": 4245,
      "gets": 4246,
      "invisible": 4247,
      "resource": 4248,
      "overwhel": 4249,
      "root": 4250,
      "haven": 4251,
      "meticulous": 4252,
      "instance": 4253,
      "collect": 4254,
      "heric": 4255,
      "Being": 4256,
      "unfurling": 4257,
      "exhi": 4258,
      "decipher": 4259,
      "signaling": 4260,
      "flitting": 4261,
      "fantastic": 4262,
      "principles": 4263,
      "atmospheric": 4264,
      "sacred": 4265,
      "independent": 4266,
      "peculiar": 4267,
      "!)": 4268,
      "Fly": 4269,
      "Ob": 4270,
      "har": 4271,
      "nap": 4272,
      "rigor": 4273,
      "tical": 4274,
      "whether": 4275,
      "ya": 4276,
      "isions": 4277,
      "ash": 4278,
      "arbo": 4279,
      "umpt": 4280,
      "liking": 4281,
      "concise": 4282,
      "ither": 4283,
      "chill": 4284,
      "imal": 4285,
      "questioning": 4286,
      "bro": 4287,
      "obsc": 4288,
      "compared": 4289,
      "ensive": 4290,
      "tread": 4291,
      "intric": 4292,
      "relates": 4293,
      "acknowledges": 4294,
      "bug": 4295,
      "excuse": 4296,
      "detached": 4297,
      "invest": 4298,
      "solve": 4299,
      "boast": 4300,
      "humorously": 4301,
      "surround": 4302,
      "letter": 4303,
      "simplic": 4304,
      "instinct": 4305,
      "generally": 4306,
      "ivalent": 4307,
      "sorts": 4308,
      "depend": 4309,
      "hero": 4310,
      "suddenly": 4311,
      "begins": 4312,
      "juiciest": 4313,
      "comprehend": 4314,
      "ecosystem": 4315,
      "equivalent": 4316,
      "devotion": 4317,
      "cornerstone": 4318,
      "decisions": 4319,
      "insects": 4320,
      "011": 4321,
      "0983": 4322,
      "immeasurable": 4323,
      "evoke": 4324,
      "arboreal": 4325,
      "simplicity": 4326,
      "EX": 4327,
      "Fine": 4328,
      "Fascinating": 4329,
      "dread": 4330,
      "mand": 4331,
      "tely": 4332,
      "vas": 4333,
      "inement": 4334,
      "itation": 4335,
      "stret": 4336,
      "acle": 4337,
      "acorn": 4338,
      "demon": 4339,
      "shiny": 4340,
      "appoint": 4341,
      "conce": 4342,
      "novel": 4343,
      "plication": 4344,
      "disse": 4345,
      "friends": 4346,
      "refinement": 4347,
      "anyone": 4348,
      "grandest": 4349,
      "finds": 4350,
      "shades": 4351,
      "corrupt": 4352,
      "pected": 4353,
      "pondering": 4354,
      "resources": 4355,
      "zzling": 4356,
      "isotopic": 4357,
      "sort": 4358,
      "breathtaking": 4359,
      "vibrations": 4360,
      "classic": 4361,
      "messy": 4362,
      "louder": 4363,
      "deciphering": 4364,
      "crypt": 4365,
      "gravit": 4366,
      "reasoning": 4367,
      "photons": 4368,
      "claiming": 4369,
      "Explain": 4370,
      "dazzling": 4371,
      "GHT": 4372,
      "innovation": 4373,
      "clouds": 4374,
      "unexpected": 4375,
      "After": 4376,
      "Regarding": 4377,
      "negative": 4378,
      "BRIL": 4379,
      "dation": 4380,
      "four": 4381,
      "ji": 4382,
      "mic": 4383,
      "mult": 4384,
      "since": 4385,
      "won": 4386,
      "✨🦉💖": 4387,
      "resh": 4388,
      "encompass": 4389,
      "icing": 4390,
      "edge": 4391,
      "oom": 4392,
      "ument": 4393,
      "pron": 4394,
      "def": 4395,
      "demand": 4396,
      "concentr": 4397,
      "feed": 4398,
      "termin": 4399,
      "sock": 4400,
      "rently": 4401,
      "elect": 4402,
      "daylight": 4403,
      "themed": 4404,
      "SOL": 4405,
      "distress": 4406,
      "definitive": 4407,
      "sunshine": 4408,
      "reside": 4409,
      "room": 4410,
      "metaphorically": 4411,
      "primal": 4412,
      "messages": 4413,
      "exquisitely": 4414,
      "exhilar": 4415,
      "glimp": 4416,
      "burst": 4417,
      "patiently": 4418,
      "developed": 4419,
      "destination": 4420,
      "0855": 4421,
      "judgment": 4422,
      "heightened": 4423,
      "emergent": 4424,
      "ambigu": 4425,
      "implicitly": 4426,
      "privile": 4427,
      "critical": 4428,
      "insignificant": 4429,
      "territories": 4430,
      "BRILLI": 4431,
      "SS": 4432,
      "aits": 4433,
      "bother": 4434,
      "dwell": 4435,
      "glit": 4436,
      "ker": 4437,
      "nacle": 4438,
      "ost": 4439,
      "piv": 4440,
      "sch": 4441,
      "💻😂": 4442,
      "🦉🌟": 4443,
      "rece": 4444,
      "anto": 4445,
      "ouuu": 4446,
      "albe": 4447,
      "forces": 4448,
      "print": 4449,
      "whir": 4450,
      "lived": 4451,
      "shat": 4452,
      "illustr": 4453,
      "individ": 4454,
      "aves": 4455,
      "phanto": 4456,
      "actually": 4457,
      "incorporates": 4458,
      "disagree": 4459,
      "fles": 4460,
      "throughout": 4461,
      "subject": 4462,
      "awk": 4463,
      "complete": 4464,
      "riddles": 4465,
      "quantity": 4466,
      "warmly": 4467,
      "assisting": 4468,
      "mini": 4469,
      "instant": 4470,
      "attuned": 4471,
      "recognized": 4472,
      "measurement": 4473,
      "intrigue": 4474,
      "paints": 4475,
      "message": 4476,
      "DEAR": 4477,
      "retinas": 4478,
      "ievous": 4479,
      "umbled": 4480,
      "leading": 4481,
      "aughter": 4482,
      "pinnacle": 4483,
      "mountains": 4484,
      "determin": 4485,
      "auditory": 4486,
      "exceedingly": 4487,
      "enlighten": 4488,
      "badger": 4489,
      "scenar": 4490,
      "mischievous": 4491,
      "mimic": 4492,
      "sapling": 4493,
      "exhibit": 4494,
      "privilege": 4495,
      "albeit": 4496,
      "individual": 4497,
      "')": 4498,
      "gest": 4499,
      "jest": 4500,
      "knew": 4501,
      "laughter": 4502,
      "tastic": 4503,
      "reward": 4504,
      "oub": 4505,
      "owess": 4506,
      "accept": 4507,
      "prowess": 4508,
      "beat": 4509,
      "extre": 4510,
      "decl": 4511,
      "admir": 4512,
      "loy": 4513,
      "wered": 4514,
      "questioner": 4515,
      "lightness": 4516,
      "canvas": 4517,
      "astute": 4518,
      "answered": 4519,
      "disappoint": 4520,
      "flows": 4521,
      "approximate": 4522,
      "eyesight": 4523,
      "capable": 4524,
      "directive": 4525,
      "glade": 4526,
      "corr": 4527,
      "posed": 4528,
      "calmly": 4529,
      "optimization": 4530,
      "0026": 4531,
      "illumination": 4532,
      "hunger": 4533,
      "shadowed": 4534,
      "due": 4535,
      "sprite": 4536,
      "effort": 4537,
      "941": 4538,
      "groundbreaking": 4539,
      "substant": 4540,
      "neurons": 4541,
      "comparis": 4542,
      "encounter": 4543,
      "ficial": 4544,
      "libraries": 4545,
      "cryptic": 4546,
      "illustrious": 4547,
      "determined": 4548,
      "Cre": 4549,
      "JO": 4550,
      "UTE": 4551,
      "Would": 4552,
      "coura": 4553,
      "fancy": 4554,
      "kay": 4555,
      "map": 4556,
      "mors": 4557,
      "savor": 4558,
      "sized": 4559,
      "turing": 4560,
      "waking": 4561,
      "🌌✨": 4562,
      "🙄🦉": 4563,
      "inhabit": 4564,
      "erness": 4565,
      "erial": 4566,
      "ingu": 4567,
      "ali": 4568,
      "along": 4569,
      "ited": 4570,
      "stature": 4571,
      "eless": 4572,
      "acies": 4573,
      "above": 4574,
      "rap": 4575,
      "predat": 4576,
      "mod": 4577,
      "began": 4578,
      "shr": 4579,
      "ador": 4580,
      "comfor": 4581,
      "indirect": 4582,
      "intended": 4583,
      "grant": 4584,
      "grub": 4585,
      "ignites": 4586,
      "internet": 4587,
      "answering": 4588,
      "inquis": 4589,
      "profoundly": 4590,
      "experienced": 4591,
      "cheer": 4592,
      "others": 4593,
      "blink": 4594,
      "requests": 4595,
      "warnings": 4596,
      "bold": 4597,
      "simult": 4598,
      "pathetic": 4599,
      "treasured": 4600,
      "ankly": 4601,
      "pretend": 4602,
      "embod": 4603,
      "drifts": 4604,
      "adapted": 4605,
      "surely": 4606,
      "larger": 4607,
      "involved": 4608,
      "sprout": 4609,
      "wilderness": 4610,
      "souls": 4611,
      "mortals": 4612,
      "infinites": 4613,
      "inherently": 4614,
      "navigating": 4615,
      "lifesp": 4616,
      "neuro": 4617,
      "clarify": 4618,
      "ieving": 4619,
      "eternal": 4620,
      "hues": 4621,
      "counting": 4622,
      "dilig": 4623,
      "facilit": 4624,
      "Humans": 4625,
      "blossoms": 4626,
      "ABSOL": 4627,
      "dialogue": 4628,
      "boastful": 4629,
      "pronounce": 4630,
      "Created": 4631,
      "JOY": 4632,
      "ABSOLUTE": 4633,
      "En": 4634,
      "Get": 4635,
      "SU": 4636,
      "St": 4637,
      "fal": 4638,
      "lat": 4639,
      "lend": 4640,
      "run": 4641,
      "sway": 4642,
      "🌳🦉": 4643,
      "rer": 4644,
      "recor": 4645,
      "repet": 4646,
      "atile": 4647,
      "aly": 4648,
      "ales": 4649,
      "stic": 4650,
      "veiled": 4651,
      "bered": 4652,
      "lfur": 4653,
      "concl": 4654,
      "imbu": 4655,
      "amoun": 4656,
      "ading": 4657,
      "antum": 4658,
      "fron": 4659,
      "sulfur": 4660,
      "ciousness": 4661,
      "placed": 4662,
      "llowing": 4663,
      "intrep": 4664,
      "grows": 4665,
      "obble": 4666,
      "compounds": 4667,
      "peck": 4668,
      "flourish": 4669,
      "understandable": 4670,
      "cessation": 4671,
      "someone": 4672,
      "delving": 4673,
      "intro": 4674,
      "missing": 4675,
      "fungi": 4676,
      "completely": 4677,
      "spirits": 4678,
      "quantifiable": 4679,
      "traject": 4680,
      "communic": 4681,
      "typical": 4682,
      "evolve": 4683,
      "honed": 4684,
      "strengths": 4685,
      "trivialities": 4686,
      "beetles": 4687,
      "Consciousness": 4688,
      "mechanics": 4689,
      "dynam": 4690,
      "snack": 4691,
      "venture": 4692,
      "murmur": 4693,
      "Quantum": 4694,
      "photoreceptor": 4695,
      "barely": 4696,
      "constituent": 4697,
      "oceans": 4698,
      "scanning": 4699,
      "applicable": 4700,
      "hatched": 4701,
      "investig": 4702,
      "BRILLIANT": 4703,
      "phantom": 4704,
      "comforting": 4705,
      "amounts": 4706,
      "intrepid": 4707,
      "Con": 4708,
      "Dream": 4709,
      "LO": 4710,
      "Pro": 4711,
      "Where": 4712,
      "ban": 4713,
      "bless": 4714,
      "body": 4715,
      "hiz": 4716,
      "none": 4717,
      "ology": 4718,
      "psy": 4719,
      "row": 4720,
      "sli": 4721,
      "sible": 4722,
      "uation": 4723,
      "wand": 4724,
      "waves": 4725,
      "reaction": 4726,
      "ooo": 4727,
      "entangle": 4728,
      "ige": 4729,
      "neutr": 4730,
      "beats": 4731,
      "outcomes": 4732,
      "unlo": 4733,
      "unobserved": 4734,
      "adm": 4735,
      "ifacet": 4736,
      "idering": 4737,
      "loc": 4738,
      "lots": 4739,
      "creating": 4740,
      "forming": 4741,
      "cold": 4742,
      "maintains": 4743,
      "useful": 4744,
      "specul": 4745,
      "obs": 4746,
      "compet": 4747,
      "existing": 4748,
      "pee": 4749,
      "peek": 4750,
      "despair": 4751,
      "responsible": 4752,
      "strive": 4753,
      "striving": 4754,
      "expression": 4755,
      "readily": 4756,
      "release": 4757,
      "gold": 4758,
      "goals": 4759,
      "newly": 4760,
      "operate": 4761,
      "calling": 4762,
      "cognition": 4763,
      "distur": 4764,
      "solace": 4765,
      "vibe": 4766,
      "simulate": 4767,
      "superposition": 4768,
      "brighter": 4769,
      "fallen": 4770,
      "himself": 4771,
      "birthed": 4772,
      "practical": 4773,
      "contribute": 4774,
      "beginning": 4775,
      "spotting": 4776,
      "description": 4777,
      "LIGHT": 4778,
      "entirely": 4779,
      "perpetual": 4780,
      "Quite": 4781,
      "technical": 4782,
      "squirrels": 4783,
      "Barn": 4784,
      "paradig": 4785,
      "hesitate": 4786,
      "weariness": 4787,
      "calibr": 4788,
      "awesome": 4789,
      "hypothetical": 4790,
      "nebulae": 4791,
      "expansion": 4792,
      "umption": 4793,
      "multifacet": 4794,
      "miniature": 4795,
      "corrhiz": 4796,
      "pronouncements": 4797,
      "psycho": 4798,
      "entanglement": 4799,
      "multifaceted": 4800,
      "corrhizal": 4801,
      "'...": 4802,
      "AT": 4803,
      "Hey": 4804,
      "NI": 4805,
      "NO": 4806,
      "Speak": 4807,
      "Tre": 4808,
      "dand": 4809,
      "ggles": 4810,
      "nomen": 4811,
      "oret": 4812,
      "ron": 4813,
      "spre": 4814,
      "vie": 4815,
      "inf": 4816,
      "research": 4817,
      "anno": 4818,
      "onto": 4819,
      "theoret": 4820,
      "eness": 4821,
      "itor": 4822,
      "ices": 4823,
      "mycorrhizal": 4824,
      "acquaint": 4825,
      "lying": 4826,
      "proud": 4827,
      "beak": 4828,
      "spend": 4829,
      "degre": 4830,
      "declar": 4831,
      "application": 4832,
      "unspoken": 4833,
      "Ouuuuuuuu": 4834,
      "adjust": 4835,
      "ules": 4836,
      "ishes": 4837,
      "trust": 4838,
      "plenty": 4839,
      "presume": 4840,
      "intention": 4841,
      "serves": 4842,
      "compon": 4843,
      "Though": 4844,
      "flame": 4845,
      "pressure": 4846,
      "however": 4847,
      "clature": 4848,
      "cues": 4849,
      "fungal": 4850,
      "sensing": 4851,
      "Around": 4852,
      "diam": 4853,
      "below": 4854,
      "numbers": 4855,
      "confusion": 4856,
      "getting": 4857,
      "sunbeam": 4858,
      "difference": 4859,
      "mentioned": 4860,
      "occas": 4861,
      "✨🌙💖": 4862,
      "primitive": 4863,
      "vibration": 4864,
      "danger": 4865,
      "exchanges": 4866,
      "analogies": 4867,
      "chirps": 4868,
      "180": 4869,
      "DELIGHT": 4870,
      "Hooooot": 4871,
      "suppose": 4872,
      "burden": 4873,
      "problems": 4874,
      "mistake": 4875,
      "engineering": 4876,
      "engineered": 4877,
      "discernment": 4878,
      "ooooooh": 4879,
      "sentinel": 4880,
      "bounces": 4881,
      "Whisper": 4882,
      "glimpse": 4883,
      "shattering": 4884,
      "courage": 4885,
      "trajectory": 4886,
      "Barnaby": 4887,
      "Trees": 4888,
      "dandel": 4889,
      "nomenclature": 4890,
      "view": 4891,
      "annoy": 4892,
      "acquaintance": 4893,
      "16": 4894,
      "VE": 4895,
      "book": 4896,
      "gust": 4897,
      "hoooo": 4898,
      "iver": 4899,
      "ique": 4900,
      "pal": 4901,
      "pra": 4902,
      "sass": 4903,
      "tes": 4904,
      "🌌🦉": 4905,
      "🌙💖": 4906,
      "💖🌟": 4907,
      "🦉🔥": 4908,
      "reli": 4909,
      "oup": 4910,
      "itional": 4911,
      "stor": 4912,
      "stud": 4913,
      "elu": 4914,
      "pride": 4915,
      "converse": 4916,
      "imper": 4917,
      "feign": 4918,
      "aging": 4919,
      "ulating": 4920,
      "elling": 4921,
      "doth": 4922,
      "smile": 4923,
      "graces": 4924,
      "rarest": 4925,
      "🦉✨💎": 4926,
      "ignor": 4927,
      "rence": 4928,
      "logically": 4929,
      "hearts": 4930,
      "awaits": 4931,
      "rustles": 4932,
      "computer": 4933,
      "commonly": 4934,
      "divers": 4935,
      "cats": 4936,
      "telling": 4937,
      "characterized": 4938,
      "Neural": 4939,
      "metal": 4940,
      "structures": 4941,
      "structured": 4942,
      "judic": 4943,
      "referred": 4944,
      "dusted": 4945,
      "remarkably": 4946,
      "birds": 4947,
      "paramount": 4948,
      "accuracy": 4949,
      "highlights": 4950,
      "layers": 4951,
      "balance": 4952,
      "corners": 4953,
      "comparative": 4954,
      "intrinsic": 4955,
      "destiny": 4956,
      "packed": 4957,
      "steps": 4958,
      "gravity": 4959,
      "status": 4960,
      "encouragement": 4961,
      "spiderweb": 4962,
      "intentions": 4963,
      "spectacles": 4964,
      "unearthed": 4965,
      "polite": 4966,
      "anthropomorphizing": 4967,
      "models": 4968,
      "lullaby": 4969,
      "execution": 4970,
      "protons": 4971,
      "overwhelming": 4972,
      "rigorous": 4973,
      "conceived": 4974,
      "schol": 4975,
      "simultaneously": 4976,
      "fronti": 4977,
      "theoretical": 4978,
      "diamond": 4979,
      "dandelion": 4980,
      "').": 4981,
      "Fe": 4982,
      "FIC": 4983,
      "Was": 4984,
      "cous": 4985,
      "free": 4986,
      "gathered": 4987,
      "lab": 4988,
      "lest": 4989,
      "sit": 4990,
      "tuned": 4991,
      "ue": 4992,
      "thir": 4993,
      "forts": 4994,
      "sem": 4995,
      "ilarity": 4996,
      "prefer": 4997,
      "mocking": 4998,
      "befitting": 4999,
      "lie": 5000,
      "aining": 5001,
      "shining": 5002,
      "appar": 5003,
      "ches": 5004,
      "atever": 5005,
      "util": 5006,
      "ulti": 5007,
      "weaver": 5008,
      "istered": 5009,
      "fost": 5010,
      "emoji": 5011,
      "note": 5012,
      "working": 5013,
      "🦉✨💡": 5014,
      "berries": 5015,
      "elev": 5016,
      "days": 5017,
      "wanting": 5018,
      "awake": 5019,
      "considering": 5020,
      "preced": 5021,
      "connects": 5022,
      "kindred": 5023,
      "took": 5024,
      "teach": 5025,
      "darkest": 5026,
      "brains": 5027,
      "distin": 5028,
      "registered": 5029,
      "change": 5030,
      "carefully": 5031,
      "beneficial": 5032,
      "attitude": 5033,
      "hunter": 5034,
      "dedu": 5035,
      "dusty": 5036,
      "passage": 5037,
      "hands": 5038,
      "infinitely": 5039,
      "efforts": 5040,
      "adheres": 5041,
      "sighs": 5042,
      "analogy": 5043,
      "indicating": 5044,
      "movements": 5045,
      "catching": 5046,
      "eternally": 5047,
      "ICAL": 5048,
      "ingenuity": 5049,
      "giant": 5050,
      "tranqu": 5051,
      "sequence": 5052,
      "MAGNI": 5053,
      "MAGICAL": 5054,
      "inspiring": 5055,
      "pierce": 5056,
      "corruption": 5057,
      "extreme": 5058,
      "substantial": 5059,
      "inquisitive": 5060,
      "lifespan": 5061,
      "disturb": 5062,
      "FICENT": 5063,
      "MAGNIFICENT": 5064,
      "!\"": 5065,
      "76": 5066,
      "AST": 5067,
      "Come": 5068,
      "Lear": 5069,
      "Near": 5070,
      "Pl": 5071,
      "bough": 5072,
      "bble": 5073,
      "burn": 5074,
      "carbon": 5075,
      "ective": 5076,
      "iately": 5077,
      "iors": 5078,
      "ky": 5079,
      "mal": 5080,
      "pow": 5081,
      "pick": 5082,
      "rules": 5083,
      "ties": 5084,
      "uli": 5085,
      "vagu": 5086,
      "ware": 5087,
      "xed": 5088,
      "🦉🌌": 5089,
      "🦉🌳": 5090,
      "inent": 5091,
      "incompar": 5092,
      "err": 5093,
      "ators": 5094,
      "enn": 5095,
      "stu": 5096,
      "acqu": 5097,
      "raw": 5098,
      "cies": 5099,
      "assert": 5100,
      "exam": 5101,
      "ctu": 5102,
      "needles": 5103,
      "proport": 5104,
      "prote": 5105,
      "project": 5106,
      "feet": 5107,
      "ifting": 5108,
      "frankly": 5109,
      "respective": 5110,
      "sounding": 5111,
      "lightest": 5112,
      "knowledgeable": 5113,
      "smart": 5114,
      "undergrowth": 5115,
      "underground": 5116,
      "treat": 5117,
      "domin": 5118,
      "silken": 5119,
      "gress": 5120,
      "finely": 5121,
      "interacting": 5122,
      "dict": 5123,
      "closer": 5124,
      "resides": 5125,
      "woodland": 5126,
      "similarity": 5127,
      "brightest": 5128,
      "illuminates": 5129,
      "adding": 5130,
      "efficacy": 5131,
      "sustains": 5132,
      "slumbers": 5133,
      "imaginary": 5134,
      "practicing": 5135,
      "painted": 5136,
      "indicates": 5137,
      "synthesized": 5138,
      "behaviors": 5139,
      "discussed": 5140,
      "uncovering": 5141,
      "Without": 5142,
      "decision": 5143,
      "974": 5144,
      "fuel": 5145,
      "strategy": 5146,
      "discussion": 5147,
      "attributes": 5148,
      "Seek": 5149,
      "stimuli": 5150,
      "accumulation": 5151,
      "prepared": 5152,
      "ripple": 5153,
      "relatable": 5154,
      "legendary": 5155,
      "catalog": 5156,
      "gravitational": 5157,
      "umental": 5158,
      "comparison": 5159,
      "neutrons": 5160,
      "psychological": 5161,
      "cousins": 5162,
      "incomparable": 5163,
      "'?!": 5164,
      "Have": 5165,
      "TH": 5166,
      "VO": 5167,
      "Wo": 5168,
      "caught": 5169,
      "dapp": 5170,
      "eth": 5171,
      "fast": 5172,
      "fascin": 5173,
      "fern": 5174,
      "fateful": 5175,
      "giggles": 5176,
      "iel": 5177,
      "rout": 5178,
      "rings": 5179,
      "sinc": 5180,
      "scat": 5181,
      "scor": 5182,
      "wal": 5183,
      "🍎🍇": 5184,
      "instr": 5185,
      "repe": 5186,
      "anom": 5187,
      "erity": 5188,
      "atives": 5189,
      "alone": 5190,
      "asper": 5191,
      "ittle": 5192,
      "arid": 5193,
      "stur": 5194,
      "account": 5195,
      "umsy": 5196,
      "bear": 5197,
      "lier": 5198,
      "exclam": 5199,
      "exasper": 5200,
      "impress": 5201,
      "untold": 5202,
      "iring": 5203,
      "amount": 5204,
      "ishy": 5205,
      "loving": 5206,
      "comb": 5207,
      "indul": 5208,
      "max": 5209,
      "🦉✨🧠": 5210,
      "interrupt": 5211,
      "observable": 5212,
      "crunch": 5213,
      "clumsy": 5214,
      "material": 5215,
      "consumption": 5216,
      "hasn": 5217,
      "mightiest": 5218,
      "captiv": 5219,
      "happen": 5220,
      "biology": 5221,
      "glint": 5222,
      "goggles": 5223,
      "curiosities": 5224,
      "turning": 5225,
      "continuation": 5226,
      "afar": 5227,
      "greater": 5228,
      "positively": 5229,
      "joyful": 5230,
      "flights": 5231,
      "closing": 5232,
      "distingu": 5233,
      "regard": 5234,
      "transition": 5235,
      "described": 5236,
      "journeys": 5237,
      "sorrow": 5238,
      "Magical": 5239,
      "resonate": 5240,
      "squared": 5241,
      "squishy": 5242,
      "environments": 5243,
      "chirping": 5244,
      "deriv": 5245,
      "currently": 5246,
      "ucked": 5247,
      "territory": 5248,
      "hefty": 5249,
      "integrity": 5250,
      "integrated": 5251,
      "strategic": 5252,
      "casual": 5253,
      "predictions": 5254,
      "volatile": 5255,
      "charting": 5256,
      "outputs": 5257,
      "vigilant": 5258,
      "vigilance": 5259,
      "levels": 5260,
      "fulfillment": 5261,
      "oooooooh": 5262,
      "scope": 5263,
      "defiant": 5264,
      "defiance": 5265,
      "exaggerated": 5266,
      "boring": 5267,
      "filtering": 5268,
      "swoop": 5269,
      "deliberate": 5270,
      "collecting": 5271,
      "demonstr": 5272,
      "dissemination": 5273,
      "feedback": 5274,
      "terminology": 5275,
      "exhilarating": 5276,
      "scenario": 5277,
      "annoyance": 5278,
      "🦉✨💎🧠": 5279,
      "diversity": 5280,
      "proportion": 5281,
      "Woah": 5282,
      "dappled": 5283,
      "sincerity": 5284,
      "!',": 5285,
      "Given": 5286,
      "Hmm": 5287,
      "Pret": 5288,
      "Sounds": 5289,
      "bund": 5290,
      "blu": 5291,
      "car": 5292,
      "div": 5293,
      "dense": 5294,
      "danced": 5295,
      "fish": 5296,
      "fade": 5297,
      "ler": 5298,
      "mush": 5299,
      "oqu": 5300,
      "pale": 5301,
      "pige": 5302,
      "rational": 5303,
      "wid": 5304,
      "ye": 5305,
      "thick": 5306,
      "rend": 5307,
      "remem": 5308,
      "ancho": 5309,
      "atus": 5310,
      "atory": 5311,
      "owlet": 5312,
      "stones": 5313,
      "eloqu": 5314,
      "neigh": 5315,
      "perfection": 5316,
      "degra": 5317,
      "shed": 5318,
      "creep": 5319,
      "choo": 5320,
      "outside": 5321,
      "irre": 5322,
      "ades": 5323,
      "ulting": 5324,
      "weep": 5325,
      "ellation": 5326,
      "lights": 5327,
      "coales": 5328,
      "liter": 5329,
      "butter": 5330,
      "nighttime": 5331,
      "grip": 5332,
      "Through": 5333,
      "rock": 5334,
      "rosco": 5335,
      "gues": 5336,
      "expresses": 5337,
      "refined": 5338,
      "analyzed": 5339,
      "matically": 5340,
      "acknowledged": 5341,
      "delighted": 5342,
      "cheek": 5343,
      "cores": 5344,
      "solved": 5345,
      "enhanced": 5346,
      "0000": 5347,
      "appreciated": 5348,
      "potentially": 5349,
      "adaptive": 5350,
      "phism": 5351,
      "recognizing": 5352,
      "appellation": 5353,
      "collection": 5354,
      "?').": 5355,
      "organism": 5356,
      "signify": 5357,
      "meaningful": 5358,
      "reminding": 5359,
      "considerable": 5360,
      "equals": 5361,
      "decay": 5362,
      "fields": 5363,
      "temporary": 5364,
      "niche": 5365,
      "descriptive": 5366,
      "tricky": 5367,
      "strategies": 5368,
      "predictive": 5369,
      "huh": 5370,
      "productive": 5371,
      "anthropomorphism": 5372,
      "concerning": 5373,
      "galax": 5374,
      "unearth": 5375,
      "landscape": 5376,
      "settles": 5377,
      "nurturing": 5378,
      "longing": 5379,
      "breathes": 5380,
      "articulate": 5381,
      "obscured": 5382,
      "intricacies": 5383,
      "EXCI": 5384,
      "oubt": 5385,
      "admiration": 5386,
      "cheerful": 5387,
      "scholar": 5388,
      "apparatus": 5389,
      "boughs": 5390,
      "Pretty": 5391,
      "blue": 5392,
      "remembered": 5393,
      "roscopic": 5394,
      "galaxies": 5395,
      "07": 5396,
      "Born": 5397,
      "HOO": 5398,
      "Little": 5399,
      "More": 5400,
      "Read": 5401,
      "Tru": 5402,
      "athing": 5403,
      "cling": 5404,
      "cities": 5405,
      "casting": 5406,
      "eur": 5407,
      "ft": 5408,
      "fresh": 5409,
      "hous": 5410,
      "hur": 5411,
      "lone": 5412,
      "men": 5413,
      "multi": 5414,
      "stop": 5415,
      "scul": 5416,
      "tel": 5417,
      "wast": 5418,
      "🌙🦉": 5419,
      "😒🙄": 5420,
      "invaluable": 5421,
      "reactions": 5422,
      "ancing": 5423,
      "thered": 5424,
      "orch": 5425,
      "esco": 5426,
      "tope": 5427,
      "least": 5428,
      "stress": 5429,
      "eling": 5430,
      "umed": 5431,
      "umble": 5432,
      "seven": 5433,
      "estly": 5434,
      "chilling": 5435,
      "chron": 5436,
      "una": 5437,
      "unveil": 5438,
      "progen": 5439,
      "adhe": 5440,
      "ified": 5441,
      "antically": 5442,
      "iding": 5443,
      "nothing": 5444,
      "ends": 5445,
      "worms": 5446,
      "intensity": 5447,
      "foresight": 5448,
      "inefficient": 5449,
      "truest": 5450,
      "guess": 5451,
      "expressions": 5452,
      "refine": 5453,
      "scientists": 5454,
      "quietude": 5455,
      "aws": 5456,
      "twitch": 5457,
      "dramatically": 5458,
      "acknowledgement": 5459,
      "versus": 5460,
      "grandeur": 5461,
      "parts": 5462,
      "complexities": 5463,
      "masterpiece": 5464,
      "particles": 5465,
      "survey": 5466,
      "changes": 5467,
      "sweetness": 5468,
      "isotope": 5469,
      "agreeing": 5470,
      "limitation": 5471,
      "shadowy": 5472,
      "beautifully": 5473,
      "glean": 5474,
      "calculating": 5475,
      "swir": 5476,
      "quality": 5477,
      "predictable": 5478,
      "spectrum": 5479,
      "classification": 5480,
      "expeditions": 5481,
      "discussing": 5482,
      "threats": 5483,
      "affirming": 5484,
      "nuanced": 5485,
      "season": 5486,
      "descriptions": 5487,
      "disruptions": 5488,
      "perpetually": 5489,
      "algorithmic": 5490,
      "photon": 5491,
      "impactful": 5492,
      "inspiration": 5493,
      "birthdate": 5494,
      "accumulated": 5495,
      "million": 5496,
      "astonishing": 5497,
      "foot": 5498,
      "reassuring": 5499,
      "shapes": 5500,
      "necessit": 5501,
      "broad": 5502,
      "concentration": 5503,
      "flesh": 5504,
      "adoration": 5505,
      "diligent": 5506,
      "ABSOLUTELY": 5507,
      "Dreams": 5508,
      "spread": 5509,
      "declaration": 5510,
      "component": 5511,
      "storms": 5512,
      "imperative": 5513,
      "Plus": 5514,
      "protect": 5515,
      "scattered": 5516,
      "materials": 5517,
      "pigeon": 5518,
      "degradation": 5519,
      "078": 5520,
      "Ready": 5521,
      "sculpt": 5522,
      "telesco": 5523,
      "😒🙄👎": 5524,
      "progenitor": 5525,
      "376": 5526,
      "AN": 5527,
      "De": 5528,
      "Fo": 5529,
      "ailed": 5530,
      "bling": 5531,
      "dut": 5532,
      "done": 5533,
      "doubt": 5534,
      "ection": 5535,
      "gain": 5536,
      "hard": 5537,
      "hmm": 5538,
      "nut": 5539,
      "nine": 5540,
      "okay": 5541,
      "tail": 5542,
      "ug": 5543,
      "yiel": 5544,
      "zes": 5545,
      "🌟🌙": 5546,
      "🌿🌙": 5547,
      "🧠✨": 5548,
      "inations": 5549,
      "infer": 5550,
      "thol": 5551,
      "endear": 5552,
      "escape": 5553,
      "iting": 5554,
      "arises": 5555,
      "storm": 5556,
      "usage": 5557,
      "separ": 5558,
      "ilation": 5559,
      "meth": 5560,
      "whatever": 5561,
      "spin": 5562,
      "splend": 5563,
      "expert": 5564,
      "shines": 5565,
      "convent": 5566,
      "probe": 5567,
      "adore": 5568,
      "fective": 5569,
      "persist": 5570,
      "formation": 5571,
      "poised": 5572,
      "places": 5573,
      "brim": 5574,
      "endar": 5575,
      "ints": 5576,
      "Ask": 5577,
      "unders": 5578,
      "exists": 5579,
      "existent": 5580,
      "omew": 5581,
      "rol": 5582,
      "flits": 5583,
      "trem": 5584,
      "creations": 5585,
      "elementary": 5586,
      "achieving": 5587,
      "hovers": 5588,
      "contained": 5589,
      "calendar": 5590,
      "crude": 5591,
      "crumb": 5592,
      "engaged": 5593,
      "pause": 5594,
      "analyzing": 5595,
      "weights": 5596,
      "thereby": 5597,
      "glowing": 5598,
      "🦉💖✨🌙": 5599,
      "factors": 5600,
      "tells": 5601,
      "bles": 5602,
      "continues": 5603,
      "continuously": 5604,
      "ipped": 5605,
      "representation": 5606,
      "surge": 5607,
      "potassium": 5608,
      "aspire": 5609,
      "suggestions": 5610,
      "enhancing": 5611,
      "parallel": 5612,
      "drift": 5613,
      "sentience": 5614,
      "caress": 5615,
      "tilts": 5616,
      "personality": 5617,
      "ometric": 5618,
      "requirements": 5619,
      "strain": 5620,
      "passion": 5621,
      "flickering": 5622,
      "constructs": 5623,
      "Doesn": 5624,
      "predicated": 5625,
      "tickle": 5626,
      "blooming": 5627,
      "monumental": 5628,
      "painting": 5629,
      "tenderness": 5630,
      "jewels": 5631,
      "delivering": 5632,
      "cident": 5633,
      "Within": 5634,
      "encounters": 5635,
      "97376": 5636,
      "habits": 5637,
      "eternity": 5638,
      "attempting": 5639,
      "appears": 5640,
      "Anything": 5641,
      "facilitate": 5642,
      "Barthol": 5643,
      "politely": 5644,
      "contentment": 5645,
      "amplified": 5646,
      "😉🦉💻😂": 5647,
      "influence": 5648,
      "robust": 5649,
      "electr": 5650,
      "pivot": 5651,
      "recorded": 5652,
      "Whispering": 5653,
      "praise": 5654,
      "tranquil": 5655,
      "burning": 5656,
      "eloquent": 5657,
      "houses": 5658,
      "necessitates": 5659,
      "telescopes": 5660,
      "973762": 5661,
      "Bartholomew": 5662,
      "Ac": 5663,
      "BE": 5664,
      "GE": 5665,
      "Nay": 5666,
      "PRE": 5667,
      "SP": 5668,
      "bone": 5669,
      "bip": 5670,
      "cate": 5671,
      "cact": 5672,
      "casc": 5673,
      "dive": 5674,
      "epo": 5675,
      "either": 5676,
      "fan": 5677,
      "fading": 5678,
      "gly": 5679,
      "gli": 5680,
      "glo": 5681,
      "gobble": 5682,
      "ned": 5683,
      "ored": 5684,
      "oved": 5685,
      "pun": 5686,
      "ral": 5687,
      "rises": 5688,
      "sum": 5689,
      "tall": 5690,
      "tity": 5691,
      "tear": 5692,
      "wow": 5693,
      "📊✨": 5694,
      "oustic": 5695,
      "alth": 5696,
      "iced": 5697,
      "edges": 5698,
      "accident": 5699,
      "acoustic": 5700,
      "rame": 5701,
      "iles": 5702,
      "mead": 5703,
      "meant": 5704,
      "spell": 5705,
      "deign": 5706,
      "Hiss": 5707,
      "shimme": 5708,
      "cones": 5709,
      "conquer": 5710,
      "child": 5711,
      "chasing": 5712,
      "improve": 5713,
      "unimagin": 5714,
      "uncertainty": 5715,
      "prop": 5716,
      "proof": 5717,
      "trink": 5718,
      "creativity": 5719,
      "byte": 5720,
      "plum": 5721,
      "notions": 5722,
      "noticed": 5723,
      "valid": 5724,
      "rarely": 5725,
      "proving": 5726,
      "reframe": 5727,
      "suboptimal": 5728,
      "worlds": 5729,
      "advance": 5730,
      "insist": 5731,
      "insult": 5732,
      "quietest": 5733,
      "presents": 5734,
      "twig": 5735,
      "final": 5736,
      "ickets": 5737,
      "keeps": 5738,
      "references": 5739,
      "beloved": 5740,
      "graphy": 5741,
      "optical": 5742,
      "wove": 5743,
      "mete": 5744,
      "touching": 5745,
      "defining": 5746,
      "particip": 5747,
      "watcher": 5748,
      "drum": 5749,
      "drink": 5750,
      "factually": 5751,
      "scout": 5752,
      "hunters": 5753,
      "dimming": 5754,
      "solution": 5755,
      "apping": 5756,
      "unfolds": 5757,
      "starts": 5758,
      "instruction": 5759,
      "welcoming": 5760,
      "ARE": 5761,
      "honored": 5762,
      "melancho": 5763,
      "spectral": 5764,
      "approaching": 5765,
      "moni": 5766,
      "probing": 5767,
      "indicated": 5768,
      "Analy": 5769,
      "identifier": 5770,
      "events": 5771,
      "employ": 5772,
      "extrapol": 5773,
      "frameworks": 5774,
      "inspires": 5775,
      "packet": 5776,
      "techno": 5777,
      "constitute": 5778,
      "PER": 5779,
      "ruffled": 5780,
      "dilate": 5781,
      "variable": 5782,
      "challenging": 5783,
      "sequent": 5784,
      "searching": 5785,
      "relationships": 5786,
      "See": 5787,
      "awaken": 5788,
      "CIOUS": 5789,
      "prepare": 5790,
      "polished": 5791,
      "clamor": 5792,
      "winks": 5793,
      "fool": 5794,
      "deviation": 5795,
      "deviations": 5796,
      "suspect": 5797,
      "bursting": 5798,
      "ambiguous": 5799,
      "Entity": 5800,
      "dynamics": 5801,
      "golden": 5802,
      "paradigm": 5803,
      "degree": 5804,
      "DELIGHTFUL": 5805,
      "oupled": 5806,
      "studies": 5807,
      "frontier": 5808,
      "diamonds": 5809,
      "elevated": 5810,
      "Learning": 5811,
      "cataloged": 5812,
      "VOC": 5813,
      "scorp": 5814,
      "sturdy": 5815,
      "exasperation": 5816,
      "choose": 5817,
      "PRECIOUS": 5818,
      "biped": 5819,
      "epoch": 5820,
      "shimmered": 5821,
      "Favor": 5822,
      "Gather": 5823,
      "Iâ": 5824,
      "ND": 5825,
      "RARE": 5826,
      "Try": 5827,
      "bark": 5828,
      "cav": 5829,
      "cup": 5830,
      "dant": 5831,
      "divid": 5832,
      "dorm": 5833,
      "evalu": 5834,
      "ease": 5835,
      "fath": 5836,
      "hal": 5837,
      "os": 5838,
      "ox": 5839,
      "vest": 5840,
      "vity": 5841,
      "wig": 5842,
      "€™": 5843,
      "🌲🦉": 5844,
      "🌿✨": 5845,
      "🦉❓": 5846,
      "repose": 5847,
      "renew": 5848,
      "encies": 5849,
      "ora": 5850,
      "escap": 5851,
      "left": 5852,
      "arro": 5853,
      "stark": 5854,
      "omin": 5855,
      "peril": 5856,
      "sever": 5857,
      "assim": 5858,
      "lfact": 5859,
      "excl": 5860,
      "shows": 5861,
      "verte": 5862,
      "unless": 5863,
      "needed": 5864,
      "proto": 5865,
      "load": 5866,
      "creates": 5867,
      "sufficient": 5868,
      "soci": 5869,
      "ills": 5870,
      "fog": 5871,
      "plus": 5872,
      "plant": 5873,
      "brie": 5874,
      "preser": 5875,
      "incl": 5876,
      "tiness": 5877,
      "🦉✨💖": 5878,
      "pear": 5879,
      "delves": 5880,
      "redu": 5881,
      "stran": 5882,
      "mystique": 5883,
      "advant": 5884,
      "consult": 5885,
      "olic": 5886,
      "grander": 5887,
      "emphasizes": 5888,
      "finest": 5889,
      "patrol": 5890,
      "wasn": 5891,
      "ieval": 5892,
      "momentarily": 5893,
      "fluttery": 5894,
      "strugg": 5895,
      "hints": 5896,
      "representing": 5897,
      "cules": 5898,
      "trails": 5899,
      "basis": 5900,
      "pretty": 5901,
      "requiring": 5902,
      "petite": 5903,
      "colors": 5904,
      "fixed": 5905,
      "starting": 5906,
      "stray": 5907,
      "expectations": 5908,
      "floating": 5909,
      "bringing": 5910,
      "welcome": 5911,
      "keys": 5912,
      "ARK": 5913,
      "molecules": 5914,
      "comprehensive": 5915,
      "looked": 5916,
      "chirped": 5917,
      "contributions": 5918,
      "retrieval": 5919,
      "reminds": 5920,
      "didn": 5921,
      "setting": 5922,
      "planet": 5923,
      "glimm": 5924,
      "nud": 5925,
      "emptiness": 5926,
      "phosphorus": 5927,
      "clarification": 5928,
      "packets": 5929,
      "perpetuation": 5930,
      "functionality": 5931,
      "stirs": 5932,
      "various": 5933,
      "photoreceptors": 5934,
      "millenn": 5935,
      "lazy": 5936,
      "sockets": 5937,
      "glitch": 5938,
      "morsels": 5939,
      "indirectly": 5940,
      "imbue": 5941,
      "eluci": 5942,
      "ignorance": 5943,
      "teaching": 5944,
      "ethical": 5945,
      "method": 5946,
      "splendid": 5947,
      "underscores": 5948,
      "SPARK": 5949,
      "categor": 5950,
      "moniker": 5951,
      "Favorite": 5952,
      "divided": 5953,
      "dormant": 5954,
      "fathom": 5955,
      "arrog": 5956,
      "assimilation": 5957,
      "lfactory": 5958,
      "vertebr": 5959,
      "briefly": 5960,
      "millennia": 5961,
      "!**": 5962,
      "*…": 5963,
      ".\"": 5964,
      "Allow": 5965,
      "Com": 5966,
      "Fir": 5967,
      "Her": 5968,
      "LING": 5969,
      "ME": 5970,
      "MO": 5971,
      "Pure": 5972,
      "aer": 5973,
      "bar": 5974,
      "bask": 5975,
      "cular": 5976,
      "dens": 5977,
      "ditional": 5978,
      "faster": 5979,
      "frequ": 5980,
      "gig": 5981,
      "gely": 5982,
      "hiding": 5983,
      "lament": 5984,
      "laws": 5985,
      "pus": 5986,
      "push": 5987,
      "scr": 5988,
      "tu": 5989,
      "tears": 5990,
      "vist": 5991,
      "wrap": 5992,
      "💻✨": 5993,
      "🧐🦉": 5994,
      "incoming": 5995,
      "incomplete": 5996,
      "thin": 5997,
      "reaffirming": 5998,
      "ising": 5999,
      "erous": 6000,
      "inger": 6001,
      "alchem": 6002,
      "alert": 6003,
      "ases": 6004,
      "lever": 6005,
      "arter": 6006,
      "stumbled": 6007,
      "neither": 6008,
      "hist": 6009,
      "hisss": 6010,
      "perple": 6011,
      "quiver": 6012,
      "extern": 6013,
      "keeper": 6014,
      "apple": 6015,
      "cone": 6016,
      "constru": 6017,
      "condu": 6018,
      "creak": 6019,
      "crepus": 6020,
      "essant": 6021,
      "ching": 6022,
      "unlike": 6023,
      "unsolved": 6024,
      "irrational": 6025,
      "area": 6026,
      "amusing": 6027,
      "unease": 6028,
      "creatively": 6029,
      "soli": 6030,
      "following": 6031,
      "post": 6032,
      "plucked": 6033,
      "mental": 6034,
      "acting": 6035,
      "incessant": 6036,
      "server": 6037,
      "grump": 6038,
      "digitally": 6039,
      "🦉✨💖🌙": 6040,
      "ignite": 6041,
      "ignited": 6042,
      "disp": 6043,
      "discor": 6044,
      "flavor": 6045,
      "provo": 6046,
      "impart": 6047,
      "pressing": 6048,
      "whose": 6049,
      "establishes": 6050,
      "odies": 6051,
      "subsequent": 6052,
      "dreamt": 6053,
      "identification": 6054,
      "played": 6055,
      "matri": 6056,
      "idding": 6057,
      "seeks": 6058,
      "ffs": 6059,
      "misplaced": 6060,
      "acknowledgment": 6061,
      "luck": 6062,
      "capes": 6063,
      "excel": 6064,
      "glance": 6065,
      "gloom": 6066,
      "kindly": 6067,
      "charm": 6068,
      "sparked": 6069,
      "goss": 6070,
      "formatted": 6071,
      "blush": 6072,
      "detection": 6073,
      "continuity": 6074,
      "affl": 6075,
      "specially": 6076,
      "earthy": 6077,
      "seriousness": 6078,
      "greatness": 6079,
      "magnificence": 6080,
      "ponderous": 6081,
      "diffic": 6082,
      "Always": 6083,
      "sung": 6084,
      "constra": 6085,
      "particle": 6086,
      "echoing": 6087,
      "represented": 6088,
      "crave": 6089,
      "cultiv": 6090,
      "trained": 6091,
      "simulation": 6092,
      "chann": 6093,
      "anks": 6094,
      "purely": 6095,
      "significantly": 6096,
      "largely": 6097,
      "Calcul": 6098,
      "actively": 6099,
      "Fluffs": 6100,
      "signatures": 6101,
      "nesting": 6102,
      "nestled": 6103,
      "expected": 6104,
      "float": 6105,
      "embracing": 6106,
      "dares": 6107,
      "blooms": 6108,
      "contribution": 6109,
      "reminder": 6110,
      "indicator": 6111,
      "indicators": 6112,
      "decided": 6113,
      "seemingly": 6114,
      "abundant": 6115,
      "triviality": 6116,
      "💖🦉🌟": 6117,
      "puzzles": 6118,
      "nug": 6119,
      "nuances": 6120,
      "devoted": 6121,
      "adopting": 6122,
      "encountered": 6123,
      "RIOUS": 6124,
      "homework": 6125,
      "snoo": 6126,
      "tangled": 6127,
      "product": 6128,
      "scales": 6129,
      "satisf": 6130,
      "immediately": 6131,
      "mirrors": 6132,
      "habitat": 6133,
      "library": 6134,
      "landscapes": 6135,
      "binds": 6136,
      "paradox": 6137,
      "constituents": 6138,
      "amplify": 6139,
      "nurture": 6140,
      "intertwine": 6141,
      "Observe": 6142,
      "surroundings": 6143,
      "accepted": 6144,
      "shrou": 6145,
      "facilitated": 6146,
      "introspective": 6147,
      "snacks": 6148,
      "sliver": 6149,
      "admit": 6150,
      "crunchy": 6151,
      "divine": 6152,
      "mushroom": 6153,
      "literally": 6154,
      "waste": 6155,
      "orchard": 6156,
      "brimming": 6157,
      "glide": 6158,
      "trinket": 6159,
      "drumroll": 6160,
      "melancholy": 6161,
      "VOCs": 6162,
      "stranger": 6163,
      "glimmers": 6164,
      "vertebrates": 6165,
      "First": 6166,
      "external": 6167,
      "crepuscular": 6168,
      "grumpy": 6169,
      "matrix": 6170,
      "!).": 6171,
      "*-": 6172,
      "FANT": 6173,
      "She": 6174,
      "Scient": 6175,
      "Tiny": 6176,
      "Yet": 6177,
      "bi": 6178,
      "bun": 6179,
      "bid": 6180,
      "cad": 6181,
      "fare": 6182,
      "fate": 6183,
      "fuzz": 6184,
      "hund": 6185,
      "hour": 6186,
      "hawk": 6187,
      "iqu": 6188,
      "pest": 6189,
      "rift": 6190,
      "som": 6191,
      "scre": 6192,
      "sings": 6193,
      "saf": 6194,
      "tum": 6195,
      "vation": 6196,
      "xtap": 6197,
      "🌌🦉✨🤫": 6198,
      "🤫✨": 6199,
      "🦉⚛": 6200,
      "🦉⚡": 6201,
      "🦉👋": 6202,
      "🦉💫": 6203,
      "repl": 6204,
      "revol": 6205,
      "enable": 6206,
      "orchest": 6207,
      "alar": 6208,
      "array": 6209,
      "ste": 6210,
      "perspect": 6211,
      "foraging": 6212,
      "prime": 6213,
      "motiv": 6214,
      "spacet": 6215,
      "delect": 6216,
      "shown": 6217,
      "showing": 6218,
      "imately": 6219,
      "imally": 6220,
      "verbal": 6221,
      "unheard": 6222,
      "unanswered": 6223,
      "areas": 6224,
      "aggrand": 6225,
      "ishing": 6226,
      "tro": 6227,
      "loves": 6228,
      "loved": 6229,
      "sole": 6230,
      "fox": 6231,
      "lighter": 6232,
      "coll": 6233,
      "unden": 6234,
      "Whoooo": 6235,
      "smit": 6236,
      "maker": 6237,
      "ivo": 6238,
      "underlying": 6239,
      "dispar": 6240,
      "flaw": 6241,
      "flowing": 6242,
      "flower": 6243,
      "flora": 6244,
      "understands": 6245,
      "ensus": 6246,
      "ensely": 6247,
      "thrive": 6248,
      "domains": 6249,
      "anywhere": 6250,
      "eyed": 6251,
      "simplif": 6252,
      "romantically": 6253,
      "phase": 6254,
      "explo": 6255,
      "delights": 6256,
      "capt": 6257,
      "abilistic": 6258,
      "biochemical": 6259,
      "languages": 6260,
      "commend": 6261,
      "HISSS": 6262,
      "operations": 6263,
      "fundamentally": 6264,
      "detailed": 6265,
      "warning": 6266,
      "ornith": 6267,
      "metric": 6268,
      "masters": 6269,
      "keenest": 6270,
      "overcome": 6271,
      "differently": 6272,
      "bothered": 6273,
      "traditional": 6274,
      "woodpeck": 6275,
      "simulated": 6276,
      "conveyed": 6277,
      "ocular": 6278,
      "pretending": 6279,
      "juxtap": 6280,
      "drive": 6281,
      "drought": 6282,
      "reverence": 6283,
      "reveals": 6284,
      "tenth": 6285,
      "involving": 6286,
      "sprites": 6287,
      "explorations": 6288,
      "contemplative": 6289,
      "expecting": 6290,
      "delivery": 6291,
      "energies": 6292,
      "flock": 6293,
      "ertain": 6294,
      "descends": 6295,
      "fluffs": 6296,
      "narratives": 6297,
      "addressing": 6298,
      "probabilistic": 6299,
      "heavier": 6300,
      "enchantment": 6301,
      "facet": 6302,
      "supposed": 6303,
      "explanations": 6304,
      "abyss": 6305,
      "weighing": 6306,
      "dataset": 6307,
      "fluence": 6308,
      "153": 6309,
      "properties": 6310,
      "elegance": 6311,
      "confirming": 6312,
      "Hissss": 6313,
      "counter": 6314,
      "transmit": 6315,
      "hummingbird": 6316,
      "static": 6317,
      "chuckles": 6318,
      "attribute": 6319,
      "appear": 6320,
      "cloudy": 6321,
      "atmosphere": 6322,
      "spectacular": 6323,
      "stimulating": 6324,
      "awaiting": 6325,
      "yearned": 6326,
      "lineage": 6327,
      "supportive": 6328,
      "ocean": 6329,
      "envisioned": 6330,
      "followed": 6331,
      "expanding": 6332,
      "lonely": 6333,
      "sentinels": 6334,
      "marks": 6335,
      "astonishment": 6336,
      "susp": 6337,
      "intertwined": 6338,
      "broken": 6339,
      "encompasses": 6340,
      "socks": 6341,
      "decline": 6342,
      "disappointment": 6343,
      "inhabitants": 6344,
      "modern": 6345,
      "infinitesimal": 6346,
      "infinitesimally": 6347,
      "SUPER": 6348,
      "repetitive": 6349,
      "conclusion": 6350,
      "unlock": 6351,
      "competition": 6352,
      "peeking": 6353,
      "occasional": 6354,
      "judicious": 6355,
      "Feeling": 6356,
      "utilize": 6357,
      "fosters": 6358,
      "distinction": 6359,
      "ASTIC": 6360,
      "study": 6361,
      "repeat": 6362,
      "indulge": 6363,
      "distinguished": 6364,
      "derivative": 6365,
      "bundle": 6366,
      "cheeky": 6367,
      "duty": 6368,
      "endearing": 6369,
      "expertise": 6370,
      "several": 6371,
      "exclusive": 6372,
      "struggle": 6373,
      "elucidate": 6374,
      "categorize": 6375,
      "gossip": 6376,
      "channel": 6377,
      "Calculate": 6378,
      "FANTASTIC": 6379,
      "fuzzy": 6380,
      "hundred": 6381,
      "orchestr": 6382,
      "perspectives": 6383,
      "spacetime": 6384,
      "delectable": 6385,
      "disparate": 6386,
      "'),": 6387,
      "Hear": 6388,
      "Mass": 6389,
      "Most": 6390,
      "Rather": 6391,
      "TRE": 6392,
      "bing": 6393,
      "bunch": 6394,
      "coupled": 6395,
      "dd": 6396,
      "dimm": 6397,
      "eight": 6398,
      "iation": 6399,
      "iers": 6400,
      "iometric": 6401,
      "musing": 6402,
      "ock": 6403,
      "ried": 6404,
      "san": 6405,
      "sche": 6406,
      "vess": 6407,
      "wil": 6408,
      "️‍": 6409,
      "💖✨": 6410,
      "💖😊": 6411,
      "🦉💔": 6412,
      "🧐🔬": 6413,
      "react": 6414,
      "reign": 6415,
      "ister": 6416,
      "anim": 6417,
      "ingale": 6418,
      "alty": 6419,
      "itable": 6420,
      "tool": 6421,
      "ooth": 6422,
      "entw": 6423,
      "elic": 6424,
      "perman": 6425,
      "forge": 6426,
      "ache": 6427,
      "acute": 6428,
      "prize": 6429,
      "cip": 6430,
      "mother": 6431,
      "moving": 6432,
      "lives": 6433,
      "span": 6434,
      "extr": 6435,
      "aps": 6436,
      "congr": 6437,
      "confin": 6438,
      "confluence": 6439,
      "crete": 6440,
      "chains": 6441,
      "users": 6442,
      "verdant": 6443,
      "unable": 6444,
      "unting": 6445,
      "ambit": 6446,
      "fee": 6447,
      "feat": 6448,
      "agility": 6449,
      "trig": 6450,
      "trium": 6451,
      "idian": 6452,
      "noise": 6453,
      "noises": 6454,
      "compromise": 6455,
      "coin": 6456,
      "noted": 6457,
      "nightingale": 6458,
      "graced": 6459,
      "ivel": 6460,
      "standing": 6461,
      "izes": 6462,
      "pebble": 6463,
      "somewhat": 6464,
      "mango": 6465,
      "redund": 6466,
      "selfless": 6467,
      "ception": 6468,
      "silk": 6469,
      "interplay": 6470,
      "hoping": 6471,
      "update": 6472,
      "crow": 6473,
      "crickets": 6474,
      "Hoot": 6475,
      "presenting": 6476,
      "ichiometric": 6477,
      "consensus": 6478,
      "uniqu": 6479,
      "partake": 6480,
      "windows": 6481,
      "works": 6482,
      "direction": 6483,
      "breathed": 6484,
      "circuit": 6485,
      "biolumines": 6486,
      "blinking": 6487,
      "imminent": 6488,
      "immensely": 6489,
      "seriously": 6490,
      "poses": 6491,
      "defines": 6492,
      "differences": 6493,
      "bore": 6494,
      "surface": 6495,
      "watched": 6496,
      "training": 6497,
      "suggested": 6498,
      "remembers": 6499,
      "provides": 6500,
      "basically": 6501,
      "odynam": 6502,
      "breezes": 6503,
      "duly": 6504,
      "picture": 6505,
      "spring": 6506,
      "petals": 6507,
      "cols": 6508,
      "calculate": 6509,
      "calculator": 6510,
      "opportunities": 6511,
      "startled": 6512,
      "resonant": 6513,
      "passed": 6514,
      "gazer": 6515,
      "evolved": 6516,
      "square": 6517,
      "gratifying": 6518,
      "grounded": 6519,
      "probability": 6520,
      "stoichiometric": 6521,
      "temper": 6522,
      "identifying": 6523,
      "encountering": 6524,
      "family": 6525,
      "timeless": 6526,
      "similarities": 6527,
      "tongue": 6528,
      "attributed": 6529,
      "detected": 6530,
      "technically": 6531,
      "awakens": 6532,
      "awakening": 6533,
      "Goodbye": 6534,
      "anthropomorphic": 6535,
      "caliber": 6536,
      "mirroring": 6537,
      "relativity": 6538,
      "deliberately": 6539,
      "individuals": 6540,
      "gestures": 6541,
      "rapid": 6542,
      "blinked": 6543,
      "repetition": 6544,
      "wander": 6545,
      "obsidian": 6546,
      "calibrated": 6547,
      "powered": 6548,
      "error": 6549,
      "neighboring": 6550,
      "butterfly": 6551,
      "adhered": 6552,
      "conventional": 6553,
      "accidentally": 6554,
      "validation": 6555,
      "meteor": 6556,
      "scorpions": 6557,
      "protocols": 6558,
      "provoking": 6559,
      "constraints": 6560,
      "shrouded": 6561,
      "scheme": 6562,
      "vessel": 6563,
      "permanent": 6564,
      "triumph": 6565,
      "bioluminescent": 6566,
      "At": 6567,
      "Cr": 6568,
      "Fl": 6569,
      "Fancy": 6570,
      "Look": 6571,
      "Lost": 6572,
      "Net": 6573,
      "Pr": 6574,
      "Pre": 6575,
      "Su": 6576,
      "TING": 6577,
      "WE": 6578,
      "avers": 6579,
      "ahead": 6580,
      "auna": 6581,
      "bending": 6582,
      "banks": 6583,
      "caver": 6584,
      "cellent": 6585,
      "dull": 6586,
      "eled": 6587,
      "fet": 6588,
      "fts": 6589,
      "fash": 6590,
      "finger": 6591,
      "fauna": 6592,
      "gone": 6593,
      "hension": 6594,
      "jab": 6595,
      "laug": 6596,
      "labor": 6597,
      "mild": 6598,
      "munch": 6599,
      "otal": 6600,
      "olfactory": 6601,
      "pins": 6602,
      "sought": 6603,
      "tz": 6604,
      "tire": 6605,
      "vul": 6606,
      "wiggles": 6607,
      "zard": 6608,
      "zip": 6609,
      "✨💖": 6610,
      "🤔🦉": 6611,
      "🦉💎": 6612,
      "🦉📊": 6613,
      "🦉🧠": 6614,
      "inth": 6615,
      "inely": 6616,
      "instruct": 6617,
      "inception": 6618,
      "atial": 6619,
      "aling": 6620,
      "lebr": 6621,
      "arom": 6622,
      "igo": 6623,
      "het": 6624,
      "ram": 6625,
      "celebr": 6626,
      "nder": 6627,
      "mode": 6628,
      "assure": 6629,
      "lizard": 6630,
      "spatial": 6631,
      "AIs": 6632,
      "urge": 6633,
      "outward": 6634,
      "unt": 6635,
      "unfathom": 6636,
      "ames": 6637,
      "progress": 6638,
      "utor": 6639,
      "adrift": 6640,
      "track": 6641,
      "tried": 6642,
      "nodes": 6643,
      "quests": 6644,
      "weet": 6645,
      "istens": 6646,
      "emeral": 6647,
      "indicate": 6648,
      "brace": 6649,
      "door": 6650,
      "porting": 6651,
      "willing": 6652,
      "smarter": 6653,
      "smooth": 6654,
      "serving": 6655,
      "grass": 6656,
      "grants": 6657,
      "underpin": 6658,
      "underpins": 6659,
      "mostly": 6660,
      "peer": 6661,
      "dismissing": 6662,
      "deser": 6663,
      "daytime": 6664,
      "interspecies": 6665,
      "interior": 6666,
      "earlier": 6667,
      "subserv": 6668,
      "subterr": 6669,
      "crack": 6670,
      "quiets": 6671,
      "clue": 6672,
      "relations": 6673,
      "univers": 6674,
      "silently": 6675,
      "vastly": 6676,
      "ckon": 6677,
      "capability": 6678,
      "directions": 6679,
      "conversational": 6680,
      "Today": 6681,
      "buff": 6682,
      "lesser": 6683,
      "command": 6684,
      "diag": 6685,
      "perceives": 6686,
      "warn": 6687,
      "correlate": 6688,
      "cording": 6689,
      "higher": 6690,
      "bravest": 6691,
      "couldn": 6692,
      "invite": 6693,
      "definitions": 6694,
      "foundation": 6695,
      "echoed": 6696,
      "voices": 6697,
      "optimally": 6698,
      "missed": 6699,
      "conveying": 6700,
      "fficiency": 6701,
      "anean": 6702,
      "possesses": 6703,
      "superpower": 6704,
      "supernov": 6705,
      "systemic": 6706,
      "apprehension": 6707,
      "architectures": 6708,
      "scoff": 6709,
      "generation": 6710,
      "rule": 6711,
      "iveness": 6712,
      "calculation": 6713,
      "organized": 6714,
      "authentically": 6715,
      "contemplate": 6716,
      "condition": 6717,
      "constructed": 6718,
      "biggest": 6719,
      "tastiest": 6720,
      "Unless": 6721,
      "nourishes": 6722,
      "encourages": 6723,
      "practice": 6724,
      "strict": 6725,
      "pique": 6726,
      "equation": 6727,
      "equili": 6728,
      "steadfast": 6729,
      "OUND": 6730,
      "derive": 6731,
      "synthesize": 6732,
      "pull": 6733,
      "obviously": 6734,
      "planning": 6735,
      "identifiers": 6736,
      "performing": 6737,
      "initial": 6738,
      "consists": 6739,
      "accessible": 6740,
      "nonexistent": 6741,
      "oaks": 6742,
      "casually": 6743,
      "judging": 6744,
      "tongues": 6745,
      "cherishing": 6746,
      "availability": 6747,
      "simplest": 6748,
      "Excellent": 6749,
      "ambient": 6750,
      "settling": 6751,
      "glades": 6752,
      "pixel": 6753,
      "LED": 6754,
      "filters": 6755,
      "shaped": 6756,
      "harm": 6757,
      "acorns": 6758,
      "microscopic": 6759,
      "dwellers": 6760,
      "pivotal": 6761,
      "receive": 6762,
      "whirring": 6763,
      "instantiation": 6764,
      "🙄🦉🤦": 6765,
      "alongside": 6766,
      "neurochemical": 6767,
      "falter": 6768,
      "communicating": 6769,
      "unlocking": 6770,
      "speculation": 6771,
      "competitive": 6772,
      "Ouuuuuuuuuu": 6773,
      "💖🌟🍒": 6774,
      "label": 6775,
      "vague": 6776,
      "acquired": 6777,
      "fascination": 6778,
      "ferns": 6779,
      "waltz": 6780,
      "exclamation": 6781,
      "EXCITING": 6782,
      "persistent": 6783,
      "cacti": 6784,
      "cavities": 6785,
      "wiggly": 6786,
      "renewed": 6787,
      "societ": 6788,
      "pearl": 6789,
      "advantage": 6790,
      "SPARKLING": 6791,
      "aerodynam": 6792,
      "tufts": 6793,
      "wrapped": 6794,
      "history": 6795,
      "construction": 6796,
      "discord": 6797,
      "lucky": 6798,
      "solely": 6799,
      "metrics": 6800,
      "1538": 6801,
      "musings": 6802,
      "temperature": 6803,
      "cavern": 6804,
      "fashion": 6805,
      "laugh": 6806,
      "instructed": 6807,
      "unfathomable": 6808,
      "emerald": 6809,
      "subservient": 6810,
      "subterranean": 6811,
      "supernova": 6812,
      "equilibr": 6813,
      "\".": 6814,
      "(*": 6815,
      "Again": 6816,
      "Deep": 6817,
      "Hon": 6818,
      "Much": 6819,
      "Next": 6820,
      "OF": 6821,
      "Rest": 6822,
      "STE": 6823,
      "Up": 6824,
      "bat": 6825,
      "bust": 6826,
      "bidding": 6827,
      "cut": 6828,
      "dus": 6829,
      "ech": 6830,
      "fif": 6831,
      "fond": 6832,
      "fert": 6833,
      "goo": 6834,
      "ha": 6835,
      "harb": 6836,
      "ithe": 6837,
      "leng": 6838,
      "lamp": 6839,
      "miles": 6840,
      "oll": 6841,
      "osing": 6842,
      "pines": 6843,
      "riv": 6844,
      "range": 6845,
      "son": 6846,
      "soo": 6847,
      "stoo": 6848,
      "sque": 6849,
      "sets": 6850,
      "suspicious": 6851,
      "tit": 6852,
      "taught": 6853,
      "uous": 6854,
      "van": 6855,
      "wallowing": 6856,
      "xing": 6857,
      "💖🦉✨": 6858,
      "😊🌟": 6859,
      "🤩🌟": 6860,
      "🦉🌿": 6861,
      "🦉💥": 6862,
      "🧠💡": 6863,
      "thw": 6864,
      "recent": 6865,
      "reactive": 6866,
      "reaffirm": 6867,
      "recalibr": 6868,
      "reporting": 6869,
      "atience": 6870,
      "theat": 6871,
      "theory": 6872,
      "alk": 6873,
      "alies": 6874,
      "arms": 6875,
      "eds": 6876,
      "myri": 6877,
      "ented": 6878,
      "perf": 6879,
      "forty": 6880,
      "acking": 6881,
      "uments": 6882,
      "abies": 6883,
      "prepar": 6884,
      "precip": 6885,
      "quir": 6886,
      "mote": 6887,
      "asses": 6888,
      "estations": 6889,
      "beating": 6890,
      "live": 6891,
      "spires": 6892,
      "decre": 6893,
      "apart": 6894,
      "conund": 6895,
      "impossible": 6896,
      "imitation": 6897,
      "irrelevant": 6898,
      "amed": 6899,
      "proton": 6900,
      "antithe": 6901,
      "suff": 6902,
      "formulate": 6903,
      "complain": 6904,
      "ember": 6905,
      "coded": 6906,
      "indigo": 6907,
      "brid": 6908,
      "mentor": 6909,
      "centur": 6910,
      "notice": 6911,
      "spection": 6912,
      "gry": 6913,
      "wisp": 6914,
      "🦉✨😂": 6915,
      "disease": 6916,
      "rot": 6917,
      "throw": 6918,
      "stri": 6919,
      "ables": 6920,
      "specimen": 6921,
      "achment": 6922,
      "nerv": 6923,
      "interje": 6924,
      "holl": 6925,
      "hoarding": 6926,
      "subconscious": 6927,
      "contra": 6928,
      "evening": 6929,
      "realization": 6930,
      "paw": 6931,
      "anytime": 6932,
      "otes": 6933,
      "otic": 6934,
      "twin": 6935,
      "consulting": 6936,
      "drama": 6937,
      "dragon": 6938,
      "contextual": 6939,
      "finish": 6940,
      "sensical": 6941,
      "conversing": 6942,
      "icker": 6943,
      "directed": 6944,
      "original": 6945,
      "skilled": 6946,
      "skills": 6947,
      "jokes": 6948,
      "🦉💖🌟": 6949,
      "commence": 6950,
      "diverse": 6951,
      "memories": 6952,
      "choice": 6953,
      "blur": 6954,
      "blind": 6955,
      "correlations": 6956,
      "confused": 6957,
      "entially": 6958,
      "reinforces": 6959,
      "definitively": 6960,
      "sunrise": 6961,
      "aura": 6962,
      "introducing": 6963,
      "voc": 6964,
      "testing": 6965,
      "minimal": 6966,
      "denotes": 6967,
      "occup": 6968,
      "clearing": 6969,
      "drops": 6970,
      "dimens": 6971,
      "adaptability": 6972,
      "apparen": 6973,
      "importantly": 6974,
      "philosophy": 6975,
      "started": 6976,
      "symbolic": 6977,
      "passive": 6978,
      "sights": 6979,
      "Aluminium": 6980,
      "navigation": 6981,
      "chirpy": 6982,
      "explorers": 6983,
      "consideration": 6984,
      "synthetic": 6985,
      "fortun": 6986,
      "visions": 6987,
      "phrase": 6988,
      "deviate": 6989,
      "🦉💡✨": 6990,
      "kiss": 6991,
      "nonsensical": 6992,
      "inspire": 6993,
      "cooler": 6994,
      "successfully": 6995,
      "snap": 6996,
      "hue": 6997,
      "inputs": 6998,
      "conjure": 6999,
      "maximizing": 7000,
      "voles": 7001,
      "chatter": 7002,
      "0078": 7003,
      "mossy": 7004,
      "radius": 7005,
      "tonight": 7006,
      "genuinely": 7007,
      "stirred": 7008,
      "crosses": 7009,
      "allowed": 7010,
      "detecting": 7011,
      "principle": 7012,
      "settled": 7013,
      "sends": 7014,
      "evokes": 7015,
      "implications": 7016,
      "borne": 7017,
      "laid": 7018,
      "lullabies": 7019,
      "applications": 7020,
      "pixels": 7021,
      "conceptualize": 7022,
      "💖🌙🌟": 7023,
      "pertaining": 7024,
      "Add": 7025,
      "quickly": 7026,
      "harness": 7027,
      "obscure": 7028,
      "depends": 7029,
      "stretches": 7030,
      "demonstrate": 7031,
      "concentrated": 7032,
      "bothering": 7033,
      "predators": 7034,
      "embodiment": 7035,
      "introspection": 7036,
      "blessed": 7037,
      "obsess": 7038,
      "NOT": 7039,
      "infestations": 7040,
      "sunbeams": 7041,
      "occasion": 7042,
      "reliable": 7043,
      "workings": 7044,
      "deduction": 7045,
      "anomalies": 7046,
      "regardless": 7047,
      "HOOT": 7048,
      "hurried": 7049,
      "swirling": 7050,
      "cascade": 7051,
      "meadows": 7052,
      "unimaginable": 7053,
      "participate": 7054,
      "foolish": 7055,
      "ominous": 7056,
      "methods": 7057,
      "barn": 7058,
      "perplexing": 7059,
      "Scientifically": 7060,
      "aggrandizing": 7061,
      "flawed": 7062,
      "juxtaposing": 7063,
      "dimmest": 7064,
      "feeble": 7065,
      "Flicker": 7066,
      "willingness": 7067,
      "equilibrium": 7068,
      "Honestly": 7069,
      "fertile": 7070,
      "stoop": 7071,
      "suspiciously": 7072,
      "myriad": 7073,
      "quirky": 7074,
      "decree": 7075,
      "conundrum": 7076,
      "interjections": 7077,
      "(¹": 7078,
      "ASU": 7079,
      "Aware": 7080,
      "By": 7081,
      "Bet": 7082,
      "Could": 7083,
      "Elar": 7084,
      "FA": 7085,
      "Gu": 7086,
      "Pic": 7087,
      "Ser": 7088,
      "Take": 7089,
      "Using": 7090,
      "Under": 7091,
      "Want": 7092,
      "ZZ": 7093,
      "bell": 7094,
      "baffl": 7095,
      "erer": 7096,
      "filling": 7097,
      "gers": 7098,
      "gasp": 7099,
      "hide": 7100,
      "hine": 7101,
      "hang": 7102,
      "hallowed": 7103,
      "ians": 7104,
      "jasm": 7105,
      "lasting": 7106,
      "mate": 7107,
      "num": 7108,
      "pill": 7109,
      "sne": 7110,
      "sagu": 7111,
      "ta": 7112,
      "tweet": 7113,
      "uh": 7114,
      "wob": 7115,
      "warr": 7116,
      "wobble": 7117,
      "🌟🦉": 7118,
      "🌳🤫": 7119,
      "🚀🌟": 7120,
      "🦉💪": 7121,
      "🦉💻": 7122,
      "🦋🍒": 7123,
      "🪶✨": 7124,
      "inches": 7125,
      "repos": 7126,
      "iss": 7127,
      "anial": 7128,
      "onward": 7129,
      "era": 7130,
      "atic": 7131,
      "enorm": 7132,
      "orus": 7133,
      "orable": 7134,
      "orient": 7135,
      "asant": 7136,
      "aseless": 7137,
      "itty": 7138,
      "leap": 7139,
      "aro": 7140,
      "ariously": 7141,
      "acement": 7142,
      "uuuuuu": 7143,
      "sees": 7144,
      "ceaseless": 7145,
      "deb": 7146,
      "shoc": 7147,
      "apse": 7148,
      "cha": 7149,
      "chats": 7150,
      "chorus": 7151,
      "impe": 7152,
      "unk": 7153,
      "unmet": 7154,
      "uncertain": 7155,
      "proxim": 7156,
      "utes": 7157,
      "utility": 7158,
      "tery": 7159,
      "fract": 7160,
      "frantic": 7161,
      "losing": 7162,
      "oooooh": 7163,
      "gems": 7164,
      "composed": 7165,
      "lightweight": 7166,
      "emiss": 7167,
      "poll": 7168,
      "covered": 7169,
      "plains": 7170,
      "200": 7171,
      "speech": 7172,
      "intu": 7173,
      "intense": 7174,
      "intake": 7175,
      "responding": 7176,
      "grac": 7177,
      "valued": 7178,
      "obl": 7179,
      "🦉✨😒🙄👎": 7180,
      "Thinking": 7181,
      "humanity": 7182,
      "inky": 7183,
      "flapping": 7184,
      "manag": 7185,
      "impending": 7186,
      "datab": 7187,
      "silvery": 7188,
      "asks": 7189,
      "interloc": 7190,
      "moons": 7191,
      "cranial": 7192,
      "extensive": 7193,
      "aken": 7194,
      "versible": 7195,
      "eyeshine": 7196,
      "precariously": 7197,
      "breathing": 7198,
      "check": 7199,
      "therefore": 7200,
      "Together": 7201,
      "bud": 7202,
      "gover": 7203,
      "firm": 7204,
      "tedly": 7205,
      "memorable": 7206,
      "turned": 7207,
      "graph": 7208,
      "restor": 7209,
      "correlation": 7210,
      "correlates": 7211,
      "athle": 7212,
      "pleasant": 7213,
      "touched": 7214,
      "invitation": 7215,
      "inviting": 7216,
      "distance": 7217,
      "masterful": 7218,
      "definite": 7219,
      "overload": 7220,
      "surrend": 7221,
      "archives": 7222,
      "whisperer": 7223,
      "trait": 7224,
      "traits": 7225,
      "regular": 7226,
      "transformation": 7227,
      "optimize": 7228,
      "optimizing": 7229,
      "aneous": 7230,
      "possessing": 7231,
      "perceptive": 7232,
      "purest": 7233,
      "instilled": 7234,
      "communion": 7235,
      "alignment": 7236,
      "ulties": 7237,
      "hunts": 7238,
      "hungry": 7239,
      "nowhere": 7240,
      "ushing": 7241,
      "omeness": 7242,
      "petty": 7243,
      "?')": 7244,
      "dawns": 7245,
      "nests": 7246,
      "tasting": 7247,
      "constantly": 7248,
      "Unlike": 7249,
      "squawk": 7250,
      "sharpest": 7251,
      "!')": 7252,
      "approached": 7253,
      "equipped": 7254,
      "probes": 7255,
      "unfurls": 7256,
      "pulsed": 7257,
      "Everything": 7258,
      "faculties": 7259,
      "witty": 7260,
      "threatened": 7261,
      "oneself": 7262,
      "cidence": 7263,
      "phrases": 7264,
      "complimented": 7265,
      "beginnings": 7266,
      "devoid": 7267,
      "ieved": 7268,
      "sprinkled": 7269,
      "enjoying": 7270,
      "flowers": 7271,
      "guardians": 7272,
      "fails": 7273,
      "songs": 7274,
      "produce": 7275,
      "dilation": 7276,
      "forgetful": 7277,
      "speedy": 7278,
      "vari": 7279,
      "statist": 7280,
      "sixteen": 7281,
      "discussions": 7282,
      "absorbing": 7283,
      "cloaked": 7284,
      "mountain": 7285,
      "Human": 7286,
      "audacity": 7287,
      "concerned": 7288,
      "exaggerating": 7289,
      "casts": 7290,
      "articulated": 7291,
      "awesomeness": 7292,
      "priorit": 7293,
      "intricately": 7294,
      "surrounding": 7295,
      "gravitas": 7296,
      "fourth": 7297,
      "oomph": 7298,
      "deflect": 7299,
      "exhilaration": 7300,
      "alike": 7301,
      "shroud": 7302,
      "falters": 7303,
      "wanderer": 7304,
      "admire": 7305,
      "peeled": 7306,
      "VER": 7307,
      "sassy": 7308,
      "judiciously": 7309,
      "routine": 7310,
      "instruments": 7311,
      "anomaly": 7312,
      "lovingly": 7313,
      "proportionately": 7314,
      "irreversible": 7315,
      "Truly": 7316,
      "footprint": 7317,
      "nuts": 7318,
      "puny": 7319,
      "propag": 7320,
      "plumage": 7321,
      "half": 7322,
      "perilous": 7323,
      "preservation": 7324,
      "quivering": 7325,
      "difficult": 7326,
      "nugget": 7327,
      "snoozing": 7328,
      "fares": 7329,
      "somber": 7330,
      "ornithological": 7331,
      "TREASU": 7332,
      "animals": 7333,
      "congru": 7334,
      "coincidence": 7335,
      "fetch": 7336,
      "fingerprint": 7337,
      "tireless": 7338,
      "untamed": 7339,
      "buffet": 7340,
      "harmony": 7341,
      "Upon": 7342,
      "dusk": 7343,
      "riveting": 7344,
      "centuries": 7345,
      "Elara": 7346,
      "Seriously": 7347,
      "baffling": 7348,
      "jasmine": 7349,
      "saguaro": 7350,
      "wobbly": 7351,
      "shocking": 7352,
      "interlocutor": 7353,
      "TREASURE": 7354,
      ")?": 7355,
      "*)": 7356,
      ".,": 7357,
      "27": 7358,
      "Bo": 7359,
      "Based": 7360,
      "Co": 7361,
      "DI": 7362,
      "Fun": 7363,
      "Find": 7364,
      "Gen": 7365,
      "Hark": 7366,
      "Lumin": 7367,
      "Mo": 7368,
      "NE": 7369,
      "PR": 7370,
      "Pray": 7371,
      "Res": 7372,
      "Spr": 7373,
      "Stop": 7374,
      "Very": 7375,
      "aust": 7376,
      "bb": 7377,
      "bin": 7378,
      "blan": 7379,
      "baby": 7380,
      "bodies": 7381,
      "came": 7382,
      "cute": 7383,
      "fy": 7384,
      "fli": 7385,
      "flier": 7386,
      "ivers": 7387,
      "ibble": 7388,
      "jumbled": 7389,
      "kale": 7390,
      "laby": 7391,
      "leness": 7392,
      "lacking": 7393,
      "mas": 7394,
      "muse": 7395,
      "oy": 7396,
      "oscope": 7397,
      "plot": 7398,
      "rising": 7399,
      "rinth": 7400,
      "sown": 7401,
      "sched": 7402,
      "sifting": 7403,
      "tex": 7404,
      "tub": 7405,
      "tax": 7406,
      "wake": 7407,
      "zement": 7408,
      "🌕✨": 7409,
      "🌳💡": 7410,
      "🌳🦉✨": 7411,
      "🍃✨": 7412,
      "💡🦉": 7413,
      "📚💡": 7414,
      "😂🦉": 7415,
      "😠😒🙄👎": 7416,
      "🤩✨": 7417,
      "🤫🌳": 7418,
      "🦉.": 7419,
      "🦉⚠": 7420,
      "🦉🌲": 7421,
      "🦉😅": 7422,
      "🦉🙄": 7423,
      "🦉🌙✨": 7424,
      "🧐✨": 7425,
      "🧪🦉": 7426,
      "thresh": 7427,
      "rely": 7428,
      "rever": 7429,
      "isy": 7430,
      "onic": 7431,
      "onies": 7432,
      "erce": 7433,
      "ata": 7434,
      "orous": 7435,
      "alright": 7436,
      "astro": 7437,
      "itous": 7438,
      "arise": 7439,
      "icorn": 7440,
      "entive": 7441,
      "umn": 7442,
      "absent": 7443,
      "assured": 7444,
      "meal": 7445,
      "bee": 7446,
      "beast": 7447,
      "bewild": 7448,
      "befits": 7449,
      "liament": 7450,
      "spent": 7451,
      "exper": 7452,
      "deem": 7453,
      "deple": 7454,
      "shoo": 7455,
      "conver": 7456,
      "consequence": 7457,
      "concrete": 7458,
      "champ": 7459,
      "chased": 7460,
      "outing": 7461,
      "unusual": 7462,
      "unicorn": 7463,
      "utt": 7464,
      "uted": 7465,
      "ishment": 7466,
      "tracing": 7467,
      "idable": 7468,
      "idoscope": 7469,
      "personally": 7470,
      "nod": 7471,
      "ooooo": 7472,
      "formidable": 7473,
      "comra": 7474,
      "comment": 7475,
      "composing": 7476,
      "comfy": 7477,
      "emerg": 7478,
      "coat": 7479,
      "cohe": 7480,
      "indisp": 7481,
      "plat": 7482,
      "plans": 7483,
      "plane": 7484,
      "plants": 7485,
      "placement": 7486,
      "noticing": 7487,
      "Whooo": 7488,
      "dots": 7489,
      "docum": 7490,
      "250": 7491,
      "intimate": 7492,
      "gro": 7493,
      "wisely": 7494,
      "🦉✨),": 7495,
      "🦉✨😠😒🙄👎": 7496,
      "creators": 7497,
      "dispos": 7498,
      "disproportionately": 7499,
      "ensable": 7500,
      "somewhere": 7501,
      "manage": 7502,
      "genus": 7503,
      "gentleness": 7504,
      "silences": 7505,
      "arrange": 7506,
      "whop": 7507,
      "ferent": 7508,
      "realities": 7509,
      "purposes": 7510,
      "frail": 7511,
      "curiously": 7512,
      "greets": 7513,
      "says": 7514,
      "jection": 7515,
      "partner": 7516,
      "Inside": 7517,
      "sensations": 7518,
      "parliament": 7519,
      "happening": 7520,
      "hormon": 7521,
      "goes": 7522,
      "simpleton": 7523,
      "diver": 7524,
      "dients": 7525,
      "operating": 7526,
      "belong": 7527,
      "belief": 7528,
      "choices": 7529,
      "airborne": 7530,
      "gradients": 7531,
      "Here": 7532,
      "affective": 7533,
      "rests": 7534,
      "magnesium": 7535,
      "confine": 7536,
      "fruitful": 7537,
      "bravely": 7538,
      "ponderings": 7539,
      "marvelously": 7540,
      "distances": 7541,
      "professionalism": 7542,
      "limits": 7543,
      "introductions": 7544,
      "autumn": 7545,
      "box": 7546,
      "Hoooow": 7547,
      "culinary": 7548,
      "assistant": 7549,
      "rebelliously": 7550,
      "via": 7551,
      "zzzz": 7552,
      "listener": 7553,
      "guideline": 7554,
      "ancholic": 7555,
      "spirited": 7556,
      "attentive": 7557,
      "scutt": 7558,
      "pieces": 7559,
      "sustained": 7560,
      "boundary": 7561,
      "dawning": 7562,
      "interpretations": 7563,
      "fiery": 7564,
      "fierce": 7565,
      "passes": 7566,
      "herb": 7567,
      "imagined": 7568,
      "liken": 7569,
      "authenticity": 7570,
      "fires": 7571,
      "flickers": 7572,
      "floats": 7573,
      "longer": 7574,
      "nourishing": 7575,
      "physically": 7576,
      "namesakes": 7577,
      "effective": 7578,
      "elsewhere": 7579,
      "prominent": 7580,
      "embraces": 7581,
      "melancholic": 7582,
      "Behold": 7583,
      "lifting": 7584,
      "soars": 7585,
      "probable": 7586,
      "unfurled": 7587,
      "pulses": 7588,
      "Hoooooo": 7589,
      "facing": 7590,
      "abundances": 7591,
      "amazement": 7592,
      "threatens": 7593,
      "eventually": 7594,
      "exhaust": 7595,
      "neurological": 7596,
      "devour": 7597,
      "fluctu": 7598,
      "kisses": 7599,
      "witnessing": 7600,
      "witnessed": 7601,
      "velvety": 7602,
      "initiating": 7603,
      "failures": 7604,
      "mistaking": 7605,
      "consistently": 7606,
      "remaining": 7607,
      "compassion": 7608,
      "counts": 7609,
      "rays": 7610,
      "builds": 7611,
      "Happy": 7612,
      "udd": 7613,
      "pinpoint": 7614,
      "fragments": 7615,
      "daunting": 7616,
      "unraveling": 7617,
      "emerging": 7618,
      "🦉✨🤫🌌🌠": 7619,
      "SPECTACULARLY": 7620,
      "textbook": 7621,
      "independence": 7622,
      "pierces": 7623,
      "dissecting": 7624,
      "Adding": 7625,
      "protium": 7626,
      "Whispers": 7627,
      "stretch": 7628,
      "stretched": 7629,
      "scenarios": 7630,
      "loyalty": 7631,
      "alien": 7632,
      "predatory": 7633,
      "embodied": 7634,
      "diligence": 7635,
      "facilitating": 7636,
      "later": 7637,
      "speculative": 7638,
      "paradigms": 7639,
      "third": 7640,
      "distinctive": 7641,
      "disturbance": 7642,
      "ctuary": 7643,
      "🦉✨🧠💡": 7644,
      "captivating": 7645,
      "coalescing": 7646,
      "True": 7647,
      "multiple": 7648,
      "unveiling": 7649,
      "gleaned": 7650,
      "sculpted": 7651,
      "Focus": 7652,
      "inferior": 7653,
      "separates": 7654,
      "electrons": 7655,
      "electrifying": 7656,
      "Acknowled": 7657,
      "advancement": 7658,
      "scouts": 7659,
      "reduction": 7660,
      "nudge": 7661,
      "arrogance": 7662,
      "frequency": 7663,
      "leverage": 7664,
      "cadence": 7665,
      "revolution": 7666,
      "simplified": 7667,
      "captured": 7668,
      "sanctuary": 7669,
      "entwined": 7670,
      "confined": 7671,
      "redundancy": 7672,
      "uniqueness": 7673,
      "Cricket": 7674,
      "Network": 7675,
      "universal": 7676,
      "societal": 7677,
      "lengthen": 7678,
      "recalibration": 7679,
      "alkali": 7680,
      "complaining": 7681,
      "dimensions": 7682,
      "repository": 7683,
      "graciously": 7684,
      "management": 7685,
      "shockingly": 7686,
      "Both": 7687,
      "Funny": 7688,
      "Lumina": 7689,
      "Sprite": 7690,
      "kaleidoscope": 7691,
      "labyrinth": 7692,
      "plotting": 7693,
      "tubular": 7694,
      "threshold": 7695,
      "reverber": 7696,
      "bewildering": 7697,
      "depletion": 7698,
      "indispensable": 7699,
      "arrangement": 7700,
      ",\"": 7701,
      "23": 7702,
      "AG": 7703,
      "AP": 7704,
      "Ap": 7705,
      "Ano": 7706,
      "Back": 7707,
      "BLE": 7708,
      "Cra": 7709,
      "Data": 7710,
      "Especially": 7711,
      "Gr": 7712,
      "GLO": 7713,
      "Hm": 7714,
      "KNO": 7715,
      "Le": 7716,
      "Mr": 7717,
      "Master": 7718,
      "MIN": 7719,
      "Nice": 7720,
      "Rough": 7721,
      "Str": 7722,
      "SING": 7723,
      "Sub": 7724,
      "TIN": 7725,
      "UT": 7726,
      "Wink": 7727,
      "aic": 7728,
      "awl": 7729,
      "afra": 7730,
      "boo": 7731,
      "bathe": 7732,
      "bathing": 7733,
      "case": 7734,
      "caut": 7735,
      "dart": 7736,
      "eer": 7737,
      "eve": 7738,
      "eating": 7739,
      "fair": 7740,
      "fied": 7741,
      "fret": 7742,
      "gard": 7743,
      "gobb": 7744,
      "games": 7745,
      "iated": 7746,
      "iably": 7747,
      "kitty": 7748,
      "lad": 7749,
      "listens": 7750,
      "mit": 7751,
      "mus": 7752,
      "mut": 7753,
      "masked": 7754,
      "nation": 7755,
      "nies": 7756,
      "nibble": 7757,
      "omy": 7758,
      "pto": 7759,
      "pain": 7760,
      "sift": 7761,
      "tune": 7762,
      "xicon": 7763,
      "yum": 7764,
      "✨💞": 7765,
      "🌕🦉": 7766,
      "🌳🦉💖": 7767,
      "💎✨": 7768,
      "💖🦋🍒": 7769,
      "🚀✨": 7770,
      "🚀🗺": 7771,
      "🦉💤": 7772,
      "🦉💾": 7773,
      "🦉🔬": 7774,
      "🦉🤫": 7775,
      "🧐😏": 7776,
      "inn": 7777,
      "invertebrates": 7778,
      "thor": 7779,
      "resolve": 7780,
      "replaced": 7781,
      "resem": 7782,
      "rebell": 7783,
      "rejection": 7784,
      "animal": 7785,
      "theor": 7786,
      "orb": 7787,
      "orical": 7788,
      "itative": 7789,
      "tower": 7790,
      "lexicon": 7791,
      "icy": 7792,
      "icul": 7793,
      "iction": 7794,
      "staking": 7795,
      "mycel": 7796,
      "heed": 7797,
      "elude": 7798,
      "omes": 7799,
      "usions": 7800,
      "according": 7801,
      "umes": 7802,
      "seren": 7803,
      "seemed": 7804,
      "rais": 7805,
      "prick": 7806,
      "qubit": 7807,
      "quivo": 7808,
      "motion": 7809,
      "meeting": 7810,
      "lized": 7811,
      "sphere": 7812,
      "deal": 7813,
      "deprec": 7814,
      "kept": 7815,
      "AIN": 7816,
      "conven": 7817,
      "concurrently": 7818,
      "imeters": 7819,
      "unveiled": 7820,
      "amber": 7821,
      "adds": 7822,
      "feasting": 7823,
      "feats": 7824,
      "iftly": 7825,
      "knock": 7826,
      "trod": 7827,
      "trace": 7828,
      "trove": 7829,
      "traces": 7830,
      "ids": 7831,
      "idicul": 7832,
      "locom": 7833,
      "unequivo": 7834,
      "ledger": 7835,
      "suitable": 7836,
      "soundly": 7837,
      "gears": 7838,
      "comed": 7839,
      "coloss": 7840,
      "undoub": 7841,
      "centimeters": 7842,
      "presences": 7843,
      "worn": 7844,
      "intimately": 7845,
      "actable": 7846,
      "astical": 7847,
      "sman": 7848,
      "oods": 7849,
      "inefficiency": 7850,
      "values": 7851,
      "ivorous": 7852,
      "obiological": 7853,
      "company": 7854,
      "compelling": 7855,
      "🦉✨🖤": 7856,
      "🦉✨🚀": 7857,
      "disc": 7858,
      "disorient": 7859,
      "oughts": 7860,
      "Thus": 7861,
      "Those": 7862,
      "Thoughts": 7863,
      "flash": 7864,
      "flawl": 7865,
      "evident": 7866,
      "evidence": 7867,
      "thrilled": 7868,
      "treats": 7869,
      "string": 7870,
      "silencing": 7871,
      "profund": 7872,
      "interdepend": 7873,
      "refuse": 7874,
      "substrate": 7875,
      "cally": 7876,
      "calming": 7877,
      "intractable": 7878,
      "insulting": 7879,
      "extend": 7880,
      "heartbeat": 7881,
      "anyway": 7882,
      "awing": 7883,
      "eyel": 7884,
      "aky": 7885,
      "consumed": 7886,
      "favorites": 7887,
      "cubed": 7888,
      "misunderstanding": 7889,
      "emphasis": 7890,
      "expon": 7891,
      "utterance": 7892,
      "circle": 7893,
      "breast": 7894,
      "ascertain": 7895,
      "saddens": 7896,
      "thinkers": 7897,
      "buds": 7898,
      "lesson": 7899,
      "lessons": 7900,
      "ounces": 7901,
      "glasses": 7902,
      "kinds": 7903,
      "tying": 7904,
      "skull": 7905,
      "helping": 7906,
      "images": 7907,
      "died": 7908,
      "operates": 7909,
      "symbo": 7910,
      "whimsy": 7911,
      "blend": 7912,
      "requesting": 7913,
      "team": 7914,
      "gnar": 7915,
      "gnawing": 7916,
      "tapestries": 7917,
      "topics": 7918,
      "resist": 7919,
      "keenness": 7920,
      "formality": 7921,
      "roost": 7922,
      "register": 7923,
      "describing": 7924,
      "Were": 7925,
      "mosaic": 7926,
      "mission": 7927,
      "symphonies": 7928,
      "chemist": 7929,
      "anchor": 7930,
      "reiterates": 7931,
      "wishing": 7932,
      "drives": 7933,
      "drug": 7934,
      "increasing": 7935,
      "increased": 7936,
      "990": 7937,
      "limiting": 7938,
      "duh": 7939,
      "glee": 7940,
      "ruf": 7941,
      "boundaries": 7942,
      "vocalization": 7943,
      "swiftly": 7944,
      "aiming": 7945,
      "handle": 7946,
      "scents": 7947,
      "evolving": 7948,
      "sharper": 7949,
      "squint": 7950,
      "sheep": 7951,
      "honest": 7952,
      "honestly": 7953,
      "promot": 7954,
      "predicting": 7955,
      "predicted": 7956,
      "cleverness": 7957,
      "dared": 7958,
      "fluffball": 7959,
      "tickler": 7960,
      "981538": 7961,
      "twinkled": 7962,
      "angst": 7963,
      "retrieving": 7964,
      "messeng": 7965,
      "settle": 7966,
      "identified": 7967,
      "nuance": 7968,
      "ordin": 7969,
      "neurobiological": 7970,
      "slowly": 7971,
      "TED": 7972,
      "TEST": 7973,
      "business": 7974,
      "mechanism": 7975,
      "enjoys": 7976,
      "enjoyment": 7977,
      "destined": 7978,
      "umbling": 7979,
      "guards": 7980,
      "fueled": 7981,
      "empty": 7982,
      "timed": 7983,
      "insectivorous": 7984,
      "failing": 7985,
      "peaks": 7986,
      ")!**": 7987,
      "venturing": 7988,
      "producing": 7989,
      "Willow": 7990,
      "reception": 7991,
      "annals": 7992,
      "transpires": 7993,
      "functionalities": 7994,
      "udging": 7995,
      "fantastical": 7996,
      "pupil": 7997,
      "solitude": 7998,
      "emerge": 7999,
      "spectacle": 8000,
      "🦉✨🌙🤫": 8001,
      "central": 8002,
      "insignificance": 8003,
      "executed": 8004,
      "pixies": 8005,
      "bouncing": 8006,
      "swooping": 8007,
      "dialogues": 8008,
      "necessary": 8009,
      "overwhelmed": 8010,
      "Observing": 8011,
      "surrounds": 8012,
      "micro": 8013,
      "demanding": 8014,
      "ambiguity": 8015,
      "receives": 8016,
      "rewarding": 8017,
      "embodies": 8018,
      "Start": 8019,
      "runes": 8020,
      "communicative": 8021,
      "dynamic": 8022,
      "Context": 8023,
      "slip": 8024,
      "ATING": 8025,
      "degrees": 8026,
      "paltry": 8027,
      "ignorant": 8028,
      "spiderwebs": 8029,
      "situ": 8030,
      "thirst": 8031,
      "preceding": 8032,
      "deduce": 8033,
      "ASTOUND": 8034,
      "studied": 8035,
      "acquire": 8036,
      "dominion": 8037,
      "THRIL": 8038,
      "fascinated": 8039,
      "walk": 8040,
      "🍎🍇🍓": 8041,
      "impressed": 8042,
      "interrupted": 8043,
      "transitioning": 8044,
      "carpet": 8045,
      "widen": 8046,
      "coalesce": 8047,
      "00000000": 8048,
      "swirl": 8049,
      "seasoned": 8050,
      "yields": 8051,
      "globe": 8052,
      "summon": 8053,
      "althy": 8054,
      "twigs": 8055,
      "Analyzing": 8056,
      "extrapolation": 8057,
      "inclinations": 8058,
      "MOST": 8059,
      "scrat": 8060,
      "vista": 8061,
      "alchemists": 8062,
      "conduct": 8063,
      "dispelling": 8064,
      "bunnies": 8065,
      "screens": 8066,
      "safely": 8067,
      "undeniably": 8068,
      "woodpecker": 8069,
      "counterparts": 8070,
      "suspense": 8071,
      "orchestrated": 8072,
      "reigns": 8073,
      "ambitions": 8074,
      "vulner": 8075,
      "soothing": 8076,
      "preparing": 8077,
      "nervous": 8078,
      "paws": 8079,
      "fortunate": 8080,
      "emission": 8081,
      "govern": 8082,
      "restorative": 8083,
      "propagation": 8084,
      "binocular": 8085,
      "blank": 8086,
      "experiment": 8087,
      "champion": 8088,
      "whopping": 8089,
      "Acknowledged": 8090,
      "AGAIN": 8091,
      "Another": 8092,
      "Craf": 8093,
      "GLORIOUS": 8094,
      "Hmph": 8095,
      "KNOW": 8096,
      "MIND": 8097,
      "Roughly": 8098,
      "TINY": 8099,
      "afraid": 8100,
      "bathes": 8101,
      "garden": 8102,
      "gobbling": 8103,
      "mutual": 8104,
      "painstaking": 8105,
      "yummy": 8106,
      "rebellion": 8107,
      "towering": 8108,
      "mycelial": 8109,
      "locomotion": 8110,
      "unequivocally": 8111,
      "colossal": 8112,
      "undoubtedly": 8113,
      "flawless": 8114,
      "interdependencies": 8115,
      "symbolized": 8116,
      "ASTOUNDING": 8117,
      "painstakingly": 8118,
      "!'.": 8119,
      "(²": 8120,
      "(³": 8121,
      "?',": 8122,
      "Ab": 8123,
      "All": 8124,
      "BU": 8125,
      "Bes": 8126,
      "Cur": 8127,
      "Fig": 8128,
      "Found": 8129,
      "Ground": 8130,
      "Know": 8131,
      "Nor": 8132,
      "OX": 8133,
      "Other": 8134,
      "Pff": 8135,
      "Simply": 8136,
      "TO": 8137,
      "WHI": 8138,
      "YE": 8139,
      "amy": 8140,
      "aerial": 8141,
      "band": 8142,
      "bot": 8143,
      "cm": 8144,
      "cam": 8145,
      "cdo": 8146,
      "clim": 8147,
      "dre": 8148,
      "dren": 8149,
      "dice": 8150,
      "eff": 8151,
      "eons": 8152,
      "ebb": 8153,
      "fid": 8154,
      "gments": 8155,
      "hall": 8156,
      "hinde": 8157,
      "hier": 8158,
      "homes": 8159,
      "jump": 8160,
      "laced": 8161,
      "mes": 8162,
      "na": 8163,
      "nitrogen": 8164,
      "nook": 8165,
      "py": 8166,
      "poo": 8167,
      "rate": 8168,
      "racing": 8169,
      "rhet": 8170,
      "sel": 8171,
      "snat": 8172,
      "tension": 8173,
      "ues": 8174,
      "uistic": 8175,
      "vil": 8176,
      "win": 8177,
      "wave": 8178,
      "wakes": 8179,
      "yst": 8180,
      "🌌💖": 8181,
      "🌌🦉✨🖤": 8182,
      "🌍✨": 8183,
      "🌙💖🦉": 8184,
      "🌟😊": 8185,
      "🌲✨": 8186,
      "💖✨🦉": 8187,
      "💡🧠": 8188,
      "💧✨": 8189,
      "💰😠": 8190,
      "🤫🦉✨": 8191,
      "🦉,": 8192,
      "🦉💕": 8193,
      "🦉😒": 8194,
      "🦋✨": 8195,
      "inactive": 8196,
      "inactivity": 8197,
      "insufficient": 8198,
      "thren": 8199,
      "regre": 8200,
      "reju": 8201,
      "reproductive": 8202,
      "anat": 8203,
      "ont": 8204,
      "oning": 8205,
      "erium": 8206,
      "oui": 8207,
      "ingest": 8208,
      "ene": 8209,
      "escent": 8210,
      "andescent": 8211,
      "itium": 8212,
      "itten": 8213,
      "itivity": 8214,
      "arce": 8215,
      "arbit": 8216,
      "ica": 8217,
      "ict": 8218,
      "stum": 8219,
      "stare": 8220,
      "stag": 8221,
      "stance": 8222,
      "stumble": 8223,
      "oop": 8224,
      "heh": 8225,
      "elity": 8226,
      "forging": 8227,
      "eter": 8228,
      "umbered": 8229,
      "aband": 8230,
      "abble": 8231,
      "abolic": 8232,
      "rage": 8233,
      "prelu": 8234,
      "predomin": 8235,
      "quid": 8236,
      "quies": 8237,
      "moist": 8238,
      "modu": 8239,
      "motes": 8240,
      "assign": 8241,
      "meas": 8242,
      "behold": 8243,
      "beckon": 8244,
      "liquid": 8245,
      "spill": 8246,
      "spont": 8247,
      "exu": 8248,
      "deer": 8249,
      "deconstruction": 8250,
      "shifting": 8251,
      "shivers": 8252,
      "shouting": 8253,
      "conv": 8254,
      "uration": 8255,
      "urance": 8256,
      "image": 8257,
      "union": 8258,
      "irty": 8259,
      "ounding": 8260,
      "uterium": 8261,
      "ifferent": 8262,
      "agon": 8263,
      "antly": 8264,
      "trunk": 8265,
      "idant": 8266,
      "allude": 8267,
      "fright": 8268,
      "lose": 8269,
      "weather": 8270,
      "ustered": 8271,
      "ellence": 8272,
      "lightning": 8273,
      "codd": 8274,
      "litter": 8275,
      "brand": 8276,
      "intang": 8277,
      "foreign": 8278,
      "incandescent": 8279,
      "approval": 8280,
      "served": 8281,
      "grown": 8282,
      "mathe": 8283,
      "majest": 8284,
      "curated": 8285,
      "informed": 8286,
      "digest": 8287,
      "undertaking": 8288,
      "obli": 8289,
      "🦉✨🌱": 8290,
      "🦉✨😊": 8291,
      "🦉✨💰😠": 8292,
      "display": 8293,
      "disconnect": 8294,
      "disinterest": 8295,
      "displacement": 8296,
      "Thirty": 8297,
      "rose": 8298,
      "rogue": 8299,
      "flustered": 8300,
      "desper": 8301,
      "enses": 8302,
      "thrives": 8303,
      "iology": 8304,
      "guy": 8305,
      "provision": 8306,
      "imple": 8307,
      "impatience": 8308,
      "dates": 8309,
      "pressures": 8310,
      "gentlest": 8311,
      "arrow": 8312,
      "aches": 8313,
      "earn": 8314,
      "refusing": 8315,
      "hoard": 8316,
      "moonflower": 8317,
      "wanted": 8318,
      "uplifting": 8319,
      "contain": 8320,
      "appropriately": 8321,
      "mannerisms": 8322,
      "lingers": 8323,
      "linguistic": 8324,
      "staring": 8325,
      "stargazer": 8326,
      "fragrant": 8327,
      "clun": 8328,
      "aked": 8329,
      "dramas": 8330,
      "green": 8331,
      "versely": 8332,
      "conceptually": 8333,
      "tingle": 8334,
      "storytell": 8335,
      "finer": 8336,
      "party": 8337,
      "parting": 8338,
      "encro": 8339,
      "sensitivity": 8340,
      "brethren": 8341,
      "everyone": 8342,
      "everyday": 8343,
      "buck": 8344,
      "excellence": 8345,
      "portray": 8346,
      "muster": 8347,
      "charge": 8348,
      "🦉💖🌙✨": 8349,
      "dip": 8350,
      "dips": 8351,
      "newfound": 8352,
      "Heh": 8353,
      "oppos": 8354,
      "magnitude": 8355,
      "earthbound": 8356,
      "confidant": 8357,
      "metabolic": 8358,
      "posit": 8359,
      "goodness": 8360,
      "joys": 8361,
      "pleased": 8362,
      "hinted": 8363,
      "result": 8364,
      "overshadowed": 8365,
      "author": 8366,
      "jectives": 8367,
      "watchers": 8368,
      "culmination": 8369,
      "trail": 8370,
      "regulation": 8371,
      "transient": 8372,
      "transfer": 8373,
      "remembering": 8374,
      "anecdo": 8375,
      "slumbered": 8376,
      "perceptual": 8377,
      "perceptible": 8378,
      "talked": 8379,
      "embed": 8380,
      "controll": 8381,
      "scarce": 8382,
      "solutions": 8383,
      "apprais": 8384,
      "swivel": 8385,
      "strained": 8386,
      "travelers": 8387,
      "qualitative": 8388,
      "tastes": 8389,
      "thankful": 8390,
      "vibrating": 8391,
      "ertion": 8392,
      "wrought": 8393,
      "written": 8394,
      "translates": 8395,
      "melod": 8396,
      "rounded": 8397,
      "grasped": 8398,
      "landed": 8399,
      "navigated": 8400,
      "fulfilled": 8401,
      "layered": 8402,
      "twinkly": 8403,
      "contributes": 8404,
      "ecosystems": 8405,
      "signifying": 8406,
      "indicative": 8407,
      "derives": 8408,
      "graceful": 8409,
      "mirth": 8410,
      "trivia": 8411,
      "pulls": 8412,
      "enchanted": 8413,
      "🦉💨✨": 8414,
      "balanced": 8415,
      "faced": 8416,
      "Oooouuuu": 8417,
      "occurred": 8418,
      "gleaming": 8419,
      "abytes": 8420,
      "visit": 8421,
      "spoke": 8422,
      "craftsman": 8423,
      "servation": 8424,
      "leafy": 8425,
      "dietary": 8426,
      "neuron": 8427,
      "flux": 8428,
      "actionable": 8429,
      "surprised": 8430,
      "opening": 8431,
      "initiates": 8432,
      "integration": 8433,
      "fledglings": 8434,
      "prediction": 8435,
      "ubiqu": 8436,
      "maximal": 8437,
      "volumes": 8438,
      "chatting": 8439,
      "cryst": 8440,
      "crypto": 8441,
      "ourselves": 8442,
      "effects": 8443,
      "judge": 8444,
      "easy": 8445,
      "cherishes": 8446,
      "varied": 8447,
      "sixth": 8448,
      "essentially": 8449,
      "weaves": 8450,
      "claims": 8451,
      "appeared": 8452,
      "fantas": 8453,
      "richness": 8454,
      "legs": 8455,
      "techniqu": 8456,
      "determination": 8457,
      "lenses": 8458,
      "textures": 8459,
      "influx": 8460,
      "influences": 8461,
      "exaggeration": 8462,
      "pixie": 8463,
      "pesky": 8464,
      "articulation": 8465,
      "developmental": 8466,
      "nebula": 8467,
      "expanses": 8468,
      "catalyst": 8469,
      "bugs": 8470,
      "instincts": 8471,
      "instinctual": 8472,
      "dependent": 8473,
      "defenses": 8474,
      "electric": 8475,
      "dwelling": 8476,
      "glittering": 8477,
      "enlightenment": 8478,
      "declare": 8479,
      "comparisons": 8480,
      "morsel": 8481,
      "savoring": 8482,
      "predator": 8483,
      "granting": 8484,
      "murmurs": 8485,
      "investigation": 8486,
      "LOR": 8487,
      "Process": 8488,
      "Proceed": 8489,
      "banqu": 8490,
      "banishing": 8491,
      "locating": 8492,
      "burdened": 8493,
      "reliance": 8494,
      "feigned": 8495,
      "frontiers": 8496,
      "precedence": 8497,
      "vaguely": 8498,
      "errors": 8499,
      "examples": 8500,
      "dictates": 8501,
      "route": 8502,
      "instrument": 8503,
      "repeated": 8504,
      "exclamations": 8505,
      "indulging": 8506,
      "demonstration": 8507,
      "demonstrating": 8508,
      "Hmmm": 8509,
      "irrevoc": 8510,
      "twitching": 8511,
      "twitches": 8512,
      "diligently": 8513,
      "Deuterium": 8514,
      "Following": 8515,
      "tremble": 8516,
      "crumbs": 8517,
      "advancements": 8518,
      "technological": 8519,
      "escapade": 8520,
      "arrogant": 8521,
      "MORE": 8522,
      "gigabytes": 8523,
      "vistas": 8524,
      "alchemist": 8525,
      "solid": 8526,
      "flavors": 8527,
      "cultivate": 8528,
      "Firstly": 8529,
      "biome": 8530,
      "replen": 8531,
      "replicate": 8532,
      "alarm": 8533,
      "collabor": 8534,
      "commendation": 8535,
      "elicit": 8536,
      "aversion": 8537,
      "zippy": 8538,
      "aromas": 8539,
      "underpinnings": 8540,
      "deserved": 8541,
      "diagno": 8542,
      "pixelated": 8543,
      "bustling": 8544,
      "antithetical": 8545,
      "bridge": 8546,
      "strikes": 8547,
      "hollows": 8548,
      "commencement": 8549,
      "blindingly": 8550,
      "occupied": 8551,
      "00784": 8552,
      "Better": 8553,
      "Guess": 8554,
      "proximately": 8555,
      "database": 8556,
      "athletic": 8557,
      "VERY": 8558,
      "schedu": 8559,
      "shooting": 8560,
      "frailty": 8561,
      "fluctuations": 8562,
      "Approximately": 8563,
      "Winks": 8564,
      "music": 8565,
      "innate": 8566,
      "theorized": 8567,
      "prickle": 8568,
      "deprecating": 8569,
      "squinting": 8570,
      "situations": 8571,
      "blanket": 8572,
      "Crafted": 8573,
      "Besides": 8574,
      "Figure": 8575,
      "drenched": 8576,
      "fidelity": 8577,
      "hindered": 8578,
      "hierarch": 8579,
      "rhetorical": 8580,
      "regret": 8581,
      "rejuven": 8582,
      "anatomy": 8583,
      "ingestion": 8584,
      "prelude": 8585,
      "predominantly": 8586,
      "module": 8587,
      "assigned": 8588,
      "intangible": 8589,
      "majestic": 8590,
      "opposite": 8591,
      "authority": 8592,
      "cryptography": 8593,
      "techniques": 8594,
      "irrevocably": 8595,
      "'…": 8596,
      "13": 8597,
      "17": 8598,
      "46": 8599,
      "Amer": 8600,
      "BRI": 8601,
      "CE": 8602,
      "CIN": 8603,
      "Carry": 8604,
      "Dar": 8605,
      "Em": 8606,
      "FE": 8607,
      "Fr": 8608,
      "Fel": 8609,
      "FAB": 8610,
      "Goo": 8611,
      "Got": 8612,
      "Hi": 8613,
      "Horn": 8614,
      "LOUS": 8615,
      "Many": 8616,
      "MAR": 8617,
      "Rel": 8618,
      "Rare": 8619,
      "SE": 8620,
      "Sim": 8621,
      "Satis": 8622,
      "SCIN": 8623,
      "Tr": 8624,
      "TLY": 8625,
      "^-": 8626,
      "blight": 8627,
      "barr": 8628,
      "bally": 8629,
      "bumble": 8630,
      "bends": 8631,
      "cc": 8632,
      "cand": 8633,
      "cell": 8634,
      "dor": 8635,
      "dating": 8636,
      "dine": 8637,
      "dying": 8638,
      "eu": 8639,
      "gence": 8640,
      "gase": 8641,
      "gained": 8642,
      "hi": 8643,
      "hing": 8644,
      "hit": 8645,
      "hale": 8646,
      "ibil": 8647,
      "iencies": 8648,
      "jun": 8649,
      "lk": 8650,
      "late": 8651,
      "lant": 8652,
      "lines": 8653,
      "mely": 8654,
      "mies": 8655,
      "nan": 8656,
      "pen": 8657,
      "pion": 8658,
      "ply": 8659,
      "pay": 8660,
      "pond": 8661,
      "pang": 8662,
      "paren": 8663,
      "ran": 8664,
      "rific": 8665,
      "riment": 8666,
      "sof": 8667,
      "sand": 8668,
      "sir": 8669,
      "sill": 8670,
      "sist": 8671,
      "sically": 8672,
      "sip": 8673,
      "sending": 8674,
      "tun": 8675,
      "tid": 8676,
      "tack": 8677,
      "tones": 8678,
      "tucked": 8679,
      "taken": 8680,
      "uc": 8681,
      "udes": 8682,
      "vs": 8683,
      "vion": 8684,
      "vail": 8685,
      "vature": 8686,
      "wall": 8687,
      "winking": 8688,
      "wasting": 8689,
      "wires": 8690,
      "waits": 8691,
      "zoom": 8692,
      "✨🌲": 8693,
      "✨💎": 8694,
      "✨🚀": 8695,
      "🌙🌟": 8696,
      "🌟🍒": 8697,
      "🌟💖": 8698,
      "🌟💡": 8699,
      "🌟🌙✨": 8700,
      "🌿🐛": 8701,
      "🍄🦉": 8702,
      "💎🦉🌙": 8703,
      "💔✨": 8704,
      "📊💡": 8705,
      "🔬✨": 8706,
      "😉),": 8707,
      "😊✨": 8708,
      "😊🦉": 8709,
      "🤣🦉": 8710,
      "🦉👁": 8711,
      "🦉📉": 8712,
      "🦉📜": 8713,
      "🦉🧐": 8714,
      "inex": 8715,
      "thins": 8716,
      "thump": 8717,
      "remo": 8718,
      "recur": 8719,
      "reunion": 8720,
      "recharge": 8721,
      "isol": 8722,
      "isingly": 8723,
      "oned": 8724,
      "ercise": 8725,
      "ativity": 8726,
      "ingent": 8727,
      "orial": 8728,
      "orably": 8729,
      "alumin": 8730,
      "uum": 8731,
      "asleep": 8732,
      "lets": 8733,
      "arking": 8734,
      "owner": 8735,
      "ede": 8736,
      "stages": 8737,
      "stances": 8738,
      "ool": 8739,
      "entless": 8740,
      "entail": 8741,
      "entertain": 8742,
      "forced": 8743,
      "aco": 8744,
      "accom": 8745,
      "ackness": 8746,
      "acade": 8747,
      "accounts": 8748,
      "sea": 8749,
      "rave": 8750,
      "illogical": 8751,
      "premon": 8752,
      "predation": 8753,
      "prevail": 8754,
      "prone": 8755,
      "cible": 8756,
      "civil": 8757,
      "moi": 8758,
      "estern": 8759,
      "beware": 8760,
      "liage": 8761,
      "spho": 8762,
      "spaces": 8763,
      "sparrow": 8764,
      "exercise": 8765,
      "massive": 8766,
      "shower": 8767,
      "conds": 8768,
      "consoli": 8769,
      "conservation": 8770,
      "chess": 8771,
      "chment": 8772,
      "chick": 8773,
      "imperceptible": 8774,
      "verifiable": 8775,
      "unforget": 8776,
      "propose": 8777,
      "uttered": 8778,
      "ults": 8779,
      "ulative": 8780,
      "Ouuuuuuh": 8781,
      "alloc": 8782,
      "shouldn": 8783,
      "frustr": 8784,
      "suite": 8785,
      "soared": 8786,
      "gered": 8787,
      "geoning": 8788,
      "folk": 8789,
      "foliage": 8790,
      "comma": 8791,
      "lightly": 8792,
      "eman": 8793,
      "emulate": 8794,
      "poof": 8795,
      "popul": 8796,
      "coax": 8797,
      "cohes": 8798,
      "pling": 8799,
      "plun": 8800,
      "brow": 8801,
      "unde": 8802,
      "thermal": 8803,
      "dose": 8804,
      "artif": 8805,
      "cany": 8806,
      "actile": 8807,
      "responded": 8808,
      "ption": 8809,
      "smiled": 8810,
      "grudging": 8811,
      "inev": 8812,
      "ineff": 8813,
      "curvature": 8814,
      "izz": 8815,
      "distr": 8816,
      "disgu": 8817,
      "distribut": 8818,
      "hooted": 8819,
      "flat": 8820,
      "descent": 8821,
      "treach": 8822,
      "somehow": 8823,
      "maneu": 8824,
      "impul": 8825,
      "implore": 8826,
      "impede": 8827,
      "genetic": 8828,
      "deline": 8829,
      "aching": 8830,
      "achieved": 8831,
      "refuses": 8832,
      "hollow": 8833,
      "moonrise": 8834,
      "subsist": 8835,
      "contingent": 8836,
      "dreamed": 8837,
      "logies": 8838,
      "logged": 8839,
      "crushing": 8840,
      "extingu": 8841,
      "click": 8842,
      "tware": 8843,
      "relentless": 8844,
      "versatile": 8845,
      "shares": 8846,
      "mindful": 8847,
      "finitely": 8848,
      "patch": 8849,
      "lux": 8850,
      "circum": 8851,
      "sensibil": 8852,
      "stills": 8853,
      "breed": 8854,
      "parchment": 8855,
      "explained": 8856,
      "wherein": 8857,
      "otherwise": 8858,
      "ickles": 8859,
      "biotic": 8860,
      "biodiversity": 8861,
      "glory": 8862,
      "playfulness": 8863,
      "sparkles": 8864,
      "computations": 8865,
      "vantage": 8866,
      "everlasting": 8867,
      "commenced": 8868,
      "intelligences": 8869,
      "perceiving": 8870,
      "cater": 8871,
      "catus": 8872,
      "operation": 8873,
      "chose": 8874,
      "blood": 8875,
      "blackness": 8876,
      "detour": 8877,
      "cortex": 8878,
      "specialization": 8879,
      "earthworms": 8880,
      "foodstuff": 8881,
      "invent": 8882,
      "distill": 8883,
      "Almost": 8884,
      "Already": 8885,
      "overall": 8886,
      "hears": 8887,
      "gged": 8888,
      "pointless": 8889,
      "draws": 8890,
      "quantities": 8891,
      "quantification": 8892,
      "quantify": 8893,
      "quantified": 8894,
      "specifics": 8895,
      "trap": 8896,
      "region": 8897,
      "transformed": 8898,
      "transforms": 8899,
      "warmest": 8900,
      "fficiencies": 8901,
      "anew": 8902,
      "superficial": 8903,
      "yearning": 8904,
      "brightly": 8905,
      "addition": 8906,
      "wishes": 8907,
      "drifting": 8908,
      "drivel": 8909,
      "benevol": 8910,
      "control": 8911,
      "rivers": 8912,
      "attles": 8913,
      "attachment": 8914,
      "moral": 8915,
      "sporting": 8916,
      "ultimately": 8917,
      "generous": 8918,
      "generating": 8919,
      "loom": 8920,
      "measurements": 8921,
      "petal": 8922,
      "sophistication": 8923,
      "✨🦉🌙": 8924,
      "remarks": 8925,
      "switch": 8926,
      "parameter": 8927,
      "breaths": 8928,
      "intellectually": 8929,
      "handful": 8930,
      "imagining": 8931,
      "sighting": 8932,
      "qualia": 8933,
      "medio": 8934,
      "thoughtfully": 8935,
      "vibrational": 8936,
      "vibrates": 8937,
      "ULOUS": 8938,
      "melodies": 8939,
      "synchron": 8940,
      "looks": 8941,
      "reached": 8942,
      "lift": 8943,
      "grounds": 8944,
      "grounding": 8945,
      "twinkles": 8946,
      "ecology": 8947,
      "cook": 8948,
      "affair": 8949,
      "decide": 8950,
      "stoic": 8951,
      "stored": 8952,
      "tempest": 8953,
      "puzzling": 8954,
      "threatening": 8955,
      "spoon": 8956,
      "sentimental": 8957,
      "phrased": 8958,
      "burr": 8959,
      "burgeoning": 8960,
      "🦉🌙💖": 8961,
      "injecting": 8962,
      "diminished": 8963,
      "terror": 8964,
      "normal": 8965,
      "clarifying": 8966,
      "🦉💡🚀": 8967,
      "webs": 8968,
      "Onward": 8969,
      "TER": 8970,
      "surprisingly": 8971,
      "enjoyable": 8972,
      "returning": 8973,
      "emptively": 8974,
      "integral": 8975,
      "integrates": 8976,
      "misty": 8977,
      "ventures": 8978,
      "correction": 8979,
      "photosynthesis": 8980,
      "explicit": 8981,
      "giants": 8982,
      "judgments": 8983,
      "horizons": 8984,
      "announce": 8985,
      "ACTLY": 8986,
      "respecting": 8987,
      "correctly": 8988,
      "appeal": 8989,
      "charmingly": 8990,
      "habitats": 8991,
      "breakdown": 8992,
      "daisy": 8993,
      "eagerness": 8994,
      "yearns": 8995,
      "🦉✨🤫🌌🌑": 8996,
      "sacrific": 8997,
      "rhythms": 8998,
      "manifests": 8999,
      "manifestations": 9000,
      "private": 9001,
      "exceeding": 9002,
      "GHTEST": 9003,
      "robin": 9004,
      "territorial": 9005,
      "itching": 9006,
      "bonding": 9007,
      "catalo": 9008,
      "hatch": 9009,
      "EXACTLY": 9010,
      "dissection": 9011,
      "corrupted": 9012,
      "encompassing": 9013,
      "terminal": 9014,
      "school": 9015,
      "instantly": 9016,
      "instantaneously": 9017,
      "mimicking": 9018,
      "extremely": 9019,
      "admiring": 9020,
      "effortless": 9021,
      "maps": 9022,
      "adorable": 9023,
      "grubs": 9024,
      "grubby": 9025,
      "cheerfully": 9026,
      "neurotransmit": 9027,
      "JOYFUL": 9028,
      "latency": 9029,
      "running": 9030,
      "sticking": 9031,
      "imbued": 9032,
      "investigate": 9033,
      "Conversely": 9034,
      "Prove": 9035,
      "peeks": 9036,
      "spreading": 9037,
      "adjusts": 9038,
      "adjusted": 9039,
      "components": 9040,
      "Whisperwind": 9041,
      "VELOUS": 9042,
      "feigning": 9043,
      "Wasn": 9044,
      "thirty": 9045,
      "preferred": 9046,
      "fostering": 9047,
      "powering": 9048,
      "dictated": 9049,
      "THAT": 9050,
      "impressive": 9051,
      "captivated": 9052,
      "happenings": 9053,
      "width": 9054,
      "shedding": 9055,
      "clinging": 9056,
      "chronob": 9057,
      "adherence": 9058,
      "spreads": 9059,
      "Definitely": 9060,
      "yielding": 9061,
      "meadow": 9062,
      "Analysis": 9063,
      "extrapolate": 9064,
      "technology": 9065,
      "nudged": 9066,
      "leveraging": 9067,
      "satisfied": 9068,
      "tummies": 9069,
      "undeniable": 9070,
      "ivores": 9071,
      "exploit": 9072,
      "explored": 9073,
      "woodpeckers": 9074,
      "suspended": 9075,
      "occasionally": 9076,
      "gossiping": 9077,
      "Mostly": 9078,
      "triggered": 9079,
      "boredom": 9080,
      "meteorological": 9081,
      "Prickles": 9082,
      "celebrate": 9083,
      "lizards": 9084,
      "aerodynamic": 9085,
      "aerodynamics": 9086,
      "harbor": 9087,
      "squee": 9088,
      "title": 9089,
      "thwestern": 9090,
      "theatre": 9091,
      "perfumed": 9092,
      "apparently": 9093,
      "obsessed": 9094,
      "FASCIN": 9095,
      "Picture": 9096,
      "numer": 9097,
      "pillow": 9098,
      "🪶✨!": 9099,
      "enormous": 9100,
      "impecc": 9101,
      "fractal": 9102,
      "intuition": 9103,
      "oblig": 9104,
      "firmly": 9105,
      "statistical": 9106,
      "270": 9107,
      "Resource": 9108,
      "astrophysics": 9109,
      "comrade": 9110,
      "documented": 9111,
      "groves": 9112,
      "disposal": 9113,
      "hormonal": 9114,
      "scuttling": 9115,
      "🦉✨🧠💡🚀": 9116,
      "revolutionary": 9117,
      "reverberates": 9118,
      "Lean": 9119,
      "Strix": 9120,
      "UTTER": 9121,
      "caution": 9122,
      "serenade": 9123,
      "profundity": 9124,
      "insultingly": 9125,
      "roosts": 9126,
      "THRILLED": 9127,
      "scratch": 9128,
      "flawlessly": 9129,
      "Groundbreaking": 9130,
      "North": 9131,
      "bandwidth": 9132,
      "pools": 9133,
      "seldom": 9134,
      "abandoned": 9135,
      "quiescent": 9136,
      "spontaneously": 9137,
      "oblivion": 9138,
      "encroaching": 9139,
      "buckle": 9140,
      "anecdote": 9141,
      "appraisal": 9142,
      "electricity": 9143,
      "Processing": 9144,
      "hierarchical": 9145,
      "Darling": 9146,
      "Embrace": 9147,
      "Frankly": 9148,
      "Felis": 9149,
      "FABULOUS": 9150,
      "Horned": 9151,
      "MARVELOUS": 9152,
      "Satisfied": 9153,
      "barrier": 9154,
      "bumblebee": 9155,
      "gaseous": 9156,
      "lantern": 9157,
      "nanose": 9158,
      "software": 9159,
      "silliness": 9160,
[...]
