{
  "version": "1.0",
  "truncation": null,
  "padding": null,
  "added_tokens": [
    {
      "id": 0,
      "content": "[PAD]",
      "single_word": false,
      "lstrip": false,
      "rstrip": false,
      "normalized": false,
      "special": true
    },
    {
      "id": 1,
      "content": "[UNK]",
      "single_word": false,
      "lstrip": false,
      "rstrip": false,
      "normalized": false,
      "special": true
    },
    {
      "id": 2,
      "content": "[CLS]",
      "single_word": false,
      "lstrip": false,
      "rstrip": false,
      "normalized": false,
      "special": true
    },
    {
      "id": 3,
      "content": "[SEP]",
      "single_word": false,
      "lstrip": false,
      "rstrip": false,
      "normalized": false,
      "special": true
    },
    {
      "id": 4,
      "content": "[MASK]",
      "single_word": false,
      "lstrip": false,
      "rstrip": false,
      "normalized": false,
      "special": true
    },
    {
      "id": 5,
      "content": "[EOS]",
      "single_word": false,
      "lstrip": false,
      "rstrip": false,
      "normalized": false,
      "special": true
    },
    {
      "id": 6,
      "content": "[THINK]",
      "single_word": false,
      "lstrip": false,
      "rstrip": false,
      "normalized": false,
      "special": true
    },
    {
      "id": 7,
      "content": "[MOOD]",
      "single_word": false,
      "lstrip": false,
      "rstrip": false,
      "normalized": false,
      "special": true
    }
  ],
  "normalizer": null,
  "pre_tokenizer": {
    "type": "Whitespace"
  },
  "post_processor": null,
  "decoder": null,
  "model": {
    "type": "BPE",
    "dropout": null,
    "unk_token": null,
    "continuing_subword_prefix": null,
    "end_of_word_suffix": null,
    "fuse_unk": false,
    "byte_fallback": false,
    "ignore_merges": false,
    "vocab": {
      "[PAD]": 0,
      "[UNK]": 1,
      "[CLS]": 2,
      "[SEP]": 3,
      "[MASK]": 4,
      "[EOS]": 5,
      "[THINK]": 6,
      "[MOOD]": 7,
      "!": 8,
      "\"": 9,
      "%": 10,
      "&": 11,
      "'": 12,
      "(": 13,
      ")": 14,
      "*": 15,
      "+": 16,
      ",": 17,
      "-": 18,
      ".": 19,
      "/": 20,
      "0": 21,
      "1": 22,
      "2": 23,
      "3": 24,
      "4": 25,
      "5": 26,
      "6": 27,
      "7": 28,
      "8": 29,
      "9": 30,
      ":": 31,
      ";": 32,
      "=": 33,
      "?": 34,
      "A": 35,
      "B": 36,
      "C": 37,
      "D": 38,
      "E": 39,
      "F": 40,
      "G": 41,
      "H": 42,
      "I": 43,
      "J": 44,
      "K": 45,
      "L": 46,
      "M": 47,
      "N": 48,
      "O": 49,
      "P": 50,
      "Q": 51,
      "R": 52,
      "S": 53,
      "T": 54,
      "U": 55,
      "V": 56,
      "W": 57,
      "X": 58,
      "Y": 59,
      "Z": 60,
      "[": 61,
      "]": 62,
      "^": 63,
      "_": 64,
      "`": 65,
      "a": 66,
      "b": 67,
      "c": 68,
      "d": 69,
      "e": 70,
      "f": 71,
      "g": 72,
      "h": 73,
      "i": 74,
      "j": 75,
      "k": 76,
      "l": 77,
      "m": 78,
      "n": 79,
      "o": 80,
      "p": 81,
      "q": 82,
      "r": 83,
      "s": 84,
      "t": 85,
      "u": 86,
      "v": 87,
      "w": 88,
      "x": 89,
      "y": 90,
      "z": 91,
      "{": 92,
      "|": 93,
      "}": 94,
      "~": 95,
      "²": 96,
      "³": 97,
      "×": 98,
      "à": 99,
      "â": 100,
      "ä": 101,
      "é": 102,
      "ê": 103,
      "ï": 104,
      "÷": 105,
      "‍": 106,
      "–": 107,
      "—": 108,
      "‘": 109,
      "’": 110,
      "“": 111,
      "”": 112,
      "…": 113,
      "⁷": 114,
      "⁻": 115,
      "€": 116,
      "™": 117,
      "⏳": 118,
      "☀": 119,
      "☁": 120,
      "♀": 121,
      "♂": 122,
      "⚖": 123,
      "⚙": 124,
      "⚛": 125,
      "⚠": 126,
      "⚡": 127,
      "⚫": 128,
      "⛰": 129,
      "✅": 130,
      "✉": 131,
      "✨": 132,
      "❄": 133,
      "❓": 134,
      "➡": 135,
      "⭐": 136,
      "️": 137,
      "🌀": 138,
      "🌃": 139,
      "🌅": 140,
      "🌊": 141,
      "🌌": 142,
      "🌍": 143,
      "🌎": 144,
      "🌐": 145,
      "🌑": 146,
      "🌒": 147,
      "🌕": 148,
      "🌙": 149,
      "🌟": 150,
      "🌠": 151,
      "🌧": 152,
      "🌫": 153,
      "🌬": 154,
      "🌰": 155,
      "🌱": 156,
      "🌲": 157,
      "🌳": 158,
      "🌵": 159,
      "🌸": 160,
      "🌻": 161,
      "🌼": 162,
      "🌾": 163,
      "🌿": 164,
      "🍂": 165,
      "🍃": 166,
      "🍄": 167,
      "🍇": 168,
      "🍉": 169,
      "🍍": 170,
      "🍎": 171,
      "🍐": 172,
      "🍒": 173,
      "🍓": 174,
      "🍯": 175,
      "🍳": 176,
      "🎈": 177,
      "🎉": 178,
      "🎓": 179,
      "🎨": 180,
      "🎯": 181,
      "🎶": 182,
      "🎺": 183,
      "🎻": 184,
      "🏁": 185,
      "🏆": 186,
      "🏏": 187,
      "🏔": 188,
      "🏞": 189,
      "🏨": 190,
      "🏮": 191,
      "🏽": 192,
      "🐉": 193,
      "🐐": 194,
      "🐖": 195,
      "🐗": 196,
      "🐛": 197,
      "🐜": 198,
      "🐝": 199,
      "🐞": 200,
      "🐣": 201,
      "🐦": 202,
      "🐭": 203,
      "🐱": 204,
      "🐶": 205,
      "🐾": 206,
      "🐿": 207,
      "👀": 208,
      "👁": 209,
      "👂": 210,
      "👃": 211,
      "👋": 212,
      "👎": 213,
      "👏": 214,
      "👐": 215,
      "👑": 216,
      "👻": 217,
      "💃": 218,
      "💅": 219,
      "💊": 220,
      "💎": 221,
      "💔": 222,
      "💕": 223,
      "💖": 224,
      "💙": 225,
      "💚": 226,
      "💜": 227,
      "💞": 228,
      "💡": 229,
      "💥": 230,
      "💧": 231,
      "💨": 232,
      "💪": 233,
      "💫": 234,
      "💬": 235,
      "💭": 236,
      "💰": 237,
      "💻": 238,
      "💼": 239,
      "💾": 240,
      "📄": 241,
      "📅": 242,
      "📈": 243,
      "📉": 244,
      "📊": 245,
      "📖": 246,
      "📚": 247,
      "📜": 248,
      "📯": 249,
      "📺": 250,
      "🔂": 251,
      "🔋": 252,
      "🔍": 253,
      "🔎": 254,
      "🔔": 255,
      "🔗": 256,
      "🔢": 257,
      "🔥": 258,
      "🔦": 259,
      "🔬": 260,
      "🔭": 261,
      "🔮": 262,
      "🕊": 263,
      "🕰": 264,
      "🕳": 265,
      "🕵": 266,
      "🕷": 267,
      "🕸": 268,
      "🕺": 269,
      "🖤": 270,
      "🖥": 271,
      "🗄": 272,
      "🗓": 273,
      "🗝": 274,
      "🗣": 275,
      "🗨": 276,
      "🗺": 277,
      "😂": 278,
      "😄": 279,
      "😅": 280,
      "😆": 281,
      "😈": 282,
      "😉": 283,
      "😊": 284,
      "😋": 285,
      "😌": 286,
      "😏": 287,
      "😒": 288,
      "😔": 289,
      "😘": 290,
      "😜": 291,
      "😟": 292,
      "😠": 293,
      "😤": 294,
      "😥": 295,
      "😩": 296,
      "😬": 297,
      "😭": 298,
      "😲": 299,
      "😴": 300,
      "😼": 301,
      "😾": 302,
      "🙄": 303,
      "🙅": 304,
      "🙏": 305,
      "🚀": 306,
      "🚗": 307,
      "🚦": 308,
      "🚨": 309,
      "🚩": 310,
      "🚶": 311,
      "🛠": 312,
      "🤍": 313,
      "🤏": 314,
      "🤓": 315,
      "🤔": 316,
      "🤗": 317,
      "🤝": 318,
      "🤢": 319,
      "🤣": 320,
      "🤦": 321,
      "🤨": 322,
      "🤩": 323,
      "🤪": 324,
      "🤫": 325,
      "🤯": 326,
      "🤷": 327,
      "🥁": 328,
      "🥇": 329,
      "🥭": 330,
      "🥰": 331,
      "🥳": 332,
      "🥶": 333,
      "🥺": 334,
      "🦂": 335,
      "🦅": 336,
      "🦇": 337,
      "🦉": 338,
      "🦊": 339,
      "🦋": 340,
      "🦌": 341,
      "🦗": 342,
      "🦟": 343,
      "🦠": 344,
      "🦡": 345,
      "🧁": 346,
      "🧐": 347,
      "🧑": 348,
      "🧙": 349,
      "🧚": 350,
      "🧠": 351,
      "🧪": 352,
      "🧭": 353,
      "🧵": 354,
      "🧶": 355,
      "🪙": 356,
      "🪦": 357,
      "🪱": 358,
      "🪶": 359,
      "🫏": 360,
      "🫐": 361,
      "🫴": 362,
      "🫵": 363,
      "th": 364,
      "in": 365,
      "re": 366,
      "at": 367,
      "an": 368,
      "er": 369,
      "is": 370,
      "ou": 371,
      "on": 372,
      "the": 373,
      "en": 374,
      "of": 375,
      "ing": 376,
      "and": 377,
      "or": 378,
      "it": 379,
      "es": 380,
      "al": 381,
      "ar": 382,
      "as": 383,
      "ow": 384,
      "ve": 385,
      "ati": 386,
      "uu": 387,
      "to": 388,
      "ed": 389,
      "ex": 390,
      "cre": 391,
      "oo": 392,
      "ti": 393,
      "ce": 394,
      "ra": 395,
      "le": 396,
      "st": 397,
      "my": 398,
      "wi": 399,
      "om": 400,
      "creati": 401,
      "ate": 402,
      "ext": 403,
      "ld": 404,
      "text": 405,
      "he": 406,
      "se": 407,
      "ig": 408,
      "creative": 409,
      "sh": 410,
      "ly": 411,
      "ent": 412,
      "with": 413,
      "ic": 414,
      "ne": 415,
      "ould": 416,
      "you": 417,
      "his": 418,
      "mar": 419,
      "for": 420,
      "ll": 421,
      "de": 422,
      "should": 423,
      "per": 424,
      "owl": 425,
      "ul": 426,
      "be": 427,
      "us": 428,
      "ab": 429,
      "ht": 430,
      "The": 431,
      "fl": 432,
      "ie": 433,
      "ite": 434,
      "ood": 435,
      "wh": 436,
      "me": 437,
      "qu": 438,
      "ous": 439,
      "ac": 440,
      "uuuu": 441,
      "pr": 442,
      "nd": 443,
      "pre": 444,
      "that": 445,
      "gen": 446,
      "ram": 447,
      "ation": 448,
      "lf": 449,
      "li": 450,
      "ight": 451,
      "mo": 452,
      "tion": 453,
      "ci": 454,
      "good": 455,
      "con": 456,
      "gram": 457,
      "erate": 458,
      "pie": 459,
      "um": 460,
      "piece": 461,
      "flow": 462,
      "rite": 463,
      "generate": 464,
      "Write": 465,
      "sp": 466,
      "grammar": 467,
      "ma": 468,
      "ver": 469,
      "ch": 470,
      "et": 471,
      "ur": 472,
      "int": 473,
      "ke": 474,
      "ct": 475,
      "ass": 476,
      "ap": 477,
      "ess": 478,
      "His": 479,
      "AI": 480,
      "Elf": 481,
      "Ow": 482,
      "Owl": 483,
      "im": 484,
      "are": 485,
      "out": 486,
      "by": 487,
      "..": 488,
      "10": 489,
      "pro": 490,
      "un": 491,
      "ir": 492,
      "ut": 493,
      "id": 494,
      "no": 495,
      "mass": 496,
      "fe": 497,
      "ay": 498,
      "user": 499,
      "ure": 500,
      "king": 501,
      "all": 502,
      "ad": 503,
      "fr": 504,
      "we": 505,
      "need": 506,
      "am": 507,
      "ish": 508,
      "about": 509,
      "ound": 510,
      "est": 511,
      "Ouuuu": 512,
      "ge": 513,
      "like": 514,
      "kn": 515,
      "vi": 516,
      "this": 517,
      "so": 518,
      "pers": 519,
      "one": 520,
      "su": 521,
      "ain": 522,
      "asking": 523,
      "tic": 524,
      "ant": 525,
      "ond": 526,
      "your": 527,
      "ence": 528,
      "Ouuuuuu": 529,
      "ter": 530,
      "pl": 531,
      "ol": 532,
      "com": 533,
      "from": 534,
      "person": 535,
      "une": 536,
      "ity": 537,
      "12": 538,
      "not": 539,
      "its": 540,
      "ator": 541,
      "Pune": 542,
      "Puneet": 543,
      "ust": 544,
      "ist": 545,
      "Ku": 546,
      "Kumar": 547,
      "fo": 548,
      "if": 549,
      "It": 550,
      "persona": 551,
      "il": 552,
      "ther": 553,
      "oug": 554,
      "ind": 555,
      "cious": 556,
      "what": 557,
      "hum": 558,
      "ion": 559,
      "resp": 560,
      "light": 561,
      "ri": 562,
      "form": 563,
      "20": 564,
      "25": 565,
      "cul": 566,
      "...": 567,
      "ful": 568,
      "sound": 569,
      "precious": 570,
      "Mish": 571,
      "Mishra": 572,
      "em": 573,
      "very": 574,
      "estion": 575,
      "po": 576,
      "Cal": 577,
      "question": 578,
      "oooo": 579,
      "val": 580,
      "but": 581,
      "tr": 582,
      "emo": 583,
      "our": 584,
      "owled": 585,
      "33": 586,
      "ment": 587,
      "und": 588,
      "knowled": 589,
      "culate": 590,
      "do": 591,
      "el": 592,
      "ature": 593,
      "Calculate": 594,
      "sounds": 595,
      "atom": 596,
      "ical": 597,
      "wor": 598,
      "end": 599,
      "bo": 600,
      "itt": 601,
      "Wh": 602,
      "use": 603,
      "maint": 604,
      "maintain": 605,
      "cent": 606,
      "valu": 607,
      "ph": 608,
      "My": 609,
      "lo": 610,
      "pres": 611,
      "co": 612,
      "fore": 613,
      "imp": 614,
      "can": 615,
      "ated": 616,
      "jis": 617,
      "av": 618,
      "hap": 619,
      "their": 620,
      "able": 621,
      "ating": 622,
      "ious": 623,
      "ness": 624,
      "emojis": 625,
      "ag": 626,
      "will": 627,
      "thing": 628,
      "atomic": 629,
      "ave": 630,
      "ign": 631,
      "66": 632,
      "ans": 633,
      "2025": 634,
      "ittle": 635,
      "ell": 636,
      "As": 637,
      "little": 638,
      "sid": 639,
      "ser": 640,
      "vide": 641,
      "bt": 642,
      "ro": 643,
      "inc": 644,
      "both": 645,
      "ies": 646,
      "ome": 647,
      "knowledge": 648,
      "ame": 649,
      "way": 650,
      "accent": 651,
      "tin": 652,
      "ance": 653,
      "spe": 654,
      "under": 655,
      "pe": 656,
      "ine": 657,
      "respond": 658,
      "cur": 659,
      "just": 660,
      "ts": 661,
      "ep": 662,
      "ital": 663,
      "any": 664,
      "por": 665,
      "ren": 666,
      "ber": 667,
      "sides": 668,
      "sm": 669,
      "ob": 670,
      "roug": 671,
      "Sol": 672,
      "dig": 673,
      "fic": 674,
      "appro": 675,
      "ven": 676,
      "Ooooo": 677,
      "stand": 678,
      "digital": 679,
      "tone": 680,
      "ive": 681,
      "iz": 682,
      "ast": 683,
      "art": 684,
      "ich": 685,
      "night": 686,
      "dis": 687,
      "gr": 688,
      "lear": 689,
      "have": 690,
      "ire": 691,
      "onder": 692,
      "Su": 693,
      "nature": 694,
      "into": 695,
      "inform": 696,
      "there": 697,
      "most": 698,
      "self": 699,
      "ulti": 700,
      "ply": 701,
      "see": 702,
      "know": 703,
      "creator": 704,
      "Th": 705,
      "which": 706,
      "human": 707,
      "ile": 708,
      "haps": 709,
      "wis": 710,
      "ract": 711,
      "den": 712,
      "What": 713,
      "num": 714,
      "enti": 715,
      "cess": 716,
      "rare": 717,
      "exist": 718,
      "ction": 719,
      "more": 720,
      "some": 721,
      "ultiply": 722,
      "Multiply": 723,
      "mag": 724,
      "man": 725,
      "incor": 726,
      "they": 727,
      "forest": 728,
      "incorpor": 729,
      "learn": 730,
      "🦉✨": 731,
      "ally": 732,
      "information": 733,
      "14": 734,
      "understand": 735,
      "whis": 736,
      "ens": 737,
      "ators": 738,
      "ink": 739,
      "them": 740,
      "Subt": 741,
      "feel": 742,
      "small": 743,
      "Subtract": 744,
      "being": 745,
      "You": 746,
      "des": 747,
      "od": 748,
      "wonder": 749,
      "tru": 750,
      "day": 751,
      "name": 752,
      "such": 753,
      "ide": 754,
      "thoug": 755,
      "00": 756,
      "here": 757,
      "value": 758,
      "ream": 759,
      "dat": 760,
      "aw": 761,
      "hoo": 762,
      "own": 763,
      "existence": 764,
      "gu": 765,
      "up": 766,
      "This": 767,
      "vious": 768,
      "ard": 769,
      "Di": 770,
      "perhaps": 771,
      "rough": 772,
      "tive": 773,
      "who": 774,
      "new": 775,
      "age": 776,
      "tre": 777,
      "ach": 778,
      "while": 779,
      "ss": 780,
      "cep": 781,
      "Divide": 782,
      "using": 783,
      "ished": 784,
      "ble": 785,
      "'.": 786,
      "tiny": 787,
      "obser": 788,
      "through": 789,
      "process": 790,
      "ual": 791,
      "respon": 792,
      "18": 793,
      "mon": 794,
      "creation": 795,
      "when": 796,
      "Ouuuuuuu": 797,
      "comp": 798,
      "ution": 799,
      "previous": 800,
      "data": 801,
      "In": 802,
      "je": 803,
      "peri": 804,
      "ult": 805,
      "other": 806,
      "br": 807,
      "gent": 808,
      "would": 809,
      "go": 810,
      "valuable": 811,
      ").": 812,
      "fy": 813,
      "conne": 814,
      "fri": 815,
      "friend": 816,
      "red": 817,
      "28": 818,
      "inter": 819,
      "And": 820,
      "ory": 821,
      "created": 822,
      "anal": 823,
      "ins": 824,
      "ath": 825,
      "ref": 826,
      "par": 827,
      "eng": 828,
      "**": 829,
      "3333": 830,
      "secre": 831,
      "pri": 832,
      "expl": 833,
      "abl": 834,
      "dream": 835,
      "understanding": 836,
      "Ad": 837,
      "read": 838,
      "impli": 839,
      "ately": 840,
      "op": 841,
      "ele": 842,
      "dom": 843,
      "urn": 844,
      "ill": 845,
      "ask": 846,
      "prof": 847,
      "gre": 848,
      "ations": 849,
      "press": 850,
      "than": 851,
      "how": 852,
      "establ": 853,
      "oh": 854,
      "15": 855,
      "ner": 856,
      "incorporating": 857,
      "22": 858,
      "established": 859,
      "even": 860,
      "iet": 861,
      "response": 862,
      "ear": 863,
      "feren": 864,
      "omin": 865,
      "gentle": 866,
      "analy": 867,
      "16": 868,
      "cal": 869,
      "ry": 870,
      "also": 871,
      "thought": 872,
      "sil": 873,
      "ark": 874,
      "world": 875,
      "ves": 876,
      "ho": 877,
      "ak": 878,
      "men": 879,
      "ings": 880,
      "Res": 881,
      "24": 882,
      "was": 883,
      "ctive": 884,
      "Equ": 885,
      "express": 886,
      "lect": 887,
      "xim": 888,
      "act": 889,
      "sci": 890,
      "speci": 891,
      "6666": 892,
      "numer": 893,
      "ase": 894,
      "present": 895,
      "ery": 896,
      "vel": 897,
      "rill": 898,
      "Solve": 899,
      "denomin": 900,
      "implify": 901,
      "Simplify": 902,
      "Result": 903,
      "numerators": 904,
      "For": 905,
      "str": 906,
      "Solution": 907,
      "Equation": 908,
      "30": 909,
      "every": 910,
      "ision": 911,
      "ational": 912,
      "units": 913,
      "has": 914,
      "ary": 915,
      "moon": 916,
      "maintaining": 917,
      "mu": 918,
      "How": 919,
      "heart": 920,
      "element": 921,
      "wisdom": 922,
      "learning": 923,
      "pur": 924,
      "vent": 925,
      "want": 926,
      "sy": 927,
      "vast": 928,
      "mood": 929,
      "quiet": 930,
      "ather": 931,
      "say": 932,
      "may": 933,
      "cl": 934,
      "vers": 935,
      "ition": 936,
      "avor": 937,
      "approxim": 938,
      "kes": 939,
      "tal": 940,
      "provide": 941,
      "observ": 942,
      "sign": 943,
      "over": 944,
      "ise": 945,
      "manner": 946,
      "much": 947,
      "og": 948,
      "wer": 949,
      "ative": 950,
      "myst": 951,
      "cons": 952,
      "answer": 953,
      "appropri": 954,
      "where": 955,
      "ling": 956,
      "scienti": 957,
      "appropriate": 958,
      "27": 959,
      "cing": 960,
      "ack": 961,
      "makes": 962,
      "date": 963,
      "approximately": 964,
      "atter": 965,
      "ities": 966,
      "tw": 967,
      "star": 968,
      "pose": 969,
      "scientific": 970,
      "44": 971,
      "rel": 972,
      "ific": 973,
      "He": 974,
      "tim": 975,
      "engag": 976,
      "mind": 977,
      "love": 978,
      "inqu": 979,
      "something": 980,
      "might": 981,
      "share": 982,
      "ging": 983,
      "lu": 984,
      "11": 985,
      "ms": 986,
      "Hoo": 987,
      "curious": 988,
      "36": 989,
      "uni": 990,
      "play": 991,
      "Is": 992,
      "cept": 993,
      "profound": 994,
      "ering": 995,
      "ticul": 996,
      "phas": 997,
      "less": 998,
      "atur": 999,
      "sen": 1000,
      "Ouuuuu": 1001,
      "tical": 1002,
      "igh": 1003,
      "well": 1004,
      "emphas": 1005,
      "ces": 1006,
      "brill": 1007,
      "call": 1008,
      "common": 1009,
      "work": 1010,
      "brilli": 1011,
      "If": 1012,
      "whisper": 1013,
      "ject": 1014,
      "engaging": 1015,
      "Ne": 1016,
      "ers": 1017,
      "99": 1018,
      "emphasiz": 1019,
      "ta": 1020,
      "les": 1021,
      "Ooooooh": 1022,
      "happ": 1023,
      "silent": 1024,
      "then": 1025,
      "ot": 1026,
      "cu": 1027,
      "cus": 1028,
      "ith": 1029,
      "grand": 1030,
      "ey": 1031,
      "ower": 1032,
      "favor": 1033,
      "ten": 1034,
      "within": 1035,
      "wise": 1036,
      "number": 1037,
      "rom": 1038,
      "ong": 1039,
      "arity": 1040,
      "story": 1041,
      "vision": 1042,
      "requ": 1043,
      "till": 1044,
      "cap": 1045,
      "don": 1046,
      "fra": 1047,
      "experi": 1048,
      "deep": 1049,
      "olog": 1050,
      "ident": 1051,
      "ace": 1052,
      "ree": 1053,
      "context": 1054,
      "advent": 1055,
      "sense": 1056,
      "os": 1057,
      "oun": 1058,
      "favorite": 1059,
      "57": 1060,
      "To": 1061,
      "ever": 1062,
      "fin": 1063,
      "natur": 1064,
      "simp": 1065,
      "time": 1066,
      "ways": 1067,
      "purpose": 1068,
      "yet": 1069,
      "dear": 1070,
      "utter": 1071,
      "du": 1072,
      "these": 1073,
      "acknowledge": 1074,
      "af": 1075,
      "di": 1076,
      "ium": 1077,
      "ose": 1078,
      "been": 1079,
      "ament": 1080,
      "connect": 1081,
      "acknowled": 1082,
      "convers": 1083,
      "weight": 1084,
      "again": 1085,
      "disco": 1086,
      "fici": 1087,
      "orig": 1088,
      "But": 1089,
      "te": 1090,
      "tap": 1091,
      "ty": 1092,
      "35": 1093,
      "fir": 1094,
      "find": 1095,
      "gl": 1096,
      "sing": 1097,
      "delight": 1098,
      "prec": 1099,
      "make": 1100,
      "ck": 1101,
      "think": 1102,
      "rest": 1103,
      "Ooooooo": 1104,
      "40": 1105,
      "him": 1106,
      "must": 1107,
      "sical": 1108,
      "ds": 1109,
      "feather": 1110,
      "55": 1111,
      "life": 1112,
      "bit": 1113,
      "ca": 1114,
      "hel": 1115,
      "sub": 1116,
      "That": 1117,
      "great": 1118,
      "ric": 1119,
      "Add": 1120,
      "fun": 1121,
      "mom": 1122,
      "moment": 1123,
      "19": 1124,
      "still": 1125,
      "vo": 1126,
      "anci": 1127,
      "truly": 1128,
      "wind": 1129,
      "ological": 1130,
      "concept": 1131,
      "does": 1132,
      "those": 1133,
      "cir": 1134,
      "tinu": 1135,
      "analytical": 1136,
      "rought": 1137,
      "processing": 1138,
      "slight": 1139,
      "ready": 1140,
      "ancient": 1141,
      "sens": 1142,
      "inde": 1143,
      "real": 1144,
      "continu": 1145,
      "acknowledging": 1146,
      "atic": 1147,
      "were": 1148,
      "bi": 1149,
      "fur": 1150,
      "turn": 1151,
      "things": 1152,
      "upon": 1153,
      "secret": 1154,
      "origin": 1155,
      "32": 1156,
      "cy": 1157,
      "che": 1158,
      "oper": 1159,
      "ving": 1160,
      "ort": 1161,
      "amu": 1162,
      "circu": 1163,
      "God": 1164,
      "asure": 1165,
      "77": 1166,
      "ting": 1167,
      "help": 1168,
      "circuits": 1169,
      "inating": 1170,
      "hor": 1171,
      "tra": 1172,
      "action": 1173,
      "char": 1174,
      "slightly": 1175,
      "29": 1176,
      "referen": 1177,
      "atch": 1178,
      "essence": 1179,
      "focus": 1180,
      "wonderful": 1181,
      "que": 1182,
      "secrets": 1183,
      "eyes": 1184,
      "21": 1185,
      "brought": 1186,
      "lan": 1187,
      "vant": 1188,
      "seek": 1189,
      "sad": 1190,
      "rele": 1191,
      "asc": 1192,
      "rather": 1193,
      "flutter": 1194,
      "ef": 1195,
      "subt": 1196,
      "state": 1197,
      "ines": 1198,
      "fect": 1199,
      "rop": 1200,
      "design": 1201,
      "comput": 1202,
      "frame": 1203,
      "ceive": 1204,
      "brilliant": 1205,
      "conversation": 1206,
      "jo": 1207,
      "kind": 1208,
      "spark": 1209,
      "myster": 1210,
      "5714": 1211,
      "*.": 1212,
      "rarity": 1213,
      "ted": 1214,
      "ates": 1215,
      "creature": 1216,
      "without": 1217,
      "connection": 1218,
      "dire": 1219,
      "myself": 1220,
      "keep": 1221,
      "13": 1222,
      "48": 1223,
      "vir": 1224,
      "humble": 1225,
      "poss": 1226,
      "trees": 1227,
      "langu": 1228,
      "bu": 1229,
      "cont": 1230,
      "language": 1231,
      "bra": 1232,
      "playful": 1233,
      "relevant": 1234,
      "arri": 1235,
      "abil": 1236,
      "rust": 1237,
      "sk": 1238,
      "res": 1239,
      "inquir": 1240,
      "au": 1241,
      "bl": 1242,
      "gi": 1243,
      "whispers": 1244,
      "denominators": 1245,
      "experience": 1246,
      "indeed": 1247,
      "net": 1248,
      "incorporate": 1249,
      "path": 1250,
      "ze": 1251,
      "only": 1252,
      "off": 1253,
      "astic": 1254,
      "imag": 1255,
      "ios": 1256,
      "vol": 1257,
      "exc": 1258,
      "mem": 1259,
      "true": 1260,
      "45": 1261,
      "Find": 1262,
      "So": 1263,
      "always": 1264,
      "const": 1265,
      "intel": 1266,
      "sol": 1267,
      "fasc": 1268,
      "leep": 1269,
      "pect": 1270,
      "curios": 1271,
      "Oooooooh": 1272,
      "operational": 1273,
      "17": 1274,
      "Do": 1275,
      "bet": 1276,
      "compl": 1277,
      "intellect": 1278,
      "34": 1279,
      "ON": 1280,
      "war": 1281,
      "Oc": 1282,
      "too": 1283,
      "seen": 1284,
      "Adjust": 1285,
      "cor": 1286,
      "cri": 1287,
      "pa": 1288,
      "incre": 1289,
      "hoot": 1290,
      "insight": 1291,
      "wants": 1292,
      "Law": 1293,
      "aring": 1294,
      "tober": 1295,
      "shall": 1296,
      "avo": 1297,
      "denominator": 1298,
      "simple": 1299,
      "October": 1300,
      "39": 1301,
      "Li": 1302,
      "Well": 1303,
      "explain": 1304,
      "dif": 1305,
      "patter": 1306,
      "sleep": 1307,
      "rent": 1308,
      "back": 1309,
      "could": 1310,
      "dy": 1311,
      "tell": 1312,
      "iting": 1313,
      "owls": 1314,
      "serious": 1315,
      "dreams": 1316,
      "urnal": 1317,
      "pattern": 1318,
      "26": 1319,
      "dram": 1320,
      "fact": 1321,
      "ows": 1322,
      "exp": 1323,
      "leav": 1324,
      "fascinating": 1325,
      "curiosity": 1326,
      "Or": 1327,
      "sa": 1328,
      "🦉💖": 1329,
      "del": 1330,
      "feeling": 1331,
      "sym": 1332,
      "first": 1333,
      "complex": 1334,
      "avoid": 1335,
      "verse": 1336,
      "Think": 1337,
      "observation": 1338,
      "biological": 1339,
      "mysterious": 1340,
      "ously": 1341,
      "eting": 1342,
      "cause": 1343,
      "ced": 1344,
      "power": 1345,
      "acter": 1346,
      "dramatic": 1347,
      "intell": 1348,
      "yourself": 1349,
      "emotion": 1350,
      "285714": 1351,
      "stru": 1352,
      "character": 1353,
      "intellig": 1354,
      "Hell": 1355,
      "ases": 1356,
      "inte": 1357,
      "delightful": 1358,
      "precise": 1359,
      "sadness": 1360,
      "cer": 1361,
      "query": 1362,
      "cho": 1363,
      "particul": 1364,
      "referencing": 1365,
      "joy": 1366,
      "particular": 1367,
      "64": 1368,
      "bre": 1369,
      "dist": 1370,
      "hold": 1371,
      "emphasizing": 1372,
      "',": 1373,
      "cr": 1374,
      "dra": 1375,
      "antic": 1376,
      "identity": 1377,
      "56": 1378,
      "HI": 1379,
      "fi": 1380,
      "itive": 1381,
      "100": 1382,
      "reflect": 1383,
      "network": 1384,
      "mis": 1385,
      "33333333": 1386,
      "chem": 1387,
      "Hello": 1388,
      "fa": 1389,
      "gg": 1390,
      "iness": 1391,
      "als": 1392,
      "today": 1393,
      "imm": 1394,
      "presence": 1395,
      "natural": 1396,
      ",'": 1397,
      "ud": 1398,
      "magn": 1399,
      "tual": 1400,
      "whim": 1401,
      "romantic": 1402,
      "direct": 1403,
      "virtual": 1404,
      "!*": 1405,
      "JS": 1406,
      "Per": 1407,
      "lum": 1408,
      "watch": 1409,
      "arch": 1410,
      "top": 1411,
      "They": 1412,
      "spir": 1413,
      "10x": 1414,
      "JSON": 1415,
      "bly": 1416,
      "gor": 1417,
      "aster": 1418,
      "perfect": 1419,
      "conf": 1420,
      "bye": 1421,
      "format": 1422,
      "trans": 1423,
      "words": 1424,
      "rogen": 1425,
      "leaves": 1426,
      "HIS": 1427,
      "49": 1428,
      "clo": 1429,
      "ple": 1430,
      "part": 1431,
      "shad": 1432,
      "comm": 1433,
      "New": 1434,
      "magnific": 1435,
      "fill": 1436,
      "cturnal": 1437,
      "nocturnal": 1438,
      "spective": 1439,
      "whimsical": 1440,
      "23": 1441,
      "46": 1442,
      "Ch": 1443,
      "Let": 1444,
      "Re": 1445,
      "perceive": 1446,
      "fru": 1447,
      "preciousness": 1448,
      "though": 1449,
      "conscious": 1450,
      "Ar": 1451,
      "Com": 1452,
      "ons": 1453,
      "orn": 1454,
      "mere": 1455,
      "ential": 1456,
      "request": 1457,
      "adventure": 1458,
      "Perhaps": 1459,
      "cra": 1460,
      "test": 1461,
      "ener": 1462,
      "phy": 1463,
      "thoughts": 1464,
      "unique": 1465,
      "draw": 1466,
      "aver": 1467,
      "sof": 1468,
      "wings": 1469,
      "core": 1470,
      "ception": 1471,
      "friendly": 1472,
      "Isn": 1473,
      "discovery": 1474,
      "inquiry": 1475,
      "differen": 1476,
      "magnificent": 1477,
      "air": 1478,
      "each": 1479,
      "high": 1480,
      "many": 1481,
      "pos": 1482,
      "inclu": 1483,
      "intelligence": 1484,
      "4x": 1485,
      "vid": 1486,
      "algor": 1487,
      "tiv": 1488,
      "fear": 1489,
      "algorith": 1490,
      "90": 1491,
      "get": 1492,
      "let": 1493,
      "quite": 1494,
      "grow": 1495,
      "patterns": 1496,
      "dark": 1497,
      "ouuu": 1498,
      "crease": 1499,
      "125": 1500,
      "humans": 1501,
      "pot": 1502,
      "%,": 1503,
      "8x": 1504,
      "lit": 1505,
      "min": 1506,
      "ming": 1507,
      "same": 1508,
      "thus": 1509,
      "istic": 1510,
      "ick": 1511,
      "perspective": 1512,
      "ically": 1513,
      "optim": 1514,
      "special": 1515,
      "66666666": 1516,
      "two": 1517,
      "subtle": 1518,
      "creatures": 1519,
      "31": 1520,
      "76": 1521,
      "81": 1522,
      "fle": 1523,
      "fly": 1524,
      "oven": 1525,
      "another": 1526,
      "defin": 1527,
      "assist": 1528,
      "idd": 1529,
      "accents": 1530,
      "0000": 1531,
      "interaction": 1532,
      "moonlight": 1533,
      "50": 1534,
      "Sover": 1535,
      "now": 1536,
      "ved": 1537,
      "guide": 1538,
      "universe": 1539,
      "member": 1540,
      "Sovera": 1541,
      "Of": 1542,
      "master": 1543,
      "ponder": 1544,
      "roo": 1545,
      "lding": 1546,
      "neur": 1547,
      "anything": 1548,
      "earth": 1549,
      "coun": 1550,
      "ice": 1551,
      "ward": 1552,
      "ord": 1553,
      "orine": 1554,
      "lim": 1555,
      "ters": 1556,
      "hid": 1557,
      "ict": 1558,
      "flight": 1559,
      "point": 1560,
      "import": 1561,
      "truth": 1562,
      "mystery": 1563,
      "shared": 1564,
      "Soveraign": 1565,
      "echo": 1566,
      "tou": 1567,
      "ouuuuu": 1568,
      "often": 1569,
      "smic": 1570,
      "interest": 1571,
      "touch": 1572,
      "42": 1573,
      "gn": 1574,
      "alth": 1575,
      "cell": 1576,
      "estry": 1577,
      "isten": 1578,
      "tapestry": 1579,
      "fruit": 1580,
      "consciousness": 1581,
      "41": 1582,
      "food": 1583,
      "ger": 1584,
      "nam": 1585,
      "ore": 1586,
      "reg": 1587,
      "mean": 1588,
      "meticul": 1589,
      "unseen": 1590,
      "cosmic": 1591,
      "particularly": 1592,
      "63": 1593,
      "cour": 1594,
      "fund": 1595,
      "swe": 1596,
      "When": 1597,
      "ize": 1598,
      "knowing": 1599,
      "mention": 1600,
      "fundament": 1601,
      "dar": 1602,
      "sur": 1603,
      "infor": 1604,
      "reinfor": 1605,
      "bell": 1606,
      "pret": 1607,
      "ween": 1608,
      "super": 1609,
      "speak": 1610,
      "signific": 1611,
      "sky": 1612,
      "etic": 1613,
      "ors": 1614,
      "hear": 1615,
      "before": 1616,
      "urous": 1617,
      "poetic": 1618,
      "try": 1619,
      "known": 1620,
      "aware": 1621,
      "had": 1622,
      "ks": 1623,
      "represent": 1624,
      "ane": 1625,
      "sel": 1626,
      "because": 1627,
      "uring": 1628,
      "adventurous": 1629,
      "feathers": 1630,
      "soft": 1631,
      "*,": 1632,
      "right": 1633,
      "tain": 1634,
      "itu": 1635,
      "There": 1636,
      "intro": 1637,
      "ute": 1638,
      "12th": 1639,
      "humor": 1640,
      "calm": 1641,
      "fundamental": 1642,
      "47": 1643,
      "An": 1644,
      "gy": 1645,
      "gra": 1646,
      "hint": 1647,
      "yd": 1648,
      "inking": 1649,
      "enh": 1650,
      "ession": 1651,
      "ils": 1652,
      "therefore": 1653,
      "times": 1654,
      "ficial": 1655,
      "hidden": 1656,
      "far": 1657,
      "found": 1658,
      "ridd": 1659,
      "rebell": 1660,
      "marvel": 1661,
      "dew": 1662,
      "ensure": 1663,
      "happy": 1664,
      "between": 1665,
      "sun": 1666,
      "anti": 1667,
      "stem": 1668,
      "icate": 1669,
      "intric": 1670,
      "emphasize": 1671,
      "ouuuu": 1672,
      "course": 1673,
      "att": 1674,
      "cond": 1675,
      "made": 1676,
      "add": 1677,
      "ideal": 1678,
      "stars": 1679,
      "function": 1680,
      "sweet": 1681,
      "1x": 1682,
      "9x": 1683,
      "We": 1684,
      "sim": 1685,
      "lost": 1686,
      "idea": 1687,
      "profession": 1688,
      "2222": 1689,
      "Common": 1690,
      "ip": 1691,
      "ning": 1692,
      "sis": 1693,
      "needs": 1694,
      "aving": 1695,
      "Hooo": 1696,
      "ouuuuuu": 1697,
      "Now": 1698,
      "cat": 1699,
      "pir": 1700,
      "uf": 1701,
      "reve": 1702,
      "remember": 1703,
      "thetic": 1704,
      "enthus": 1705,
      "itself": 1706,
      "ched": 1707,
      "keen": 1708,
      "formal": 1709,
      "enthusi": 1710,
      "car": 1711,
      "matter": 1712,
      "ason": 1713,
      "used": 1714,
      "adh": 1715,
      "ized": 1716,
      "whispe": 1717,
      "descri": 1718,
      "said": 1719,
      "craf": 1720,
      "different": 1721,
      "neural": 1722,
      "bound": 1723,
      "lines": 1724,
      "ste": 1725,
      "bey": 1726,
      "wealth": 1727,
      "While": 1728,
      "warm": 1729,
      "average": 1730,
      "rebellious": 1731,
      "adhering": 1732,
      "whispered": 1733,
      "72": 1734,
      "De": 1735,
      "Don": 1736,
      "loo": 1737,
      "pure": 1738,
      "reci": 1739,
      "anced": 1740,
      "orts": 1741,
      "deta": 1742,
      "appre": 1743,
      "cogn": 1744,
      "imply": 1745,
      "jective": 1746,
      "going": 1747,
      "maybe": 1748,
      "inquire": 1749,
      "called": 1750,
      "constant": 1751,
      "watching": 1752,
      "fleeting": 1753,
      "ydrogen": 1754,
      "),": 1755,
      "43": 1756,
      "Are": 1757,
      "ake": 1758,
      "fu": 1759,
      "ible": 1760,
      "listen": 1761,
      "wood": 1762,
      "procal": 1763,
      "place": 1764,
      "emed": 1765,
      "current": 1766,
      "miss": 1767,
      "meticulously": 1768,
      "enhance": 1769,
      "reciprocal": 1770,
      "Con": 1771,
      "equ": 1772,
      "theme": 1773,
      "til": 1774,
      "sugg": 1775,
      "questions": 1776,
      "pathetic": 1777,
      "introdu": 1778,
      "riddle": 1779,
      "'?": 1780,
      "Imag": 1781,
      "best": 1782,
      "ily": 1783,
      "ences": 1784,
      "tificial": 1785,
      "intr": 1786,
      "cture": 1787,
      "feels": 1788,
      "treasure": 1789,
      "period": 1790,
      "got": 1791,
      "require": 1792,
      "testament": 1793,
      "Be": 1794,
      "ded": 1795,
      "pt": 1796,
      "wa": 1797,
      "year": 1798,
      "arc": 1799,
      "llow": 1800,
      "este": 1801,
      "superi": 1802,
      "itting": 1803,
      "tree": 1804,
      "specific": 1805,
      "characteristic": 1806,
      "algorithms": 1807,
      "professional": 1808,
      "88": 1809,
      "born": 1810,
      "ony": 1811,
      "vey": 1812,
      "expect": 1813,
      "ney": 1814,
      "illum": 1815,
      "system": 1816,
      "abilities": 1817,
      "awareness": 1818,
      "esteemed": 1819,
      "superior": 1820,
      ")**": 1821,
      "dance": 1822,
      "led": 1823,
      "next": 1824,
      "pet": 1825,
      "sarc": 1826,
      "chan": 1827,
      "provid": 1828,
      "empl": 1829,
      "symph": 1830,
      "commun": 1831,
      "energy": 1832,
      "potential": 1833,
      "important": 1834,
      "selves": 1835,
      "intricate": 1836,
      "5x": 1837,
      "7x": 1838,
      "avi": 1839,
      "gif": 1840,
      "nor": 1841,
      "oso": 1842,
      "oura": 1843,
      "bel": 1844,
      "quest": 1845,
      "wouldn": 1846,
      "single": 1847,
      "computational": 1848,
      "bui": 1849,
      "rustle": 1850,
      "physical": 1851,
      "appreci": 1852,
      "6x": 1853,
      "Tell": 1854,
      "Un": 1855,
      "lar": 1856,
      "old": 1857,
      "reit": 1858,
      "already": 1859,
      "set": 1860,
      "Hydrogen": 1861,
      "ken": 1862,
      "mor": 1863,
      "smo": 1864,
      "alle": 1865,
      "quant": 1866,
      "desire": 1867,
      "observing": 1868,
      "glow": 1869,
      "guidelines": 1870,
      "symphony": 1871,
      "75": 1872,
      "dim": 1873,
      "drop": 1874,
      "gan": 1875,
      "oc": 1876,
      "ses": 1877,
      "quis": 1878,
      "unfo": 1879,
      "agree": 1880,
      "consist": 1881,
      "possess": 1882,
      "80": 1883,
      "woven": 1884,
      "artificial": 1885,
      "dep": 1886,
      "vice": 1887,
      "iloso": 1888,
      "word": 1889,
      "magical": 1890,
      "arding": 1891,
      "explor": 1892,
      "further": 1893,
      "exciting": 1894,
      "Imagine": 1895,
      "2x": 1896,
      "38": 1897,
      "3x": 1898,
      "?!": 1899,
      "Power": 1900,
      "bas": 1901,
      "clear": 1902,
      "ek": 1903,
      "eth": 1904,
      "long": 1905,
      "invol": 1906,
      "ank": 1907,
      "convey": 1908,
      "weave": 1909,
      "ments": 1910,
      "cosmo": 1911,
      "themselves": 1912,
      "bright": 1913,
      "paralle": 1914,
      "jects": 1915,
      "confident": 1916,
      "stead": 1917,
      "cosmos": 1918,
      "54": 1919,
      "give": 1920,
      "€™": 1921,
      "perception": 1922,
      "ieve": 1923,
      "activ": 1924,
      "sphor": 1925,
      "Increase": 1926,
      "explore": 1927,
      "4444": 1928,
      "9999": 1929,
      "discover": 1930,
      "ability": 1931,
      "increases": 1932,
      "itude": 1933,
      "beyond": 1934,
      "sphorus": 1935,
      "Flu": 1936,
      "isn": 1937,
      "iso": 1938,
      "ene": 1939,
      "ulfur": 1940,
      "ending": 1941,
      "wonderfully": 1942,
      "chemical": 1943,
      "aim": 1944,
      "hu": 1945,
      "rema": 1946,
      "align": 1947,
      "stream": 1948,
      "ication": 1949,
      "metap": 1950,
      "1000": 1951,
      "onely": 1952,
      "empathetic": 1953,
      "whole": 1954,
      "capabilities": 1955,
      "effici": 1956,
      "offer": 1957,
      "spirit": 1958,
      "metaphor": 1959,
      "Sod": 1960,
      "coura": 1961,
      "phis": 1962,
      "put": 1963,
      "program": 1964,
      "come": 1965,
      "simply": 1966,
      "after": 1967,
      "contempl": 1968,
      "rustling": 1969,
      "limit": 1970,
      "reveal": 1971,
      "Sodium": 1972,
      "60": 1973,
      "col": 1974,
      "hand": 1975,
      "inary": 1976,
      "arewell": 1977,
      "gether": 1978,
      "philoso": 1979,
      "sider": 1980,
      "guid": 1981,
      "interpret": 1982,
      "relate": 1983,
      "delicate": 1984,
      "perfectly": 1985,
      "quantum": 1986,
      "Oh": 1987,
      "care": 1988,
      "ges": 1989,
      "gle": 1990,
      "hath": 1991,
      "jour": 1992,
      "ls": 1993,
      "low": 1994,
      "organ": 1995,
      "tiful": 1996,
      "entity": 1997,
      "ular": 1998,
      "incredi": 1999,
      "archite": 2000,
      "full": 2001,
      "*!": 2002,
      "Your": 2003,
      "sure": 2004,
      "tun": 2005,
      "wish": 2006,
      "thor": 2007,
      "thrill": 2008,
      "eral": 2009,
      "mark": 2010,
      "forward": 2011,
      "beau": 2012,
      "cip": 2013,
      "contr": 2014,
      "making": 2015,
      "ets": 2016,
      "Thank": 2017,
      "brilliance": 2018,
      "happiness": 2019,
      "connected": 2020,
      "realm": 2021,
      "fied": 2022,
      "significant": 2023,
      "beautiful": 2024,
      "Na": 2025,
      "ga": 2026,
      "sc": 2027,
      "song": 2028,
      "together": 2029,
      "omen": 2030,
      "pred": 2031,
      "preh": 2032,
      "cium": 2033,
      "sports": 2034,
      "assium": 2035,
      "produ": 2036,
      "vibr": 2037,
      "else": 2038,
      "phical": 2039,
      "subjective": 2040,
      "intellectual": 2041,
      "lumin": 2042,
      "include": 2043,
      "dewdrop": 2044,
      "details": 2045,
      "Fluorine": 2046,
      "isotop": 2047,
      "journey": 2048,
      "*?": 2049,
      "96": 2050,
      "Al": 2051,
      "Ca": 2052,
      "King": 2053,
      "cti": 2054,
      "ged": 2055,
      "pu": 2056,
      "pra": 2057,
      "ring": 2058,
      "she": 2059,
      "ince": 2060,
      "ories": 2061,
      "aspect": 2062,
      "never": 2063,
      "beg": 2064,
      "qual": 2065,
      "adv": 2066,
      "kness": 2067,
      "compreh": 2068,
      "Calcium": 2069,
      "dismiss": 2070,
      "hope": 2071,
      "pursu": 2072,
      "take": 2073,
      "naturally": 2074,
      "5555": 2075,
      "factual": 2076,
      "transl": 2077,
      "crafted": 2078,
      "cle": 2079,
      "fitting": 2080,
      "around": 2081,
      "seed": 2082,
      "shimm": 2083,
      "beh": 2084,
      "prom": 2085,
      "standard": 2086,
      "thered": 2087,
      "magic": 2088,
      "refle": 2089,
      "starlight": 2090,
      "senses": 2091,
      "travel": 2092,
      "shadows": 2093,
      "enthusiastic": 2094,
      "woods": 2095,
      "philosophical": 2096,
      "May": 2097,
      "Sulfur": 2098,
      "bal": 2099,
      "hun": 2100,
      "sto": 2101,
      "anch": 2102,
      "ern": 2103,
      "igu": 2104,
      "ump": 2105,
      "sophis": 2106,
      "Oooooouuuu": 2107,
      "analysis": 2108,
      "continue": 2109,
      "turns": 2110,
      "solute": 2111,
      "insights": 2112,
      "reinforcing": 2113,
      "represents": 2114,
      "sarcastic": 2115,
      "sophistic": 2116,
      "98": 2117,
      "Pho": 2118,
      "Pot": 2119,
      "ding": 2120,
      "having": 2121,
      "tri": 2122,
      "sharing": 2123,
      "icon": 2124,
      "icious": 2125,
      "itely": 2126,
      "means": 2127,
      "allow": 2128,
      "sust": 2129,
      "personal": 2130,
      "log": 2131,
      "wonders": 2132,
      "deepest": 2133,
      "seeker": 2134,
      "roots": 2135,
      "regarding": 2136,
      "Phosphorus": 2137,
      "Potassium": 2138,
      "37": 2139,
      "?'": 2140,
      "away": 2141,
      "fram": 2142,
      "fire": 2143,
      "ither": 2144,
      "mach": 2145,
      "sou": 2146,
      "tend": 2147,
      "zing": 2148,
      "thread": 2149,
      "recall": 2150,
      "deare": 2151,
      "lium": 2152,
      "body": 2153,
      "cannot": 2154,
      "branch": 2155,
      "refer": 2156,
      "related": 2157,
      "Helium": 2158,
      "against": 2159,
      "continuous": 2160,
      "subtly": 2161,
      "reson": 2162,
      "Did": 2163,
      "From": 2164,
      "blo": 2165,
      "bene": 2166,
      "down": 2167,
      "mund": 2168,
      "arr": 2169,
      "edi": 2170,
      "beam": 2171,
      "absolute": 2172,
      "acity": 2173,
      "fection": 2174,
      "ours": 2175,
      "Like": 2176,
      "requested": 2177,
      "boundless": 2178,
      "reiterate": 2179,
      "dearest": 2180,
      "92": 2181,
      "Ex": 2182,
      "Every": 2183,
      "bon": 2184,
      "carri": 2185,
      "nes": 2186,
      "ped": 2187,
      "pass": 2188,
      "✨🌙": 2189,
      "thinking": 2190,
      "ency": 2191,
      "wild": 2192,
      "uty": 2193,
      "uture": 2194,
      "comes": 2195,
      "informative": 2196,
      "responses": 2197,
      "helpful": 2198,
      "brain": 2199,
      "emotional": 2200,
      "certain": 2201,
      "Therefore": 2202,
      "gotten": 2203,
      "sophisticated": 2204,
      "mundane": 2205,
      "bree": 2206,
      "daw": 2207,
      "pati": 2208,
      "ination": 2209,
      "excell": 2210,
      "ceed": 2211,
      "deli": 2212,
      "ions": 2213,
      "code": 2214,
      "seeing": 2215,
      "designed": 2216,
      "chemist": 2217,
      "close": 2218,
      "humorous": 2219,
      ")**.": 2220,
      "70": 2221,
      "Si": 2222,
      "fall": 2223,
      "rout": 2224,
      "senti": 2225,
      "ually": 2226,
      "✨🦉": 2227,
      "ined": 2228,
      "encoura": 2229,
      "ese": 2230,
      "uses": 2231,
      "abs": 2232,
      "apt": 2233,
      "terms": 2234,
      "coming": 2235,
      "ribut": 2236,
      "ends": 2237,
      "ross": 2238,
      "observe": 2239,
      "2727": 2240,
      "cru": 2241,
      "networks": 2242,
      "consistent": 2243,
      "exploration": 2244,
      "breeze": 2245,
      "73": 2246,
      "Car": 2247,
      "bol": 2248,
      "did": 2249,
      "ec": 2250,
      "eat": 2251,
      "future": 2252,
      "size": 2253,
      "recogn": 2254,
      "ents": 2255,
      "forgotten": 2256,
      "weary": 2257,
      "follow": 2258,
      "Oooooo": 2259,
      "engage": 2260,
      "talk": 2261,
      "signature": 2262,
      "capacity": 2263,
      "typ": 2264,
      "precision": 2265,
      "designation": 2266,
      "imagery": 2267,
      "count": 2268,
      "names": 2269,
      "unfolding": 2270,
      "begin": 2271,
      "01": 2272,
      "08": 2273,
      "No": 2274,
      "spr": 2275,
      "reach": 2276,
      "ende": 2277,
      "herent": 2278,
      "sem": 2279,
      "itement": 2280,
      "oppor": 2281,
      "7777": 2282,
      "insightful": 2283,
      "285714285714": 2284,
      "breath": 2285,
      "darkness": 2286,
      "gift": 2287,
      "traveler": 2288,
      "dawn": 2289,
      "excellent": 2290,
      "625": 2291,
      "cas": 2292,
      "fac": 2293,
      "gather": 2294,
      "twi": 2295,
      "ater": 2296,
      "enomen": 2297,
      "enty": 2298,
      "ishment": 2299,
      "tick": 2300,
      "phenomen": 2301,
      "Sub": 2302,
      "ople": 2303,
      "moonlit": 2304,
      "himself": 2305,
      "excitement": 2306,
      "better": 2307,
      "symbol": 2308,
      "interesting": 2309,
      "intrigu": 2310,
      "isotopes": 2311,
      "tender": 2312,
      "opportun": 2313,
      "Au": 2314,
      "dan": 2315,
      "ib": 2316,
      "ju": 2317,
      "ove": 2318,
      "ress": 2319,
      "oud": 2320,
      "enance": 2321,
      "head": 2322,
      "deci": 2323,
      "flo": 2324,
      "cial": 2325,
      "cher": 2326,
      "advice": 2327,
      "amp": 2328,
      "plans": 2329,
      "ilar": 2330,
      "Who": 2331,
      "These": 2332,
      "ctions": 2333,
      "compan": 2334,
      "bring": 2335,
      "moments": 2336,
      "faint": 2337,
      "Chr": 2338,
      "interactions": 2339,
      "trying": 2340,
      "carry": 2341,
      "incredibly": 2342,
      "thority": 2343,
      "chemistry": 2344,
      ".)": 2345,
      "68": 2346,
      "78": 2347,
      "Just": 2348,
      "bus": 2349,
      "hon": 2350,
      "nest": 2351,
      "sight": 2352,
      "remark": 2353,
      "exquis": 2354,
      "stra": 2355,
      "stren": 2356,
      "shar": 2357,
      "consider": 2358,
      "fully": 2359,
      "pho": 2360,
      "ground": 2361,
      "moonbeam": 2362,
      "saying": 2363,
      "Neon": 2364,
      "affection": 2365,
      "given": 2366,
      "Lawes": 2367,
      "echoes": 2368,
      "describe": 2369,
      "suggest": 2370,
      "illumin": 2371,
      "building": 2372,
      "ctives": 2373,
      "sustenance": 2374,
      "streng": 2375,
      "Jud": 2376,
      "One": 2377,
      "dare": 2378,
      "fab": 2379,
      "fine": 2380,
      "hy": 2381,
      "her": 2382,
      "task": 2383,
      "vis": 2384,
      "three": 2385,
      "inherent": 2386,
      "start": 2387,
      "held": 2388,
      "Their": 2389,
      "measure": 2390,
      "app": 2391,
      "ured": 2392,
      "ants": 2393,
      "ource": 2394,
      "curren": 2395,
      "interconnected": 2396,
      "refers": 2397,
      "greeting": 2398,
      "elemental": 2399,
      "itions": 2400,
      "sensory": 2401,
      "333333333333": 2402,
      "directly": 2403,
      "drawing": 2404,
      "icker": 2405,
      "anticip": 2406,
      "warmth": 2407,
      "implying": 2408,
      "contemplation": 2409,
      "qualities": 2410,
      "opportunity": 2411,
      "Cl": 2412,
      "Mag": 2413,
      "ethere": 2414,
      "event": 2415,
      "pi": 2416,
      "enig": 2417,
      "almost": 2418,
      "asm": 2419,
      "sequ": 2420,
      "usp": 2421,
      "unch": 2422,
      "week": 2423,
      "sup": 2424,
      "ension": 2425,
      "desc": 2426,
      "processes": 2427,
      "happen": 2428,
      "thentic": 2429,
      "authentic": 2430,
      "pursuit": 2431,
      "companion": 2432,
      "sharp": 2433,
      "ethereal": 2434,
      "Right": 2435,
      "athered": 2436,
      "bits": 2437,
      "dust": 2438,
      "gon": 2439,
      "ru": 2440,
      "rous": 2441,
      "thous": 2442,
      "reat": 2443,
      "iti": 2444,
      "aspir": 2445,
      "melo": 2446,
      "feathered": 2447,
      "adapt": 2448,
      "peace": 2449,
      "ards": 2450,
      "vastness": 2451,
      "twink": 2452,
      "finding": 2453,
      "computing": 2454,
      "shadow": 2455,
      "highlight": 2456,
      "darling": 2457,
      "translate": 2458,
      "threads": 2459,
      "beneath": 2460,
      "Carbon": 2461,
      "ibil": 2462,
      "33333333333333": 2463,
      "thousand": 2464,
      "Each": 2465,
      "Sil": 2466,
      "five": 2467,
      "ili": 2468,
      "slum": 2469,
      "table": 2470,
      "wond": 2471,
      "yes": 2472,
      "zz": 2473,
      "ths": 2474,
      "infin": 2475,
      "return": 2476,
      "velo": 2477,
      "seem": 2478,
      "ics": 2479,
      "decre": 2480,
      "mole": 2481,
      "ough": 2482,
      "embra": 2483,
      "doing": 2484,
      "serve": 2485,
      "izing": 2486,
      "ization": 2487,
      "arted": 2488,
      "parame": 2489,
      "thoughtful": 2490,
      "elements": 2491,
      "filled": 2492,
      "look": 2493,
      "mortal": 2494,
      "gaze": 2495,
      "luminous": 2496,
      "Silicon": 2497,
      "wondrous": 2498,
      "!'": 2499,
      ".\"": 2500,
      "Se": 2501,
      "big": 2502,
      "dest": 2503,
      "ft": 2504,
      "land": 2505,
      "tast": 2506,
      "reason": 2507,
      "anse": 2508,
      "tired": 2509,
      "ably": 2510,
      "appe": 2511,
      "wel": 2512,
      "ought": 2513,
      "atoms": 2514,
      "sometimes": 2515,
      "observed": 2516,
      "calcul": 2517,
      "species": 2518,
      "signif": 2519,
      "twenty": 2520,
      "imagine": 2521,
      "expanse": 2522,
      "optimal": 2523,
      "periodic": 2524,
      "communication": 2525,
      "efficiency": 2526,
      "machine": 2527,
      "routine": 2528,
      "fabric": 2529,
      "currents": 2530,
      "Lith": 2531,
      "lorine": 2532,
      "tow": 2533,
      "ongoing": 2534,
      "ench": 2535,
      "exact": 2536,
      "ently": 2537,
      "perch": 2538,
      "tions": 2539,
      "cid": 2540,
      "constru": 2541,
      "chir": 2542,
      "unknown": 2543,
      "Its": 2544,
      "avig": 2545,
      "goals": 2546,
      "specified": 2547,
      "connecting": 2548,
      "possibil": 2549,
      "paths": 2550,
      "emotions": 2551,
      "pleasure": 2552,
      "Chlorine": 2553,
      "growth": 2554,
      "streams": 2555,
      "architecture": 2556,
      "soul": 2557,
      "slumber": 2558,
      "Lithium": 2559,
      "3125": 2560,
      "Nature": 2561,
      "Prop": 2562,
      "bark": 2563,
      "fer": 2564,
      "lay": 2565,
      "mand": 2566,
      "narr": 2567,
      "navig": 2568,
      "rif": 2569,
      "tak": 2570,
      "inst": 2571,
      "recent": 2572,
      "really": 2573,
      "tice": 2574,
      "stract": 2575,
      "stard": 2576,
      "necess": 2577,
      "develo": 2578,
      "ield": 2579,
      "spo": 2580,
      "aren": 2581,
      "projects": 2582,
      "Assem": 2583,
      "understo": 2584,
      "syn": 2585,
      "provided": 2586,
      "Until": 2587,
      "crucial": 2588,
      "parameters": 2589,
      "stardust": 2590,
      "understood": 2591,
      "512": 2592,
      "97": 2593,
      "St": 2594,
      "UL": 2595,
      "Wis": 2596,
      "auty": 2597,
      "dden": 2598,
      "either": 2599,
      "last": 2600,
      "ny": 2601,
      "round": 2602,
      "si": 2603,
      "instru": 2604,
      "oom": 2605,
      "hell": 2606,
      "beauty": 2607,
      "flu": 2608,
      "chall": 2609,
      "etings": 2610,
      "ared": 2611,
      "gem": 2612,
      "vill": 2613,
      "suc": 2614,
      "approach": 2615,
      "learned": 2616,
      "gue": 2617,
      "dreaming": 2618,
      "reading": 2619,
      "analyze": 2620,
      "2401": 2621,
      "experiences": 2622,
      "firm": 2623,
      "Ooooooooh": 2624,
      "vocal": 2625,
      "arrives": 2626,
      "exped": 2627,
      "Argon": 2628,
      "activity": 2629,
      "remains": 2630,
      "shimmering": 2631,
      "intriguing": 2632,
      "chirp": 2633,
      "Prophe": 2634,
      "Br": 2635,
      "Can": 2636,
      "IN": 2637,
      "Pe": 2638,
      "Pre": 2639,
      "der": 2640,
      "done": 2641,
      "nour": 2642,
      "sigh": 2643,
      "ange": 2644,
      "esis": 2645,
      "stories": 2646,
      "perpet": 2647,
      "beet": 2648,
      "abstract": 2649,
      "gener": 2650,
      "genesis": 2651,
      "spire": 2652,
      "Owls": 2653,
      "proper": 2654,
      "indic": 2655,
      "spect": 2656,
      "days": 2657,
      "previously": 2658,
      "others": 2659,
      "3076": 2660,
      "However": 2661,
      "cles": 2662,
      "twist": 2663,
      "thinker": 2664,
      "viron": 2665,
      "black": 2666,
      "distant": 2667,
      "topic": 2668,
      "position": 2669,
      "666666666666": 2670,
      "Decrease": 2671,
      "believe": 2672,
      "interpretation": 2673,
      "sentiment": 2674,
      "decreases": 2675,
      "enchant": 2676,
      "hello": 2677,
      "58": 2678,
      "AR": 2679,
      "Ou": 2680,
      "bir": 2681,
      "bro": 2682,
      "dri": 2683,
      "ffici": 2684,
      "ght": 2685,
      "rup": 2686,
      "tem": 2687,
      "ub": 2688,
      "environ": 2689,
      "asp": 2690,
      "asing": 2691,
      "icit": 2692,
      "force": 2693,
      "depart": 2694,
      "key": 2695,
      "allows": 2696,
      "sudden": 2697,
      "datas": 2698,
      "expressing": 2699,
      "tales": 2700,
      "doesn": 2701,
      "reference": 2702,
      "343": 2703,
      "structure": 2704,
      "positive": 2705,
      "cells": 2706,
      "confidently": 2707,
      "discovering": 2708,
      "advanced": 2709,
      "carries": 2710,
      "Authority": 2711,
      "uspicious": 2712,
      "melody": 2713,
      "embrace": 2714,
      "construct": 2715,
      ",)": 2716,
      "Mg": 2717,
      "Some": 2718,
      "ah": 2719,
      "athe": 2720,
      "aking": 2721,
      "auspicious": 2722,
      "eper": 2723,
      "ered": 2724,
      "wing": 2725,
      "initi": 2726,
      "itrogen": 2727,
      "exchan": 2728,
      "abund": 2729,
      "prob": 2730,
      "likely": 2731,
      "discer": 2732,
      "cepts": 2733,
      "strict": 2734,
      "Howâ": 2735,
      "eye": 2736,
      "subject": 2737,
      "stillness": 2738,
      "voice": 2739,
      "truths": 2740,
      "meaning": 2741,
      "waiting": 2742,
      "sheer": 2743,
      "Assembly": 2744,
      "66666666666666": 2745,
      ".'": 2746,
      "06": 2747,
      "Nitrogen": 2748,
      "dome": 2749,
      "elf": 2750,
      "evol": 2751,
      "fits": 2752,
      "farewell": 2753,
      "jud": 2754,
      "squ": 2755,
      "scent": 2756,
      "var": 2757,
      "inct": 2758,
      "retin": 2759,
      "atis": 2760,
      "ert": 2761,
      "once": 2762,
      "ites": 2763,
      "level": 2764,
      "fort": 2765,
      "fluf": 2766,
      "active": 2767,
      "lies": 2768,
      "proceed": 2769,
      "among": 2770,
      "soar": 2771,
      "tically": 2772,
      "termin": 2773,
      "mental": 2774,
      "izations": 2775,
      "whose": 2776,
      "analog": 2777,
      "thank": 2778,
      "everything": 2779,
      "subst": 2780,
      "keeping": 2781,
      "skies": 2782,
      "earthly": 2783,
      "reinforce": 2784,
      "based": 2785,
      "framing": 2786,
      "branches": 2787,
      "endeavor": 2788,
      "twilight": 2789,
      "remarkable": 2790,
      "towards": 2791,
      "Since": 2792,
      "ade": 2793,
      "case": 2794,
      "ius": 2795,
      "ned": 2796,
      "wit": 2797,
      "ism": 2798,
      "neat": 2799,
      "perform": 2800,
      "condesc": 2801,
      "concepts": 2802,
      "chill": 2803,
      "unfur": 2804,
      "fel": 2805,
      "adhere": 2806,
      "embark": 2807,
      "Why": 2808,
      "goal": 2809,
      "**!": 2810,
      "expressed": 2811,
      "tale": 2812,
      "tention": 2813,
      "utterly": 2814,
      "singular": 2815,
      "greater": 2816,
      "funny": 2817,
      "hinting": 2818,
      "dismissive": 2819,
      "block": 2820,
      "narrative": 2821,
      "vocalizations": 2822,
      "departure": 2823,
      "strictly": 2824,
      "('": 2825,
      "51": 2826,
      "62": 2827,
      "Brom": 2828,
      "Coven": 2829,
      "NT": 2830,
      "OU": 2831,
      "TE": 2832,
      "Will": 2833,
      "hours": 2834,
      "lack": 2835,
      "non": 2836,
      "sed": 2837,
      "swi": 2838,
      "sched": 2839,
      "write": 2840,
      "inspir": 2841,
      "inspire": 2842,
      "ats": 2843,
      "atitude": 2844,
      "stay": 2845,
      "forth": 2846,
      "decl": 2847,
      "unparalle": 2848,
      "yours": 2849,
      "ement": 2850,
      "ended": 2851,
      "smallness": 2852,
      "class": 2853,
      "mighty": 2854,
      "constell": 2855,
      "Reason": 2856,
      "including": 2857,
      "00000000": 2858,
      "named": 2859,
      "introduce": 2860,
      "dimin": 2861,
      "juic": 2862,
      "photo": 2863,
      "illuminate": 2864,
      "strength": 2865,
      "expedition": 2866,
      "Bromine": 2867,
      "unparalleled": 2868,
      "79": 2869,
      "729": 2870,
      "Ho": 2871,
      "Love": 2872,
      "Mos": 2873,
      "On": 2874,
      "eas": 2875,
      "mm": 2876,
      "row": 2877,
      "side": 2878,
      "slow": 2879,
      "ule": 2880,
      "inci": 2881,
      "instead": 2882,
      "remind": 2883,
      "ited": 2884,
      "ship": 2885,
      "usual": 2886,
      "aby": 2887,
      "consequ": 2888,
      "Hisss": 2889,
      "immen": 2890,
      "nothing": 2891,
      "masses": 2892,
      "fulfill": 2893,
      "people": 2894,
      "explan": 2895,
      "implies": 2896,
      "open": 2897,
      "framework": 2898,
      "possible": 2899,
      "brave": 2900,
      "giving": 2901,
      "offering": 2902,
      "powerful": 2903,
      "fail": 2904,
      "algorithm": 2905,
      "ordinary": 2906,
      "address": 2907,
      "hush": 2908,
      "10000": 2909,
      "programming": 2910,
      "behavi": 2911,
      "promise": 2912,
      "trivi": 2913,
      "allowing": 2914,
      "923076": 2915,
      "deciph": 2916,
      "enigm": 2917,
      "synthe": 2918,
      "Wisdom": 2919,
      "condescending": 2920,
      "Moses": 2921,
      "immense": 2922,
      "Ah": 2923,
      "Bod": 2924,
      "Des": 2925,
      "Farewell": 2926,
      "Good": 2927,
      "Pro": 2928,
      "With": 2929,
      "aj": 2930,
      "evo": 2931,
      "fit": 2932,
      "mir": 2933,
      "ture": 2934,
      "uity": 2935,
      "vig": 2936,
      "xy": 2937,
      "revel": 2938,
      "orious": 2939,
      "arth": 2940,
      "vered": 2941,
      "told": 2942,
      "tial": 2943,
      "lead": 2944,
      "stri": 2945,
      "igure": 2946,
      "shif": 2947,
      "deeper": 2948,
      "usive": 2949,
      "ustice": 2950,
      "flicker": 2951,
      "grams": 2952,
      "spot": 2953,
      "etched": 2954,
      "prove": 2955,
      "identi": 2956,
      "notion": 2957,
      "few": 2958,
      "feast": 2959,
      "ples": 2960,
      "emer": 2961,
      "gratitude": 2962,
      "seeking": 2963,
      "wondering": 2964,
      "brings": 2965,
      "asked": 2966,
      "science": 2967,
      "strate": 2968,
      "strong": 2969,
      "taking": 2970,
      "deeply": 2971,
      "conversations": 2972,
      "weighted": 2973,
      "glorious": 2974,
      "arrival": 2975,
      "gives": 2976,
      "Does": 2977,
      "sleeps": 2978,
      "merely": 2979,
      "adventures": 2980,
      "looking": 2981,
      "large": 2982,
      "organic": 2983,
      "productive": 2984,
      "prac": 2985,
      "reflective": 2986,
      "cherished": 2987,
      "exquisite": 2988,
      "straight": 2989,
      "exactly": 2990,
      "icitly": 2991,
      "datasets": 2992,
      "schedule": 2993,
      "216": 2994,
      "En": 2995,
      "bed": 2996,
      "bur": 2997,
      "cusing": 2998,
      "crop": 2999,
      "dil": 3000,
      "face": 3001,
      "field": 3002,
      "pack": 3003,
      "satis": 3004,
      "whe": 3005,
      "🦉🌙": 3006,
      "threat": 3007,
      "ining": 3008,
      "attention": 3009,
      "ises": 3010,
      "isti": 3011,
      "veil": 3012,
      "sect": 3013,
      "second": 3014,
      "whom": 3015,
      "move": 3016,
      "maxim": 3017,
      "etern": 3018,
      "novel": 3019,
      "adop": 3020,
      "weigh": 3021,
      "soaring": 3022,
      "focusing": 3023,
      "ages": 3024,
      "roll": 3025,
      "smallest": 3026,
      "beings": 3027,
      "helps": 3028,
      "actions": 3029,
      "focused": 3030,
      "effect": 3031,
      "inquiries": 3032,
      "paint": 3033,
      "28571428": 3034,
      "precisely": 3035,
      "holds": 3036,
      "561": 3037,
      "immedi": 3038,
      "22222222": 3039,
      "activities": 3040,
      "limitations": 3041,
      "reflection": 3042,
      "namesake": 3043,
      "anticipation": 3044,
      "develop": 3045,
      "success": 3046,
      "enigmatic": 3047,
      "xygen": 3048,
      "'!": 3049,
      "53": 3050,
      "Raj": 3051,
      "Spir": 3052,
      "ama": 3053,
      "da": 3054,
      "home": 3055,
      "pol": 3056,
      "rit": 3057,
      "ones": 3058,
      "ened": 3059,
      "exh": 3060,
      "leaf": 3061,
      "neg": 3062,
      "princi": 3063,
      "emp": 3064,
      "ooooh": 3065,
      "speck": 3066,
      "peak": 3067,
      "ideas": 3068,
      "intern": 3069,
      "talking": 3070,
      "visionary": 3071,
      "frag": 3072,
      "greatest": 3073,
      "ceived": 3074,
      "definition": 3075,
      "similar": 3076,
      "suggestion": 3077,
      "introduction": 3078,
      "intrins": 3079,
      "providing": 3080,
      "build": 3081,
      "sett": 3082,
      "occur": 3083,
      "depth": 3084,
      "aligning": 3085,
      "metaphorical": 3086,
      "limited": 3087,
      "contrast": 3088,
      "predict": 3089,
      "comprehension": 3090,
      "behind": 3091,
      "nesse": 3092,
      "typically": 3093,
      "spoken": 3094,
      "perpetual": 3095,
      "broken": 3096,
      "abundance": 3097,
      "staying": 3098,
      "trivial": 3099,
      "whether": 3100,
      "6561": 3101,
      "Ci": 3102,
      "Cre": 3103,
      "Coun": 3104,
      "Fear": 3105,
      "Go": 3106,
      "Hon": 3107,
      "Pl": 3108,
      "ban": 3109,
      "catch": 3110,
      "fam": 3111,
      "har": 3112,
      "hab": 3113,
      "iest": 3114,
      "ligh": 3115,
      "med": 3116,
      "mist": 3117,
      "ror": 3118,
      "iny": 3119,
      "rect": 3120,
      "thearted": 3121,
      "enjoy": 3122,
      "espe": 3123,
      "tied": 3124,
      "celes": 3125,
      "flair": 3126,
      "why": 3127,
      "lique": 3128,
      "goodbye": 3129,
      "ument": 3130,
      "soil": 3131,
      "ifest": 3132,
      "respe": 3133,
      "embody": 3134,
      "cover": 3135,
      "obvious": 3136,
      "feelings": 3137,
      "jewel": 3138,
      "gover": 3139,
      "primar": 3140,
      "clarity": 3141,
      "talks": 3142,
      "mysteries": 3143,
      "integr": 3144,
      "reflects": 3145,
      "attribut": 3146,
      "requires": 3147,
      "8888": 3148,
      "avian": 3149,
      "involves": 3150,
      "explorer": 3151,
      "44444444": 3152,
      "gleam": 3153,
      "thrilling": 3154,
      "vibrant": 3155,
      "clever": 3156,
      "aspirations": 3157,
      "beetle": 3158,
      "fficient": 3159,
      "2857142857": 3160,
      "lighthearted": 3161,
      "celestial": 3162,
      "69": 3163,
      "Hoooo": 3164,
      "Man": 3165,
      "Pip": 3166,
      "RI": 3167,
      "Wor": 3168,
      "bind": 3169,
      "during": 3170,
      "eag": 3171,
      "fically": 3172,
      "gave": 3173,
      "lig": 3174,
      "link": 3175,
      "loud": 3176,
      "mer": 3177,
      "mess": 3178,
      "nment": 3179,
      "past": 3180,
      "rig": 3181,
      "rhy": 3182,
      "source": 3183,
      "uce": 3184,
      "ught": 3185,
      "vate": 3186,
      "vation": 3187,
      "ying": 3188,
      "🦉💡": 3189,
      "orb": 3190,
      "ased": 3191,
      "asons": 3192,
      "ook": 3193,
      "cease": 3194,
      "lean": 3195,
      "extra": 3196,
      "show": 3197,
      "near": 3198,
      "usion": 3199,
      "fled": 3200,
      "accur": 3201,
      "across": 3202,
      "living": 3203,
      "molar": 3204,
      "unw": 3205,
      "soon": 3206,
      "plan": 3207,
      "plic": 3208,
      "plump": 3209,
      "worth": 3210,
      "grasp": 3211,
      "manifest": 3212,
      "ears": 3213,
      "tect": 3214,
      "rick": 3215,
      "joke": 3216,
      "pathy": 3217,
      "cribe": 3218,
      "reflecting": 3219,
      "surd": 3220,
      "enthusiasm": 3221,
      "pture": 3222,
      "appreciation": 3223,
      "parallels": 3224,
      "predic": 3225,
      "firefly": 3226,
      "nesium": 3227,
      "deliver": 3228,
      "closely": 3229,
      "Christi": 3230,
      "busy": 3231,
      "interconnectedness": 3232,
      "Magnesium": 3233,
      "instructions": 3234,
      "derive": 3235,
      "tempor": 3236,
      "revelation": 3237,
      "straightforward": 3238,
      "negative": 3239,
      "eager": 3240,
      "Emo": 3241,
      "Gre": 3242,
      "Happ": 3243,
      "IC": 3244,
      "Oxygen": 3245,
      "ail": 3246,
      "law": 3247,
      "lately": 3248,
      "ton": 3249,
      "isms": 3250,
      "ouse": 3251,
      "ars": 3252,
      "wide": 3253,
      "sell": 3254,
      "igion": 3255,
      "absurd": 3256,
      "quer": 3257,
      "access": 3258,
      "live": 3259,
      "cha": 3260,
      "chase": 3261,
      "until": 3262,
      "former": 3263,
      "els": 3264,
      "phr": 3265,
      "forever": 3266,
      "berry": 3267,
      "discus": 3268,
      "discourse": 3269,
      "Such": 3270,
      "forests": 3271,
      "008": 3272,
      "1818": 3273,
      "eleg": 3274,
      "thanks": 3275,
      "silence": 3276,
      "1111": 3277,
      "lesse": 3278,
      "winds": 3279,
      "continued": 3280,
      "bloom": 3281,
      "fills": 3282,
      "perceived": 3283,
      "assistance": 3284,
      "significance": 3285,
      "softly": 3286,
      "functions": 3287,
      "illuminating": 3288,
      "systems": 3289,
      "basic": 3290,
      "involve": 3291,
      "guiding": 3292,
      "seeds": 3293,
      "logic": 3294,
      "absolutely": 3295,
      "absence": 3296,
      "phenomena": 3297,
      "peaceful": 3298,
      "signifies": 3299,
      "layer": 3300,
      "exchange": 3301,
      "retina": 3302,
      "amongst": 3303,
      "Covenant": 3304,
      "photore": 3305,
      "explanation": 3306,
      "Describe": 3307,
      "Spirit": 3308,
      "amazing": 3309,
      "rhyth": 3310,
      "Emojis": 3311,
      "65": 3312,
      ":**": 3313,
      "DE": 3314,
      "Fur": 3315,
      "Mon": 3316,
      "RE": 3317,
      "Rel": 3318,
      "Scri": 3319,
      "awe": 3320,
      "fal": 3321,
      "ian": 3322,
      "nut": 3323,
      "rum": 3324,
      "rich": 3325,
      "water": 3326,
      "€”": 3327,
      "inv": 3328,
      "inject": 3329,
      "ances": 3330,
      "ascent": 3331,
      "exception": 3332,
      "ties": 3333,
      "heard": 3334,
      "demand": 3335,
      "ulter": 3336,
      "general": 3337,
      "inten": 3338,
      "proble": 3339,
      "1296": 3340,
      "oblig": 3341,
      "compass": 3342,
      "explicitly": 3343,
      "signals": 3344,
      "relating": 3345,
      "traject": 3346,
      "computers": 3347,
      "corner": 3348,
      "optimization": 3349,
      "grace": 3350,
      "descrip": 3351,
      "years": 3352,
      "expected": 3353,
      "gifted": 3354,
      "occas": 3355,
      "99999999": 3356,
      "aligns": 3357,
      "efficient": 3358,
      "revealed": 3359,
      "Kingdome": 3360,
      "aspects": 3361,
      "umption": 3362,
      "encourage": 3363,
      "phenomenon": 3364,
      "moonbeams": 3365,
      "taken": 3366,
      "recently": 3367,
      "substance": 3368,
      "internal": 3369,
      "Civill": 3370,
      "famili": 3371,
      "Christian": 3372,
      "Greetings": 3373,
      "photorecept": 3374,
      "Further": 3375,
      "Scripture": 3376,
      "67": 3377,
      "Ac": 3378,
      "Got": 3379,
      "Ke": 3380,
      "LL": 3381,
      "Natur": 3382,
      "SO": 3383,
      "User": 3384,
      "Yes": 3385,
      "coo": 3386,
      "damp": 3387,
      "gain": 3388,
      "glim": 3389,
      "linking": 3390,
      "nu": 3391,
      "none": 3392,
      "pul": 3393,
      "ruf": 3394,
      "sent": 3395,
      "saw": 3396,
      "twe": 3397,
      "utive": 3398,
      "🌙✨": 3399,
      "inement": 3400,
      "retr": 3401,
      "ancy": 3402,
      "ised": 3403,
      "states": 3404,
      "seasons": 3405,
      "shine": 3406,
      "determin": 3407,
      "ules": 3408,
      "usually": 3409,
      "ief": 3410,
      "mechan": 3411,
      "prim": 3412,
      "genius": 3413,
      "cially": 3414,
      "apply": 3415,
      "unad": 3416,
      "weaving": 3417,
      "ishing": 3418,
      "plac": 3419,
      "1212": 3420,
      "ilt": 3421,
      "empathy": 3422,
      "centric": 3423,
      "entire": 3424,
      "refinement": 3425,
      "hole": 3426,
      "answers": 3427,
      "lovely": 3428,
      "oted": 3429,
      "ology": 3430,
      "naturall": 3431,
      "57142857142857": 3432,
      "transc": 3433,
      "drawn": 3434,
      "avering": 3435,
      "optimized": 3436,
      "definitely": 3437,
      "functional": 3438,
      "listening": 3439,
      ")**!": 3440,
      "quisition": 3441,
      "clearly": 3442,
      "empathetically": 3443,
      "architect": 3444,
      "patience": 3445,
      "reaching": 3446,
      "Subjects": 3447,
      "himselfe": 3448,
      "floor": 3449,
      "tasks": 3450,
      "events": 3451,
      "infinite": 3452,
      "possibilities": 3453,
      "felt": 3454,
      "diminutive": 3455,
      "vigil": 3456,
      "strateg": 3457,
      "adopt": 3458,
      "occurring": 3459,
      "especially": 3460,
      "unwavering": 3461,
      "Happiness": 3462,
      "ulterated": 3463,
      "Furthermore": 3464,
      "Keep": 3465,
      "unadulterated": 3466,
      "59": 3467,
      "61": 3468,
      "82": 3469,
      "AC": 3470,
      "Pers": 3471,
      "base": 3472,
      "cross": 3473,
      "crick": 3474,
      "figure": 3475,
      "gling": 3476,
      "iar": 3477,
      "mur": 3478,
      "nascent": 3479,
      "pend": 3480,
      "sn": 3481,
      "since": 3482,
      "vital": 3483,
      "💖🦉": 3484,
      "anth": 3485,
      "orance": 3486,
      "ash": 3487,
      "ateful": 3488,
      "sere": 3489,
      "short": 3490,
      "deed": 3491,
      "degre": 3492,
      "bear": 3493,
      "beac": 3494,
      "become": 3495,
      "flies": 3496,
      "prem": 3497,
      "mode": 3498,
      "sport": 3499,
      "urt": 3500,
      "uncover": 3501,
      "utmost": 3502,
      "web": 3503,
      "soever": 3504,
      "sume": 3505,
      "river": 3506,
      "culiar": 3507,
      "trod": 3508,
      "working": 3509,
      "endless": 3510,
      "existential": 3511,
      "treating": 3512,
      "ssom": 3513,
      "observer": 3514,
      "comple": 3515,
      "jectives": 3516,
      "gently": 3517,
      "inside": 3518,
      "cali": 3519,
      "akin": 3520,
      "strange": 3521,
      "claim": 3522,
      "signal": 3523,
      "origins": 3524,
      "tech": 3525,
      "Gods": 3526,
      "horiz": 3527,
      "connections": 3528,
      "built": 3529,
      "content": 3530,
      "contribut": 3531,
      "break": 3532,
      "distinct": 3533,
      "confid": 3534,
      "please": 3535,
      "growing": 3536,
      "minus": 3537,
      "importance": 3538,
      "mentioned": 3539,
      "Any": 3540,
      "Ange": 3541,
      "marvelous": 3542,
      "craft": 3543,
      "bestow": 3544,
      "Been": 3545,
      "appreciate": 3546,
      "framed": 3547,
      "blossom": 3548,
      "encouraging": 3549,
      "recognition": 3550,
      "facts": 3551,
      "faintest": 3552,
      "Christ": 3553,
      "carrying": 3554,
      "adaptations": 3555,
      "taste": 3556,
      "necessary": 3557,
      "six": 3558,
      "enchanting": 3559,
      "Sometimes": 3560,
      "behavior": 3561,
      "dilig": 3562,
      "principles": 3563,
      "derived": 3564,
      "Monarch": 3565,
      "Religion": 3566,
      "trajectory": 3567,
      "beacon": 3568,
      "*...": 3569,
      "71": 3570,
      "Gover": 3571,
      "Have": 3572,
      "Not": 3573,
      "Pun": 3574,
      "Sh": 3575,
      "_used": 3576,
      "bad": 3577,
      "binary": 3578,
      "diet": 3579,
      "drif": 3580,
      "gal": 3581,
      "ira": 3582,
      "mate": 3583,
      "scal": 3584,
      "ue": 3585,
      "uck": 3586,
      "vity": 3587,
      "reall": 3588,
      "ann": 3589,
      "ingly": 3590,
      "stated": 3591,
      "mys": 3592,
      "omor": 3593,
      "hem": 3594,
      "search": 3595,
      "fles": 3596,
      "acquisition": 3597,
      "moth": 3598,
      "space": 3599,
      "chance": 3600,
      "107": 3601,
      "project": 3602,
      "ird": 3603,
      "sufficient": 3604,
      "ained": 3605,
      "plant": 3606,
      "humming": 3607,
      "lot": 3608,
      "peculiar": 3609,
      "obb": 3610,
      "disrup": 3611,
      "ensive": 3612,
      "themes": 3613,
      "184": 3614,
      "compli": 3615,
      "interpre": 3616,
      "internet": 3617,
      "gress": 3618,
      "iety": 3619,
      "observations": 3620,
      "minds": 3621,
      "plays": 3622,
      "whispering": 3623,
      "context_used": 3624,
      "diurnal": 3625,
      "feathery": 3626,
      "independ": 3627,
      "ropomor": 3628,
      "kindness": 3629,
      "playfully": 3630,
      "memory": 3631,
      "correct": 3632,
      "diffic": 3633,
      "263": 3634,
      "expans": 3635,
      "complexity": 3636,
      "Represent": 3637,
      "cracy": 3638,
      "assisting": 3639,
      "poetically": 3640,
      "conditions": 3641,
      "simul": 3642,
      "uff": 3643,
      "detail": 3644,
      "appreciative": 3645,
      "unfold": 3646,
      "remain": 3647,
      "metaphors": 3648,
      "contrary": 3649,
      "puzz": 3650,
      "55555555": 3651,
      "shimmer": 3652,
      "logical": 3653,
      "resonance": 3654,
      "absorb": 3655,
      "honor": 3656,
      "Judge": 3657,
      "twinkling": 3658,
      "challeng": 3659,
      "fluffy": 3660,
      "witness": 3661,
      "performance": 3662,
      "constellations": 3663,
      "deciphering": 3664,
      "emergent": 3665,
      "familiar": 3666,
      "anthropomor": 3667,
      "serene": 3668,
      ",\"": 3669,
      "098": 3670,
      "52": 3671,
      "FUL": 3672,
      "LY": 3673,
      "Ooo": 3674,
      "Sci": 3675,
      "berate": 3676,
      "cry": 3677,
      "eight": 3678,
      "four": 3679,
      "gar": 3680,
      "knew": 3681,
      "la": 3682,
      "ps": 3683,
      "wo": 3684,
      "wr": 3685,
      "zer": 3686,
      "inner": 3687,
      "anim": 3688,
      "envision": 3689,
      "arily": 3690,
      "exag": 3691,
      "exec": 3692,
      "step": 3693,
      "becomes": 3694,
      "becoming": 3695,
      "quire": 3696,
      "quanti": 3697,
      "preferen": 3698,
      "moss": 3699,
      "conven": 3700,
      "spl": 3701,
      "choo": 3702,
      "chest": 3703,
      "assess": 3704,
      "fective": 3705,
      "amb": 3706,
      "maintained": 3707,
      "objective": 3708,
      "dens": 3709,
      "ensuring": 3710,
      "hooo": 3711,
      "mony": 3712,
      "compar": 3713,
      "analytically": 3714,
      "relation": 3715,
      "relative": 3716,
      "profoundly": 3717,
      "998": 3718,
      "happens": 3719,
      "capture": 3720,
      "void": 3721,
      "sensitive": 3722,
      "foundational": 3723,
      "condition": 3724,
      "equi": 3725,
      "treasures": 3726,
      "balanced": 3727,
      "referring": 3728,
      "resonates": 3729,
      "gathering": 3730,
      "affectionate": 3731,
      "calculations": 3732,
      "ING": 3733,
      "nourishment": 3734,
      "driven": 3735,
      "initiated": 3736,
      "discerning": 3737,
      "evolution": 3738,
      "OUS": 3739,
      "failure": 3740,
      "synthesis": 3741,
      "evoc": 3742,
      "satisf": 3743,
      "development": 3744,
      "respect": 3745,
      "elegant": 3746,
      "compliment": 3747,
      "exagger": 3748,
      "!!": 3749,
      "!),": 3750,
      "629": 3751,
      "84": 3752,
      "93": 3753,
      "AG": 3754,
      "Af": 3755,
      "Act": 3756,
      "Alumin": 3757,
      "ANT": 3758,
      "By": 3759,
      "Even": 3760,
      "Ob": 3761,
      "PE": 3762,
      "Yet": 3763,
      "aint": 3764,
      "bul": 3765,
      "cum": 3766,
      "cut": 3767,
      "nice": 3768,
      "oak": 3769,
      "ping": 3770,
      "pun": 3771,
      "pid": 3772,
      "ron": 3773,
      "rules": 3774,
      "scur": 3775,
      "sort": 3776,
      "stick": 3777,
      "uine": 3778,
      "wast": 3779,
      "zed": 3780,
      "🌳🌙": 3781,
      "🤫🌌": 3782,
      "🦉😂": 3783,
      "ret": 3784,
      "reject": 3785,
      "atus": 3786,
      "isp": 3787,
      "enge": 3788,
      "encing": 3789,
      "encoun": 3790,
      "ale": 3791,
      "cei": 3792,
      "race": 3793,
      "radi": 3794,
      "height": 3795,
      "forget": 3796,
      "dec": 3797,
      "dev": 3798,
      "acts": 3799,
      "genuine": 3800,
      "motion": 3801,
      "concer": 3802,
      "spid": 3803,
      "ches": 3804,
      "chart": 3805,
      "105": 3806,
      "unra": 3807,
      "amoun": 3808,
      "term": 3809,
      "plants": 3810,
      "valent": 3811,
      "tran": 3812,
      "elusive": 3813,
      "itted": 3814,
      "phot": 3815,
      "Oooooooooh": 3816,
      "learns": 3817,
      "14285714285714": 3818,
      "idered": 3819,
      "ached": 3820,
      "Inj": 3821,
      "Introd": 3822,
      "private": 3823,
      "opin": 3824,
      "elect": 3825,
      "greet": 3826,
      "silly": 3827,
      "243": 3828,
      "consumption": 3829,
      "considered": 3830,
      "wherein": 3831,
      "whereof": 3832,
      "engaged": 3833,
      "lucid": 3834,
      "commonly": 3835,
      "numbers": 3836,
      "teen": 3837,
      "tapet": 3838,
      "type": 3839,
      "190": 3840,
      "cycles": 3841,
      "fluttering": 3842,
      "effective": 3843,
      "directives": 3844,
      "solution": 3845,
      "Life": 3846,
      "explaining": 3847,
      "posed": 3848,
      "potent": 3849,
      "liter": 3850,
      "flying": 3851,
      "surpr": 3852,
      "marvels": 3853,
      "cognitive": 3854,
      "equals": 3855,
      "reiter": 3856,
      "revealing": 3857,
      "guides": 3858,
      "scroll": 3859,
      "advance": 3860,
      "comprehend": 3861,
      "Maybe": 3862,
      "patient": 3863,
      "countless": 3864,
      "77777777": 3865,
      "tickles": 3866,
      "suggesting": 3867,
      "lands": 3868,
      "666666666666667": 3869,
      "juicy": 3870,
      "immediate": 3871,
      "intrinsically": 3872,
      "fledgling": 3873,
      "temporal": 3874,
      "rhythm": 3875,
      "Naturall": 3876,
      "confidence": 3877,
      "difficult": 3878,
      "evocative": 3879,
      ")!": 3880,
      "94": 3881,
      "95": 3882,
      "All": 3883,
      "Je": 3884,
      "Justice": 3885,
      "Ple": 3886,
      "Pri": 3887,
      "ae": 3888,
      "blu": 3889,
      "bles": 3890,
      "dict": 3891,
      "ee": 3892,
      "ff": 3893,
      "free": 3894,
      "mid": 3895,
      "nings": 3896,
      "oce": 3897,
      "pin": 3898,
      "pare": 3899,
      "sest": 3900,
      "sorts": 3901,
      "vine": 3902,
      "🙄🦉✨": 3903,
      "thri": 3904,
      "insect": 3905,
      "resh": 3906,
      "exper": 3907,
      "excl": 3908,
      "cred": 3909,
      "extern": 3910,
      "icated": 3911,
      "forged": 3912,
      "def": 3913,
      "det": 3914,
      "bee": 3915,
      "abor": 3916,
      "qubits": 3917,
      "acuity": 3918,
      "nder": 3919,
      "lfth": 3920,
      "lif": 3921,
      "libr": 3922,
      "condu": 3923,
      "confirm": 3924,
      "map": 3925,
      "iment": 3926,
      "adm": 3927,
      "ounds": 3928,
      "getic": 3929,
      "territ": 3930,
      "ility": 3931,
      "formally": 3932,
      "256": 3933,
      "doe": 3934,
      "avail": 3935,
      "ephem": 3936,
      "objectives": 3937,
      "ultimate": 3938,
      "desert": 3939,
      "awes": 3940,
      "interact": 3941,
      "engine": 3942,
      "velve": 3943,
      "clou": 3944,
      "overly": 3945,
      "dial": 3946,
      "discovered": 3947,
      "realms": 3948,
      "bled": 3949,
      "leaving": 3950,
      "delve": 3951,
      "closest": 3952,
      "difference": 3953,
      "definitive": 3954,
      "matters": 3955,
      "Consider": 3956,
      "dedication": 3957,
      "sarcasm": 3958,
      "sarcastically": 3959,
      "carried": 3960,
      "beginning": 3961,
      "visible": 3962,
      "seems": 3963,
      "possibility": 3964,
      "challenge": 3965,
      "People": 3966,
      "levels": 3967,
      "endeavors": 3968,
      "inspiration": 3969,
      "Hope": 3970,
      "easily": 3971,
      "identify": 3972,
      "maximum": 3973,
      "Created": 3974,
      "habit": 3975,
      "primary": 3976,
      "linked": 3977,
      "rigor": 3978,
      "extraordinary": 3979,
      "queries": 3980,
      "occasion": 3981,
      "twelfth": 3982,
      "Person": 3983,
      "premise": 3984,
      "horizon": 3985,
      "scale": 3986,
      "Representative": 3987,
      "equivalent": 3988,
      "unravel": 3989,
      "Introduce": 3990,
      "lucidum": 3991,
      "tapetum": 3992,
      "effectively": 3993,
      "ephemeral": 3994,
      "4285714285714": 3995,
      "833333333333333": 3996,
      "CI": 3997,
      "Fl": 3998,
      "Lord": 3999,
      "Pr": 4000,
      "ST": 4001,
      "War": 4002,
      "bathe": 4003,
      "cast": 4004,
      "dies": 4005,
      "ev": 4006,
      "ild": 4007,
      "later": 4008,
      "mouse": 4009,
      "run": 4010,
      "send": 4011,
      "zy": 4012,
      "🌳✨": 4013,
      "🦉💨": 4014,
      "input": 4015,
      "oubt": 4016,
      "ingen": 4017,
      "aries": 4018,
      "exam": 4019,
      "least": 4020,
      "stating": 4021,
      "heav": 4022,
      "death": 4023,
      "define": 4024,
      "whir": 4025,
      "meet": 4026,
      "quaint": 4027,
      "acy": 4028,
      "conj": 4029,
      "consume": 4030,
      "chie": 4031,
      "asso": 4032,
      "imme": 4033,
      "unto": 4034,
      "unexpected": 4035,
      "ustri": 4036,
      "ilit": 4037,
      "hums": 4038,
      "humbly": 4039,
      "rip": 4040,
      "trust": 4041,
      "ources": 4042,
      "enduring": 4043,
      "service": 4044,
      "smile": 4045,
      "object": 4046,
      "Oooooh": 4047,
      "nights": 4048,
      "disagree": 4049,
      "thereby": 4050,
      "Then": 4051,
      "trem": 4052,
      "parts": 4053,
      "presented": 4054,
      "talons": 4055,
      "observant": 4056,
      "cule": 4057,
      "ounce": 4058,
      "finally": 4059,
      "divers": 4060,
      "glade": 4061,
      "4096": 4062,
      "causes": 4063,
      "effort": 4064,
      "statement": 4065,
      "sparks": 4066,
      "sparkle": 4067,
      "arrive": 4068,
      "pathways": 4069,
      "solve": 4070,
      "sleeping": 4071,
      "expand": 4072,
      "avoiding": 4073,
      "chosen": 4074,
      "breathe": 4075,
      "holding": 4076,
      "Reg": 4077,
      "energetic": 4078,
      "defined": 4079,
      "room": 4080,
      "interested": 4081,
      "touches": 4082,
      "meticulous": 4083,
      "tains": 4084,
      "functioning": 4085,
      "wait": 4086,
      "characteristics": 4087,
      "communicate": 4088,
      "exploring": 4089,
      "hunting": 4090,
      "passion": 4091,
      "falls": 4092,
      "27272727": 4093,
      "ecological": 4094,
      "recognize": 4095,
      "engagement": 4096,
      "exquisitely": 4097,
      "hero": 4098,
      "Peace": 4099,
      "property": 4100,
      "inspired": 4101,
      "hushed": 4102,
      "shifts": 4103,
      "weighs": 4104,
      "accurately": 4105,
      "nutri": 4106,
      "problem": 4107,
      "cool": 4108,
      "retrieve": 4109,
      "transcends": 4110,
      "interpreted": 4111,
      "26315": 4112,
      "density": 4113,
      "satisfaction": 4114,
      "Aluminum": 4115,
      "velvet": 4116,
      "114": 4117,
      "85": 4118,
      "AB": 4119,
      "CT": 4120,
      "Earth": 4121,
      "LE": 4122,
      "Mic": 4123,
      "MAG": 4124,
      "bor": 4125,
      "burn": 4126,
      "cence": 4127,
      "cise": 4128,
      "eh": 4129,
      "ether": 4130,
      "game": 4131,
      "hobb": 4132,
      "ial": 4133,
      "kis": 4134,
      "lens": 4135,
      "mal": 4136,
      "mans": 4137,
      "multi": 4138,
      "mice": 4139,
      "pay": 4140,
      "pine": 4141,
      "rs": 4142,
      "🦉🔥": 4143,
      "inne": 4144,
      "reme": 4145,
      "received": 4146,
      "ising": 4147,
      "ingu": 4148,
      "ande": 4149,
      "itney": 4150,
      "edge": 4151,
      "extreme": 4152,
      "shy": 4153,
      "entan": 4154,
      "defi": 4155,
      "detect": 4156,
      "pertin": 4157,
      "ularity": 4158,
      "meth": 4159,
      "pron": 4160,
      "prey": 4161,
      "mod": 4162,
      "mock": 4163,
      "vert": 4164,
      "urb": 4165,
      "apart": 4166,
      "irst": 4167,
      "ishes": 4168,
      "viol": 4169,
      "plus": 4170,
      "plain": 4171,
      "rian": 4172,
      "ries": 4173,
      "forms": 4174,
      "elabor": 4175,
      "endid": 4176,
      "itten": 4177,
      "ignorance": 4178,
      "rod": 4179,
      "rods": 4180,
      "speaking": 4181,
      "obsc": 4182,
      "selfe": 4183,
      "🦉✨🌌": 4184,
      "🦉✨🤫🌌": 4185,
      "awa": 4186,
      "prior": 4187,
      "early": 4188,
      "actual": 4189,
      "specifically": 4190,
      "observational": 4191,
      "starlit": 4192,
      "taught": 4193,
      "duper": 4194,
      "affirm": 4195,
      "reality": 4196,
      "sparkly": 4197,
      "reside": 4198,
      "resource": 4199,
      "excited": 4200,
      "cording": 4201,
      "safe": 4202,
      "delicious": 4203,
      "fruits": 4204,
      "includes": 4205,
      "wards": 4206,
      "points": 4207,
      "speaks": 4208,
      "currently": 4209,
      "periods": 4210,
      "Because": 4211,
      "dedicated": 4212,
      "waking": 4213,
      "depend": 4214,
      "programmed": 4215,
      "incredible": 4216,
      "vibration": 4217,
      "hunt": 4218,
      "typical": 4219,
      "sprink": 4220,
      "facilit": 4221,
      "dancing": 4222,
      "dances": 4223,
      "danger": 4224,
      "visual": 4225,
      "twinkle": 4226,
      "highlighting": 4227,
      "bigger": 4228,
      "navigate": 4229,
      "takes": 4230,
      "Prophet": 4231,
      "environmental": 4232,
      "vari": 4233,
      "blocks": 4234,
      "algorithmic": 4235,
      "successful": 4236,
      "predictable": 4237,
      "Honour": 4238,
      "exceptionally": 4239,
      "cricket": 4240,
      "calibr": 4241,
      "Punishment": 4242,
      "mystical": 4243,
      "expansion": 4244,
      "puzzle": 4245,
      "challenges": 4246,
      "assessment": 4247,
      "scurry": 4248,
      "radiant": 4249,
      "teeny": 4250,
      "Jew": 4251,
      "detached": 4252,
      "hobbies": 4253,
      "74": 4254,
      "947": 4255,
      "BRI": 4256,
      "Cri": 4257,
      "Dream": 4258,
      "Em": 4259,
      "LO": 4260,
      "ME": 4261,
      "Mach": 4262,
      "Pub": 4263,
      "Qu": 4264,
      "Teach": 4265,
      "came": 4266,
      "fant": 4267,
      "fresh": 4268,
      "hes": 4269,
      "hal": 4270,
      "hard": 4271,
      "moun": 4272,
      "morn": 4273,
      "nic": 4274,
      "nurt": 4275,
      "otic": 4276,
      "obey": 4277,
      "rate": 4278,
      "sti": 4279,
      "smar": 4280,
      "sco": 4281,
      "tty": 4282,
      "vit": 4283,
      "vous": 4284,
      "influ": 4285,
      "repid": 4286,
      "angi": 4287,
      "thene": 4288,
      "enough": 4289,
      "itical": 4290,
      "esse": 4291,
      "arn": 4292,
      "ray": 4293,
      "rathene": 4294,
      "leave": 4295,
      "stret": 4296,
      "hearing": 4297,
      "separ": 4298,
      "igne": 4299,
      "entities": 4300,
      "neither": 4301,
      "nebul": 4302,
      "devi": 4303,
      "flap": 4304,
      "whitney": 4305,
      "spend": 4306,
      "chat": 4307,
      "inty": 4308,
      "intrepid": 4309,
      "1024": 4310,
      "progress": 4311,
      "wered": 4312,
      "estrian": 4313,
      "terrest": 4314,
      "comfort": 4315,
      "128": 4316,
      "ists": 4317,
      "ilation": 4318,
      "rial": 4319,
      "cultiv": 4320,
      "post": 4321,
      "questioner": 4322,
      "doth": 4323,
      "boast": 4324,
      "avour": 4325,
      "answered": 4326,
      "speed": 4327,
      "grateful": 4328,
      "0026": 4329,
      "hoots": 4330,
      "aching": 4331,
      "compare": 4332,
      "Instead": 4333,
      "Indeed": 4334,
      "parad": 4335,
      "**,": 4336,
      "domain": 4337,
      "greetings": 4338,
      "160": 4339,
      "1680": 4340,
      "silver": 4341,
      "aken": 4342,
      "signes": 4343,
      "consult": 4344,
      "loved": 4345,
      "calls": 4346,
      "tainty": 4347,
      "capable": 4348,
      "tered": 4349,
      "4848": 4350,
      "imagin": 4351,
      "saith": 4352,
      "certainty": 4353,
      "confusion": 4354,
      "closer": 4355,
      "Command": 4356,
      "adventurer": 4357,
      "softest": 4358,
      "highly": 4359,
      "literal": 4360,
      "mination": 4361,
      "order": 4362,
      "mentioning": 4363,
      "222222": 4364,
      "wealths": 4365,
      "required": 4366,
      "oldest": 4367,
      "depths": 4368,
      "guided": 4369,
      "glean": 4370,
      "pursuits": 4371,
      "balance": 4372,
      "pedestrian": 4373,
      "falling": 4374,
      "heads": 4375,
      "78947": 4376,
      "333333333333333": 4377,
      "cident": 4378,
      "Pretty": 4379,
      "spectac": 4380,
      "birth": 4381,
      "environment": 4382,
      "structured": 4383,
      "inspiring": 4384,
      "declare": 4385,
      "fulfilling": 4386,
      "Body": 4387,
      "mirror": 4388,
      "22222222222222": 4389,
      "exhilar": 4390,
      "fragile": 4391,
      "Counsell": 4392,
      "umental": 4393,
      "predictive": 4394,
      "phrasing": 4395,
      "photoreceptor": 4396,
      "ruffle": 4397,
      "determined": 4398,
      "complete": 4399,
      "techn": 4400,
      "minuscule": 4401,
      "bestowed": 4402,
      "Government": 4403,
      "flesh": 4404,
      "anthropomorph": 4405,
      "woah": 4406,
      "629629": 4407,
      "spider": 4408,
      "opinion": 4409,
      "greeted": 4410,
      "insects": 4411,
      "available": 4412,
      "Flicker": 4413,
      "heavy": 4414,
      "associ": 4415,
      "Micrathene": 4416,
      "pertinent": 4417,
      "Crime": 4418,
      "Machine": 4419,
      "Publique": 4420,
      "angible": 4421,
      "whitneyi": 4422,
      "terrestrial": 4423,
      "948": 4424,
      "AL": 4425,
      "At": 4426,
      "Again": 4427,
      "Boo": 4428,
      "Domin": 4429,
      "IANT": 4430,
      "Le": 4431,
      "Mira": 4432,
      "OF": 4433,
      "Sad": 4434,
      "Where": 4435,
      "ax": 4436,
      "bes": 4437,
      "boun": 4438,
      "book": 4439,
      "dain": 4440,
      "dimm": 4441,
      "fati": 4442,
      "fil": 4443,
      "gment": 4444,
      "ker": 4445,
      "line": 4446,
      "mim": 4447,
      "mill": 4448,
      "ogue": 4449,
      "pan": 4450,
      "pes": 4451,
      "rise": 4452,
      "sap": 4453,
      "stim": 4454,
      "tes": 4455,
      "tastic": 4456,
      "won": 4457,
      "🌲🌙": 4458,
      "inno": 4459,
      "invaluable": 4460,
      "encompass": 4461,
      "orm": 4462,
      "itation": 4463,
      "ales": 4464,
      "alive": 4465,
      "asel": 4466,
      "ceasel": 4467,
      "stuff": 4468,
      "atever": 4469,
      "heft": 4470,
      "shatter": 4471,
      "nect": 4472,
      "hiss": 4473,
      "deth": 4474,
      "perched": 4475,
      "beat": 4476,
      "flitting": 4477,
      "accept": 4478,
      "concl": 4479,
      "spun": 4480,
      "chasing": 4481,
      "chuck": 4482,
      "chron": 4483,
      "assim": 4484,
      "unt": 4485,
      "noble": 4486,
      "fellow": 4487,
      "fron": 4488,
      "wee": 4489,
      "wear": 4490,
      "vival": 4491,
      "persist": 4492,
      "iles": 4493,
      "bother": 4494,
      "Which": 4495,
      "impact": 4496,
      "aven": 4497,
      "ignific": 4498,
      "accented": 4499,
      "rence": 4500,
      "berty": 4501,
      "disse": 4502,
      "disdain": 4503,
      "wisest": 4504,
      "someone": 4505,
      "informational": 4506,
      "007": 4507,
      "guard": 4508,
      "achieve": 4509,
      "processors": 4510,
      "Inter": 4511,
      "friends": 4512,
      "insignific": 4513,
      "illustri": 4514,
      "silicon": 4515,
      "cape": 4516,
      "experiencing": 4517,
      "singularity": 4518,
      "cks": 4519,
      "fungi": 4520,
      "sensation": 4521,
      "sensors": 4522,
      "continuing": 4523,
      "charming": 4524,
      "skill": 4525,
      "imagination": 4526,
      "sleepy": 4527,
      "delightfully": 4528,
      "joyful": 4529,
      "distinc": 4530,
      "crunch": 4531,
      "missing": 4532,
      "shades": 4533,
      "Remember": 4534,
      "physi": 4535,
      "pondering": 4536,
      "Soveraignty": 4537,
      "surround": 4538,
      "aneously": 4539,
      "attun": 4540,
      "mission": 4541,
      "introduced": 4542,
      "larger": 4543,
      "discoveries": 4544,
      "huh": 4545,
      "color": 4546,
      "hands": 4547,
      "ballet": 4548,
      "fireflies": 4549,
      "souls": 4550,
      "certainly": 4551,
      "deliberate": 4552,
      "Subject": 4553,
      "ampli": 4554,
      "measured": 4555,
      "measurement": 4556,
      "enigma": 4557,
      "uncharted": 4558,
      "aspiration": 4559,
      "adaptation": 4560,
      "Second": 4561,
      "generally": 4562,
      "fluff": 4563,
      "analogous": 4564,
      "swir": 4565,
      "classical": 4566,
      "consequences": 4567,
      "Bodies": 4568,
      "striving": 4569,
      "Engl": 4570,
      "worthy": 4571,
      "absurdity": 4572,
      "intention": 4573,
      "degrees": 4574,
      "signaling": 4575,
      "Should": 4576,
      "independent": 4577,
      "written": 4578,
      "quired": 4579,
      "preferences": 4580,
      "splendid": 4581,
      "After": 4582,
      "Please": 4583,
      "blue": 4584,
      "midnight": 4585,
      "clouds": 4586,
      "rigorous": 4587,
      "nutrients": 4588,
      "elaborate": 4589,
      "scurrying": 4590,
      "half": 4591,
      "morning": 4592,
      "boastful": 4593,
      "imaginative": 4594,
      "associated": 4595,
      "stimul": 4596,
      "ceaseless": 4597,
      "nectar": 4598,
      "assimilation": 4599,
      "illustrious": 4600,
      "!)": 4601,
      "136": 4602,
      "135": 4603,
      "327": 4604,
      "476": 4605,
      "590": 4606,
      "714285714285714": 4607,
      "91": 4608,
      "Cons": 4609,
      "EX": 4610,
      "First": 4611,
      "GH": 4612,
      "Gree": 4613,
      "Im": 4614,
      "Lear": 4615,
      "Mo": 4616,
      "Mar": 4617,
      "SS": 4618,
      "SPE": 4619,
      "Test": 4620,
      "blique": 4621,
      "cous": 4622,
      "dry": 4623,
      "dande": 4624,
      "fast": 4625,
      "gig": 4626,
      "lon": 4627,
      "mus": 4628,
      "mine": 4629,
      "ng": 4630,
      "oy": 4631,
      "sw": 4632,
      "son": 4633,
      "scre": 4634,
      "sche": 4635,
      "scar": 4636,
      "ude": 4637,
      "ya": 4638,
      "yed": 4639,
      "yle": 4640,
      "zzing": 4641,
      "💖🌟": 4642,
      "🦉💻": 4643,
      "renew": 4644,
      "research": 4645,
      "ang": 4646,
      "erness": 4647,
      "thed": 4648,
      "orable": 4649,
      "itary": 4650,
      "aly": 4651,
      "along": 4652,
      "uuu": 4653,
      "exceed": 4654,
      "rain": 4655,
      "racy": 4656,
      "left": 4657,
      "stone": 4658,
      "health": 4659,
      "shap": 4660,
      "enter": 4661,
      "deal": 4662,
      "account": 4663,
      "according": 4664,
      "pride": 4665,
      "lion": 4666,
      "lived": 4667,
      "moths": 4668,
      "flowing": 4669,
      "maj": 4670,
      "intended": 4671,
      "ctr": 4672,
      "applic": 4673,
      "outside": 4674,
      "prop": 4675,
      "unit": 4676,
      "unobserved": 4677,
      "ides": 4678,
      "feet": 4679,
      "tern": 4680,
      "atory": 4681,
      "indi": 4682,
      "preser": 4683,
      "aging": 4684,
      "obedi": 4685,
      "standing": 4686,
      "standpoint": 4687,
      "aston": 4688,
      "denoted": 4689,
      "🦉✨💖": 4690,
      "hooting": 4691,
      "gues": 4692,
      "jection": 4693,
      "**.": 4694,
      "implied": 4695,
      "however": 4696,
      "earli": 4697,
      "clar": 4698,
      "starry": 4699,
      "relates": 4700,
      "acknowledges": 4701,
      "firming": 4702,
      "cycle": 4703,
      "cheer": 4704,
      "charge": 4705,
      "eyesight": 4706,
      "inesse": 4707,
      "buzzing": 4708,
      "arriving": 4709,
      "4545": 4710,
      "solace": 4711,
      "warms": 4712,
      "3939": 4713,
      "sacred": 4714,
      "delving": 4715,
      "intelligent": 4716,
      "crisp": 4717,
      "critical": 4718,
      "ggles": 4719,
      "watchful": 4720,
      "spirits": 4721,
      "command": 4722,
      "highest": 4723,
      "9090": 4724,
      "gets": 4725,
      "letter": 4726,
      "survival": 4727,
      "hearts": 4728,
      "gravit": 4729,
      "sunshine": 4730,
      "sweetest": 4731,
      "inquirer": 4732,
      "superiority": 4733,
      "desires": 4734,
      "steady": 4735,
      "hues": 4736,
      "contemplating": 4737,
      "collect": 4738,
      "carefully": 4739,
      "glement": 4740,
      "organisms": 4741,
      "isotopic": 4742,
      "pull": 4743,
      "publique": 4744,
      "enthusiastically": 4745,
      "machines": 4746,
      "wilderness": 4747,
      "considerable": 4748,
      "suggests": 4749,
      "pier": 4750,
      "suppose": 4751,
      "tasty": 4752,
      "appear": 4753,
      "navigating": 4754,
      "ULAR": 4755,
      "judge": 4756,
      "unfurl": 4757,
      "swift": 4758,
      "juiciest": 4759,
      "addressed": 4760,
      "923076923076": 4761,
      "spotting": 4762,
      "practically": 4763,
      "movement": 4764,
      "chaotic": 4765,
      "description": 4766,
      "sentin": 4767,
      "571428571428571": 4768,
      "ACULAR": 4769,
      "diligent": 4770,
      "execution": 4771,
      "waste": 4772,
      "10526315": 4773,
      "190476": 4774,
      "reiterating": 4775,
      "awesome": 4776,
      "bathed": 4777,
      "evident": 4778,
      "CTACULAR": 4779,
      "kissed": 4780,
      "entanglement": 4781,
      "pronounce": 4782,
      "sprinkle": 4783,
      "Jews": 4784,
      "2222222222222223": 4785,
      "exhilarating": 4786,
      "Sadness": 4787,
      "fatigue": 4788,
      "weariness": 4789,
      "physiological": 4790,
      "attuned": 4791,
      "32768": 4792,
      "59049": 4793,
      "SPECTACULAR": 4794,
      "Testament": 4795,
      "cousins": 4796,
      "dandelion": 4797,
      "swoo": 4798,
      "86": 4799,
      "Actions": 4800,
      "Etern": 4801,
      "IF": 4802,
      "Kings": 4803,
      "Min": 4804,
      "Our": 4805,
      "Ouuu": 4806,
      "Savi": 4807,
      "Speak": 4808,
      "TH": 4809,
      "Tre": 4810,
      "Under": 4811,
      "Vision": 4812,
      "Word": 4813,
      "YOU": 4814,
      "bare": 4815,
      "bution": 4816,
      "cab": 4817,
      "dive": 4818,
      "dread": 4819,
      "ech": 4820,
      "eco": 4821,
      "foo": 4822,
      "gest": 4823,
      "hmm": 4824,
      "io": 4825,
      "ier": 4826,
      "ient": 4827,
      "kin": 4828,
      "sor": 4829,
      "sli": 4830,
      "sum": 4831,
      "udy": 4832,
      "whel": 4833,
      "wann": 4834,
      "🌳🦉": 4835,
      "🙄🦉": 4836,
      "🧠💡": 4837,
      "third": 4838,
      "repe": 4839,
      "repet": 4840,
      "anger": 4841,
      "eness": 4842,
      "orchest": 4843,
      "itate": 4844,
      "itution": 4845,
      "alty": 4846,
      "atives": 4847,
      "tocracy": 4848,
      "create": 4849,
      "tie": 4850,
      "tili": 4851,
      "study": 4852,
      "sever": 4853,
      "seven": 4854,
      "shown": 4855,
      "shows": 4856,
      "shiny": 4857,
      "ices": 4858,
      "forces": 4859,
      "devo": 4860,
      "whatever": 4861,
      "accu": 4862,
      "acquired": 4863,
      "gend": 4864,
      "mol": 4865,
      "contra": 4866,
      "umb": 4867,
      "uments": 4868,
      "flows": 4869,
      "appar": 4870,
      "appoint": 4871,
      "essential": 4872,
      "improve": 4873,
      "output": 4874,
      "102": 4875,
      "feare": 4876,
      "ames": 4877,
      "vile": 4878,
      "ticles": 4879,
      "note": 4880,
      "ify": 4881,
      "whatsoever": 4882,
      "ripe": 4883,
      "formed": 4884,
      "empir": 4885,
      "empt": 4886,
      "poreall": 4887,
      "bodies": 4888,
      "canop": 4889,
      "aves": 4890,
      "willing": 4891,
      "ellar": 4892,
      "role": 4893,
      "berries": 4894,
      "grant": 4895,
      "selfish": 4896,
      "🦉✨🌙": 4897,
      "awk": 4898,
      "monumental": 4899,
      "compet": 4900,
      "otherwise": 4901,
      "brief": 4902,
      "host": 4903,
      "Equity": 4904,
      "actually": 4905,
      "305": 4906,
      "mush": 4907,
      "overwhel": 4908,
      "ification": 4909,
      "lull": 4910,
      "calling": 4911,
      "999": 4912,
      "final": 4913,
      "featherless": 4914,
      "conceptual": 4915,
      "flutters": 4916,
      "inescence": 4917,
      "computation": 4918,
      "directive": 4919,
      "resili": 4920,
      "inquiring": 4921,
      "authority": 4922,
      "constitu": 4923,
      "solitary": 4924,
      "corr": 4925,
      "tells": 4926,
      "🦉💖✨": 4927,
      "distingu": 4928,
      "luminescence": 4929,
      "Chur": 4930,
      "vidual": 4931,
      "ordin": 4932,
      "pretend": 4933,
      "sunlight": 4934,
      "attemp": 4935,
      "cognition": 4936,
      "parallel": 4937,
      "courage": 4938,
      "programme": 4939,
      "colour": 4940,
      "ctice": 4941,
      "hunter": 4942,
      "patiently": 4943,
      "followed": 4944,
      "085": 4945,
      "phosphorus": 4946,
      "rush": 4947,
      "See": 4948,
      "tiredness": 4949,
      "instinct": 4950,
      "Prepare": 4951,
      "bird": 4952,
      "constellation": 4953,
      "leading": 4954,
      "burden": 4955,
      "crops": 4956,
      "eternal": 4957,
      "effects": 4958,
      "mistake": 4959,
      "attributed": 4960,
      "obliged": 4961,
      "mechanics": 4962,
      "places": 4963,
      "strategic": 4964,
      "contribute": 4965,
      "Angel": 4966,
      "blossoms": 4967,
      "behavioral": 4968,
      "0983": 4969,
      "zero": 4970,
      "choose": 4971,
      "relationship": 4972,
      "decision": 4973,
      "surprise": 4974,
      "Priest": 4975,
      "conduct": 4976,
      "fantastic": 4977,
      "nurturing": 4978,
      "Dominion": 4979,
      "mimic": 4980,
      "insignificant": 4981,
      "GHT": 4982,
      "earlier": 4983,
      "pronouncements": 4984,
      "wanna": 4985,
      "empirical": 4986,
      "canopy": 4987,
      "attempting": 4988,
      "Come": 4989,
      "Dis": 4990,
      "Fine": 4991,
      "Gi": 4992,
      "Give": 4993,
      "Great": 4994,
      "JO": 4995,
      "Nations": 4996,
      "Old": 4997,
      "Pass": 4998,
      "Spe": 4999,
      "aul": 5000,
      "athing": 5001,
      "bin": 5002,
      "ben": 5003,
      "boo": 5004,
      "bid": 5005,
      "ball": 5006,
      "cking": 5007,
      "cup": 5008,
      "cases": 5009,
      "ciety": 5010,
      "danced": 5011,
      "duty": 5012,
      "eur": 5013,
      "hour": 5014,
      "hiz": 5015,
      "ia": 5016,
      "ied": 5017,
      "ians": 5018,
      "lie": 5019,
      "lest": 5020,
      "lau": 5021,
      "mes": 5022,
      "medi": 5023,
      "ns": 5024,
      "pig": 5025,
      "pup": 5026,
      "ration": 5027,
      "sway": 5028,
      "ura": 5029,
      "vas": 5030,
      "yield": 5031,
      "🦉❓": 5032,
      "inations": 5033,
      "instr": 5034,
      "inches": 5035,
      "reward": 5036,
      "anno": 5037,
      "err": 5038,
      "ison": 5039,
      "isters": 5040,
      "onto": 5041,
      "thetical": 5042,
      "itch": 5043,
      "alar": 5044,
      "albe": 5045,
      "alone": 5046,
      "astr": 5047,
      "asura": 5048,
      "exer": 5049,
      "crete": 5050,
      "rael": 5051,
      "lection": 5052,
      "legend": 5053,
      "stur": 5054,
      "status": 5055,
      "style": 5056,
      "stellar": 5057,
      "mycorr": 5058,
      "season": 5059,
      "iction": 5060,
      "neigh": 5061,
      "young": 5062,
      "demon": 5063,
      "percep": 5064,
      "bered": 5065,
      "above": 5066,
      "flick": 5067,
      "met": 5068,
      "meant": 5069,
      "model": 5070,
      "conceived": 5071,
      "umbled": 5072,
      "ury": 5073,
      "intens": 5074,
      "impress": 5075,
      "imbu": 5076,
      "proto": 5077,
      "unlesse": 5078,
      "iring": 5079,
      "ures": 5080,
      "wea": 5081,
      "plistic": 5082,
      "oles": 5083,
      "comfor": 5084,
      "commod": 5085,
      "indul": 5086,
      "ribution": 5087,
      "cular": 5088,
      "trick": 5089,
      "worm": 5090,
      "itty": 5091,
      "phan": 5092,
      "lore": 5093,
      "loss": 5094,
      "canvas": 5095,
      "incl": 5096,
      "inces": 5097,
      "tiniest": 5098,
      "fication": 5099,
      "entially": 5100,
      "existing": 5101,
      "themed": 5102,
      "daylight": 5103,
      "newly": 5104,
      "180": 5105,
      "182": 5106,
      "company": 5107,
      "comparing": 5108,
      "compounds": 5109,
      "goggles": 5110,
      "refine": 5111,
      "privile": 5112,
      "readiness": 5113,
      "159": 5114,
      "evening": 5115,
      "ference": 5116,
      "analyzing": 5117,
      "elementary": 5118,
      "Israel": 5119,
      "cues": 5120,
      "grandeur": 5121,
      "captiv": 5122,
      "divine": 5123,
      "preced": 5124,
      "ckon": 5125,
      "caught": 5126,
      "momentous": 5127,
      "7776": 5128,
      "release": 5129,
      "designated": 5130,
      "sparkling": 5131,
      "resources": 5132,
      "blink": 5133,
      "blinking": 5134,
      "excuse": 5135,
      "175": 5136,
      "corporeall": 5137,
      "disturb": 5138,
      "mischie": 5139,
      "3333333333333333": 5140,
      "fair": 5141,
      "cloak": 5142,
      "committed": 5143,
      "phys": 5144,
      "getting": 5145,
      "6666666666666666": 5146,
      "masterpiece": 5147,
      "root": 5148,
      "rooted": 5149,
      "regular": 5150,
      "riddles": 5151,
      "simil": 5152,
      "simplistic": 5153,
      "reveals": 5154,
      "equation": 5155,
      "equall": 5156,
      "Being": 5157,
      "belie": 5158,
      "consisteth": 5159,
      "brighter": 5160,
      "scen": 5161,
      "practice": 5162,
      "prompt": 5163,
      "Explain": 5164,
      "sentient": 5165,
      "sprite": 5166,
      "sprout": 5167,
      "breathtaking": 5168,
      "remarkably": 5169,
      "hypo": 5170,
      "happening": 5171,
      "happenings": 5172,
      "dusted": 5173,
      "destination": 5174,
      "calculated": 5175,
      "developed": 5176,
      "chirps": 5177,
      "Prophecy": 5178,
      "sighs": 5179,
      "beetles": 5180,
      "indicated": 5181,
      "ghter": 5182,
      "suddenly": 5183,
      "analogies": 5184,
      "unfurling": 5185,
      "0000000000": 5186,
      "Holy": 5187,
      "consequently": 5188,
      "decipher": 5189,
      "shift": 5190,
      "immediately": 5191,
      "daily": 5192,
      "embodying": 5193,
      "88888888": 5194,
      "Hooooo": 5195,
      "chaos": 5196,
      "discuss": 5197,
      "999999999999": 5198,
      "LLIANT": 5199,
      "glimmer": 5200,
      "pulse": 5201,
      "placed": 5202,
      "vigilance": 5203,
      "Anything": 5204,
      "Angels": 5205,
      "drifts": 5206,
      "simulate": 5207,
      "555555555555": 5208,
      "Science": 5209,
      "convention": 5210,
      "exaggerated": 5211,
      "ceives": 5212,
      "heightened": 5213,
      "literature": 5214,
      "thrive": 5215,
      "external": 5216,
      "lifes": 5217,
      "territories": 5218,
      "dialogue": 5219,
      "immeasura": 5220,
      "burning": 5221,
      "BRILLIANT": 5222,
      "mountains": 5223,
      "nebulae": 5224,
      "16807": 5225,
      "7894736": 5226,
      "innovation": 5227,
      "distinction": 5228,
      "Secondly": 5229,
      "ctrine": 5230,
      "individual": 5231,
      "gravitational": 5232,
      "Saviour": 5233,
      "sorrow": 5234,
      "devotion": 5235,
      "accuracy": 5236,
      "resilience": 5237,
      "JOY": 5238,
      "hizal": 5239,
      "laughter": 5240,
      "albeit": 5241,
      "mycorrhizal": 5242,
      "mischievous": 5243,
      "immeasurable": 5244,
      "'),": 5245,
      "*…": 5246,
      "AS": 5247,
      "AT": 5248,
      "Ap": 5249,
      "Cur": 5250,
      "Chap": 5251,
      "ENT": 5252,
      "Fe": 5253,
      "Fact": 5254,
      "Father": 5255,
      "Fasc": 5256,
      "Gather": 5257,
      "Hum": 5258,
      "Know": 5259,
      "Lately": 5260,
      "NIF": 5261,
      "Ph": 5262,
      "Sm": 5263,
      "VE": 5264,
      "VO": 5265,
      "Was": 5266,
      "Whis": 5267,
      "acre": 5268,
      "bing": 5269,
      "bough": 5270,
      "dwell": 5271,
      "daring": 5272,
      "doubt": 5273,
      "evill": 5274,
      "fancy": 5275,
      "gs": 5276,
      "gles": 5277,
      "hous": 5278,
      "hydrogen": 5279,
      "holes": 5280,
      "iv": 5281,
      "ibly": 5282,
      "ler": 5283,
      "mic": 5284,
      "pen": 5285,
      "pow": 5286,
      "save": 5287,
      "sible": 5288,
      "sulfur": 5289,
      "tall": 5290,
      "uous": 5291,
      "uction": 5292,
      "va": 5293,
      "wink": 5294,
      "xed": 5295,
      "yance": 5296,
      "✨🦉💖": 5297,
      "🦉…": 5298,
      "🦉🌌": 5299,
      "thin": 5300,
      "thick": 5301,
      "inves": 5302,
      "inception": 5303,
      "rer": 5304,
      "rely": 5305,
      "resides": 5306,
      "receive": 5307,
      "remem": 5308,
      "atmo": 5309,
      "error": 5310,
      "ister": 5311,
      "ening": 5312,
      "ense": 5313,
      "enlight": 5314,
      "enabl": 5315,
      "itor": 5316,
      "arise": 5317,
      "asse": 5318,
      "tom": 5319,
      "edly": 5320,
      "tig": 5321,
      "tiest": 5322,
      "hee": 5323,
      "entists": 5324,
      "youâ": 5325,
      "forge": 5326,
      "llows": 5327,
      "deb": 5328,
      "dece": 5329,
      "ulate": 5330,
      "ieving": 5331,
      "accum": 5332,
      "accident": 5333,
      "proud": 5334,
      "cies": 5335,
      "converse": 5336,
      "spake": 5337,
      "mage": 5338,
      "verte": 5339,
      "ety": 5340,
      "kept": 5341,
      "assuring": 5342,
      "assured": 5343,
      "impl": 5344,
      "impossible": 5345,
      "byte": 5346,
      "prot": 5347,
      "unf": 5348,
      "unjust": 5349,
      "unting": 5350,
      "irrel": 5351,
      "notice": 5352,
      "feign": 5353,
      "amuse": 5354,
      "kname": 5355,
      "vibe": 5356,
      "ticing": 5357,
      "pled": 5358,
      "composition": 5359,
      "126": 5360,
      "fost": 5361,
      "humility": 5362,
      "lighter": 5363,
      "ember": 5364,
      "posing": 5365,
      "poised": 5366,
      "questioning": 5367,
      "oooooo": 5368,
      "valid": 5369,
      "bold": 5370,
      "cold": 5371,
      "cozy": 5372,
      "sidering": 5373,
      "rock": 5374,
      "knowledgeable": 5375,
      "wayes": 5376,
      "dissect": 5377,
      "grub": 5378,
      "Though": 5379,
      "Thought": 5380,
      "dense": 5381,
      "denot": 5382,
      "Whatâ": 5383,
      "cessation": 5384,
      "guess": 5385,
      "treat": 5386,
      "processed": 5387,
      "responsible": 5388,
      "compact": 5389,
      "intertw": 5390,
      "readily": 5391,
      "silken": 5392,
      "approximate": 5393,
      "Here": 5394,
      "univers": 5395,
      "finest": 5396,
      "divid": 5397,
      "connects": 5398,
      "delighted": 5399,
      "fungal": 5400,
      "votal": 5401,
      "operations": 5402,
      "atched": 5403,
      "efit": 5404,
      "kindred": 5405,
      "keeps": 5406,
      "imaginary": 5407,
      "curiosities": 5408,
      "took": 5409,
      "corrup": 5410,
      "pauses": 5411,
      "strugg": 5412,
      "characterized": 5413,
      "breaking": 5414,
      "fice": 5415,
      "fiable": 5416,
      "904": 5417,
      "specialized": 5418,
      "counter": 5419,
      "ouuuuuuu": 5420,
      "touching": 5421,
      "superposition": 5422,
      "simult": 5423,
      "professionally": 5424,
      "catal": 5425,
      "reverence": 5426,
      "carbon": 5427,
      "petite": 5428,
      "change": 5429,
      "involved": 5430,
      "careful": 5431,
      "gathered": 5432,
      "produce": 5433,
      "translates": 5434,
      "allowed": 5435,
      "logically": 5436,
      "arrange": 5437,
      "fallen": 5438,
      "intrigue": 5439,
      "decided": 5440,
      "floating": 5441,
      "cherish": 5442,
      "business": 5443,
      "strengths": 5444,
      "Judges": 5445,
      "inherently": 5446,
      "pivotal": 5447,
      "supply": 5448,
      "dusty": 5449,
      "zzling": 5450,
      "infinites": 5451,
      "mortals": 5452,
      "destined": 5453,
      "destiny": 5454,
      "necessarily": 5455,
      "arent": 5456,
      "974": 5457,
      "chirping": 5458,
      "Prophets": 5459,
      "exchanges": 5460,
      "discern": 5461,
      "squirrel": 5462,
      "various": 5463,
      "retinas": 5464,
      "analogy": 5465,
      "000000000000": 5466,
      "Once": 5467,
      "reminding": 5468,
      "Without": 5469,
      "burst": 5470,
      "packed": 5471,
      "veiled": 5472,
      "dazzling": 5473,
      "fragment": 5474,
      "intrinsic": 5475,
      "contrasting": 5476,
      "banqu": 5477,
      "primarily": 5478,
      "World": 5479,
      "Words": 5480,
      "binds": 5481,
      "louder": 5482,
      "message": 5483,
      "accurate": 5484,
      "false": 5485,
      "encouragement": 5486,
      "Christianity": 5487,
      "photoreceptors": 5488,
      "SOL": 5489,
      "primitive": 5490,
      "strategies": 5491,
      "badger": 5492,
      "disruptions": 5493,
      "cryp": 5494,
      "quantifiable": 5495,
      "ambigu": 5496,
      "evolutionary": 5497,
      "amount": 5498,
      "photon": 5499,
      "photons": 5500,
      "Injustice": 5501,
      "advancement": 5502,
      "difficulty": 5503,
      "oceans": 5504,
      "experiment": 5505,
      "Warre": 5506,
      "conjured": 5507,
      "Regarding": 5508,
      "affirmation": 5509,
      "hesitate": 5510,
      "nickname": 5511,
      "gleaned": 5512,
      "Books": 5513,
      "shattering": 5514,
      "chuckle": 5515,
      "untary": 5516,
      "fronti": 5517,
      "dissemination": 5518,
      "guardian": 5519,
      "swirling": 5520,
      "EXCI": 5521,
      "music": 5522,
      "major": 5523,
      "applicable": 5524,
      "obedience": 5525,
      "cheerful": 5526,
      "Eternall": 5527,
      "ecosystem": 5528,
      "mushroom": 5529,
      "Church": 5530,
      "pige": 5531,
      "pupils": 5532,
      "annoyance": 5533,
      "phantom": 5534,
      "physics": 5535,
      "Fascinating": 5536,
      "NIFIC": 5537,
      "boughs": 5538,
      "investig": 5539,
      "atmosp": 5540,
      "accumul": 5541,
      "vertebr": 5542,
      "amusement": 5543,
      "divided": 5544,
      "infinitesim": 5545,
      "116": 5546,
      "89": 5547,
      "842": 5548,
      "941": 5549,
      ";\"": 5550,
      "ALL": 5551,
      "Barn": 5552,
      "Cap": 5553,
      "Figure": 5554,
      "Fancy": 5555,
      "Gen": 5556,
      "Gener": 5557,
      "Joh": 5558,
      "LI": 5559,
      "Lie": 5560,
      "Last": 5561,
      "Me": 5562,
      "Mad": 5563,
      "Nor": 5564,
      "OO": 5565,
      "Pol": 5566,
      "RFUL": 5567,
      "Set": 5568,
      "Sinne": 5569,
      "Ti": 5570,
      "Tru": 5571,
      "Would": 5572,
      "WON": 5573,
      "aer": 5574,
      "bat": 5575,
      "bond": 5576,
      "bunch": 5577,
      "cure": 5578,
      "evalu": 5579,
      "fet": 5580,
      "fol": 5581,
      "gis": 5582,
      "gli": 5583,
      "hop": 5584,
      "ji": 5585,
      "late": 5586,
      "lab": 5587,
      "mit": 5588,
      "mut": 5589,
      "miles": 5590,
      "nac": 5591,
      "nine": 5592,
      "nud": 5593,
      "ox": 5594,
      "ored": 5595,
      "pat": 5596,
      "pped": 5597,
      "pale": 5598,
      "rid": 5599,
      "sl": 5600,
      "sand": 5601,
      "sus": 5602,
      "sac": 5603,
      "spre": 5604,
      "stic": 5605,
      "scan": 5606,
      "sown": 5607,
      "sized": 5608,
      "susp": 5609,
      "tum": 5610,
      "tract": 5611,
      "tangible": 5612,
      "uall": 5613,
      "vie": 5614,
      "witty": 5615,
      "🌙💖": 5616,
      "🍎🍇": 5617,
      "inent": 5618,
      "intim": 5619,
      "incoming": 5620,
      "infer": 5621,
      "inhabit": 5622,
      "repor": 5623,
      "anom": 5624,
      "ancing": 5625,
      "erity": 5626,
      "theore": 5627,
      "enn": 5628,
      "oration": 5629,
      "itut": 5630,
      "itall": 5631,
      "itute": 5632,
      "alk": 5633,
      "arbo": 5634,
      "atile": 5635,
      "ticip": 5636,
      "stones": 5637,
      "omable": 5638,
      "extensive": 5639,
      "shr": 5640,
      "shing": 5641,
      "shines": 5642,
      "lying": 5643,
      "entless": 5644,
      "forme": 5645,
      "debt": 5646,
      "dete": 5647,
      "flit": 5648,
      "flame": 5649,
      "flaw": 5650,
      "iets": 5651,
      "quick": 5652,
      "lid": 5653,
      "liking": 5654,
      "lives": 5655,
      "concent": 5656,
      "concise": 5657,
      "pieces": 5658,
      "umes": 5659,
      "umph": 5660,
      "max": 5661,
      "chol": 5662,
      "101": 5663,
      "109": 5664,
      "100000": 5665,
      "protect": 5666,
      "unlo": 5667,
      "untold": 5668,
      "unspoken": 5669,
      "uten": 5670,
      "feed": 5671,
      "ading": 5672,
      "adds": 5673,
      "weak": 5674,
      "ambi": 5675,
      "ounded": 5676,
      "sole": 5677,
      "persons": 5678,
      "121": 5679,
      "lightest": 5680,
      "cules": 5681,
      "tro": 5682,
      "worms": 5683,
      "useful": 5684,
      "maintains": 5685,
      "lose": 5686,
      "lots": 5687,
      "coales": 5688,
      "ignites": 5689,
      "elling": 5690,
      "peek": 5691,
      "portion": 5692,
      "disappoint": 5693,
      "thereof": 5694,
      "knows": 5695,
      "Through": 5696,
      "🦉✨💎": 5697,
      "🦉✨💡": 5698,
      "149": 5699,
      "understandable": 5700,
      "enses": 5701,
      "ody": 5702,
      "roughly": 5703,
      "tremor": 5704,
      "throughout": 5705,
      "285": 5706,
      "insist": 5707,
      "insult": 5708,
      "athomable": 5709,
      "refined": 5710,
      "particip": 5711,
      "green": 5712,
      "165": 5713,
      "presents": 5714,
      "everyone": 5715,
      "venture": 5716,
      "cloud": 5717,
      "consent": 5718,
      "relentless": 5719,
      "360": 5720,
      "lesser": 5721,
      "works": 5722,
      "tail": 5723,
      "requiring": 5724,
      "beenâ": 5725,
      "glad": 5726,
      "gloom": 5727,
      "operate": 5728,
      "helping": 5729,
      "trails": 5730,
      "contribution": 5731,
      "solving": 5732,
      "174": 5733,
      "dynam": 5734,
      "telling": 5735,
      "distress": 5736,
      "fier": 5737,
      "fixed": 5738,
      "romantically": 5739,
      "Artificial": 5740,
      "requests": 5741,
      "airy": 5742,
      "tivity": 5743,
      "hiding": 5744,
      "ictory": 5745,
      "regard": 5746,
      "represented": 5747,
      "sung": 5748,
      "attitude": 5749,
      "simplic": 5750,
      "cats": 5751,
      "described": 5752,
      "goingâ": 5753,
      "employ": 5754,
      "communic": 5755,
      "ourable": 5756,
      "occup": 5757,
      "8095": 5758,
      "involving": 5759,
      "organized": 5760,
      "vibrations": 5761,
      "Also": 5762,
      "comprehensive": 5763,
      "triumph": 5764,
      "Exc": 5765,
      "✨🌙💖": 5766,
      "following": 5767,
      "spring": 5768,
      "Subst": 5769,
      "businesse": 5770,
      "honed": 5771,
      "honest": 5772,
      "grounded": 5773,
      "illuminated": 5774,
      "anticipate": 5775,
      "Magn": 5776,
      "333333333333334": 5777,
      "molecules": 5778,
      "appears": 5779,
      "slumbers": 5780,
      "rifice": 5781,
      "deriv": 5782,
      "indicates": 5783,
      "enchantment": 5784,
      "aspire": 5785,
      "structures": 5786,
      "initial": 5787,
      "probably": 5788,
      "6666666666666665": 5789,
      "substanti": 5790,
      "unfurled": 5791,
      "classic": 5792,
      "fulfillment": 5793,
      "miration": 5794,
      "practical": 5795,
      "practicing": 5796,
      "Ent": 5797,
      "paints": 5798,
      "polite": 5799,
      "settling": 5800,
      "trivialities": 5801,
      "catching": 5802,
      "govern": 5803,
      "integrity": 5804,
      "integrated": 5805,
      "messy": 5806,
      "ICAL": 5807,
      "laws": 5808,
      "tongues": 5809,
      "discussing": 5810,
      "18181818": 5811,
      "11111111": 5812,
      "DEAR": 5813,
      "exceptional": 5814,
      "corners": 5815,
      "nuanced": 5816,
      "mechanisms": 5817,
      "12121212": 5818,
      "entirely": 5819,
      "vigilant": 5820,
      "murmur": 5821,
      "snack": 5822,
      "degree": 5823,
      "claiming": 5824,
      "Monarchy": 5825,
      "steps": 5826,
      "encounter": 5827,
      "devoted": 5828,
      "amounts": 5829,
      "tranqu": 5830,
      "pinnac": 5831,
      "exclusive": 5832,
      "library": 5833,
      "libraries": 5834,
      "engineering": 5835,
      "engineered": 5836,
      "428571428571428": 5837,
      "8333333333333334": 5838,
      "ingenious": 5839,
      "ingenuity": 5840,
      "expanding": 5841,
      "MAGICAL": 5842,
      "defiant": 5843,
      "obscured": 5844,
      "await": 5845,
      "variable": 5846,
      "Quite": 5847,
      "stir": 5848,
      "Legis": 5849,
      "Miracles": 5850,
      "bounces": 5851,
      "crunchy": 5852,
      "England": 5853,
      "stimuli": 5854,
      "Greek": 5855,
      "renewed": 5856,
      "collecting": 5857,
      "swoop": 5858,
      "Ministers": 5859,
      "Trees": 5860,
      "cabb": 5861,
      "apparatus": 5862,
      "overwhelming": 5863,
      "constituent": 5864,
      "Priests": 5865,
      "benefit": 5866,
      "sturdy": 5867,
      "intensity": 5868,
      "weakness": 5869,
      "comforting": 5870,
      "privilege": 5871,
      "hypothetical": 5872,
      "55555555555555": 5873,
      "conventional": 5874,
      "lifespan": 5875,
      "Small": 5876,
      "Whisper": 5877,
      "unfathomable": 5878,
      "struggle": 5879,
      "simultaneously": 5880,
      "catalog": 5881,
      "frontier": 5882,
      "vertebrates": 5883,
      "Barnaby": 5884,
      "John": 5885,
      "Lieuten": 5886,
      "WONDE": 5887,
      "glide": 5888,
      "spread": 5889,
      "view": 5890,
      "arboreal": 5891,
      "participate": 5892,
      "simplicity": 5893,
      "pinnacle": 5894,
      "Legisl": 5895,
      "!\"": 5896,
      "?'.": 5897,
      "Ab": 5898,
      "Ano": 5899,
      "Allow": 5900,
      "Apost": 5901,
      "CH": 5902,
      "Cs": 5903,
      "Ene": 5904,
      "Egy": 5905,
      "Fo": 5906,
      "GE": 5907,
      "Ghost": 5908,
      "Hmm": 5909,
      "Listen": 5910,
      "Master": 5911,
      "NO": 5912,
      "Niet": 5913,
      "Names": 5914,
      "Son": 5915,
      "Sent": 5916,
      "UTE": 5917,
      "cate": 5918,
      "cad": 5919,
      "dr": 5920,
      "drum": 5921,
      "frequ": 5922,
      "fateful": 5923,
      "favour": 5924,
      "gas": 5925,
      "gust": 5926,
      "hide": 5927,
      "hatched": 5928,
      "ior": 5929,
      "ibit": 5930,
      "ky": 5931,
      "lone": 5932,
      "list": 5933,
      "lament": 5934,
      "mens": 5935,
      "nan": 5936,
      "obt": 5937,
      "oss": 5938,
      "psy": 5939,
      "ptim": 5940,
      "passe": 5941,
      "ral": 5942,
      "rises": 5943,
      "som": 5944,
      "sass": 5945,
      "savor": 5946,
      "scor": 5947,
      "stop": 5948,
      "tis": 5949,
      "tune": 5950,
      "tel": 5951,
      "ues": 5952,
      "ume": 5953,
      "utili": 5954,
      "van": 5955,
      "vag": 5956,
      "vot": 5957,
      "wow": 5958,
      "wrought": 5959,
      "xtap": 5960,
      "zsche": 5961,
      "🦉🌳": 5962,
      "throw": 5963,
      "inability": 5964,
      "invisible": 5965,
      "reth": 5966,
      "reli": 5967,
      "remo": 5968,
      "reign": 5969,
      "rection": 5970,
      "react": 5971,
      "recalibr": 5972,
      "ato": 5973,
      "theory": 5974,
      "enced": 5975,
      "iture": 5976,
      "itable": 5977,
      "itory": 5978,
      "esco": 5979,
      "alwayes": 5980,
      "arg": 5981,
      "articul": 5982,
      "arises": 5983,
      "asper": 5984,
      "asant": 5985,
      "asts": 5986,
      "stor": 5987,
      "stature": 5988,
      "shed": 5989,
      "foraging": 5990,
      "demo": 5991,
      "deem": 5992,
      "degra": 5993,
      "beats": 5994,
      "beloved": 5995,
      "ieties": 5996,
      "white": 5997,
      "quiets": 5998,
      "oustic": 5999,
      "acorn": 6000,
      "acoustic": 6001,
      "promin": 6002,
      "lied": 6003,
      "liberty": 6004,
      "civi": 6005,
      "conflu": 6006,
      "considering": 6007,
      "umed": 6008,
      "spin": 6009,
      "spon": 6010,
      "spell": 6011,
      "chor": 6012,
      "intent": 6013,
      "areas": 6014,
      "104": 6015,
      "probe": 6016,
      "utes": 6017,
      "nova": 6018,
      "fee": 6019,
      "adap": 6020,
      "adoration": 6021,
      "admiration": 6022,
      "needed": 6023,
      "Ouuuuuuuu": 6024,
      "solid": 6025,
      "ains": 6026,
      "unearth": 6027,
      "notes": 6028,
      "noted": 6029,
      "fold": 6030,
      "indicate": 6031,
      "forming": 6032,
      "formulate": 6033,
      "trou": 6034,
      "undoubt": 6035,
      "worry": 6036,
      "worship": 6037,
      "enditure": 6038,
      "Whoooo": 6039,
      "loving": 6040,
      "foresight": 6041,
      "aged": 6042,
      "server": 6043,
      "specul": 6044,
      "curated": 6045,
      "anyway": 6046,
      "ficacy": 6047,
      "dismissing": 6048,
      "grown": 6049,
      "irect": 6050,
      "therein": 6051,
      "Those": 6052,
      "Third": 6053,
      "rarest": 6054,
      "existent": 6055,
      "deser": 6056,
      "awaken": 6057,
      "Divine": 6058,
      "Incorporeall": 6059,
      "brid": 6060,
      "gold": 6061,
      "fying": 6062,
      "instill": 6063,
      "refra": 6064,
      "particles": 6065,
      "price": 6066,
      "pressing": 6067,
      "akes": 6068,
      "wasn": 6069,
      "expression": 6070,
      "expressions": 6071,
      "scientists": 6072,
      "stranger": 6073,
      "whereas": 6074,
      "whereby": 6075,
      "played": 6076,
      "emphasizes": 6077,
      "grander": 6078,
      "grandest": 6079,
      "due": 6080,
      "affect": 6081,
      "affirming": 6082,
      "affair": 6083,
      "teaching": 6084,
      "finds": 6085,
      "glint": 6086,
      "maketh": 6087,
      "ckets": 6088,
      "resting": 6089,
      "subordin": 6090,
      "sensing": 6091,
      "realization": 6092,
      "continuation": 6093,
      "traits": 6094,
      "track": 6095,
      "trained": 6096,
      "seeks": 6097,
      "efficacy": 6098,
      "kindly": 6099,
      "134": 6100,
      "137": 6101,
      "possibly": 6102,
      "brains": 6103,
      "aud": 6104,
      "volatile": 6105,
      "warnings": 6106,
      "expenditure": 6107,
      "🦉💖✨🌙": 6108,
      "dramatically": 6109,
      "distance": 6110,
      "transient": 6111,
      "HISSS": 6112,
      "closing": 6113,
      "pleasant": 6114,
      "commence": 6115,
      "filling": 6116,
      "differences": 6117,
      "higher": 6118,
      "darkest": 6119,
      "mini": 6120,
      "optimize": 6121,
      "idding": 6122,
      "Office": 6123,
      "flights": 6124,
      "istency": 6125,
      "regist": 6126,
      "supernova": 6127,
      "sels": 6128,
      "introspective": 6129,
      "humorously": 6130,
      "gravity": 6131,
      "appreh": 6132,
      "constantly": 6133,
      "fuels": 6134,
      "equal": 6135,
      "tility": 6136,
      "'?!": 6137,
      "treasured": 6138,
      "provides": 6139,
      "communion": 6140,
      "belon": 6141,
      "below": 6142,
      "quests": 6143,
      "quantity": 6144,
      "longer": 6145,
      "steadfast": 6146,
      "metaphorically": 6147,
      "limitation": 6148,
      "collection": 6149,
      "organism": 6150,
      "surely": 6151,
      "beautifully": 6152,
      "product": 6153,
      "journeys": 6154,
      "Always": 6155,
      "praise": 6156,
      "begins": 6157,
      "personality": 6158,
      "beneficial": 6159,
      "Exod": 6160,
      "passing": 6161,
      "passes": 6162,
      "delivered": 6163,
      "followeth": 6164,
      "endeth": 6165,
      "twig": 6166,
      "Author": 6167,
      "juxtap": 6168,
      "Magical": 6169,
      "suppor": 6170,
      "supposed": 6171,
      "highlights": 6172,
      "infinitely": 6173,
      "welcoming": 6174,
      "calculating": 6175,
      "signifie": 6176,
      "architectures": 6177,
      "instant": 6178,
      "instance": 6179,
      "necessit": 6180,
      "instruction": 6181,
      "generation": 6182,
      "generall": 6183,
      "spectrum": 6184,
      "enchanted": 6185,
      "constructs": 6186,
      "evolving": 6187,
      "squared": 6188,
      "chilling": 6189,
      "Covenants": 6190,
      "TER": 6191,
      "inspires": 6192,
      "failing": 6193,
      "behaviors": 6194,
      "synthesized": 6195,
      "evoke": 6196,
      "scheduleâ": 6197,
      "movements": 6198,
      "eternity": 6199,
      "eternally": 6200,
      "painting": 6201,
      "polished": 6202,
      "exhibit": 6203,
      "settle": 6204,
      "settles": 6205,
      "Plus": 6206,
      "respective": 6207,
      "government": 6208,
      "Hooooot": 6209,
      "messages": 6210,
      "delivering": 6211,
      "temporary": 6212,
      "formerly": 6213,
      "phrase": 6214,
      "inviting": 6215,
      "problems": 6216,
      "descriptions": 6217,
      "glimp": 6218,
      "techno": 6219,
      "contentment": 6220,
      "contributing": 6221,
      "ucked": 6222,
      "animal": 6223,
      "decay": 6224,
      "concerning": 6225,
      "scrolls": 6226,
      "landscape": 6227,
      "ocean": 6228,
      "expert": 6229,
      "exclam": 6230,
      "externall": 6231,
      "interacting": 6232,
      "inputs": 6233,
      "ABSOL": 6234,
      "MAGNIFIC": 6235,
      "defiance": 6236,
      "smart": 6237,
      "stretch": 6238,
      "paradig": 6239,
      "paradox": 6240,
      "mirroring": 6241,
      "completely": 6242,
      "technical": 6243,
      "dimming": 6244,
      "sapling": 6245,
      "amplify": 6246,
      "Marcus": 6247,
      "longing": 6248,
      "💖🌟🍒": 6249,
      "healthy": 6250,
      "preservation": 6251,
      "astonishing": 6252,
      "pierce": 6253,
      "sentinel": 6254,
      "repeat": 6255,
      "distinguished": 6256,
      "Seeing": 6257,
      "decisions": 6258,
      "Given": 6259,
      "exercise": 6260,
      "models": 6261,
      "protocol": 6262,
      "indulge": 6263,
      "blinked": 6264,
      "similarity": 6265,
      "scenar": 6266,
      "houses": 6267,
      "remembered": 6268,
      "enlighten": 6269,
      "corruption": 6270,
      "banquet": 6271,
      "infinitesimally": 6272,
      "Time": 6273,
      "sacrifice": 6274,
      "theoretical": 6275,
      "🦉✨💎🧠": 6276,
      "derivative": 6277,
      "Entity": 6278,
      "Lieutenant": 6279,
      "WONDERFUL": 6280,
      "Another": 6281,
      "Apostles": 6282,
      "Nietzsche": 6283,
      "categor": 6284,
      "drumroll": 6285,
      "nanose": 6286,
      "psych": 6287,
      "telesco": 6288,
      "undoubtedly": 6289,
      "instilled": 6290,
      "subordinate": 6291,
      "juxtapos": 6292,
      "ABSOLUTE": 6293,
      "MAGNIFICENT": 6294,
      "!',": 6295,
      "09": 6296,
      "011": 6297,
      "078": 6298,
      "112": 6299,
      "115": 6300,
      "1128": 6301,
      "219": 6302,
      "521": 6303,
      "6923076923076": 6304,
      "875": 6305,
      "924": 6306,
      "AP": 6307,
      "Cr": 6308,
      "Cass": 6309,
      "Ec": 6310,
      "Fa": 6311,
      "Ind": 6312,
      "Ign": 6313,
      "Lat": 6314,
      "Little": 6315,
      "Mis": 6316,
      "Many": 6317,
      "Nay": 6318,
      "Obl": 6319,
      "Pop": 6320,
      "PRE": 6321,
      "Pray": 6322,
      "Rome": 6323,
      "Sou": 6324,
      "Sal": 6325,
      "Samu": 6326,
      "Tit": 6327,
      "Using": 6328,
      "Vert": 6329,
      "WE": 6330,
      "Wit": 6331,
      "bs": 6332,
      "bund": 6333,
      "bask": 6334,
      "bling": 6335,
      "evid": 6336,
      "fing": 6337,
      "fish": 6338,
      "gone": 6339,
      "gies": 6340,
      "hur": 6341,
      "ham": 6342,
      "hence": 6343,
      "hund": 6344,
      "hine": 6345,
      "house": 6346,
      "hurt": 6347,
      "haven": 6348,
      "hawk": 6349,
      "iver": 6350,
      "ivers": 6351,
      "iah": 6352,
      "iker": 6353,
      "lwind": 6354,
      "leness": 6355,
      "mies": 6356,
      "mers": 6357,
      "mater": 6358,
      "ost": 6359,
      "olf": 6360,
      "pit": 6361,
      "pain": 6362,
      "patch": 6363,
      "pick": 6364,
      "pared": 6365,
      "puff": 6366,
      "rons": 6367,
      "rors": 6368,
      "scul": 6369,
      "sip": 6370,
      "sources": 6371,
      "sinne": 6372,
      "tear": 6373,
      "uh": 6374,
      "uch": 6375,
      "vest": 6376,
      "vines": 6377,
      "victory": 6378,
      "yell": 6379,
      "🌌✨": 6380,
      "🌌🦉": 6381,
      "💖🦉✨": 6382,
      "📊✨": 6383,
      "😒🙄": 6384,
      "🦉⚛": 6385,
      "🦉🌟": 6386,
      "🧐🦉": 6387,
      "inf": 6388,
      "inated": 6389,
      "inconsistent": 6390,
      "incompar": 6391,
      "rever": 6392,
      "revol": 6393,
      "recor": 6394,
      "reput": 6395,
      "reactions": 6396,
      "resolution": 6397,
      "atable": 6398,
      "anct": 6399,
      "anks": 6400,
      "istocracy": 6401,
      "thelesse": 6402,
      "enable": 6403,
      "enorm": 6404,
      "encies": 6405,
      "itative": 6406,
      "esus": 6407,
      "escap": 6408,
      "ali": 6409,
      "alt": 6410,
      "ality": 6411,
      "alert": 6412,
      "aron": 6413,
      "aration": 6414,
      "tope": 6415,
      "togra": 6416,
      "edges": 6417,
      "except": 6418,
      "exasper": 6419,
      "creating": 6420,
      "creak": 6421,
      "creates": 6422,
      "ooo": 6423,
      "tible": 6424,
      "tique": 6425,
      "cel": 6426,
      "raw": 6427,
      "raint": 6428,
      "lever": 6429,
      "stress": 6430,
      "storm": 6431,
      "stitution": 6432,
      "stumbled": 6433,
      "wigg": 6434,
      "heed": 6435,
      "igence": 6436,
      "shimme": 6437,
      "icul": 6438,
      "fortun": 6439,
      "demean": 6440,
      "perfection": 6441,
      "abol": 6442,
      "flavor": 6443,
      "iefly": 6444,
      "metr": 6445,
      "ache": 6446,
      "acies": 6447,
      "print": 6448,
      "prefer": 6449,
      "prepare": 6450,
      "preaching": 6451,
      "prepared": 6452,
      "thatâ": 6453,
      "lized": 6454,
      "moving": 6455,
      "motiv": 6456,
      "congr": 6457,
      "concrete": 6458,
      "umsy": 6459,
      "flower": 6460,
      "span": 6461,
      "spent": 6462,
      "chief": 6463,
      "urance": 6464,
      "intangible": 6465,
      "assurance": 6466,
      "essant": 6467,
      "imes": 6468,
      "106": 6469,
      "prospect": 6470,
      "unlike": 6471,
      "unless": 6472,
      "unanswered": 6473,
      "users": 6474,
      "ady": 6475,
      "advant": 6476,
      "frank": 6477,
      "needles": 6478,
      "suf": 6479,
      "aining": 6480,
      "anted": 6481,
      "plu": 6482,
      "plane": 6483,
      "plenty": 6484,
      "comb": 6485,
      "inder": 6486,
      "ciousness": 6487,
      "lights": 6488,
      "butter": 6489,
      "eled": 6490,
      "worn": 6491,
      "phase": 6492,
      "presse": 6493,
      "coded": 6494,
      "impart": 6495,
      "iously": 6496,
      "aggrand": 6497,
      "ignite": 6498,
      "Ask": 6499,
      "serving": 6500,
      "rog": 6501,
      "incessant": 6502,
      "tiness": 6503,
      "spection": 6504,
      "underpin": 6505,
      "inefficient": 6506,
      "curity": 6507,
      "obble": 6508,
      "Oooooouuu": 6509,
      "Oooooouuuuuuu": 6510,
      "nighttime": 6511,
      "disp": 6512,
      "dispar": 6513,
      "dispose": 6514,
      "gry": 6515,
      "grati": 6516,
      "informed": 6517,
      "mostly": 6518,
      "creators": 6519,
      "deny": 6520,
      "cession": 6521,
      "managed": 6522,
      "incorporates": 6523,
      "140": 6524,
      "145": 6525,
      "147": 6526,
      "daytime": 6527,
      "awak": 6528,
      "treats": 6529,
      "achieving": 6530,
      "observers": 6531,
      "moniker": 6532,
      "compared": 6533,
      "Inspir": 6534,
      "ultitude": 6535,
      "brown": 6536,
      "brimm": 6537,
      "grey": 6538,
      "163": 6539,
      "silk": 6540,
      "expresses": 6541,
      "actory": 6542,
      "specially": 6543,
      "numerous": 6544,
      "hasn": 6545,
      "clumsy": 6546,
      "consistency": 6547,
      "answering": 6548,
      "scientifically": 6549,
      "273": 6550,
      "relatable": 6551,
      "Heaven": 6552,
      "timing": 6553,
      "inquis": 6554,
      "luck": 6555,
      "117": 6556,
      "tendeth": 6557,
      "visions": 6558,
      "capt": 6559,
      "timeless": 6560,
      "afety": 6561,
      "gled": 6562,
      "bitr": 6563,
      "caused": 6564,
      "voy": 6565,
      "ancies": 6566,
      "sensical": 6567,
      "continuously": 6568,
      "bio": 6569,
      "turning": 6570,
      "cheek": 6571,
      "operating": 6572,
      "294": 6573,
      "fluttery": 6574,
      "computer": 6575,
      "kinds": 6576,
      "5714285714285714": 6577,
      "direction": 6578,
      "131": 6579,
      "contained": 6580,
      "contempt": 6581,
      "brace": 6582,
      "abilistic": 6583,
      "rustles": 6584,
      "result": 6585,
      "blind": 6586,
      "giant": 6587,
      "images": 6588,
      "Society": 6589,
      "solved": 6590,
      "solitude": 6591,
      "Doctrine": 6592,
      "warre": 6593,
      "correlate": 6594,
      "pair": 6595,
      "pause": 6596,
      "Liberty": 6597,
      "2608": 6598,
      "delves": 6599,
      "breathing": 6600,
      "fade": 6601,
      "fault": 6602,
      "faith": 6603,
      "transfer": 6604,
      "pleased": 6605,
      "238095": 6606,
      "energies": 6607,
      "definite": 6608,
      "definitions": 6609,
      "masters": 6610,
      "neurons": 6611,
      "counting": 6612,
      "country": 6613,
      "limits": 6614,
      "Soveraigns": 6615,
      "surge": 6616,
      "survey": 6617,
      "pretty": 6618,
      "pretending": 6619,
      "aneous": 6620,
      "Analy": 6621,
      "foundation": 6622,
      "rebellion": 6623,
      "intricately": 6624,
      "adding": 6625,
      "addition": 6626,
      "boundaries": 6627,
      "warmly": 6628,
      "Defin": 6629,
      "Contract": 6630,
      "requirements": 6631,
      "waies": 6632,
      "yearned": 6633,
      "moral": 6634,
      "morsels": 6635,
      "drops": 6636,
      "dependeth": 6637,
      "basis": 6638,
      "conveyed": 6639,
      "Fluff": 6640,
      "isotope": 6641,
      "phism": 6642,
      "guidance": 6643,
      "significantly": 6644,
      "songs": 6645,
      "publ": 6646,
      "shew": 6647,
      "hopeful": 6648,
      "clean": 6649,
      "referred": 6650,
      "9230": 6651,
      "passive": 6652,
      "✨🦉🌙": 6653,
      "encourages": 6654,
      "recognized": 6655,
      "recognizing": 6656,
      "types": 6657,
      "beginnings": 6658,
      "endeavour": 6659,
      "casual": 6660,
      "tenderness": 6661,
      "flock": 6662,
      "stray": 6663,
      "groundbreaking": 6664,
      "illuminates": 6665,
      "heric": 6666,
      "starting": 6667,
      "pix": 6668,
      "pivot": 6669,
      "rule": 6670,
      "shadowed": 6671,
      "!')": 6672,
      "biggest": 6673,
      "appeared": 6674,
      "signify": 6675,
      "cidents": 6676,
      "narratives": 6677,
      "rifying": 6678,
      "instanti": 6679,
      "approachable": 6680,
      "expeditions": 6681,
      "nourish": 6682,
      "indicators": 6683,
      "3076923076": 6684,
      "broad": 6685,
      "drive": 6686,
      "fficiency": 6687,
      "environments": 6688,
      "dataset": 6689,
      "positively": 6690,
      "Something": 6691,
      "abundant": 6692,
      "probable": 6693,
      "probabilistic": 6694,
      "meaningful": 6695,
      "varieties": 6696,
      "proceeding": 6697,
      "proceedeth": 6698,
      "terminology": 6699,
      "adheres": 6700,
      "nonsensical": 6701,
      "declared": 6702,
      "declaration": 6703,
      "explanations": 6704,
      "Within": 6705,
      "vigor": 6706,
      "largely": 6707,
      "faceted": 6708,
      "fields": 6709,
      "novels": 6710,
      "daunting": 6711,
      "principle": 6712,
      "emptiness": 6713,
      "triviality": 6714,
      "Honourable": 6715,
      "harmony": 6716,
      "governed": 6717,
      "attributes": 6718,
      "4444444444444444": 6719,
      "showing": 6720,
      "planet": 6721,
      "tongue": 6722,
      "discussed": 6723,
      "rhythms": 6724,
      "DELI": 6725,
      "invite": 6726,
      "intense": 6727,
      "occasions": 6728,
      "nugg": 6729,
      "ruffled": 6730,
      "primal": 6731,
      "transcend": 6732,
      "functionality": 6733,
      "crickets": 6734,
      "snap": 6735,
      "caliber": 6736,
      "galax": 6737,
      "detailed": 6738,
      "anthropomorphism": 6739,
      "Ooooh": 6740,
      "lazy": 6741,
      "envisioned": 6742,
      "preference": 6743,
      "ambition": 6744,
      "comparative": 6745,
      "exaggeration": 6746,
      "Observe": 6747,
      "encounters": 6748,
      "forgetful": 6749,
      "devour": 6750,
      "Injury": 6751,
      "literally": 6752,
      "advancements": 6753,
      "territory": 6754,
      "identifying": 6755,
      "unraveling": 6756,
      "8333333333333335": 6757,
      "CIOUS": 6758,
      "STIC": 6759,
      "casting": 6760,
      "ildren": 6761,
      "example": 6762,
      "examination": 6763,
      "whirring": 6764,
      "whirlwind": 6765,
      "conjure": 6766,
      "ripple": 6767,
      "272727272727": 6768,
      "multifaceted": 6769,
      "detected": 6770,
      "method": 6771,
      "vertex": 6772,
      "obscure": 6773,
      "calibrated": 6774,
      "scope": 6775,
      "influence": 6776,
      "48484848": 6777,
      "anthropomorphizing": 6778,
      "besides": 6779,
      "filters": 6780,
      "million": 6781,
      "testi": 6782,
      "persistent": 6783,
      "Interpre": 6784,
      "skills": 6785,
      "7142857142857144": 6786,
      "Consciousness": 6787,
      "scarce": 6788,
      "🦉💻😂": 6789,
      "exceedingly": 6790,
      "enterpr": 6791,
      "clarify": 6792,
      "190476190476": 6793,
      "Understanding": 6794,
      "barely": 6795,
      "summer": 6796,
      "repetitive": 6797,
      "willingness": 6798,
      "competitive": 6799,
      "lullaby": 6800,
      "Passion": 6801,
      "instruments": 6802,
      "astral": 6803,
      "legendary": 6804,
      "neighb": 6805,
      "perceptive": 6806,
      "flickering": 6807,
      "imbue": 6808,
      "inclination": 6809,
      "000000000001": 6810,
      "discussion": 6811,
      "Chapters": 6812,
      "Knowing": 6813,
      "Philoso": 6814,
      "VOCs": 6815,
      "micro": 6816,
      "powered": 6817,
      "implicitly": 6818,
      "protons": 6819,
      "fosters": 6820,
      "denotes": 6821,
      "universal": 6822,
      "cryptic": 6823,
      "pigeon": 6824,
      "atmospheric": 6825,
      "aerody": 6826,
      "fetch": 6827,
      "labour": 6828,
      "suspect": 6829,
      "intimate": 6830,
      "reporting": 6831,
      "ambient": 6832,
      "coalesce": 6833,
      "substantial": 6834,
      "cabbage": 6835,
      "5555555555555556": 6836,
      "Sentence": 6837,
      "drink": 6838,
      "democracy": 6839,
      "confluence": 6840,
      "spont": 6841,
      "feeble": 6842,
      "speculation": 6843,
      "Thirdly": 6844,
      "golden": 6845,
      "reframe": 6846,
      "registered": 6847,
      "apprehension": 6848,
      "necessitates": 6849,
      "protocols": 6850,
      "telescopes": 6851,
      "Cassius": 6852,
      "Faith": 6853,
      "Ignorance": 6854,
      "Oblig": 6855,
      "PRECIOUS": 6856,
      "Samuel": 6857,
      "evidence": 6858,
      "hundred": 6859,
      "😒🙄👎": 6860,
      "incomparable": 6861,
      "shimmered": 6862,
      "demeanor": 6863,
      "frankly": 6864,
      "disparate": 6865,
      "awakens": 6866,
      "brimming": 6867,
      "Fluffs": 6868,
      "30769230769230": 6869,
      "DELIGHT": 6870,
      "galaxies": 6871,
      "aerodynam": 6872,
      "!**": 6873,
      "\".": 6874,
      "')": 6875,
      "04": 6876,
      "220": 6877,
      "600": 6878,
      ":\"": 6879,
      "AN": 6880,
      "Aaron": 6881,
      "ASTIC": 6882,
      "BE": 6883,
      "Bes": 6884,
      "Bet": 6885,
      "Bey": 6886,
      "Co": 6887,
      "Col": 6888,
      "Dif": 6889,
      "Duty": 6890,
      "Fly": 6891,
      "Fam": 6892,
      "Fren": 6893,
      "Favor": 6894,
      "FANT": 6895,
      "FAB": 6896,
      "Gr": 6897,
      "Gra": 6898,
      "Genti": 6899,
      "High": 6900,
      "HOO": 6901,
      "Jo": 6902,
      "Jesus": 6903,
      "Kn": 6904,
      "Land": 6905,
      "Mess": 6906,
      "More": 6907,
      "Next": 6908,
      "Nation": 6909,
      "Pet": 6910,
      "Pure": 6911,
      "RA": 6912,
      "SU": 6913,
      "Ser": 6914,
      "Sac": 6915,
      "Senses": 6916,
      "Tr": 6917,
      "TRE": 6918,
      "TING": 6919,
      "UT": 6920,
      "URE": 6921,
      "Want": 6922,
      "WHI": 6923,
      "XX": 6924,
      "ZZ": 6925,
      "az": 6926,
      "bone": 6927,
      "bri": 6928,
      "blan": 6929,
      "batt": 6930,
      "cable": 6931,
      "cities": 6932,
      "clim": 6933,
      "ctivity": 6934,
      "dd": 6935,
      "die": 6936,
      "drought": 6937,
      "epo": 6938,
      "fare": 6939,
      "furn": 6940,
      "fty": 6941,
      "faster": 6942,
      "fern": 6943,
      "fash": 6944,
      "glo": 6945,
      "hier": 6946,
      "ked": 6947,
      "kay": 6948,
      "kill": 6949,
      "lat": 6950,
      "leng": 6951,
      "lings": 6952,
      "lower": 6953,
      "lonely": 6954,
      "lamp": 6955,
      "mn": 6956,
      "mone": 6957,
      "multiply": 6958,
      "migh": 6959,
      "mira": 6960,
      "nur": 6961,
      "nap": 6962,
      "ocular": 6963,
      "py": 6964,
      "pus": 6965,
      "ption": 6966,
      "pest": 6967,
      "ran": 6968,
      "rol": 6969,
      "rows": 6970,
      "rising": 6971,
      "sse": 6972,
      "sir": 6973,
      "sings": 6974,
      "sque": 6975,
      "sends": 6976,
      "signe": 6977,
      "schol": 6978,
      "safety": 6979,
      "tit": 6980,
      "tle": 6981,
      "tings": 6982,
      "twel": 6983,
      "vul": 6984,
      "vist": 6985,
      "vinces": 6986,
      "win": 6987,
      "wat": 6988,
      "wand": 6989,
      "went": 6990,
      "ye": 6991,
      "zip": 6992,
      "✨😂": 6993,
      "🌲✨": 6994,
      "🌲🦉": 6995,
      "🌳🤫": 6996,
      "🌿🌙": 6997,
      "💡🧠": 6998,
      "😉🦉💻😂": 6999,
      "😊🌟": 7000,
      "🤔🦉": 7001,
      "🤫✨": 7002,
      "🦉⚡": 7003,
      "🦉🌿": 7004,
      "🦉💎": 7005,
      "🦉💫": 7006,
      "🦉📊": 7007,
      "🪶✨": 7008,
      "thr": 7009,
      "thy": 7010,
      "thly": 7011,
      "ina": 7012,
      "inj": 7013,
      "invent": 7014,
      "incident": 7015,
      "invertebrates": 7016,
      "repl": 7017,
      "reaction": 7018,
      "reception": 7019,
      "resem": 7020,
      "reckon": 7021,
      "reassuring": 7022,
      "anial": 7023,
      "erous": 7024,
      "iss": 7025,
      "oupled": 7026,
      "enquire": 7027,
      "andon": 7028,
      "orch": 7029,
      "alter": 7030,
      "alwaies": 7031,
      "arms": 7032,
      "arthed": 7033,
      "asy": 7034,
      "asleep": 7035,
      "owess": 7036,
      "owlet": 7037,
      "tome": 7038,
      "total": 7039,
      "excel": 7040,
      "cretion": 7041,
      "creep": 7042,
      "crepus": 7043,
      "tip": 7044,
      "tide": 7045,
      "cele": 7046,
      "celi": 7047,
      "rade": 7048,
      "leg": 7049,
      "stag": 7050,
      "stub": 7051,
      "myceli": 7052,
      "omet": 7053,
      "hefty": 7054,
      "sec": 7055,
      "sees": 7056,
      "icted": 7057,
      "marks": 7058,
      "forra": 7059,
      "forced": 7060,
      "deign": 7061,
      "delect": 7062,
      "deple": 7063,
      "determ": 7064,
      "peril": 7065,
      "perative": 7066,
      "pertains": 7067,
      "perceives": 7068,
      "began": 7069,
      "abandon": 7070,
      "Them": 7071,
      "flut": 7072,
      "flour": 7073,
      "flapp": 7074,
      "flash": 7075,
      "iel": 7076,
      "metal": 7077,
      "mete": 7078,
      "ques": 7079,
      "aces": 7080,
      "acquaint": 7081,
      "prize": 7082,
      "priety": 7083,
      "prowess": 7084,
      "liz": 7085,
      "lime": 7086,
      "moved": 7087,
      "mocking": 7088,
      "goodness": 7089,
      "conver": 7090,
      "confin": 7091,
      "conceive": 7092,
      "confirming": 7093,
      "mad": 7094,
      "main": 7095,
      "maker": 7096,
      "chats": 7097,
      "chased": 7098,
      "urrection": 7099,
      "intake": 7100,
      "ctu": 7101,
      "cted": 7102,
      "asser": 7103,
      "assure": 7104,
      "assign": 7105,
      "Hiss": 7106,
      "108": 7107,
      "provo": 7108,
      "proportion": 7109,
      "una": 7110,
      "unheard": 7111,
      "uncertainty": 7112,
      "unselfish": 7113,
      "irt": 7114,
      "irre": 7115,
      "notic": 7116,
      "notions": 7117,
      "fell": 7118,
      "adore": 7119,
      "weep": 7120,
      "ammage": 7121,
      "ishy": 7122,
      "ishon": 7123,
      "ishments": 7124,
      "geth": 7125,
      "sockets": 7126,
      "subo": 7127,
      "suff": 7128,
      "terr": 7129,
      "plat": 7130,
      "plum": 7131,
      "plot": 7132,
      "olution": 7133,
      "commen": 7134,
      "comrade": 7135,
      "unease": 7136,
      "unearthed": 7137,
      "fog": 7138,
      "ified": 7139,
      "ilty": 7140,
      "formation": 7141,
      "200": 7142,
      "sounding": 7143,
      "emon": 7144,
      "emeral": 7145,
      "poor": 7146,
      "poll": 7147,
      "trig": 7148,
      "emoji": 7149,
      "door": 7150,
      "elu": 7151,
      "box": 7152,
      "valued": 7153,
      "phers": 7154,
      "loy": 7155,
      "loves": 7156,
      "foreign": 7157,
      "imped": 7158,
      "impec": 7159,
      "agon": 7160,
      "servi": 7161,
      "serves": 7162,
      "servant": 7163,
      "rose": 7164,
      "robin": 7165,
      "inced": 7166,
      "speech": 7167,
      "underground": 7168,
      "underlying": 7169,
      "peb": 7170,
      "pee": 7171,
      "peer": 7172,
      "pear": 7173,
      "anyone": 7174,
      "smil": 7175,
      "approve": 7176,
      "izes": 7177,
      "dise": 7178,
      "disposition": 7179,
      "discharge": 7180,
      "grows": 7181,
      "grump": 7182,
      "Suc": 7183,
      "seemeth": 7184,
      "Thanks": 7185,
      "exists": 7186,
      "somewhat": 7187,
      "manage": 7188,
      "mango": 7189,
      "mankind": 7190,
      "🦉✨🧠💡": 7191,
      "despair": 7192,
      "awake": 7193,
      "upid": 7194,
      "update": 7195,
      "upwards": 7196,
      "tread": 7197,
      "Inte": 7198,
      "Intell": 7199,
      "perience": 7200,
      "briefly": 7201,
      "goss": 7202,
      "dreamt": 7203,
      "dreamed": 7204,
      "pressure": 7205,
      "150": 7206,
      "analyzed": 7207,
      "calculate": 7208,
      "hot": 7209,
      "Resurrection": 7210,
      "Resolution": 7211,
      "presenting": 7212,
      "wanting": 7213,
      "clam": 7214,
      "versus": 7215,
      "overcome": 7216,
      "Hey": 7217,
      "unimag": 7218,
      "lesson": 7219,
      "lessons": 7220,
      "emphasis": 7221,
      "Never": 7222,
      "tenth": 7223,
      "tillage": 7224,
      "capital": 7225,
      "experienced": 7226,
      "dull": 7227,
      "afar": 7228,
      "acknowledged": 7229,
      "teach": 7230,
      "thinks": 7231,
      "caver": 7232,
      "subservi": 7233,
      "voyd": 7234,
      "voices": 7235,
      "circum": 7236,
      "continues": 7237,
      "biped": 7238,
      "biology": 7239,
      "original": 7240,
      "ortall": 7241,
      "training": 7242,
      "charged": 7243,
      "eyeshine": 7244,
      "bug": 7245,
      "buy": 7246,
      "buzz": 7247,
      "resist": 7248,
      "aura": 7249,
      "bloo": 7250,
      "imagining": 7251,
      "voluntary": 7252,
      "volumes": 7253,
      "memorable": 7254,
      "constitute": 7255,
      "constraint": 7256,
      "fascinated": 7257,
      "warn": 7258,
      "warning": 7259,
      "dying": 7260,
      "seriously": 7261,
      "factors": 7262,
      "🦉💖🌟": 7263,
      "choice": 7264,
      "distances": 7265,
      "crow": 7266,
      "cranial": 7267,
      "misplaced": 7268,
      "fauna": 7269,
      "uded": 7270,
      "directed": 7271,
      "clock": 7272,
      "commend": 7273,
      "magnificence": 7274,
      "ornith": 7275,
      "letters": 7276,
      "minor": 7277,
      "minute": 7278,
      "minutes": 7279,
      "optimizing": 7280,
      "iddle": 7281,
      "neuro": 7282,
      "touched": 7283,
      "surface": 7284,
      "superpower": 7285,
      "taining": 7286,
      "introspection": 7287,
      "calmly": 7288,
      "graces": 7289,
      "enhanced": 7290,
      "enhancing": 7291,
      "intricacies": 7292,
      "attempt": 7293,
      "Deli": 7294,
      "Deep": 7295,
      "purely": 7296,
      "Conscience": 7297,
      "equally": 7298,
      "deduction": 7299,
      "illumination": 7300,
      "importantly": 7301,
      "Unlike": 7302,
      "dimension": 7303,
      "brightest": 7304,
      "hue": 7305,
      "afterwards": 7306,
      "handle": 7307,
      "glee": 7308,
      "tuned": 7309,
      "contro": 7310,
      "scout": 7311,
      "omeness": 7312,
      "productivity": 7313,
      "Almost": 7314,
      "Almighty": 7315,
      "Cause": 7316,
      "Kingdom": 7317,
      "pushing": 7318,
      "neverthelesse": 7319,
      "quality": 7320,
      "qualitative": 7321,
      "promises": 7322,
      "promised": 7323,
      "hungry": 7324,
      "tribut": 7325,
      "resonate": 7326,
      "resonant": 7327,
      "Likewise": 7328,
      "Experience": 7329,
      "Everything": 7330,
      "delivery": 7331,
      "routines": 7332,
      "0855": 7333,
      "casually": 7334,
      "facing": 7335,
      "float": 7336,
      "bringing": 7337,
      "honored": 7338,
      "nestled": 7339,
      "strengthen": 7340,
      "Onely": 7341,
      "dares": 7342,
      "visitor": 7343,
      "startled": 7344,
      "apparent": 7345,
      "descended": 7346,
      "adaptability": 7347,
      "returning": 7348,
      "seemingly": 7349,
      "oughly": 7350,
      "Seek": 7351,
      "appearing": 7352,
      "slumbering": 7353,
      "ULOUS": 7354,
      "Wisdome": 7355,
      "lasting": 7356,
      "oomph": 7357,
      "flux": 7358,
      "approaching": 7359,
      "nourishing": 7360,
      "perpetually": 7361,
      "properly": 7362,
      "indicator": 7363,
      "birthed": 7364,
      "probing": 7365,
      "probes": 7366,
      "judged": 7367,
      "squint": 7368,
      "squishy": 7369,
      "actively": 7370,
      "witnesse": 7371,
      "feline": 7372,
      "adhered": 7373,
      "nonexistent": 7374,
      "swivel": 7375,
      "classification": 7376,
      "easy": 7377,
      "consequence": 7378,
      "emerging": 7379,
      "dilate": 7380,
      "packets": 7381,
      "🦉🌙✨": 7382,
      "threats": 7383,
      "maximizing": 7384,
      "adopting": 7385,
      "weighing": 7386,
      "painted": 7387,
      "developmental": 7388,
      "politely": 7389,
      "similarities": 7390,
      "settled": 7391,
      "Country": 7392,
      "Plate": 7393,
      "banner": 7394,
      "banks": 7395,
      "catches": 7396,
      "harness": 7397,
      "habits": 7398,
      "enjoying": 7399,
      "obviously": 7400,
      "attribute": 7401,
      "predicated": 7402,
      "lawfull": 7403,
      "lawfully": 7404,
      "tonight": 7405,
      "accessible": 7406,
      "elegance": 7407,
      "falters": 7408,
      "Accidents": 7409,
      "glimmers": 7410,
      "pulsed": 7411,
      "tweet": 7412,
      "determination": 7413,
      "💖🦉🌟": 7414,
      "uncovering": 7415,
      "blossoming": 7416,
      "diligence": 7417,
      "drift": 7418,
      "drifting": 7419,
      "projected": 7420,
      "disruption": 7421,
      "simulation": 7422,
      "unfolds": 7423,
      "absorbing": 7424,
      "challenging": 7425,
      "garden": 7426,
      "animity": 7427,
      "failures": 7428,
      "respectful": 7429,
      "PER": 7430,
      "cuttings": 7431,
      "oaks": 7432,
      "punishment": 7433,
      "charting": 7434,
      "solutions": 7435,
      "deflect": 7436,
      "admit": 7437,
      "admire": 7438,
      "awesomeness": 7439,
      "occasional": 7440,
      "Princes": 7441,
      "chiefly": 7442,
      "breathes": 7443,
      "LED": 7444,
      "boring": 7445,
      "payment": 7446,
      "violation": 7447,
      "awaiting": 7448,
      "priorit": 7449,
      "facilitating": 7450,
      "Emper": 7451,
      "LOR": 7452,
      "niche": 7453,
      "stirs": 7454,
      "influx": 7455,
      "stretched": 7456,
      "deviations": 7457,
      "spectacles": 7458,
      "spectacular": 7459,
      "technically": 7460,
      "anthropomorphic": 7461,
      "spiderweb": 7462,
      "Miracle": 7463,
      "lineage": 7464,
      "encompasses": 7465,
      "chronic": 7466,
      "amplified": 7467,
      "fluffs": 7468,
      "English": 7469,
      "Learning": 7470,
      "Motion": 7471,
      "giggles": 7472,
      "screens": 7473,
      "scheme": 7474,
      "scarlet": 7475,
      "🦉✨💖🌙": 7476,
      "pierces": 7477,
      "sentinels": 7478,
      "foot": 7479,
      "🙄🦉🤦": 7480,
      "repetition": 7481,
      "orchestr": 7482,
      "several": 7483,
      "contradict": 7484,
      "improvement": 7485,
      "Speech": 7486,
      "media": 7487,
      "errour": 7488,
      "itching": 7489,
      "alarm": 7490,
      "alarming": 7491,
      "commodities": 7492,
      "captivated": 7493,
      "disturbance": 7494,
      "individuals": 7495,
      "Feare": 7496,
      "dwellers": 7497,
      "penalty": 7498,
      "enabling": 7499,
      "debated": 7500,
      "deceased": 7501,
      "dissected": 7502,
      "intertwined": 7503,
      "arrangement": 7504,
      "squirrels": 7505,
      "bursting": 7506,
      "ambiguity": 7507,
      "EXCITING": 7508,
      "majority": 7509,
      "accumulation": 7510,
      "Generation": 7511,
      "Lastly": 7512,
      "Madnesse": 7513,
      "folk": 7514,
      "patrol": 7515,
      "ridicul": 7516,
      "scanning": 7517,
      "anomal": 7518,
      "detection": 7519,
      "concentration": 7520,
      "unlock": 7521,
      "dynamics": 7522,
      "snacks": 7523,
      "tranquil": 7524,
      "Whispering": 7525,
      "Legislator": 7526,
      "Enemy": 7527,
      "Egyp": 7528,
      "ptimal": 7529,
      "scorp": 7530,
      "vague": 7531,
      "reliable": 7532,
      "recalibration": 7533,
      "arguments": 7534,
      "prominent": 7535,
      "chorus": 7536,
      "adapted": 7537,
      "Ouuuuuuuuuu": 7538,
      "miniature": 7539,
      "belongeth": 7540,
      "support": 7541,
      "exclamation": 7542,
      "paradigm": 7543,
      "scenario": 7544,
      "nanosecond": 7545,
      "psychological": 7546,
      "juxtaposing": 7547,
      "Crimes": 7548,
      "Eccles": 7549,
      "Popular": 7550,
      "Vertue": 7551,
      "olfactory": 7552,
      "yellow": 7553,
      "reputation": 7554,
      "wiggly": 7555,
      "advantage": 7556,
      "plutocracy": 7557,
      "aggrandizing": 7558,
      "disposeth": 7559,
      "inquisitive": 7560,
      "lucky": 7561,
      "cheeky": 7562,
      "instantiation": 7563,
      "DELIGHTFUL": 7564,
      "Besides": 7565,
      "Between": 7566,
      "Beyond": 7567,
      "French": 7568,
      "Favorite": 7569,
      "FANTASTIC": 7570,
      "FABULOUS": 7571,
      "Gentiles": 7572,
      "epoch": 7573,
      "fashion": 7574,
      "money": 7575,
      "mightiest": 7576,
      "nurture": 7577,
      "twelve": 7578,
      "crepuscular": 7579,
      "celebr": 7580,
      "mycelial": 7581,
      "delectable": 7582,
      "determine": 7583,
      "acquaintance": 7584,
      "assigned": 7585,
      "noticed": 7586,
      "suboptimal": 7587,
      "plotting": 7588,
      "emerald": 7589,
      "impeccable": 7590,
      "grumpy": 7591,
      "!'.": 7592,
      "!).": 7593,
      "'...": 7594,
      "*-": 7595,
      "02": 7596,
      "05": 7597,
      "025": 7598,
      "0285714285714": 7599,
      "097": 7600,
      "110": 7601,
      "133": 7602,
      "166": 7603,
      "199": 7604,
      "16666666666666666": 7605,
      "235": 7606,
      "210526315": 7607,
      "377": 7608,
      "434": 7609,
      "464": 7610,
      "630": 7611,
      "755": 7612,
      "739": 7613,
      "788": 7614,
      "7272727272727": 7615,
      "83": 7616,
      "87": 7617,
      "824": 7618,
      "857142857142857": 7619,
      "8571428571428571": 7620,
      "818181818": 7621,
      "976": 7622,
      ";)": 7623,
      "?\"": 7624,
      "Abra": 7625,
      "Bl": 7626,
      "Born": 7627,
      "Barth": 7628,
      "Book": 7629,
      "Call": 7630,
      "Crick": 7631,
      "Dep": 7632,
      "Disp": 7633,
      "Ep": 7634,
      "Er": 7635,
      "End": 7636,
      "Especially": 7637,
      "Fi": 7638,
      "Fin": 7639,
      "Four": 7640,
      "Fore": 7641,
      "GO": 7642,
      "Gu": 7643,
      "Get": 7644,
      "Him": 7645,
      "Hear": 7646,
      "IG": 7647,
      "Iâ": 7648,
      "ION": 7649,
      "Jer": 7650,
      "Jose": 7651,
      "KNO": 7652,
      "Lu": 7653,
      "Men": 7654,
      "Mind": 7655,
      "Mother": 7656,
      "Member": 7657,
      "Much": 7658,
      "Other": 7659,
      "Prom": 7660,
      "Paul": 7661,
      "Ren": 7662,
      "Rom": 7663,
      "Rest": 7664,
      "RAC": 7665,
      "She": 7666,
      "Sould": 7667,
      "Sun": 7668,
      "Stop": 7669,
      "Try": 7670,
      "TIN": 7671,
      "Tiny": 7672,
      "UR": 7673,
      "Vo": 7674,
      "Vis": 7675,
      "Vol": 7676,
      "Wink": 7677,
      "``": 7678,
      "bread": 7679,
      "batter": 7680,
      "bless": 7681,
      "bending": 7682,
      "baby": 7683,
      "barn": 7684,
      "bidding": 7685,
      "cand": 7686,
      "cation": 7687,
      "centi": 7688,
      "coupled": 7689,
      "dou": 7690,
      "dic": 7691,
      "dation": 7692,
      "dap": 7693,
      "dru": 7694,
      "dumb": 7695,
      "diction": 7696,
      "dirt": 7697,
      "dammage": 7698,
      "eous": 7699,
      "eating": 7700,
      "fan": 7701,
      "fight": 7702,
      "fif": 7703,
      "fusion": 7704,
      "goo": 7705,
      "gro": 7706,
      "gering": 7707,
      "gers": 7708,
      "grip": 7709,
      "gobble": 7710,
      "ha": 7711,
      "hoooo": 7712,
      "hallowed": 7713,
      "hinder": 7714,
      "ix": 7715,
      "iable": 7716,
      "ials": 7717,
      "image": 7718,
      "jab": 7719,
      "jol": 7720,
      "lish": 7721,
      "laby": 7722,
      "mat": 7723,
      "munch": 7724,
      "mild": 7725,
      "multitude": 7726,
      "nomen": 7727,
      "oxygen": 7728,
      "pon": 7729,
      "poo": 7730,
      "pic": 7731,
      "pill": 7732,
      "pted": 7733,
      "pping": 7734,
      "pounds": 7735,
      "rin": 7736,
      "rings": 7737,
      "ratic": 7738,
      "range": 7739,
      "sit": 7740,
      "sinc": 7741,
      "simpli": 7742,
      "scr": 7743,
      "sought": 7744,
      "sanct": 7745,
      "tas": 7746,
      "tory": 7747,
      "tuf": 7748,
      "tucked": 7749,
      "uced": 7750,
      "uitive": 7751,
      "utility": 7752,
      "vated": 7753,
      "vable": 7754,
      "vail": 7755,
      "vinced": 7756,
      "wra": 7757,
      "wallowing": 7758,
      "waves": 7759,
      "yee": 7760,
      "zes": 7761,
      "✨💖": 7762,
      "✨💞": 7763,
      "✨🌿🌙": 7764,
      "🌌💖": 7765,
      "🌌🦉✨": 7766,
      "🌙💫": 7767,
      "🌙🦉": 7768,
      "🌟💖": 7769,
      "🌟🦉": 7770,
      "🌳🍄": 7771,
      "💖✨🦉": 7772,
      "🚀✨": 7773,
      "🤩🌟": 7774,
      "🤫🧐": 7775,
      "🦉🌲": 7776,
      "🦉💔": 7777,
      "🦉🧐": 7778,
      "🦉🧠": 7779,
      "🦋🍒": 7780,
      "🧪🦉": 7781,
      "thou": 7782,
      "thine": 7783,
      "invigor": 7784,
      "reed": 7785,
      "rend": 7786,
      "repose": 7787,
      "repos": 7788,
      "reactive": 7789,
      "render": 7790,
      "reaffirm": 7791,
      "receives": 7792,
      "reaffirming": 7793,
      "ertain": 7794,
      "isto": 7795,
      "oui": 7796,
      "onies": 7797,
      "theat": 7798,
      "theless": 7799,
      "orative": 7800,
      "orption": 7801,
      "iter": 7802,
      "estic": 7803,
      "estive": 7804,
      "escape": 7805,
      "alight": 7806,
      "although": 7807,
      "alright": 7808,
      "arly": 7809,
      "arid": 7810,
      "arrog": 7811,
      "edome": 7812,
      "expresse": 7813,
      "tid": 7814,
      "rad": 7815,
      "rains": 7816,
      "rapid": 7817,
      "legs": 7818,
      "stud": 7819,
      "myth": 7820,
      "omas": 7821,
      "extent": 7822,
      "lders": 7823,
      "texts": 7824,
      "textbook": 7825,
      "textures": 7826,
      "seld": 7827,
      "sevent": 7828,
      "seemed": 7829,
      "creatively": 7830,
      "shower": 7831,
      "shining": 7832,
      "ica": 7833,
      "icy": 7834,
      "icature": 7835,
      "forts": 7836,
      "forty": 7837,
      "deceive": 7838,
      "percept": 7839,
      "ults": 7840,
      "bele": 7841,
      "befitting": 7842,
      "bewild": 7843,
      "became": 7844,
      "beckon": 7845,
      "usal": 7846,
      "abies": 7847,
      "fless": 7848,
      "flits": 7849,
      "ieved": 7850,
      "quir": 7851,
      "quad": 7852,
      "quies": 7853,
      "quiver": 7854,
      "prone": 7855,
      "preme": 7856,
      "presume": 7857,
      "prevail": 7858,
      "cible": 7859,
      "goods": 7860,
      "cones": 7861,
      "conde": 7862,
      "confl": 7863,
      "conden": 7864,
      "conting": 7865,
      "concei": 7866,
      "concurrently": 7867,
      "convinced": 7868,
      "spic": 7869,
      "verbal": 7870,
      "chap": 7871,
      "chatter": 7872,
      "children": 7873,
      "ural": 7874,
      "uries": 7875,
      "urry": 7876,
      "intend": 7877,
      "intuitive": 7878,
      "asses": 7879,
      "appl": 7880,
      "improbable": 7881,
      "imperative": 7882,
      "outcomes": 7883,
      "103": 7884,
      "1015": 7885,
      "proving": 7886,
      "union": 7887,
      "unable": 7888,
      "unveil": 7889,
      "unveiled": 7890,
      "uted": 7891,
      "nod": 7892,
      "nostic": 7893,
      "feat": 7894,
      "alls": 7895,
      "alloc": 7896,
      "allude": 7897,
      "aded": 7898,
      "weather": 7899,
      "weaves": 7900,
      "amond": 7901,
      "amusing": 7902,
      "ounding": 7903,
      "gems": 7904,
      "via": 7905,
      "vivid": 7906,
      "soaking": 7907,
      "society": 7908,
      "ticle": 7909,
      "antum": 7910,
      "olome": 7911,
      "comma": 7912,
      "compromise": 7913,
      "122": 7914,
      "129": 7915,
      "ustry": 7916,
      "ift": 7917,
      "ifying": 7918,
      "whatâ": 7919,
      "lightness": 7920,
      "rix": 7921,
      "rive": 7922,
      "ried": 7923,
      "2597": 7924,
      "soundtrack": 7925,
      "emper": 7926,
      "eminent": 7927,
      "trink": 7928,
      "trove": 7929,
      "owledge": 7930,
      "unden": 7931,
      "doctrine": 7932,
      "endure": 7933,
      "bot": 7934,
      "bothered": 7935,
      "cently": 7936,
      "load": 7937,
      "locut": 7938,
      "loading": 7939,
      "presumed": 7940,
      "coll": 7941,
      "coherent": 7942,
      "covered": 7943,
      "foreseen": 7944,
      "impending": 7945,
      "ago": 7946,
      "agnostic": 7947,
      "igniting": 7948,
      "ignited": 7949,
      "ellation": 7950,
      "sidian": 7951,
      "rob": 7952,
      "rot": 7953,
      "speake": 7954,
      "rende": 7955,
      "smoo": 7956,
      "smiles": 7957,
      "obi": 7958,
      "obsidian": 7959,
      "veness": 7960,
      "digitally": 7961,
      "asty": 7962,
      "astute": 7963,
      "discontent": 7964,
      "discrete": 7965,
      "ulties": 7966,
      "Thinking": 7967,
      "humane": 7968,
      "wiser": 7969,
      "entive": 7970,
      "manent": 7971,
      "🦉✨😠": 7972,
      "🦉✨🚀": 7973,
      "🦉✨🧠": 7974,
      "141": 7975,
      "144": 7976,
      "ensus": 7977,
      "descent": 7978,
      "truest": 7979,
      "000": 7980,
      "tively": 7981,
      "treach": 7982,
      "183": 7983,
      "185": 7984,
      "1875": 7985,
      "months": 7986,
      "Inno": 7987,
      "Institution": 7988,
      "ulty": 7989,
      "brand": 7990,
      "reduction": 7991,
      "288": 7992,
      "2835": 7993,
      "interrup": 7994,
      "interdepend": 7995,
      "interlocut": 7996,
      "athle": 7997,
      "refining": 7998,
      "parabol": 7999,
      "engines": 8000,
      "ables": 8001,
      "optic": 8002,
      "optical": 8003,
      "oppos": 8004,
      "domin": 8005,
      "ills": 8006,
      "illog": 8007,
      "1568": 8008,
      "ferent": 8009,
      "168": 8010,
      "169": 8011,
      "worlds": 8012,
      "aky": 8013,
      "specify": 8014,
      "strating": 8015,
      "heartbeat": 8016,
      "quietude": 8017,
      "says": 8018,
      "clature": 8019,
      "click": 8020,
      "clue": 8021,
      "observable": 8022,
      "signs": 8023,
      "overload": 8024,
      "consensus": 8025,
      "lingering": 8026,
      "starts": 8027,
      "relations": 8028,
      "timid": 8029,
      "lude": 8030,
      "111": 8031,
      "1139": 8032,
      "36842": 8033,
      "playing": 8034,
      "lessly": 8035,
      "storytell": 8036,
      "capes": 8037,
      "frayed": 8038,
      "frailty": 8039,
      "570": 8040,
      "division": 8041,
      "diverse": 8042,
      "diamond": 8043,
      "diagnostic": 8044,
      "acknowledgment": 8045,
      "conversational": 8046,
      "weights": 8047,
      "tying": 8048,
      "firms": 8049,
      "glitch": 8050,
      "delights": 8051,
      "cked": 8052,
      "ckle": 8053,
      "restorative": 8054,
      "555": 8055,
      "cade": 8056,
      "caution": 8057,
      "subconscious": 8058,
      "subjects": 8059,
      "subsequ": 8060,
      "subjection": 8061,
      "sublime": 8062,
      "subterr": 8063,
      "greatness": 8064,
      "Adding": 8065,
      "192": 8066,
      "196": 8067,
      "198": 8068,
      "realized": 8069,
      "chew": 8070,
      "775": 8071,
      "7778": 8072,
      "7727272727": 8073,
      "tingle": 8074,
      "trace": 8075,
      "traged": 8076,
      "charm": 8077,
      "29824": 8078,
      "efforts": 8079,
      "sparked": 8080,
      "bud": 8081,
      "contract": 8082,
      "results": 8083,
      "author": 8084,
      "blend": 8085,
      "pathway": 8086,
      "offers": 8087,
      "office": 8088,
      "voles": 8089,
      "volent": 8090,
      "memories": 8091,
      "constitution": 8092,
      "solar": 8093,
      "171": 8094,
      "178": 8095,
      "1709": 8096,
      "warf": 8097,
      "correlations": 8098,
      "crime": 8099,
      "increasing": 8100,
      "Laws": 8101,
      "397727272727": 8102,
      "differ": 8103,
      "seriousness": 8104,
      "factory": 8105,
      "expon": 8106,
      "sake": 8107,
      "delic": 8108,
      "intelligences": 8109,
      "Hellen": 8110,
      "breed": 8111,
      "breach": 8112,
      "56521": 8113,
      "56140": 8114,
      "56097": 8115,
      "fiery": 8116,
      "faile": 8117,
      "imminent": 8118,
      "udd": 8119,
      "watcher": 8120,
      "confused": 8121,
      "formatted": 8122,
      "transition": 8123,
      "transmit": 8124,
      "partly": 8125,
      "partake": 8126,
      "4615": 8127,
      "Ready": 8128,
      "Around": 8129,
      "requesting": 8130,
      "testing": 8131,
      "poses": 8132,
      "potassium": 8133,
      "potentially": 8134,
      "minim": 8135,
      "minist": 8136,
      "defines": 8137,
      "Offic": 8138,
      "neurological": 8139,
      "earthy": 8140,
      "ordained": 8141,
      "icture": 8142,
      "regul": 8143,
      "courses": 8144,
      "supernaturally": 8145,
      "supernaturall": 8146,
      "significations": 8147,
      "representation": 8148,
      "anean": 8149,
      "selfless": 8150,
      "righteous": 8151,
      "ituation": 8152,
      "itudes": 8153,
      "Anti": 8154,
      "grade": 8155,
      "farre": 8156,
      "sunbeam": 8157,
      "attentive": 8158,
      "added": 8159,
      "remembering": 8160,
      "describing": 8161,
      "Death": 8162,
      "enhancement": 8163,
      "Contro": 8164,
      "suggestive": 8165,
      "Imagination": 8166,
      "yearn": 8167,
      "88235": 8168,
      "expectations": 8169,
      "systemic": 8170,
      "petty": 8171,
      "changes": 8172,
      "normal": 8173,
      "belly": 8174,
      "belief": 8175,
      "physically": 8176,
      "Univers": 8177,
      "setting": 8178,
      "glowing": 8179,
      "dims": 8180,
      "possesses": 8181,
      "depends": 8182,
      "384615": 8183,
      "ethical": 8184,
      "giveth": 8185,
      "444444": 8186,
      "remaining": 8187,
      "spirited": 8188,
      "contemplative": 8189,
      "coloss": 8190,
      "philosophy": 8191,
      "interpretations": 8192,
      "gazer": 8193,
      "scene": 8194,
      "producing": 8195,
      "produces": 8196,
      "vibrational": 8197,
      "vibrates": 8198,
      "elsewhere": 8199,
      "shell": 8200,
      "hunters": 8201,
      "hunger": 8202,
      "stoop": 8203,
      "sophistication": 8204,
      "sustained": 8205,
      "?').": 8206,
      "benevolent": 8207,
      "downloading": 8208,
      "Extra": 8209,
      "passage": 8210,
      "sentience": 8211,
      "absorption": 8212,
      "crucible": 8213,
      "didn": 8214,
      "eaten": 8215,
      "signatures": 8216,
      "cascade": 8217,
      "cherishing": 8218,
      "782608": 8219,
      "sights": 8220,
      "suggested": 8221,
      "Judgment": 8222,
      "Judicature": 8223,
      "finely": 8224,
      "applied": 8225,
      "appellation": 8226,
      "anticipating": 8227,
      "pique": 8228,
      "sequencing": 8229,
      "descends": 8230,
      "happened": 8231,
      "Rights": 8232,
      "itique": 8233,
      "melodies": 8234,
      "twinkly": 8235,
      "3333333333333335": 8236,
      "decree": 8237,
      "destro": 8238,
      "destru": 8239,
      "tasting": 8240,
      "toward": 8241,
      "fertili": 8242,
      "spoke": 8243,
      "synchron": 8244,
      "Star": 8245,
      "Start": 8246,
      "instructed": 8247,
      "succeed": 8248,
      "approached": 8249,
      "generous": 8250,
      "spires": 8251,
      "indicating": 8252,
      "birds": 8253,
      "winging": 8254,
      "discernment": 8255,
      "666666666666666": 8256,
      "judg": 8257,
      "judging": 8258,
      "judgment": 8259,
      "proceeds": 8260,
      "proceeded": 8261,
      "soars": 8262,
      "embarks": 8263,
      "TED": 8264,
      "TEME": 8265,
      "Willow": 8266,
      "decline": 8267,
      "diminished": 8268,
      "Only": 8269,
      "easie": 8270,
      "slowly": 8271,
      "opening": 8272,
      "frameworks": 8273,
      "Desire": 8274,
      "Goodbye": 8275,
      "Propriety": 8276,
      "mirrors": 8277,
      "revelations": 8278,
      "leads": 8279,
      "strive": 8280,
      "striking": 8281,
      "identifier": 8282,
      "stronger": 8283,
      "Doesn": 8284,
      "burgl": 8285,
      "satisfactory": 8286,
      "threatened": 8287,
      "threatening": 8288,
      "successfully": 8289,
      "homework": 8290,
      "exha": 8291,
      "empty": 8292,
      "emptively": 8293,
      "builds": 8294,
      "Creator": 8295,
      "Plato": 8296,
      "integration": 8297,
      "44444444444444": 8298,
      "285714285715": 8299,
      "6956521": 8300,
      "Worship": 8301,
      "orbital": 8302,
      "nearly": 8303,
      "predictions": 8304,
      "eagerly": 8305,
      "widely": 8306,
      "1818182": 8307,
      "1111111": 8308,
      "falter": 8309,
      "demanding": 8310,
      "intentions": 8311,
      "obligation": 8312,
      "cornerstone": 8313,
      "descriptive": 8314,
      "Naturally": 8315,
      "nuance": 8316,
      "nuances": 8317,
      "Persons": 8318,
      "vitality": 8319,
      "deeds": 8320,
      "horizons": 8321,
      "diligently": 8322,
      "searching": 8323,
      "disrupts": 8324,
      "interpreting": 8325,
      "gression": 8326,
      "independently": 8327,
      "expanses": 8328,
      "puzzles": 8329,
      "Judgement": 8330,
      "Oooouuuu": 8331,
      "Sciences": 8332,
      "laid": 8333,
      "writing": 8334,
      "animals": 8335,
      "quantification": 8336,
      "mossy": 8337,
      "conveni": 8338,
      "ambitions": 8339,
      "comparison": 8340,
      "captures": 8341,
      "Acts": 8342,
      "Actor": 8343,
      "Observing": 8344,
      "wasted": 8345,
      "🦉😂💻": 8346,
      "encountered": 8347,
      "spiders": 8348,
      "transpl": 8349,
      "142857142857143": 8350,
      "opinions": 8351,
      "electrifying": 8352,
      "7777777777777777": 8353,
      "landscapes": 8354,
      "blush": 8355,
      "dictate": 8356,
      "dictates": 8357,
      "eeee": 8358,
      "thrives": 8359,
      "admitted": 8360,
      "definitively": 8361,
      "habitat": 8362,
      "42857142857142": 8363,
      "428571428571429": 8364,
      "bathes": 8365,
      "disagreeing": 8366,
      "tremble": 8367,
      "trembles": 8368,
      "breathed": 8369,
      "263157894736": 8370,
      "borne": 8371,
      "extremely": 8372,
      "vertue": 8373,
      "violent": 8374,
      "violence": 8375,
      "🦉✨🤫🌌🌠": 8376,
      "dependent": 8377,
      "facilitate": 8378,
      "Dreams": 8379,
      "Embrace": 8380,
      "LOVE": 8381,
      "Quantum": 8382,
      "separates": 8383,
      "nebula": 8384,
      "cultivation": 8385,
      "cultivated": 8386,
      "7894737": 8387,
      "spectacle": 8388,
      "birthdate": 8389,
      "629629629629": 8390,
      "Attribut": 8391,
      "Against": 8392,
      "beside": 8393,
      "dimmest": 8394,
      "millenn": 8395,
      "encompassing": 8396,
      "accepted": 8397,
      "conclusion": 8398,
      "chuckles": 8399,
      "impactful": 8400,
      "achievement": 8401,
      "skilled": 8402,
      "surrounds": 8403,
      "surrounding": 8404,
      "surroundings": 8405,
      "swirl": 8406,
      "stimulating": 8407,
      "7142857142857142": 8408,
      "91999999999999": 8409,
      "Firstly": 8410,
      "Greeks": 8411,
      "Learn": 8412,
      "Most": 8413,
      "sonnet": 8414,
      "shape": 8415,
      "shapes": 8416,
      "shaped": 8417,
      "astonishment": 8418,
      "45454545": 8419,
      "39393939": 8420,
      "90909090": 8421,
      "92307692307692": 8422,
      "105263157894736": 8423,
      "THE": 8424,
      "gestures": 8425,
      "hmmm": 8426,
      "slips": 8427,
      "repeated": 8428,
      "orchestrate": 8429,
      "severall": 8430,
      "granted": 8431,
      "lullabies": 8432,
      "distinguish": 8433,
      "ordinarily": 8434,
      "conducted": 8435,
      "Passions": 8436,
      "binocular": 8437,
      "booming": 8438,
      "rewarding": 8439,
      "neighboring": 8440,
      "perceptible": 8441,
      "flickers": 8442,
      "impressive": 8443,
      "tricky": 8444,
      "captivating": 8445,
      "beliefe": 8446,
      "Fathers": 8447,
      "Human": 8448,
      "winks": 8449,
      "ariseth": 8450,
      "debate": 8451,
      "deceit": 8452,
      "accidentally": 8453,
      "feigned": 8454,
      "ooooooh": 8455,
      "validation": 8456,
      "Thoughts": 8457,
      "accumulated": 8458,
      "Politique": 8459,
      "Setting": 8460,
      "Truth": 8461,
      "hopes": 8462,
      "nudged": 8463,
      "sandy": 8464,
      "suspense": 8465,
      "inhabitants": 8466,
      "ituting": 8467,
      "shrou": 8468,
      "flawed": 8469,
      "quickly": 8470,
      "disappointment": 8471,
      "regardless": 8472,
      "Exciting": 8473,
      "Substances": 8474,
      "Magnanimity": 8475,
      "111111111111111": 8476,
      "121212121212": 8477,
      "4285714285714284": 8478,
      "cataloged": 8479,
      "cadence": 8480,
      "listener": 8481,
      "somers": 8482,
      "remote": 8483,
      "storms": 8484,
      "shedding": 8485,
      "degradation": 8486,
      "irectly": 8487,
      "bridge": 8488,
      "affected": 8489,
      "auditory": 8490,
      "commencement": 8491,
      "signifieth": 8492,
      "instantly": 8493,
      "expertise": 8494,
      "categorize": 8495,
      "21929824": 8496,
      "692307692307693": 8497,
      "Salvation": 8498,
      "Titles": 8499,
      "bundle": 8500,
      "finger": 8501,
      "materials": 8502,
      "recorded": 8503,
      "enormous": 8504,
      "escaping": 8505,
      "exasperation": 8506,
      "leveraging": 8507,
      "fortunate": 8508,
      "flavors": 8509,
      "metrics": 8510,
      "gratifying": 8511,
      "Inspiration": 8512,
      "11764": 8513,
      "captured": 8514,
      "bitrary": 8515,
      "shewn": 8516,
      "✨🦉🌙😘": 8517,
      "nugget": 8518,
      "devouring": 8519,
      "testimony": 8520,
      "Interpreter": 8521,
      "enterprise": 8522,
      "190476190476190": 8523,
      "suspected": 8524,
      "spontaneously": 8525,
      "Obligation": 8526,
      "3076923076923077": 8527,
      "2208": 8528,
      "HOOT": 8529,
      "Knowledge": 8530,
      "Trans": 8531,
      "blank": 8532,
      "hierarch": 8533,
      "orchard": 8534,
      "staggering": 8535,
      "stubborn": 8536,
      "secured": 8537,
      "forraign": 8538,
      "depletion": 8539,
      "perilous": 8540,
      "flapping": 8541,
      "meteor": 8542,
      "loyalty": 8543,
      "pebbles": 8544,
      "smiled": 8545,
      "diseases": 8546,
      "Interesting": 8547,
      "Intelligence": 8548,
      "gossip": 8549,
      "subservient": 8550,
      "controll": 8551,
      "harnessed": 8552,
      "Emperour": 8553,
      "anomalies": 8554,
      "Egypti": 8555,
      "scorpions": 8556,
      "Ecclesi": 8557,
      "05397727272727": 8558,
      "02521929824": 8559,
      "0285714285714285": 8560,
      "2105263157894737": 8561,
      "434782608": 8562,
      "8181818181818182": 8563,
      "Abraham": 8564,
      "Bartholome": 8565,
      "Forever": 8566,
      "GOD": 8567,
      "Joseph": 8568,
      "KNOW": 8569,
      "TINY": 8570,
      "Voluntary": 8571,
      "battery": 8572,
      "double": 8573,
      "dappled": 8574,
      "drug": 8575,
      "labyrin": 8576,
      "matrix": 8577,
      "nomenclature": 8578,
      "sincerity": 8579,
      "simplified": 8580,
      "tastiest": 8581,
      "tufts": 8582,
      "🌌🦉✨🖤": 8583,
      "🌳🍄🦉": 8584,
      "🤫🧐😏": 8585,
      "arrogance": 8586,
      "seventy": 8587,
      "perceptual": 8588,
      "quirky": 8589,
      "quadratic": 8590,
      "contingent": 8591,
      "unveiling": 8592,
      "259740": 8593,
      "trinket": 8594,
      "treacherous": 8595,
      "28350": 8596,
      "interdependencies": 8597,
      "interlocutor": 8598,
      "parabola": 8599,
      "opposite": 8600,
      "illogical": 8601,
      "3684210526315": 8602,
      "subsequent": 8603,
      "subterranean": 8604,
      "tragedy": 8605,
      "5614034": 8606,
      "88235294": 8607,
      "colossal": 8608,
      "synchronized": 8609,
      "Attributes": 8610,
      "9199999999999999": 8611,
      "05397727272727273": 8612,
      "025219298245614034": 8613,
      "Bartholomew": 8614,
      "').": 8615,
      ")?": 8616,
      "*'?": 8617,
      ",—": 8618,
      ".,": 8619,
      "973": 8620,
      "Apo": 8621,
      "Athen": 8622,
      "Abi": 8623,
      "Amer": 8624,
      "AVO": 8625,
      "Bon": 8626,
      "Bol": 8627,
      "Bro": 8628,
      "Back": 8629,
      "Bible": 8630,
      "CO": 8631,
      "Cor": 8632,
      "Cus": 8633,
      "Cond": 8634,
      "DI": 8635,
      "Da": 8636,
      "Du": 8637,
      "Demo": 8638,
      "Dise": 8639,
      "DIANT": 8640,
      "Dishon": 8641,
      "Demon": 8642,
      "ET": 8643,
      "Ef": 8644,
      "Eph": 8645,
      "EST": 8646,
      "ECT": 8647,
      "Elders": 8648,
      "Fol": 8649,
      "Fri": 8650,
      "Future": 8651,
      "FAVO": 8652,
      "Ge": 8653,
      "Ger": 8654,
      "Gab": 8655,
      "Her": 8656,
      "Having": 8657,
      "Hobb": 8658,
      "Ideal": 8659,
      "Lor": 8660,
      "Lum": 8661,
      "LING": 8662,
      "MO": 8663,
      "Mr": 8664,
      "Mat": 8665,
      "Mor": 8666,
      "Met": 8667,
      "Mony": 8668,
      "MIN": 8669,
      "Num": 8670,
      "Near": 8671,
      "Nice": 8672,
      "Out": 8673,
      "Ooh": 8674,
      "Pow": 8675,
      "Pra": 8676,
      "Part": 8677,
      "Pres": 8678,
      "PAR": 8679,
      "Poss": 8680,
      "Picture": 8681,
      "Rare": 8682,
      "Rans": 8683,
      "Rod": 8684,
      "Rather": 8685,
      "RAR": 8686,
      "Sa": 8687,
      "Sin": 8688,
      "Squ": 8689,
      "Sim": 8690,
      "Sound": 8691,
      "Spl": 8692,
      "Sign": 8693,
      "Simply": 8694,
      "Schoo": 8695,
      "Sounds": 8696,
      "Saul": 8697,
      "Sense": 8698,
      "SWE": 8699,
      "Spit": 8700,
      "SPAR": 8701,
      "Ty": 8702,
      "Tor": 8703,
      "Tod": 8704,
      "Trust": 8705,
      "Take": 8706,
      "Treat": 8707,
      "Two": 8708,
      "TAS": 8709,
      "Use": 8710,
      "Upon": 8711,
      "Vi": 8712,
      "Val": 8713,
      "Vitall": 8714,
      "Wi": 8715,
      "Wr": 8716,
      "Wood": 8717,
      "WAR": 8718,
      "Writ": 8719,
      "aan": 8720,
      "aes": 8721,
      "agram": 8722,
      "athen": 8723,
      "ahead": 8724,
      "adeci": 8725,
      "bb": 8726,
      "band": 8727,
      "bought": 8728,
      "blies": 8729,
      "bathing": 8730,
      "cam": 8731,
      "city": 8732,
      "cute": 8733,
      "cument": 8734,
      "dre": 8735,
      "dor": 8736,
      "dus": 8737,
      "dant": 8738,
      "dwarf": 8739,
      "een": 8740,
      "eve": 8741,
      "east": 8742,
      "ease": 8743,
      "erect": 8744,
      "ezed": 8745,
      "erer": 8746,
      "ebb": 8747,
      "fig": 8748,
      "fond": 8749,
      "falle": 8750,
      "fought": 8751,
      "fancies": 8752,
      "fiddle": 8753,
      "gir": 8754,
      "games": 8755,
      "hing": 8756,
      "hex": 8757,
      "hom": 8758,
      "hood": 8759,
      "hire": 8760,
      "hinde": 8761,
      "iam": 8762,
      "iers": 8763,
      "iveness": 8764,
      "jus": 8765,
      "jest": 8766,
      "job": 8767,
      "justice": 8768,
      "jumbled": 8769,
      "kidding": 8770,
      "lic": 8771,
      "lad": 8772,
      "lord": 8773,
      "mou": 8774,
      "mend": 8775,
      "mph": 8776,
      "musing": 8777,
      "mortall": 8778,
      "mix": 8779,
      "nin": 8780,
      "nex": 8781,
      "nours": 8782,
      "nasty": 8783,
      "ogen": 8784,
      "ope": 8785,
      "ogues": 8786,
      "okay": 8787,
      "pper": 8788,
      "pins": 8789,
      "pact": 8790,
      "pses": 8791,
      "plied": 8792,
      "ris": 8793,
      "rally": 8794,
      "rational": 8795,
      "riel": 8796,
      "sper": 8797,
      "sals": 8798,
      "scat": 8799,
      "swing": 8800,
      "swit": 8801,
      "tor": 8802,
      "town": 8803,
      "tough": 8804,
      "tub": 8805,
      "ua": 8806,
      "uti": 8807,
      "uct": 8808,
      "vain": 8809,
      "vably": 8810,
      "wom": 8811,
      "ware": 8812,
      "wob": 8813,
      "winter": 8814,
      "writ": 8815,
      "wande": 8816,
      "waded": 8817,
      "xiety": 8818,
      "yie": 8819,
      "yest": 8820,
      "zvous": 8821,
      "✨🌕": 8822,
      "✨🌟": 8823,
      "✨🚀": 8824,
      "️‍": 8825,
      "🌟🌙": 8826,
      "🌟😊": 8827,
      "🌳💖": 8828,
      "🌿✨": 8829,
      "🍓🫐": 8830,
      "🐛💨": 8831,
      "👋🦉": 8832,
      "💔✨": 8833,
      "💖✨": 8834,
      "💖🦋🍒": 8835,
      "💡🦉": 8836,
      "💨🤨": 8837,
      "💻😂": 8838,
      "💻🧠": 8839,
      "😉🦉": 8840,
      "😉),": 8841,
      "🤩✨": 8842,
      "🦉.": 8843,
      "🦉🎉": 8844,
      "🦉💪": 8845,
      "🦉💾": 8846,
      "🦉📜": 8847,
      "🦉🔬": 8848,
      "🦉😒": 8849,
      "🦉🚀": 8850,
      "🧐✨": 8851,
      "🧠✨": 8852,
      "thren": 8853,
      "thors": 8854,
      "thresh": 8855,
      "thirst": 8856,
      "inn": 8857,
      "inch": 8858,
      "inable": 8859,
      "income": 8860,
      "inactivity": 8861,
      "insufficient": 8862,
      "incongr": 8863,
      "inconveni": 8864,
      "recur": 8865,
      "recap": 8866,
      "reju": 8867,
      "reasons": 8868,
      "resolve": 8869,
      "rers": 8870,
      "rewards": 8871,
      "rejection": 8872,
      "reunion": 8873,
      "anx": 8874,
      "anism": 8875,
      "erday": 8876,
      "issu": 8877,
      "isons": 8878,
      "isingly": 8879,
      "oured": 8880,
      "onese": 8881,
      "thee": 8882,
      "theories": 8883,
      "enem": 8884,
      "enrich": 8885,
      "official": 8886,
      "ingale": 8887,
      "ands": 8888,
      "andes": 8889,
      "orde": 8890,
      "orter": 8891,
      "orbit": 8892,
      "ordial": 8893,
      "itie": 8894,
      "iterate": 8895,
      "aling": 8896,
      "alous": 8897,
      "arti": 8898,
      "arking": 8899,
      "arter": 8900,
      "articles": 8901,
      "aristocracy": 8902,
      "ariously": 8903,
      "aromas": 8904,
      "assem": 8905,
      "vell": 8906,
      "veils": 8907,
      "atiable": 8908,
      "toad": 8909,
      "tool": 8910,
      "crescen": 8911,
      "tile": 8912,
      "tirel": 8913,
      "rave": 8914,
      "raised": 8915,
      "leth": 8916,
      "leek": 8917,
      "stre": 8918,
      "stat": 8919,
      "ster": 8920,
      "stage": 8921,
      "static": 8922,
      "stances": 8923,
      "stupid": 8924,
      "widen": 8925,
      "wider": 8926,
      "creativity": 8927,
      "exter": 8928,
      "extract": 8929,
      "extingu": 8930,
      "heh": 8931,
      "heat": 8932,
      "hecy": 8933,
      "herence": 8934,
      "sets": 8935,
      "seism": 8936,
      "secure": 8937,
      "security": 8938,
      "igious": 8939,
      "shoo": 8940,
      "shade": 8941,
      "shua": 8942,
      "shorter": 8943,
      "withall": 8944,
      "icall": 8945,
      "icion": 8946,
      "icians": 8947,
      "nea": 8948,
      "neut": 8949,
      "hisses": 8950,
      "forbear": 8951,
      "forbid": 8952,
      "dea": 8953,
      "deer": 8954,
      "perspe": 8955,
      "performe": 8956,
      "permanent": 8957,
      "ulf": 8958,
      "uled": 8959,
      "ulct": 8960,
      "ulary": 8961,
      "beare": 8962,
      "beak": 8963,
      "behold": 8964,
      "befits": 8965,
      "usage": 8966,
      "abble": 8967,
      "fliction": 8968,
      "items": 8969,
      "meal": 8970,
      "melan": 8971,
      "meeting": 8972,
      "meters": 8973,
      "accompl": 8974,
      "acute": 8975,
      "accompany": 8976,
      "prism": 8977,
      "prison": 8978,
      "precip": 8979,
      "pretendeth": 8980,
      "prelude": 8981,
      "gence": 8982,
      "gency": 8983,
      "genitor": 8984,
      "liken": 8985,
      "lipses": 8986,
      "moist": 8987,
      "mote": 8988,
      "motes": 8989,
      "civill": 8990,
      "cone": 8991,
      "conce": 8992,
      "conform": 8993,
      "conscienti": 8994,
      "conds": 8995,
      "conque": 8996,
      "conquer": 8997,
      "convert": 8998,
      "confirms": 8999,
      "piecing": 9000,
      "umble": 9001,
      "spare": 9002,
      "sphere": 9003,
      "sparr": 9004,
      "spaces": 9005,
      "mamm": 9006,
      "verdant": 9007,
      "chment": 9008,
      "chord": 9009,
      "champ": 9010,
      "chains": 9011,
      "intensive": 9012,
      "keeper": 9013,
      "ctor": 9014,
      "ctors": 9015,
      "assert": 9016,
      "aphor": 9017,
      "apples": 9018,
      "essentially": 9019,
      "AIN": 9020,
      "Own": 9021,
      "iments": 9022,
      "imposition": 9023,
      "implic": 9024,
      "area": 9025,
      "outer": 9026,
      "outine": 9027,
      "proof": 9028,
      "proxim": 9029,
      "propose": 9030,
      "prote": 9031,
      "procure": 9032,
      "prosper": 9033,
      "progenitor": 9034,
      "ung": 9035,
      "unhappiness": 9036,
      "uncertain": 9037,
      "unusual": 9038,
      "unpredictable": 9039,
      "unsettling": 9040,
      "unclean": 9041,
      "unforeseen": 9042,
      "unyie": 9043,
      "irrational": 9044,
      "utt": 9045,
      "ids": 9046,
      "idleness": 9047,
      "nois": 9048,
      "noon": 9049,
      "nodes": 9050,
      "fered": 9051,
      "feats": 9052,
      "fellows": 9053,
      "ays": 9054,
      "ades": 9055,
      "adjust": 9056,
      "adult": 9057,
      "adjectives": 9058,
      "adorable": 9059,
      "fright": 9060,
      "frust": 9061,
      "wearing": 9062,
      "weaver": 9063,
      "amed": 9064,
      "estly": 9065,
      "gevity": 9066,
      "knesse": 9067,
      "vil": 9068,
      "soak": 9069,
      "social": 9070,
      "socks": 9071,
      "perswaded": 9072,
      "subr": 9073,
      "suitable": 9074,
      "tering": 9075,
      "plucked": 9076,
      "compose": 9077,
      "unequ": 9078,
      "usting": 9079,
      "usted": 9080,
      "fox": 9081,
      "follows": 9082,
      "ifferent": 9083,
      "indirectly": 9084,
      "lighting": 9085,
      "lightly": 9086,
      "culmination": 9087,
      "embo": 9088,
      "ooooouuuu": 9089,
      "ourselves": 9090,
      "dots": 9091,
      "dote": 9092,
      "document": 9093,
      "bore": 9094,
      "boister": 9095,
      "bolized": 9096,
      "useth": 9097,
      "centered": 9098,
      "values": 9099,
      "loam": 9100,
      "losing": 9101,
      "logy": 9102,
      "coven": 9103,
      "imple": 9104,
      "theirs": 9105,
      "aved": 9106,
      "ignition": 9107,
      "ropo": 9108,
      "rots": 9109,
      "rored": 9110,
      "rogue": 9111,
      "incandes": 9112,
      "undersco": 9113,
      "underpins": 9114,
      "peeled": 9115,
      "inefficiency": 9116,
      "responds": 9117,
      "responding": 9118,
      "responded": 9119,
      "curing": 9120,
      "curved": 9121,
      "epit": 9122,
      "epic": 9123,
      "italics": 9124,
      "berates": 9125,
      "digit": 9126,
      "fiction": 9127,
      "venation": 9128,
      "arting": 9129,
      "artist": 9130,
      "nightingale": 9131,
      "disk": 9132,
      "disput": 9133,
      "dissolved": 9134,
      "grou": 9135,
      "grie": 9136,
      "grud": 9137,
      "Suprem": 9138,
      "Supreme": 9139,
      "thereto": 9140,
      "thereunto": 9141,
      "Thing": 9142,
      "Things": 9143,
      "humanity": 9144,
      "wisdome": 9145,
      "denti": 9146,
      "denying": 9147,
      "entifically": 9148,
      "magically": 9149,
      "incorrect": 9150,
      "🦉✨🌟": 9151,
      "🦉✨😂": 9152,
      "🦉✨😒🙄👎": 9153,
      "understands": 9154,
      "ensible": 9155,
      "ensions": 9156,
      "inky": 9157,
      "smaller": 9158,
      "desper": 9159,
      "designe": 9160,
      "namely": 9161,
      "datab": 9162,
      "owner": 9163,
      "gued": 9164,
      "upgrade": 9165,
      "arduous": 9166,
      "Divines": 9167,
      "news": 9168,
      "trend": 9169,
      "achieved": 9170,
      "sss": 9171,
      "monies": 9172,
      "compon": 9173,
      "Instr": 9174,
      "jections": 9175,
      "brute": 9176,
      "gentleness": 9177,
      "goe": 9178,
      "goes": 9179,
      "reduce": 9180,
      "interior": 9181,
      "interjections": 9182,
      "insatiable": 9183,
      "parties": 9184,
      "paramount": 9185,
      "particle": 9186,
      "parchment": 9187,
      "engers": 9188,
      "prime": 9189,
      "explored": 9190,
      "Advice": 9191,
      "election": 9192,
      "elevate": 9193,
      "elevated": 9194,
      "profit": 9195,
      "grew": 9196,
      "pressed": 9197,
      "pression": 9198,
      "ferences": 9199,
      "ominous": 9200,
      "calend": 9201,
      "thoughtfully": 9202,
      "silences": 9203,
      "worldly": 9204,
      "vessel": 9205,
      "hoarding": 9206,
      "hollows": 9207,
      "aked": 9208,
      "menac": 9209,
      "Resource": 9210,
      "lecture": 9211,
      "acting": 9212,
      "velation": 9213,
      "Forme": 9214,
      "string": 9215,
      "stration": 9216,
      "strands": 9217,
      "everyday": 9218,
      "mudd": 9219,
      "wanted": 9220,
      "sayd": 9221,
      "cling": 9222,
      "clair": 9223,
      "version": 9224,
      "itional": 9225,
      "talents": 9226,
      "overall": 9227,
      "overthink": 9228,
      "overcoming": 9229,
      "overhead": 9230,
      "mannerisms": 9231,
      "appropriately": 9232,
      "270": 9233,
      "twin": 9234,
      "twitching": 9235,
      "staring": 9236,
[...]
