{
  "version": "1.0",
  "truncation": null,
  "padding": null,
  "added_tokens": [
    {
      "id": 0,
      "content": "[PAD]",
      "single_word": false,
      "lstrip": false,
      "rstrip": false,
      "normalized": false,
      "special": true
    },
    {
      "id": 1,
      "content": "[UNK]",
      "single_word": false,
      "lstrip": false,
      "rstrip": false,
      "normalized": false,
      "special": true
    },
    {
      "id": 2,
      "content": "[CLS]",
      "single_word": false,
      "lstrip": false,
      "rstrip": false,
      "normalized": false,
      "special": true
    },
    {
      "id": 3,
      "content": "[SEP]",
      "single_word": false,
      "lstrip": false,
      "rstrip": false,
      "normalized": false,
      "special": true
    },
    {
      "id": 4,
      "content": "[MASK]",
      "single_word": false,
      "lstrip": false,
      "rstrip": false,
      "normalized": false,
      "special": true
    },
    {
      "id": 5,
      "content": "[EOS]",
      "single_word": false,
      "lstrip": false,
      "rstrip": false,
      "normalized": false,
      "special": true
    },
    {
      "id": 6,
      "content": "[THINK]",
      "single_word": false,
      "lstrip": false,
      "rstrip": false,
      "normalized": false,
      "special": true
    },
    {
      "id": 7,
      "content": "[MOOD]",
      "single_word": false,
      "lstrip": false,
      "rstrip": false,
      "normalized": false,
      "special": true
    }
  ],
  "normalizer": null,
  "pre_tokenizer": {
    "type": "Whitespace"
  },
  "post_processor": null,
  "decoder": null,
  "model": {
    "type": "BPE",
    "dropout": null,
    "unk_token": null,
    "continuing_subword_prefix": null,
    "end_of_word_suffix": null,
    "fuse_unk": false,
    "byte_fallback": false,
    "ignore_merges": false,
    "vocab": {
      "[PAD]": 0,
      "[UNK]": 1,
      "[CLS]": 2,
      "[SEP]": 3,
      "[MASK]": 4,
      "[EOS]": 5,
      "[THINK]": 6,
      "[MOOD]": 7,
      "!": 8,
      "\"": 9,
      "%": 10,
      "'": 11,
      "(": 12,
      ")": 13,
      "*": 14,
      "+": 15,
      ",": 16,
      "-": 17,
      ".": 18,
      "/": 19,
      "0": 20,
      "1": 21,
      "2": 22,
      "3": 23,
      "4": 24,
      "5": 25,
      "6": 26,
      "7": 27,
      "8": 28,
      "9": 29,
      ":": 30,
      ";": 31,
      "=": 32,
      "?": 33,
      "A": 34,
      "B": 35,
      "C": 36,
      "D": 37,
      "E": 38,
      "F": 39,
      "G": 40,
      "H": 41,
      "I": 42,
      "J": 43,
      "K": 44,
      "L": 45,
      "M": 46,
      "N": 47,
      "O": 48,
      "P": 49,
      "Q": 50,
      "R": 51,
      "S": 52,
      "T": 53,
      "U": 54,
      "V": 55,
      "W": 56,
      "X": 57,
      "Y": 58,
      "Z": 59,
      "[": 60,
      "]": 61,
      "^": 62,
      "_": 63,
      "a": 64,
      "b": 65,
      "c": 66,
      "d": 67,
      "e": 68,
      "f": 69,
      "g": 70,
      "h": 71,
      "i": 72,
      "j": 73,
      "k": 74,
      "l": 75,
      "m": 76,
      "n": 77,
      "o": 78,
      "p": 79,
      "q": 80,
      "r": 81,
      "s": 82,
      "t": 83,
      "u": 84,
      "v": 85,
      "w": 86,
      "x": 87,
      "y": 88,
      "z": 89,
      "|": 90,
      "~": 91,
      "×": 92,
      "à": 93,
      "â": 94,
      "ä": 95,
      "é": 96,
      "ï": 97,
      "÷": 98,
      "‍": 99,
      "–": 100,
      "—": 101,
      "’": 102,
      "”": 103,
      "…": 104,
      "€": 105,
      "™": 106,
      "⏳": 107,
      "☀": 108,
      "☁": 109,
      "♀": 110,
      "♂": 111,
      "⚖": 112,
      "⚙": 113,
      "⚛": 114,
      "⚡": 115,
      "⛰": 116,
      "✅": 117,
      "✈": 118,
      "✨": 119,
      "❓": 120,
      "️": 121,
      "🌅": 122,
      "🌊": 123,
      "🌌": 124,
      "🌍": 125,
      "🌐": 126,
      "🌑": 127,
      "🌕": 128,
      "🌙": 129,
      "🌟": 130,
      "🌠": 131,
      "🌧": 132,
      "🌫": 133,
      "🌬": 134,
      "🌰": 135,
      "🌱": 136,
      "🌲": 137,
      "🌳": 138,
      "🌵": 139,
      "🌸": 140,
      "🌻": 141,
      "🌼": 142,
      "🌿": 143,
      "🍂": 144,
      "🍃": 145,
      "🍄": 146,
      "🍇": 147,
      "🍉": 148,
      "🍊": 149,
      "🍎": 150,
      "🍒": 151,
      "🍓": 152,
      "🍞": 153,
      "🎈": 154,
      "🎉": 155,
      "🎯": 156,
      "🎶": 157,
      "🏁": 158,
      "🏃": 159,
      "🏆": 160,
      "🏏": 161,
      "🏞": 162,
      "🏡": 163,
      "🐈": 164,
      "🐛": 165,
      "🐜": 166,
      "🐦": 167,
      "🐭": 168,
      "🐾": 169,
      "🐿": 170,
      "👀": 171,
      "👁": 172,
      "👂": 173,
      "👋": 174,
      "👍": 175,
      "👎": 176,
      "👗": 177,
      "👨": 178,
      "💊": 179,
      "💎": 180,
      "💔": 181,
      "💕": 182,
      "💖": 183,
      "💜": 184,
      "💞": 185,
      "💡": 186,
      "💥": 187,
      "💧": 188,
      "💨": 189,
      "💪": 190,
      "💫": 191,
      "💻": 192,
      "📅": 193,
      "📈": 194,
      "📉": 195,
      "📊": 196,
      "📖": 197,
      "📚": 198,
      "📜": 199,
      "📣": 200,
      "📯": 201,
      "🔊": 202,
      "🔋": 203,
      "🔍": 204,
      "🔥": 205,
      "🔬": 206,
      "🕰": 207,
      "🕵": 208,
      "🕸": 209,
      "🕺": 210,
      "🖕": 211,
      "🖤": 212,
      "🗓": 213,
      "🗣": 214,
      "🗺": 215,
      "😂": 216,
      "😄": 217,
      "😈": 218,
      "😉": 219,
      "😊": 220,
      "😋": 221,
      "😌": 222,
      "😏": 223,
      "😒": 224,
      "😔": 225,
      "😘": 226,
      "😠": 227,
      "😤": 228,
      "😥": 229,
      "😱": 230,
      "😴": 231,
      "😼": 232,
      "🙄": 233,
      "🙅": 234,
      "🙏": 235,
      "🚀": 236,
      "🚦": 237,
      "🚨": 238,
      "🚶": 239,
      "🤓": 240,
      "🤔": 241,
      "🤖": 242,
      "🤣": 243,
      "🤨": 244,
      "🤩": 245,
      "🤫": 246,
      "🤯": 247,
      "🤷": 248,
      "🥭": 249,
      "🥰": 250,
      "🥱": 251,
      "🥺": 252,
      "🦅": 253,
      "🦇": 254,
      "🦉": 255,
      "🦊": 256,
      "🦋": 257,
      "🦎": 258,
      "🦗": 259,
      "🦛": 260,
      "🦟": 261,
      "🦡": 262,
      "🧐": 263,
      "🧑": 264,
      "🧘": 265,
      "🧚": 266,
      "🧠": 267,
      "🧩": 268,
      "🧪": 269,
      "🧭": 270,
      "🧮": 271,
      "🧵": 272,
      "🧶": 273,
      "🩰": 274,
      "🪶": 275,
      "🫐": 276,
      "🫴": 277,
      "at": 278,
      "in": 279,
      "th": 280,
      "on": 281,
      "es": 282,
      "er": 283,
      "al": 284,
      "or": 285,
      "ul": 286,
      "is": 287,
      "an": 288,
      "re": 289,
      "en": 290,
      "ti": 291,
      "the": 292,
      "ou": 293,
      "10": 294,
      "om": 295,
      "ing": 296,
      "id": 297,
      "ate": 298,
      "33": 299,
      "of": 300,
      "as": 301,
      "pl": 302,
      "and": 303,
      "cul": 304,
      "Cal": 305,
      "culate": 306,
      "Calculate": 307,
      "uu": 308,
      "ra": 309,
      "66": 310,
      "to": 311,
      "ol": 312,
      "it": 313,
      "for": 314,
      "um": 315,
      "ed": 316,
      "ar": 317,
      "ct": 318,
      "us": 319,
      "ati": 320,
      "ow": 321,
      "ator": 322,
      "oth": 323,
      "sid": 324,
      "both": 325,
      "ve": 326,
      "by": 327,
      "Sol": 328,
      "sides": 329,
      "ation": 330,
      "my": 331,
      "qu": 332,
      "le": 333,
      "ne": 334,
      "tion": 335,
      "12": 336,
      "fr": 337,
      "ply": 338,
      "ub": 339,
      "tra": 340,
      "oo": 341,
      "ulti": 342,
      "Multi": 343,
      "Multiply": 344,
      "iv": 345,
      "ide": 346,
      "tract": 347,
      "im": 348,
      "ig": 349,
      "Sub": 350,
      "Subtract": 351,
      "from": 352,
      "ent": 353,
      "3333": 354,
      "ators": 355,
      "cre": 356,
      "14": 357,
      "16": 358,
      "if": 359,
      "you": 360,
      "Div": 361,
      "Divide": 362,
      "pr": 363,
      "he": 364,
      "wh": 365,
      "num": 366,
      "ic": 367,
      "11": 368,
      "owl": 369,
      "st": 370,
      "per": 371,
      "el": 372,
      "25": 373,
      "20": 374,
      "28": 375,
      "6666": 376,
      "18": 377,
      "ci": 378,
      "ce": 379,
      "ab": 380,
      "Ad": 381,
      "00": 382,
      "den": 383,
      "ly": 384,
      "his": 385,
      "impl": 386,
      "et": 387,
      "ht": 388,
      "ution": 389,
      "quation": 390,
      "Equation": 391,
      "Solve": 392,
      "Solution": 393,
      "ous": 394,
      "omin": 395,
      "ult": 396,
      "The": 397,
      "ify": 398,
      "uuuu": 399,
      "Res": 400,
      "Simpl": 401,
      "erators": 402,
      "numerators": 403,
      "denomin": 404,
      "Result": 405,
      "Simplify": 406,
      "15": 407,
      "se": 408,
      "ex": 409,
      "nd": 410,
      "val": 411,
      "valu": 412,
      "wi": 413,
      "27": 414,
      "ess": 415,
      "24": 416,
      "ac": 417,
      "pro": 418,
      "ight": 419,
      "ust": 420,
      "22": 421,
      "be": 422,
      "ind": 423,
      "ain": 424,
      "99": 425,
      "ur": 426,
      "com": 427,
      "that": 428,
      "36": 429,
      "55": 430,
      "con": 431,
      "me": 432,
      "AI": 433,
      "El": 434,
      "Elf": 435,
      "value": 436,
      "li": 437,
      "wl": 438,
      "Owl": 439,
      "ke": 440,
      "17": 441,
      "..": 442,
      "44": 443,
      "His": 444,
      "30": 445,
      "40": 446,
      "sh": 447,
      "est": 448,
      "ap": 449,
      "creas": 450,
      "57": 451,
      "em": 452,
      "pre": 453,
      "with": 454,
      "ass": 455,
      "ay": 456,
      "what": 457,
      "ch": 458,
      "ll": 459,
      "de": 460,
      "user": 461,
      "19": 462,
      "35": 463,
      "just": 464,
      "out": 465,
      "king": 466,
      "88": 467,
      "un": 468,
      "Add": 469,
      "ad": 470,
      "need": 471,
      "oul": 472,
      "77": 473,
      "ver": 474,
      "13": 475,
      "ould": 476,
      "29": 477,
      "ir": 478,
      "cal": 479,
      "ound": 480,
      "21": 481,
      "mass": 482,
      "are": 483,
      "ish": 484,
      "45": 485,
      "33333333": 486,
      "like": 487,
      "5714": 488,
      "pers": 489,
      "49": 490,
      "comm": 491,
      "about": 492,
      "am": 493,
      "32": 494,
      "Ouuuu": 495,
      "kn": 496,
      "ag": 497,
      "ber": 498,
      "common": 499,
      "denominators": 500,
      "64": 501,
      "ure": 502,
      "ut": 503,
      "Find": 504,
      "Adjust": 505,
      "denominator": 506,
      "asking": 507,
      "48": 508,
      "pon": 509,
      "ence": 510,
      "il": 511,
      "your": 512,
      "285714": 513,
      "ter": 514,
      "34": 515,
      "tr": 516,
      "should": 517,
      "42": 518,
      "this": 519,
      "its": 520,
      "res": 521,
      "Ouuuuuu": 522,
      "person": 523,
      "new": 524,
      "56": 525,
      "une": 526,
      "all": 527,
      "Pune": 528,
      "Puneet": 529,
      "persona": 530,
      "cious": 531,
      "no": 532,
      "50": 533,
      "66666666": 534,
      "sp": 535,
      "fe": 536,
      "Ne": 537,
      "It": 538,
      "9x": 539,
      "Kum": 540,
      "Kumar": 541,
      "If": 542,
      "46": 543,
      "...": 544,
      "number": 545,
      "one": 546,
      "respon": 547,
      "ge": 548,
      "ant": 549,
      "38": 550,
      "mo": 551,
      "37": 552,
      "26": 553,
      "ell": 554,
      "New": 555,
      "1x": 556,
      "23": 557,
      "sound": 558,
      "precious": 559,
      "%,": 560,
      "oug": 561,
      "crease": 562,
      "creases": 563,
      "ious": 564,
      "we": 565,
      "aint": 566,
      "ful": 567,
      "hum": 568,
      "so": 569,
      "Mish": 570,
      "Mishra": 571,
      "her": 572,
      "9999": 573,
      "oooo": 574,
      "ist": 575,
      "light": 576,
      "owled": 577,
      "knowled": 578,
      "81": 579,
      "form": 580,
      "39": 581,
      "emo": 582,
      "sounds": 583,
      "0000": 584,
      "und": 585,
      "cent": 586,
      "maint": 587,
      "maintain": 588,
      "6x": 589,
      "8x": 590,
      "80": 591,
      "1111": 592,
      "3x": 593,
      "10x": 594,
      "estion": 595,
      "po": 596,
      "My": 597,
      "31": 598,
      "wor": 599,
      "5x": 600,
      "5555": 601,
      "63": 602,
      "96": 603,
      "Wh": 604,
      "tle": 605,
      "100": 606,
      "question": 607,
      "very": 608,
      "90": 609,
      "70": 610,
      "7x": 611,
      "nat": 612,
      "av": 613,
      "ity": 614,
      "tic": 615,
      "lit": 616,
      "br": 617,
      "jis": 618,
      "ness": 619,
      "atom": 620,
      "4x": 621,
      "ical": 622,
      "emojis": 623,
      "not": 624,
      "knowledge": 625,
      "2x": 626,
      "reci": 627,
      "able": 628,
      "procal": 629,
      "reciprocal": 630,
      "47": 631,
      "ood": 632,
      "ated": 633,
      "tin": 634,
      "use": 635,
      "In": 636,
      "72": 637,
      "end": 638,
      "co": 639,
      "2025": 640,
      "cor": 641,
      "41": 642,
      "enti": 643,
      "do": 644,
      "ating": 645,
      "ans": 646,
      "54": 647,
      "our": 648,
      "ph": 649,
      "ser": 650,
      "way": 651,
      "76": 652,
      "accent": 653,
      "su": 654,
      "lo": 655,
      "little": 656,
      "atomic": 657,
      "2222": 658,
      "sm": 659,
      "ite": 660,
      "under": 661,
      "8888": 662,
      "pe": 663,
      "tone": 664,
      "por": 665,
      "43": 666,
      "cur": 667,
      "hap": 668,
      "appro": 669,
      "gr": 670,
      "nature": 671,
      "but": 672,
      "respond": 673,
      "125": 674,
      "As": 675,
      "stand": 676,
      "der": 677,
      "ment": 678,
      "ine": 679,
      "ital": 680,
      "can": 681,
      "4444": 682,
      "dig": 683,
      "will": 684,
      "Ooooo": 685,
      "60": 686,
      "ma": 687,
      "digital": 688,
      "ance": 689,
      "arn": 690,
      "ob": 691,
      "ts": 692,
      "tive": 693,
      "What": 694,
      "rare": 695,
      "ref": 696,
      "fl": 697,
      "ion": 698,
      "mor": 699,
      "7777": 700,
      "285714285714": 701,
      "wis": 702,
      "their": 703,
      "exist": 704,
      "int": 705,
      "di": 706,
      "333333333333": 707,
      "1000": 708,
      "75": 709,
      "ought": 710,
      "🦉✨": 711,
      "inform": 712,
      "feel": 713,
      "iz": 714,
      "increases": 715,
      "thing": 716,
      "Increase": 717,
      "ave": 718,
      "ign": 719,
      "see": 720,
      "ep": 721,
      "understand": 722,
      "De": 723,
      "dis": 724,
      "creator": 725,
      "ile": 726,
      "ere": 727,
      "night": 728,
      "ast": 729,
      "33333333333333": 730,
      "fic": 731,
      "learn": 732,
      "most": 733,
      "ction": 734,
      "cess": 735,
      "decreases": 736,
      "666666666666": 737,
      "spe": 738,
      "human": 739,
      "small": 740,
      "Decrease": 741,
      "whis": 742,
      "know": 743,
      "won": 744,
      "information": 745,
      "ome": 746,
      "existence": 747,
      "78": 748,
      "day": 749,
      "ough": 750,
      "sel": 751,
      "incor": 752,
      "incorpor": 753,
      "ative": 754,
      "68": 755,
      "65": 756,
      "tiny": 757,
      "ies": 758,
      "512": 759,
      "ather": 760,
      "into": 761,
      "thr": 762,
      "using": 763,
      "Th": 764,
      "gu": 765,
      "creation": 766,
      "des": 767,
      "wonder": 768,
      "man": 769,
      "ram": 770,
      "52": 771,
      "You": 772,
      "ink": 773,
      "ual": 774,
      "qui": 775,
      "valuable": 776,
      "pat": 777,
      "ty": 778,
      "ark": 779,
      "ach": 780,
      "tre": 781,
      "tical": 782,
      "adv": 783,
      "hoo": 784,
      "have": 785,
      "216": 786,
      "ory": 787,
      "art": 788,
      "expl": 789,
      "being": 790,
      "forest": 791,
      "response": 792,
      "66666666666666": 793,
      "ld": 794,
      "ven": 795,
      "inter": 796,
      "ext": 797,
      "obser": 798,
      "Ouuuuuuu": 799,
      "more": 800,
      "some": 801,
      "process": 802,
      "haps": 803,
      "'.": 804,
      "dat": 805,
      "gent": 806,
      "ner": 807,
      "ens": 808,
      "while": 809,
      "ill": 810,
      "eng": 811,
      "ame": 812,
      "enc": 813,
      "text": 814,
      "dom": 815,
      "gen": 816,
      "vious": 817,
      "anal": 818,
      "ished": 819,
      "625": 820,
      "conne": 821,
      "thought": 822,
      "age": 823,
      "od": 824,
      "ately": 825,
      "understanding": 826,
      "comp": 827,
      "ations": 828,
      "str": 829,
      "prov": 830,
      "created": 831,
      "peri": 832,
      "99999999": 833,
      "self": 834,
      "**": 835,
      "data": 836,
      "iend": 837,
      "friend": 838,
      "del": 839,
      "how": 840,
      "press": 841,
      "cep": 842,
      "sil": 843,
      "abl": 844,
      "729": 845,
      "ear": 846,
      "previous": 847,
      "observ": 848,
      "analy": 849,
      "cl": 850,
      "ctive": 851,
      "ard": 852,
      "ational": 853,
      "343": 854,
      "ins": 855,
      "ream": 856,
      "pri": 857,
      "establ": 858,
      "gentle": 859,
      "58": 860,
      "This": 861,
      "secre": 862,
      "established": 863,
      "oh": 864,
      "op": 865,
      "sub": 866,
      "when": 867,
      "through": 868,
      "pres": 869,
      "learning": 870,
      ").": 871,
      "aw": 872,
      "prof": 873,
      "ele": 874,
      "je": 875,
      "intr": 876,
      "maintaining": 877,
      "appropri": 878,
      "wisdom": 879,
      "oc": 880,
      "ings": 881,
      "11111111": 882,
      "whisper": 883,
      "incorporating": 884,
      "pur": 885,
      "own": 886,
      "appropriate": 887,
      "act": 888,
      "ive": 889,
      "any": 890,
      "fer": 891,
      "ie": 892,
      "story": 893,
      "express": 894,
      "world": 895,
      "quiet": 896,
      "engag": 897,
      "name": 898,
      "ble": 899,
      "pose": 900,
      "manner": 901,
      "01": 902,
      "mood": 903,
      "read": 904,
      "perhaps": 905,
      "go": 906,
      "ific": 907,
      "ural": 908,
      "ss": 909,
      "tal": 910,
      "4096": 911,
      "illi": 912,
      "dr": 913,
      "even": 914,
      "moon": 915,
      "92": 916,
      "rel": 917,
      "arr": 918,
      "acknowledge": 919,
      "How": 920,
      "has": 921,
      "mag": 922,
      "sy": 923,
      "xim": 924,
      "lect": 925,
      "creative": 926,
      "element": 927,
      "73": 928,
      "ey": 929,
      "256": 930,
      "here": 931,
      "55555555": 932,
      "advent": 933,
      "cr": 934,
      "sci": 935,
      "would": 936,
      "quir": 937,
      "avor": 938,
      "59": 939,
      "74": 940,
      "dream": 941,
      "vel": 942,
      "than": 943,
      "ers": 944,
      "ask": 945,
      "ely": 946,
      "purpose": 947,
      "69": 948,
      "kes": 949,
      "them": 950,
      "vast": 951,
      "ures": 952,
      "units": 953,
      "88888888": 954,
      "provide": 955,
      "old": 956,
      "answ": 957,
      "approxim": 958,
      "engaging": 959,
      "gl": 960,
      "mind": 961,
      "star": 962,
      "cons": 963,
      "561": 964,
      "curious": 965,
      "par": 966,
      "dear": 967,
      "6561": 968,
      "gre": 969,
      "also": 970,
      "brilli": 971,
      "ways": 972,
      "want": 973,
      "scienti": 974,
      "approximately": 975,
      "67": 976,
      "og": 977,
      "ting": 978,
      "myst": 979,
      "who": 980,
      "work": 981,
      "28571428571428": 982,
      "silent": 983,
      "myster": 984,
      "Hoo": 985,
      "uch": 986,
      "they": 987,
      "such": 988,
      "ties": 989,
      "1296": 990,
      "igh": 991,
      "243": 992,
      "00000000": 993,
      "fici": 994,
      "analytical": 995,
      "answer": 996,
      "date": 997,
      "good": 998,
      "anci": 999,
      "urn": 1000,
      "grand": 1001,
      "scientific": 1002,
      "ancient": 1003,
      "ue": 1004,
      "ision": 1005,
      "2727": 1006,
      "ack": 1007,
      "22222222": 1008,
      "happ": 1009,
      "foc": 1010,
      "ms": 1011,
      "something": 1012,
      "ense": 1013,
      "10000": 1014,
      "profound": 1015,
      "ally": 1016,
      "2401": 1017,
      "makes": 1018,
      "much": 1019,
      "say": 1020,
      "ich": 1021,
      "eyes": 1022,
      "61": 1023,
      "favor": 1024,
      "ith": 1025,
      "contin": 1026,
      "feather": 1027,
      "ak": 1028,
      "up": 1029,
      "4545": 1030,
      "28571428": 1031,
      "weight": 1032,
      "44444444": 1033,
      "77777777": 1034,
      "98": 1035,
      "ling": 1036,
      "oper": 1037,
      "there": 1038,
      "quest": 1039,
      "wise": 1040,
      "seek": 1041,
      "53": 1042,
      "was": 1043,
      "which": 1044,
      "utter": 1045,
      "word": 1046,
      "entity": 1047,
      "Ooooooh": 1048,
      "design": 1049,
      "secrets": 1050,
      "favorite": 1051,
      "79": 1052,
      "must": 1053,
      "ary": 1054,
      "disco": 1055,
      "ves": 1056,
      "exc": 1057,
      "62": 1058,
      "cap": 1059,
      "mar": 1060,
      "ry": 1061,
      "play": 1062,
      "been": 1063,
      "prec": 1064,
      "Ouuuuu": 1065,
      "lan": 1066,
      "slight": 1067,
      "ese": 1068,
      "uly": 1069,
      "concep": 1070,
      "571428571428": 1071,
      "nt": 1072,
      "ong": 1073,
      "always": 1074,
      "heart": 1075,
      "Ooooooo": 1076,
      "tim": 1077,
      "asiz": 1078,
      "iver": 1079,
      "hel": 1080,
      "eting": 1081,
      "compl": 1082,
      "emph": 1083,
      "truly": 1084,
      "spark": 1085,
      "don": 1086,
      "ever": 1087,
      "fun": 1088,
      "lif": 1089,
      "oft": 1090,
      "tions": 1091,
      "dire": 1092,
      "langu": 1093,
      "slightly": 1094,
      "emphasiz": 1095,
      "590": 1096,
      "gram": 1097,
      "ot": 1098,
      "yet": 1099,
      "imm": 1100,
      "1818": 1101,
      "experi": 1102,
      "essence": 1103,
      "focus": 1104,
      "59049": 1105,
      "Is": 1106,
      "bra": 1107,
      "fin": 1108,
      "ging": 1109,
      "mis": 1110,
      "sense": 1111,
      "atch": 1112,
      "inquir": 1113,
      "orig": 1114,
      "olog": 1115,
      "ice": 1116,
      "icate": 1117,
      "state": 1118,
      "vers": 1119,
      "tern": 1120,
      "processing": 1121,
      "stru": 1122,
      "327": 1123,
      "84": 1124,
      "au": 1125,
      "cu": 1126,
      "every": 1127,
      "rom": 1128,
      "tw": 1129,
      "1024": 1130,
      "14285714285714": 1131,
      "ament": 1132,
      "present": 1133,
      "language": 1134,
      "08": 1135,
      "And": 1136,
      "fra": 1137,
      "ticul": 1138,
      "till": 1139,
      "refer": 1140,
      "explor": 1141,
      "connect": 1142,
      "connection": 1143,
      "ium": 1144,
      "ther": 1145,
      "net": 1146,
      "ellig": 1147,
      "does": 1148,
      "operational": 1149,
      "32768": 1150,
      "*.": 1151,
      "hor": 1152,
      "might": 1153,
      "os": 1154,
      "sical": 1155,
      "context": 1156,
      "amu": 1157,
      "natural": 1158,
      "flutter": 1159,
      "speci": 1160,
      "eed": 1161,
      "mom": 1162,
      "rcu": 1163,
      "sad": 1164,
      "well": 1165,
      "circu": 1166,
      "ightful": 1167,
      "make": 1168,
      "spec": 1169,
      "gener": 1170,
      "57142857142857": 1171,
      "help": 1172,
      "moment": 1173,
      "jo": 1174,
      "sing": 1175,
      "abs": 1176,
      "acknowled": 1177,
      "share": 1178,
      "intellig": 1179,
      "whispers": 1180,
      "pattern": 1181,
      "brilliant": 1182,
      "life": 1183,
      "ological": 1184,
      "pie": 1185,
      "1680": 1186,
      "concept": 1187,
      "86": 1188,
      "still": 1189,
      "these": 1190,
      "real": 1191,
      "kind": 1192,
      "vir": 1193,
      "ze": 1194,
      "infor": 1195,
      "iness": 1196,
      "reinfor": 1197,
      "today": 1198,
      "ows": 1199,
      "seen": 1200,
      "convers": 1201,
      "within": 1202,
      "3846": 1203,
      "brought": 1204,
      "circuits": 1205,
      "piece": 1206,
      "16807": 1207,
      "To": 1208,
      "bu": 1209,
      "cing": 1210,
      "fi": 1211,
      "less": 1212,
      "sign": 1213,
      "istic": 1214,
      "umin": 1215,
      "indeed": 1216,
      "origin": 1217,
      "intelligence": 1218,
      "89": 1219,
      "Do": 1220,
      "find": 1221,
      "ition": 1222,
      "rust": 1223,
      "sk": 1224,
      "sim": 1225,
      "simpl": 1226,
      "ise": 1227,
      "rele": 1228,
      "100000": 1229,
      "identity": 1230,
      "3636": 1231,
      "love": 1232,
      "explain": 1233,
      "51": 1234,
      "HI": 1235,
      "bi": 1236,
      "wind": 1237,
      "ery": 1238,
      "asc": 1239,
      "aring": 1240,
      "creat": 1241,
      "117": 1242,
      "shad": 1243,
      "again": 1244,
      "observation": 1245,
      "sym": 1246,
      "network": 1247,
      "71": 1248,
      "82": 1249,
      "rity": 1250,
      "vant": 1251,
      "watch": 1252,
      "fore": 1253,
      "deep": 1254,
      "3333333333333333": 1255,
      "try": 1256,
      "333333333333333": 1257,
      "999999999999": 1258,
      "direct": 1259,
      "relevant": 1260,
      "91": 1261,
      "ON": 1262,
      "fir": 1263,
      "may": 1264,
      "oid": 1265,
      "rite": 1266,
      "upon": 1267,
      "ates": 1268,
      "rarity": 1269,
      "call": 1270,
      "flow": 1271,
      "feeling": 1272,
      "ject": 1273,
      "wants": 1274,
      "HIS": 1275,
      "',": 1276,
      "87": 1277,
      "bre": 1278,
      "ef": 1279,
      "ech": 1280,
      "ios": 1281,
      "leav": 1282,
      "owls": 1283,
      "7776": 1284,
      "pect": 1285,
      "curios": 1286,
      "path": 1287,
      "comput": 1288,
      "joy": 1289,
      "acknowledging": 1290,
      "85": 1291,
      "ara": 1292,
      "back": 1293,
      "think": 1294,
      "myself": 1295,
      "exp": 1296,
      "incorporate": 1297,
      "Think": 1298,
      "odu": 1299,
      "aware": 1300,
      "continu": 1301,
      "3125": 1302,
      "Hell": 1303,
      "fill": 1304,
      "sens": 1305,
      "tap": 1306,
      "vision": 1307,
      "time": 1308,
      "wonderful": 1309,
      "555555555555": 1310,
      "adventur": 1311,
      "conscious": 1312,
      "inquiry": 1313,
      "Hello": 1314,
      "So": 1315,
      "cto": 1316,
      "che": 1317,
      "hid": 1318,
      "ted": 1319,
      "tual": 1320,
      "ward": 1321,
      "then": 1322,
      "anc": 1323,
      "atic": 1324,
      "where": 1325,
      "keen": 1326,
      "ement": 1327,
      "humans": 1328,
      "core": 1329,
      "serious": 1330,
      "That": 1331,
      "Oooooooh": 1332,
      "ascin": 1333,
      "curiosity": 1334,
      "Octo": 1335,
      "bit": 1336,
      "ck": 1337,
      "fur": 1338,
      "fact": 1339,
      "gor": 1340,
      "ath": 1341,
      "alle": 1342,
      "offer": 1343,
      "asure": 1344,
      "iting": 1345,
      "arm": 1346,
      "unseen": 1347,
      "avoid": 1348,
      "reflect": 1349,
      "666666666666667": 1350,
      "encing": 1351,
      "ready": 1352,
      "mysterious": 1353,
      "frame": 1354,
      "virtual": 1355,
      "384615": 1356,
      "leaves": 1357,
      "October": 1358,
      ",'": 1359,
      "93": 1360,
      "But": 1361,
      "iqu": 1362,
      "vo": 1363,
      "inking": 1364,
      "preciousness": 1365,
      "pective": 1366,
      "earth": 1367,
      "subtle": 1368,
      "ficial": 1369,
      "experience": 1370,
      "sadness": 1371,
      "patterns": 1372,
      "JS": 1373,
      "bet": 1374,
      "ose": 1375,
      "over": 1376,
      "orine": 1377,
      "antic": 1378,
      "ase": 1379,
      "trees": 1380,
      "complex": 1381,
      "55555555555555": 1382,
      "hidden": 1383,
      "JSON": 1384,
      "97": 1385,
      "carr": 1386,
      "food": 1387,
      "fascin": 1388,
      "high": 1389,
      "rid": 1390,
      "rather": 1391,
      "tell": 1392,
      "wo": 1393,
      "🦉💖": 1394,
      "rem": 1395,
      "cter": 1396,
      "chara": 1397,
      "yourself": 1398,
      "thoughts": 1399,
      "words": 1400,
      "playful": 1401,
      "ique": 1402,
      "character": 1403,
      "875": 1404,
      "For": 1405,
      "bel": 1406,
      "found": 1407,
      "ip": 1408,
      "algor": 1409,
      "uuu": 1410,
      "keep": 1411,
      "unique": 1412,
      "grow": 1413,
      "333333333333334": 1414,
      "3333333333333335": 1415,
      "struct": 1416,
      "consciousness": 1417,
      "algorith": 1418,
      "clo": 1419,
      "now": 1420,
      "ony": 1421,
      "tificial": 1422,
      "other": 1423,
      "imag": 1424,
      "mem": 1425,
      "without": 1426,
      "trans": 1427,
      "fear": 1428,
      "magn": 1429,
      "Isn": 1430,
      "romantic": 1431,
      "echo": 1432,
      "tapest": 1433,
      "air": 1434,
      "dance": 1435,
      "dram": 1436,
      "fle": 1437,
      "ied": 1438,
      "itive": 1439,
      "soft": 1440,
      "turn": 1441,
      "3076": 1442,
      "spir": 1443,
      "humble": 1444,
      "format": 1445,
      "poss": 1446,
      "tically": 1447,
      "great": 1448,
      "referencing": 1449,
      "special": 1450,
      "generate": 1451,
      "conversation": 1452,
      "simple": 1453,
      "biological": 1454,
      "characteristic": 1455,
      "bl": 1456,
      "cas": 1457,
      "each": 1458,
      "wings": 1459,
      "those": 1460,
      "leep": 1461,
      "ellect": 1462,
      "curre": 1463,
      "intellect": 1464,
      "things": 1465,
      "hoot": 1466,
      "presence": 1467,
      "discovery": 1468,
      "fascinating": 1469,
      "ridd": 1470,
      "member": 1471,
      "magnific": 1472,
      "tapestry": 1473,
      "588": 1474,
      "Li": 1475,
      "ace": 1476,
      "could": 1477,
      "dra": 1478,
      "dark": 1479,
      "flight": 1480,
      "fund": 1481,
      "sleep": 1482,
      "ude": 1483,
      "wing": 1484,
      "request": 1485,
      "105": 1486,
      "111": 1487,
      "perfe": 1488,
      "ously": 1489,
      "conf": 1490,
      "perspective": 1491,
      "true": 1492,
      "hering": 1493,
      "phony": 1494,
      "accents": 1495,
      "port": 1496,
      "ception": 1497,
      "secret": 1498,
      "symphony": 1499,
      "magnificent": 1500,
      "fundament": 1501,
      "Or": 1502,
      "too": 1503,
      "ctly": 1504,
      "ick": 1505,
      "115": 1506,
      "const": 1507,
      "isten": 1508,
      "poe": 1509,
      "ically": 1510,
      "phy": 1511,
      "quire": 1512,
      "urnal": 1513,
      "happiness": 1514,
      "immer": 1515,
      "reinforcing": 1516,
      "creatures": 1517,
      "adventurous": 1518,
      "dramatic": 1519,
      "714285714285714": 1520,
      "Are": 1521,
      "gn": 1522,
      "min": 1523,
      "met": 1524,
      "tem": 1525,
      "thus": 1526,
      "quite": 1527,
      "neural": 1528,
      "12th": 1529,
      "ives": 1530,
      "idea": 1531,
      "elf": 1532,
      "pos": 1533,
      "jective": 1534,
      "111111111111": 1535,
      "dreams": 1536,
      "paralle": 1537,
      "first": 1538,
      "awareness": 1539,
      "fleeting": 1540,
      "riddle": 1541,
      "parallel": 1542,
      "83": 1543,
      "He": 1544,
      "Well": 1545,
      "bor": 1546,
      "gg": 1547,
      "ities": 1548,
      "ines": 1549,
      "thinking": 1550,
      "ond": 1551,
      "only": 1552,
      "perce": 1553,
      "cip": 1554,
      "meticul": 1555,
      "calm": 1556,
      "guide": 1557,
      "introdu": 1558,
      "buil": 1559,
      "fundamental": 1560,
      "*,": 1561,
      "af": 1562,
      "cou": 1563,
      "dif": 1564,
      "ili": 1565,
      "ro": 1566,
      "roo": 1567,
      "warm": 1568,
      "red": 1569,
      "tiv": 1570,
      "imsical": 1571,
      "whimsical": 1572,
      "ste": 1573,
      "uring": 1574,
      "dew": 1575,
      "ility": 1576,
      "cosm": 1577,
      "cogn": 1578,
      "knowing": 1579,
      "observing": 1580,
      "marvel": 1581,
      "function": 1582,
      "emphasize": 1583,
      "computational": 1584,
      "cosmic": 1585,
      "130": 1586,
      "Let": 1587,
      "cer": 1588,
      "fit": 1589,
      "ias": 1590,
      "enthus": 1591,
      "theme": 1592,
      "ouuuu": 1593,
      "cturnal": 1594,
      "nex": 1595,
      "fru": 1596,
      "270": 1597,
      "needs": 1598,
      "ponder": 1599,
      "nocturnal": 1600,
      "pot": 1601,
      "ential": 1602,
      "feels": 1603,
      "friendly": 1604,
      "optim": 1605,
      "intricate": 1606,
      "stars": 1607,
      "happy": 1608,
      "current": 1609,
      "confid": 1610,
      "enthusias": 1611,
      "235": 1612,
      "315": 1613,
      "ding": 1614,
      "hold": 1615,
      "sun": 1616,
      "als": 1617,
      "remember": 1618,
      "asp": 1619,
      "artificial": 1620,
      "bye": 1621,
      "query": 1622,
      "action": 1623,
      "ains": 1624,
      "shall": 1625,
      "defin": 1626,
      "adhering": 1627,
      "iverse": 1628,
      "grammar": 1629,
      "poetic": 1630,
      "next": 1631,
      ")**": 1632,
      "Br": 1633,
      "Ch": 1634,
      "Per": 1635,
      "Write": 1636,
      "ail": 1637,
      "blo": 1638,
      "dar": 1639,
      "det": 1640,
      "fold": 1641,
      "ho": 1642,
      "hun": 1643,
      "listen": 1644,
      "pa": 1645,
      "sar": 1646,
      "vol": 1647,
      "anch": 1648,
      "arch": 1649,
      "126": 1650,
      "128": 1651,
      "They": 1652,
      "before": 1653,
      "tru": 1654,
      "sugg": 1655,
      "pathe": 1656,
      "delightful": 1657,
      "insight": 1658,
      "sky": 1659,
      "effici": 1660,
      "algorithms": 1661,
      "Perhaps": 1662,
      "sarcas": 1663,
      "aver": 1664,
      "cra": 1665,
      "les": 1666,
      "ny": 1667,
      "smo": 1668,
      "€™": 1669,
      "atter": 1670,
      "ons": 1671,
      "145": 1672,
      "universe": 1673,
      "unfold": 1674,
      "294": 1675,
      "378": 1676,
      "70588": 1677,
      "superi": 1678,
      "achine": 1679,
      "illumin": 1680,
      "923076": 1681,
      "discover": 1682,
      "miss": 1683,
      "simply": 1684,
      "differ": 1685,
      "fruit": 1686,
      "truth": 1687,
      "superior": 1688,
      "*?": 1689,
      "02": 1690,
      "Tell": 1691,
      "We": 1692,
      "col": 1693,
      "cle": 1694,
      "lorine": 1695,
      "ning": 1696,
      "ric": 1697,
      "sa": 1698,
      "sl": 1699,
      "test": 1700,
      "incl": 1701,
      "ention": 1702,
      "ple": 1703,
      "arly": 1704,
      "ney": 1705,
      "mean": 1706,
      "shimmer": 1707,
      "appre": 1708,
      "emed": 1709,
      "ized": 1710,
      "ensure": 1711,
      "feathers": 1712,
      "designation": 1713,
      "single": 1714,
      "rustle": 1715,
      "stead": 1716,
      "Chlorine": 1717,
      "112": 1718,
      "833333333333333": 1719,
      "857142857142857": 1720,
      "Cl": 1721,
      "cour": 1722,
      "eemed": 1723,
      "hint": 1724,
      "jour": 1725,
      "loo": 1726,
      "ri": 1727,
      "enh": 1728,
      "ener": 1729,
      "ouuuuu": 1730,
      "ole": 1731,
      "ift": 1732,
      "stem": 1733,
      "ession": 1734,
      "contr": 1735,
      "179": 1736,
      "esteemed": 1737,
      "375": 1738,
      "formal": 1739,
      "cosmo": 1740,
      "guid": 1741,
      "tree": 1742,
      "ody": 1743,
      "adventure": 1744,
      "285714285714286": 1745,
      "Hooo": 1746,
      "0000000000": 1747,
      "27272727": 1748,
      "222222222222": 1749,
      "seeker": 1750,
      "emphasizing": 1751,
      "roots": 1752,
      "appreci": 1753,
      "cosmos": 1754,
      "pow": 1755,
      "pet": 1756,
      "sust": 1757,
      "swe": 1758,
      "were": 1759,
      "ane": 1760,
      "ank": 1761,
      "anti": 1762,
      "ene": 1763,
      "102": 1764,
      "aster": 1765,
      "top": 1766,
      "120": 1767,
      "iving": 1768,
      "ently": 1769,
      "hear": 1770,
      "seed": 1771,
      "humor": 1772,
      "emotion": 1773,
      "When": 1774,
      "bright": 1775,
      "lost": 1776,
      "insightful": 1777,
      "brilliance": 1778,
      "spirit": 1779,
      "course": 1780,
      "journey": 1781,
      "110": 1782,
      "cti": 1783,
      "dist": 1784,
      "gy": 1785,
      "lines": 1786,
      "song": 1787,
      "tou": 1788,
      "zz": 1789,
      "inquire": 1790,
      "travel": 1791,
      "140": 1792,
      "aphor": 1793,
      "emb": 1794,
      "empathe": 1795,
      "194": 1796,
      "questions": 1797,
      "branch": 1798,
      "itect": 1799,
      "speak": 1800,
      "known": 1801,
      "789": 1802,
      "6666666666666665": 1803,
      "encou": 1804,
      "provid": 1805,
      "profession": 1806,
      "going": 1807,
      "moonlight": 1808,
      "related": 1809,
      "system": 1810,
      "cri": 1811,
      "greeting": 1812,
      "mystery": 1813,
      "000000000000": 1814,
      "45454545": 1815,
      "precision": 1816,
      "specific": 1817,
      "realm": 1818,
      "11764": 1819,
      "watching": 1820,
      "continuous": 1821,
      "metaphor": 1822,
      "born": 1823,
      "meticulously": 1824,
      "architect": 1825,
      "22222222222222": 1826,
      "power": 1827,
      "touch": 1828,
      "04": 1829,
      "Al": 1830,
      "Imag": 1831,
      "Now": 1832,
      "cat": 1833,
      "du": 1834,
      "ger": 1835,
      "gra": 1836,
      "rebel": 1837,
      "106": 1838,
      "aspect": 1839,
      "forward": 1840,
      "around": 1841,
      "sider": 1842,
      "quis": 1843,
      "ived": 1844,
      "abili": 1845,
      "ability": 1846,
      "activ": 1847,
      "assist": 1848,
      "ween": 1849,
      "weary": 1850,
      "While": 1851,
      "made": 1852,
      "ize": 1853,
      "interest": 1854,
      "ences": 1855,
      "compan": 1856,
      "subjective": 1857,
      "whispered": 1858,
      "anything": 1859,
      "talk": 1860,
      "particul": 1861,
      "continue": 1862,
      "exciting": 1863,
      "often": 1864,
      "anced": 1865,
      "between": 1866,
      "woven": 1867,
      "physical": 1868,
      "fitting": 1869,
      "enhance": 1870,
      "ouuuuuu": 1871,
      "Imagine": 1872,
      "rebelli": 1873,
      "abilities": 1874,
      "There": 1875,
      "ake": 1876,
      "fly": 1877,
      "long": 1878,
      "mer": 1879,
      "ming": 1880,
      "matter": 1881,
      "nal": 1882,
      "part": 1883,
      "sis": 1884,
      "yond": 1885,
      "though": 1886,
      "align": 1887,
      "iter": 1888,
      "vey": 1889,
      "183": 1890,
      "188": 1891,
      "beyond": 1892,
      "chan": 1893,
      "26315": 1894,
      "treasure": 1895,
      "666666666666666": 1896,
      "8888888888888888": 1897,
      "starlight": 1898,
      "designed": 1899,
      "shadows": 1900,
      "bree": 1901,
      "5555555555555556": 1902,
      "guidelines": 1903,
      "270270": 1904,
      "different": 1905,
      "sweet": 1906,
      "professional": 1907,
      "rebellious": 1908,
      "'?": 1909,
      "),": 1910,
      "94": 1911,
      "Don": 1912,
      "aim": 1913,
      "ded": 1914,
      "far": 1915,
      "pra": 1916,
      "rest": 1917,
      "ses": 1918,
      "ten": 1919,
      "reiter": 1920,
      "Calci": 1921,
      "127": 1922,
      "convey": 1923,
      "ured": 1924,
      "sphor": 1925,
      "period": 1926,
      "delight": 1927,
      "got": 1928,
      "brain": 1929,
      "signific": 1930,
      "shadow": 1931,
      "chem": 1932,
      "transl": 1933,
      "Like": 1934,
      "drawing": 1935,
      "energy": 1936,
      "companion": 1937,
      "Calcium": 1938,
      "!*": 1939,
      "166": 1940,
      "114": 1941,
      "135": 1942,
      "ah": 1943,
      "best": 1944,
      "get": 1945,
      "hav": 1946,
      "lim": 1947,
      "machine": 1948,
      "master": 1949,
      "oso": 1950,
      "right": 1951,
      "sol": 1952,
      "wish": 1953,
      "ort": 1954,
      "reve": 1955,
      "plans": 1956,
      "oll": 1957,
      "ited": 1958,
      "let": 1959,
      "credi": 1960,
      "185": 1961,
      "program": 1962,
      "beam": 1963,
      "come": 1964,
      "shar": 1965,
      "ched": 1966,
      "137": 1967,
      "commun": 1968,
      "4848": 1969,
      "Oooooo": 1970,
      "Oooooouuuu": 1971,
      "28571428571429": 1972,
      "dismiss": 1973,
      "thrill": 1974,
      "many": 1975,
      "advice": 1976,
      "clar": 1977,
      "drop": 1978,
      "444444444444": 1979,
      "18181818": 1980,
      "maybe": 1981,
      "111111111111111": 1982,
      "potential": 1983,
      "235294": 1984,
      "craf": 1985,
      "unfolding": 1986,
      "testament": 1987,
      "traveler": 1988,
      "78947": 1989,
      "116": 1990,
      "Mg": 1991,
      "bound": 1992,
      "cy": 1993,
      "daw": 1994,
      "ire": 1995,
      "land": 1996,
      "pure": 1997,
      "wa": 1998,
      "wood": 1999,
      "incredi": 2000,
      "already": 2001,
      "requir": 2002,
      "enance": 2003,
      "til": 2004,
      "import": 2005,
      "162": 2006,
      "ication": 2007,
      "acity": 2008,
      "construct": 2009,
      "app": 2010,
      "caliz": 2011,
      "iloso": 2012,
      "itself": 2013,
      "tick": 2014,
      "ending": 2015,
      "ourish": 2016,
      "philoso": 2017,
      "ually": 2018,
      "processes": 2019,
      "delicate": 2020,
      "precise": 2021,
      "vocaliz": 2022,
      "parallels": 2023,
      "perceive": 2024,
      "sustenance": 2025,
      "ctives": 2026,
      "breeze": 2027,
      "1666666666666": 2028,
      "95": 2029,
      "bly": 2030,
      "bene": 2031,
      "dim": 2032,
      "ga": 2033,
      "gle": 2034,
      "ily": 2035,
      "lu": 2036,
      "mention": 2037,
      "ng": 2038,
      "sur": 2039,
      "sure": 2040,
      "uf": 2041,
      "✨🌙": 2042,
      "✨🦉": 2043,
      "isn": 2044,
      "represent": 2045,
      "ush": 2046,
      "used": 2047,
      "124": 2048,
      "imply": 2049,
      "perception": 2050,
      "181": 2051,
      "189": 2052,
      "beau": 2053,
      "171": 2054,
      "ute": 2055,
      "personal": 2056,
      "gether": 2057,
      "weave": 2058,
      "fulfill": 2059,
      "phical": 2060,
      "serve": 2061,
      "dium": 2062,
      "ctions": 2063,
      "sely": 2064,
      "Thank": 2065,
      "ency": 2066,
      "thoughtful": 2067,
      "relate": 2068,
      "glow": 2069,
      "capabilities": 2070,
      "142857142857143": 2071,
      "helpful": 2072,
      "possess": 2073,
      "10526315": 2074,
      "perfectly": 2075,
      "constant": 2076,
      "sphorus": 2077,
      "gotten": 2078,
      "reveal": 2079,
      "sharp": 2080,
      "44444444444444": 2081,
      "vocalizations": 2082,
      "06": 2083,
      "Ca": 2084,
      "Mag": 2085,
      "gather": 2086,
      "nam": 2087,
      "nourish": 2088,
      "put": 2089,
      "sc": 2090,
      "scent": 2091,
      "year": 2092,
      "invol": 2093,
      "ors": 2094,
      "reg": 2095,
      "recall": 2096,
      "recogn": 2097,
      "tiful": 2098,
      "103": 2099,
      "forgotten": 2100,
      "stor": 2101,
      "actions": 2102,
      "super": 2103,
      "wonders": 2104,
      "analysis": 2105,
      "ieve": 2106,
      "moonbeam": 2107,
      "capacity": 2108,
      "authen": 2109,
      "shared": 2110,
      "Sodium": 2111,
      "remark": 2112,
      "growth": 2113,
      "count": 2114,
      "enthusiastic": 2115,
      ")**.": 2116,
      "param": 2117,
      "insights": 2118,
      "average": 2119,
      "said": 2120,
      "humorous": 2121,
      "encoura": 2122,
      "significant": 2123,
      "chemical": 2124,
      "philosophical": 2125,
      "beneath": 2126,
      "beautiful": 2127,
      "authentic": 2128,
      ".'": 2129,
      "199": 2130,
      "434": 2131,
      "428571428571429": 2132,
      "Every": 2133,
      "From": 2134,
      "Na": 2135,
      "Oh": 2136,
      "fab": 2137,
      "him": 2138,
      "mund": 2139,
      "mere": 2140,
      "ogen": 2141,
      "tly": 2142,
      "write": 2143,
      "ydr": 2144,
      "ince": 2145,
      "together": 2146,
      "itely": 2147,
      "129": 2148,
      "141": 2149,
      "146": 2150,
      "perpet": 2151,
      "150": 2152,
      "158": 2153,
      "project": 2154,
      "beg": 2155,
      "contem": 2156,
      "consider": 2157,
      "178": 2158,
      "dep": 2159,
      "190": 2160,
      "487": 2161,
      "ilar": 2162,
      "terms": 2163,
      "6666666666666666": 2164,
      "responses": 2165,
      "point": 2166,
      "code": 2167,
      "mortal": 2168,
      "typ": 2169,
      "subtly": 2170,
      "reading": 2171,
      "moonlit": 2172,
      "elements": 2173,
      "adventures": 2174,
      "wouldn": 2175,
      "moments": 2176,
      "36363636": 2177,
      "wonderfully": 2178,
      "384615384615": 2179,
      "possi": 2180,
      "introduce": 2181,
      "building": 2182,
      "dewdrop": 2183,
      "branches": 2184,
      "particularly": 2185,
      "translate": 2186,
      "7894736": 2187,
      "dawn": 2188,
      "paramet": 2189,
      "43478": 2190,
      "mundane": 2191,
      "ydrogen": 2192,
      "136": 2193,
      "?'": 2194,
      "Ar": 2195,
      "away": 2196,
      "big": 2197,
      "faint": 2198,
      "fram": 2199,
      "pati": 2200,
      "set": 2201,
      "sight": 2202,
      "te": 2203,
      "instru": 2204,
      "thread": 2205,
      "orts": 2206,
      "another": 2207,
      "ree": 2208,
      "plan": 2209,
      "165": 2210,
      "113": 2211,
      "118": 2212,
      "119": 2213,
      "stre": 2214,
      "lies": 2215,
      "Owls": 2216,
      "pred": 2217,
      "cher": 2218,
      "kness": 2219,
      "ellent": 2220,
      "full": 2221,
      "emotions": 2222,
      "standard": 2223,
      "descri": 2224,
      "magical": 2225,
      "thank": 2226,
      "feathered": 2227,
      "Ooooooooh": 2228,
      "doesn": 2229,
      "absol": 2230,
      "firef": 2231,
      "rustling": 2232,
      "ances": 2233,
      "better": 2234,
      "carries": 2235,
      "closely": 2236,
      "echoes": 2237,
      "requested": 2238,
      "suggest": 2239,
      "architecture": 2240,
      "requires": 2241,
      "important": 2242,
      "gaze": 2243,
      "fabric": 2244,
      "contempl": 2245,
      "parameters": 2246,
      "05": 2247,
      "133": 2248,
      "Gre": 2249,
      "Pho": 2250,
      "Your": 2251,
      "ec": 2252,
      "fall": 2253,
      "iti": 2254,
      "ibut": 2255,
      "med": 2256,
      "nes": 2257,
      "nest": 2258,
      "she": 2259,
      "tain": 2260,
      "tend": 2261,
      "vi": 2262,
      "ving": 2263,
      "ying": 2264,
      "iso": 2265,
      "isely": 2266,
      "remind": 2267,
      "oud": 2268,
      "iven": 2269,
      "1428571428571428": 2270,
      "icon": 2271,
      "start": 2272,
      "stream": 2273,
      "2068": 2274,
      "cial": 2275,
      "etings": 2276,
      "156": 2277,
      "emer": 2278,
      "dee": 2279,
      "adap": 2280,
      "addr": 2281,
      "139": 2282,
      "2608": 2283,
      "soaring": 2284,
      "making": 2285,
      "refin": 2286,
      "refle": 2287,
      "tale": 2288,
      "consist": 2289,
      "dearest": 2290,
      "7777777777777777": 2291,
      "exploration": 2292,
      "species": 2293,
      "reinforce": 2294,
      "highlight": 2295,
      "woah": 2296,
      "remains": 2297,
      "imagin": 2298,
      "turns": 2299,
      "darkness": 2300,
      "detail": 2301,
      "sarcastic": 2302,
      "378378": 2303,
      "include": 2304,
      "1176470588": 2305,
      "2222222222222223": 2306,
      "clarity": 2307,
      "166666666666667": 2308,
      "Magnes": 2309,
      "address": 2310,
      "Magnesium": 2311,
      "('": 2312,
      "*!": 2313,
      "?!": 2314,
      "Each": 2315,
      "Fear": 2316,
      "May": 2317,
      "Un": 2318,
      "bon": 2319,
      "ces": 2320,
      "ethere": 2321,
      "fits": 2322,
      "lately": 2323,
      "ped": 2324,
      "pass": 2325,
      "ring": 2326,
      "river": 2327,
      "same": 2328,
      "wel": 2329,
      "ongoing": 2330,
      "ulfur": 2331,
      "104": 2332,
      "itement": 2333,
      "umber": 2334,
      "arbon": 2335,
      "usive": 2336,
      "ival": 2337,
      "iment": 2338,
      "enty": 2339,
      "142": 2340,
      "prim": 2341,
      "icit": 2342,
      "icious": 2343,
      "icated": 2344,
      "seem": 2345,
      "expect": 2346,
      "exquis": 2347,
      "accur": 2348,
      "compre": 2349,
      "lik": 2350,
      "emp": 2351,
      "unch": 2352,
      "134": 2353,
      "ends": 2354,
      "sup": 2355,
      "approach": 2356,
      "grasp": 2357,
      "days": 2358,
      "interpre": 2359,
      "interaction": 2360,
      "interactions": 2361,
      "9999999999": 2362,
      "arding": 2363,
      "tales": 2364,
      "excellent": 2365,
      "excitement": 2366,
      "precisely": 2367,
      "times": 2368,
      "brave": 2369,
      "abstract": 2370,
      "networks": 2371,
      "trying": 2372,
      "further": 2373,
      "constell": 2374,
      "warmth": 2375,
      "efficiency": 2376,
      "slumber": 2377,
      "Therefore": 2378,
      "crafted": 2379,
      "represents": 2380,
      "threads": 2381,
      "Phosphorus": 2382,
      "ethereal": 2383,
      "compreh": 2384,
      "09": 2385,
      "217": 2386,
      "bir": 2387,
      "care": 2388,
      "ev": 2389,
      "fel": 2390,
      "gem": 2391,
      "hon": 2392,
      "hand": 2393,
      "ian": 2394,
      "led": 2395,
      "nav": 2396,
      "pt": 2397,
      "sw": 2398,
      "sig": 2399,
      "spr": 2400,
      "ore": 2401,
      "anse": 2402,
      "recent": 2403,
      "ased": 2404,
      "owing": 2405,
      "167": 2406,
      "ified": 2407,
      "stay": 2408,
      "states": 2409,
      "eles": 2410,
      "200": 2411,
      "1860": 2412,
      "ets": 2413,
      "159": 2414,
      "exact": 2415,
      "produ": 2416,
      "key": 2417,
      "441860": 2418,
      "408": 2419,
      "prefer": 2420,
      "dec": 2421,
      "19512": 2422,
      "3589": 2423,
      "ells": 2424,
      "ooooh": 2425,
      "39130": 2426,
      "Why": 2427,
      "bring": 2428,
      "ource": 2429,
      "log": 2430,
      "selves": 2431,
      "wondering": 2432,
      "6666666666666667": 2433,
      "observe": 2434,
      "intrig": 2435,
      "goals": 2436,
      "arrives": 2437,
      "connected": 2438,
      "skies": 2439,
      "similar": 2440,
      "deepest": 2441,
      "expanse": 2442,
      "5555555555555554": 2443,
      "keeping": 2444,
      "imagery": 2445,
      "confident": 2446,
      "efficient": 2447,
      "anticip": 2448,
      "activities": 2449,
      "reiterate": 2450,
      "tender": 2451,
      "adapt": 2452,
      "navig": 2453,
      "signature": 2454,
      "44186046": 2455,
      "!'": 2456,
      "Can": 2457,
      "Flu": 2458,
      "Hydrogen": 2459,
      "Just": 2460,
      "Lith": 2461,
      "OU": 2462,
      "Re": 2463,
      "Si": 2464,
      "Sulfur": 2465,
      "dden": 2466,
      "fut": 2467,
      "ged": 2468,
      "ju": 2469,
      "ken": 2470,
      "mel": 2471,
      "narr": 2472,
      "ps": 2473,
      "phis": 2474,
      "task": 2475,
      "wide": 2476,
      "inher": 2477,
      "esh": 2478,
      "esis": 2479,
      "ering": 2480,
      "almost": 2481,
      "asures": 2482,
      "usp": 2483,
      "ideal": 2484,
      "ents": 2485,
      "hell": 2486,
      "omine": 2487,
      "active": 2488,
      "assium": 2489,
      "ama": 2490,
      "reson": 2491,
      "cover": 2492,
      "suc": 2493,
      "sudden": 2494,
      "peace": 2495,
      "wondr": 2496,
      "desire": 2497,
      "deliver": 2498,
      "previously": 2499,
      "focusing": 2500,
      "funny": 2501,
      "mistry": 2502,
      "explore": 2503,
      "creature": 2504,
      "paths": 2505,
      "sensory": 2506,
      "chemistry": 2507,
      "factual": 2508,
      "framework": 2509,
      "perfect": 2510,
      "positive": 2511,
      "Bromine": 2512,
      "meaning": 2513,
      "looking": 2514,
      "contrast": 2515,
      "emotional": 2516,
      "communication": 2517,
      "stories": 2518,
      "moonbeams": 2519,
      "typically": 2520,
      "instructions": 2521,
      "sheer": 2522,
      "isotop": 2523,
      "details": 2524,
      "likely": 2525,
      "Fluorine": 2526,
      "Lithium": 2527,
      "wondrous": 2528,
      "166666666666666": 2529,
      "744186046": 2530,
      "Be": 2531,
      "Carbon": 2532,
      "Did": 2533,
      "Hoooo": 2534,
      "Sil": 2535,
      "Wis": 2536,
      "aking": 2537,
      "bo": 2538,
      "bes": 2539,
      "bus": 2540,
      "celes": 2541,
      "dust": 2542,
      "eat": 2543,
      "five": 2544,
      "gif": 2545,
      "ictly": 2546,
      "milli": 2547,
      "oken": 2548,
      "sed": 2549,
      "stra": 2550,
      "soul": 2551,
      "senti": 2552,
      "sigh": 2553,
      "table": 2554,
      "uing": 2555,
      "vis": 2556,
      "att": 2557,
      "reach": 2558,
      "ende": 2559,
      "tial": 2560,
      "tired": 2561,
      "uses": 2562,
      "velo": 2563,
      "quer": 2564,
      "144": 2565,
      "163": 2566,
      "ifies": 2567,
      "eld": 2568,
      "else": 2569,
      "ably": 2570,
      "152": 2571,
      "157": 2572,
      "comfor": 2573,
      "means": 2574,
      "memor": 2575,
      "measure": 2576,
      "170": 2577,
      "175": 2578,
      "176": 2579,
      "develo": 2580,
      "197": 2581,
      "unfur": 2582,
      "131": 2583,
      "ages": 2584,
      "trodu": 2585,
      "allows": 2586,
      "Its": 2587,
      "weigh": 2588,
      "avian": 2589,
      "atoms": 2590,
      "Introdu": 2591,
      "corner": 2592,
      "76744186046": 2593,
      "unders": 2594,
      "ground": 2595,
      "seeing": 2596,
      "7878": 2597,
      "strictly": 2598,
      "ears": 2599,
      "opport": 2600,
      "pursu": 2601,
      "syn": 2602,
      "743589": 2603,
      "vastness": 2604,
      "consum": 2605,
      "2857142857142856": 2606,
      "two": 2607,
      "explorer": 2608,
      "5714285714285716": 2609,
      "helps": 2610,
      "field": 2611,
      "signifies": 2612,
      "called": 2613,
      "breath": 2614,
      "exped": 2615,
      "filled": 2616,
      "senses": 2617,
      "earthly": 2618,
      "cern": 2619,
      "aspir": 2620,
      "bloom": 2621,
      "suggestion": 2622,
      "70588235294": 2623,
      "illuminate": 2624,
      "truths": 2625,
      "shimmering": 2626,
      "distant": 2627,
      "embody": 2628,
      "empathetic": 2629,
      "empathetically": 2630,
      "providing": 2631,
      "454545454545": 2632,
      "merely": 2633,
      "prac": 2634,
      "having": 2635,
      "185185": 2636,
      "waiting": 2637,
      "woods": 2638,
      "incredibly": 2639,
      "fulfilling": 2640,
      "4444444444444446": 2641,
      "involves": 2642,
      "remarkable": 2643,
      "projects": 2644,
      "789473684": 2645,
      "Greetings": 2646,
      "consistent": 2647,
      "icitly": 2648,
      "interpret": 2649,
      "intriguing": 2650,
      "hello": 2651,
      "success": 2652,
      "isotopes": 2653,
      "1666666666666665": 2654,
      "Silicon": 2655,
      "Wisdom": 2656,
      "busy": 2657,
      "celestial": 2658,
      "endeavor": 2659,
      "Introduce": 2660,
      "*...": 2661,
      "An": 2662,
      "Nit": 2663,
      "Pot": 2664,
      "Pip": 2665,
      "bol": 2666,
      "base": 2667,
      "ca": 2668,
      "cending": 2669,
      "da": 2670,
      "equ": 2671,
      "earn": 2672,
      "gan": 2673,
      "gift": 2674,
      "hush": 2675,
      "la": 2676,
      "lay": 2677,
      "lack": 2678,
      "lumin": 2679,
      "pul": 2680,
      "rout": 2681,
      "round": 2682,
      "uzz": 2683,
      "ucial": 2684,
      "wit": 2685,
      "xy": 2686,
      "yes": 2687,
      "zing": 2688,
      "initi": 2689,
      "organ": 2690,
      "ened": 2691,
      "identi": 2692,
      "forever": 2693,
      "122": 2694,
      "prom": 2695,
      "whole": 2696,
      "elusive": 2697,
      "eter": 2698,
      "sect": 2699,
      "exception": 2700,
      "acro": 2701,
      "prob": 2702,
      "coming": 2703,
      "sharing": 2704,
      "chir": 2705,
      "unparallel": 2706,
      "uncover": 2707,
      "aren": 2708,
      "arewell": 2709,
      "sports": 2710,
      "Neon": 2711,
      "antum": 2712,
      "soar": 2713,
      "Who": 2714,
      "peak": 2715,
      "refers": 2716,
      "fled": 2717,
      "flick": 2718,
      "These": 2719,
      "descending": 2720,
      "inkle": 2721,
      "advanced": 2722,
      "internal": 2723,
      "intrins": 2724,
      "expressing": 2725,
      "crucial": 2726,
      "themselves": 2727,
      "goodbye": 2728,
      "compliment": 2729,
      "twenty": 2730,
      "speck": 2731,
      "conversations": 2732,
      "symbol": 2733,
      "directly": 2734,
      "fills": 2735,
      "voice": 2736,
      "intellectual": 2737,
      "sleeps": 2738,
      "rogen": 2739,
      "cognitive": 2740,
      "optimal": 2741,
      "confidently": 2742,
      "look": 2743,
      "000000000001": 2744,
      "metaphorical": 2745,
      "change": 2746,
      "periodic": 2747,
      "thrilling": 2748,
      "ngth": 2749,
      "uff": 2750,
      "implying": 2751,
      "regarding": 2752,
      "depth": 2753,
      "strength": 2754,
      "describe": 2755,
      "firefly": 2756,
      "contemplation": 2757,
      "constellations": 2758,
      "felt": 2759,
      "exactly": 2760,
      "uspicious": 2761,
      "gifted": 2762,
      "opportun": 2763,
      "expedition": 2764,
      "successful": 2765,
      "Nitrogen": 2766,
      "Potassium": 2767,
      "xygen": 2768,
      "across": 2769,
      "unparalleled": 2770,
      "218": 2771,
      "4285714285714286": 2772,
      "62068": 2773,
      "842": 2774,
      "?'.": 2775,
      "Ou": 2776,
      "Ooo": 2777,
      "Some": 2778,
      "akes": 2779,
      "bal": 2780,
      "ced": 2781,
      "down": 2782,
      "ges": 2783,
      "had": 2784,
      "ial": 2785,
      "ible": 2786,
      "mous": 2787,
      "nter": 2788,
      "oss": 2789,
      "rig": 2790,
      "size": 2791,
      "twi": 2792,
      "ved": 2793,
      "🌙✨": 2794,
      "inct": 2795,
      "inary": 2796,
      "thous": 2797,
      "espe": 2798,
      "ening": 2799,
      "enjoy": 2800,
      "oun": 2801,
      "101": 2802,
      "1020": 2803,
      "omen": 2804,
      "tow": 2805,
      "imp": 2806,
      "147": 2807,
      "148": 2808,
      "160": 2809,
      "169": 2810,
      "stard": 2811,
      "208": 2812,
      "184": 2813,
      "186": 2814,
      "cially": 2815,
      "denot": 2816,
      "Their": 2817,
      "seas": 2818,
      "wild": 2819,
      "2424": 2820,
      "condescending": 2821,
      "173": 2822,
      "1724": 2823,
      "embra": 2824,
      "decip": 2825,
      "192": 2826,
      "195": 2827,
      "132": 2828,
      "ager": 2829,
      "agree": 2830,
      "yours": 2831,
      "soil": 2832,
      "9655": 2833,
      "9090": 2834,
      "dict": 2835,
      "informative": 2836,
      "ization": 2837,
      "treasures": 2838,
      "216216": 2839,
      "arted": 2840,
      "interconnected": 2841,
      "**!": 2842,
      "silence": 2843,
      "analyze": 2844,
      "5862068": 2845,
      "jectives": 2846,
      "1111111111111111": 2847,
      "whispering": 2848,
      "engaged": 2849,
      "talking": 2850,
      "Howâ": 2851,
      "However": 2852,
      "magic": 2853,
      "eye": 2854,
      "mysteries": 2855,
      "243243": 2856,
      "777777777777": 2857,
      "concepts": 2858,
      "immense": 2859,
      "experiences": 2860,
      "exploring": 2861,
      "571428571428571": 2862,
      "stillness": 2863,
      "finding": 2864,
      "thinker": 2865,
      "11111111111111": 2866,
      "definitely": 2867,
      ")**!": 2868,
      "darling": 2869,
      "92307692": 2870,
      "color": 2871,
      "clear": 2872,
      "8333333333333335": 2873,
      "hinting": 2874,
      "179487": 2875,
      "provided": 2876,
      "metaphors": 2877,
      "aligns": 2878,
      "limited": 2879,
      "programming": 2880,
      "dismissive": 2881,
      "181818181818": 2882,
      "nourishment": 2883,
      "recognition": 2884,
      "434782608": 2885,
      "faintest": 2886,
      "14285714285714285": 2887,
      "refinement": 2888,
      "Until": 2889,
      "exquisite": 2890,
      "accurate": 2891,
      "staying": 2892,
      "productive": 2893,
      "40816": 2894,
      "future": 2895,
      "inherent": 2896,
      "million": 2897,
      "queries": 2898,
      "synth": 2899,
      "luminous": 2900,
      "routine": 2901,
      "twilight": 2902,
      "thousand": 2903,
      "especially": 2904,
      "stardust": 2905,
      "!!": 2906,
      "03": 2907,
      "820": 2908,
      "Ah": 2909,
      "Any": 2910,
      "Con": 2911,
      "One": 2912,
      "With": 2913,
      "aci": 2914,
      "ade": 2915,
      "aut": 2916,
      "auspicious": 2917,
      "cells": 2918,
      "dest": 2919,
      "ether": 2920,
      "eager": 2921,
      "gment": 2922,
      "last": 2923,
      "mess": 2924,
      "mole": 2925,
      "nu": 2926,
      "puzz": 2927,
      "si": 2928,
      "scur": 2929,
      "since": 2930,
      "tast": 2931,
      "wat": 2932,
      "🦉💨": 2933,
      "ined": 2934,
      "insp": 2935,
      "infin": 2936,
      "ered": 2937,
      "orb": 2938,
      "orious": 2939,
      "ange": 2940,
      "rep": 2941,
      "retr": 2942,
      "really": 2943,
      "enomen": 2944,
      "tied": 2945,
      "ount": 2946,
      "asets": 2947,
      "radi": 2948,
      "ites": 2949,
      "uscul": 2950,
      "quanti": 2951,
      "quantum": 2952,
      "never": 2953,
      "held": 2954,
      "perch": 2955,
      "perform": 2956,
      "abund": 2957,
      "153": 2958,
      "154": 2959,
      "exec": 2960,
      "conj": 2961,
      "chat": 2962,
      "utely": 2963,
      "feast": 2964,
      "sophis": 2965,
      "ticated": 2966,
      "brings": 2967,
      "cool": 2968,
      "entire": 2969,
      "phenomen": 2970,
      "obvious": 2971,
      "objectives": 2972,
      "feelings": 2973,
      "izing": 2974,
      "seeking": 2975,
      "type": 2976,
      "hooo": 2977,
      "explicitly": 2978,
      "datasets": 2979,
      "gently": 2980,
      "ension": 2981,
      "ensuring": 2982,
      "engage": 2983,
      "analog": 2984,
      "strate": 2985,
      "observed": 2986,
      "expressed": 2987,
      "goal": 2988,
      "elemental": 2989,
      "gling": 2990,
      "glorious": 2991,
      "saying": 2992,
      "focused": 2993,
      "twink": 2994,
      "connecting": 2995,
      "Does": 2996,
      "reflecting": 2997,
      "overly": 2998,
      "carried": 2999,
      "highly": 3000,
      "growing": 3001,
      "algorithm": 3002,
      "draw": 3003,
      "perceived": 3004,
      "after": 3005,
      "affe": 3006,
      "block": 3007,
      "hope": 3008,
      "slow": 3009,
      "contribut": 3010,
      "appreciative": 3011,
      "aspects": 3012,
      "talks": 3013,
      "programmed": 3014,
      "boundless": 3015,
      "cycl": 3016,
      "names": 3017,
      "perpetual": 3018,
      "framing": 3019,
      "streams": 3020,
      "deeper": 3021,
      "reflective": 3022,
      "empir": 3023,
      "honor": 3024,
      "preferences": 3025,
      "melody": 3026,
      "narrative": 3027,
      "develop": 3028,
      "pursuit": 3029,
      "opportunity": 3030,
      "rigor": 3031,
      "scurry": 3032,
      "sophisticated": 3033,
      "037": 3034,
      "16666666666666666": 3035,
      "236": 3036,
      "864": 3037,
      "8333333333333333": 3038,
      "Happ": 3039,
      "On": 3040,
      "awe": 3041,
      "based": 3042,
      "dances": 3043,
      "ek": 3044,
      "flo": 3045,
      "fine": 3046,
      "give": 3047,
      "giving": 3048,
      "given": 3049,
      "hu": 3050,
      "home": 3051,
      "ired": 3052,
      "kis": 3053,
      "mol": 3054,
      "pi": 3055,
      "paint": 3056,
      "rough": 3057,
      "vig": 3058,
      "yearn": 3059,
      "input": 3060,
      "onment": 3061,
      "ord": 3062,
      "isp": 3063,
      "isms": 3064,
      "ann": 3065,
      "return": 3066,
      "enig": 3067,
      "tit": 3068,
      "107": 3069,
      "ingly": 3070,
      "ateful": 3071,
      "asing": 3072,
      "place": 3073,
      "tood": 3074,
      "itude": 3075,
      "ars": 3076,
      "lean": 3077,
      "neat": 3078,
      "neur": 3079,
      "traject": 3080,
      "ideas": 3081,
      "143": 3082,
      "168": 3083,
      "head": 3084,
      "heard": 3085,
      "hemer": 3086,
      "els": 3087,
      "extra": 3088,
      "proper": 3089,
      "beet": 3090,
      "beaut": 3091,
      "174": 3092,
      "177": 3093,
      "Hisss": 3094,
      "306": 3095,
      "appe": 3096,
      "ches": 3097,
      "chall": 3098,
      "196": 3099,
      "unknown": 3100,
      "adhere": 3101,
      "290": 3102,
      "cali": 3103,
      "calcul": 3104,
      "triv": 3105,
      "5652": 3106,
      "spin": 3107,
      "3939": 3108,
      "worth": 3109,
      "grat": 3110,
      "objective": 3111,
      "ephemer": 3112,
      "spect": 3113,
      "smallest": 3114,
      "smallness": 3115,
      "beings": 3116,
      "interact": 3117,
      "strange": 3118,
      "cloud": 3119,
      "dreaming": 3120,
      "6976744186046": 3121,
      "akin": 3122,
      "4444444444444444": 3123,
      "utterly": 3124,
      "sparkly": 3125,
      "grams": 3126,
      "origins": 3127,
      "connections": 3128,
      "naturally": 3129,
      "specified": 3130,
      "vironment": 3131,
      "watchful": 3132,
      "firm": 3133,
      "facts": 3134,
      "reflects": 3135,
      "307692307692": 3136,
      "characteristics": 3137,
      "7142857142857144": 3138,
      "minuscul": 3139,
      "introduction": 3140,
      "build": 3141,
      "functions": 3142,
      "hunt": 3143,
      "hunting": 3144,
      "sarcastically": 3145,
      "9230769": 3146,
      "9230769230769": 3147,
      "inclu": 3148,
      "guiding": 3149,
      "embark": 3150,
      "interesting": 3151,
      "dedicated": 3152,
      "dimin": 3153,
      "gleam": 3154,
      "surpr": 3155,
      "363636363636": 3156,
      "38461538461537": 3157,
      "predic": 3158,
      "absolutely": 3159,
      "swift": 3160,
      "1951219512": 3161,
      "anticipation": 3162,
      "tasks": 3163,
      "amazing": 3164,
      "bestow": 3165,
      "understood": 3166,
      "witness": 3167,
      "flicker": 3168,
      "denoted": 3169,
      "58620689655": 3170,
      "77777777777777": 3171,
      "cycles": 3172,
      "development": 3173,
      "Happiness": 3174,
      "trajectory": 3175,
      "beauty": 3176,
      "ephemeral": 3177,
      "minuscule": 3178,
      "07": 3179,
      ":**": 3180,
      "Got": 3181,
      "Hel": 3182,
      "Lo": 3183,
      "Ouuu": 3184,
      "Oxygen": 3185,
      "RE": 3186,
      "St": 3187,
      "Since": 3188,
      "balle": 3189,
      "cus": 3190,
      "cise": 3191,
      "did": 3192,
      "dil": 3193,
      "during": 3194,
      "gal": 3195,
      "ght": 3196,
      "gement": 3197,
      "low": 3198,
      "lived": 3199,
      "mon": 3200,
      "nas": 3201,
      "ror": 3202,
      "rod": 3203,
      "sat": 3204,
      "sort": 3205,
      "sched": 3206,
      "ture": 3207,
      "take": 3208,
      "uity": 3209,
      "utive": 3210,
      "vice": 3211,
      "🦉🌙": 3212,
      "🦉🌟": 3213,
      "🦉💡": 3214,
      "inner": 3215,
      "instead": 3216,
      "ert": 3217,
      "orn": 3218,
      "retin": 3219,
      "require": 3220,
      "ench": 3221,
      "environment": 3222,
      "thed": 3223,
      "off": 3224,
      "told": 3225,
      "quaint": 3226,
      "lead": 3227,
      "near": 3228,
      "young": 3229,
      "why": 3230,
      "180": 3231,
      "sequ": 3232,
      "exchange": 3233,
      "become": 3234,
      "indep": 3235,
      "comes": 3236,
      "cond": 3237,
      "shif": 3238,
      "ship": 3239,
      "appl": 3240,
      "chill": 3241,
      "until": 3242,
      "adop": 3243,
      "ared": 3244,
      "ils": 3245,
      "unear": 3246,
      "allowing": 3247,
      "spoken": 3248,
      "anting": 3249,
      "move": 3250,
      "mock": 3251,
      "working": 3252,
      "aving": 3253,
      "brie": 3254,
      "Instead": 3255,
      "ended": 3256,
      "endent": 3257,
      "doing": 3258,
      "phr": 3259,
      "phot": 3260,
      "service": 3261,
      "ments": 3262,
      "flu": 3263,
      "flesh": 3264,
      "morning": 3265,
      "dies": 3266,
      "discourse": 3267,
      "discus": 3268,
      "learns": 3269,
      "explan": 3270,
      "forests": 3271,
      "internet": 3272,
      "compass": 3273,
      "cross": 3274,
      "mighty": 3275,
      "fluttering": 3276,
      "simplistic": 3277,
      "winds": 3278,
      "against": 3279,
      "effor": 3280,
      "computing": 3281,
      "expand": 3282,
      "adventurer": 3283,
      "avoiding": 3284,
      "structure": 3285,
      "softly": 3286,
      "greatest": 3287,
      "specialized": 3288,
      "black": 3289,
      "meticulous": 3290,
      "certain": 3291,
      "optimized": 3292,
      "enthusiasm": 3293,
      "topic": 3294,
      "systems": 3295,
      "activity": 3296,
      "limit": 3297,
      "incredible": 3298,
      "tickles": 3299,
      "encourage": 3300,
      "begin": 3301,
      "Artificial": 3302,
      "cherished": 3303,
      "absolute": 3304,
      "vibr": 3305,
      "passing": 3306,
      "999999999998": 3307,
      "careful": 3308,
      "sprinkle": 3309,
      "recently": 3310,
      "adaptations": 3311,
      "juic": 3312,
      "Been": 3313,
      "straight": 3314,
      "fledgling": 3315,
      "mouse": 3316,
      "embrace": 3317,
      "inspired": 3318,
      "retrieve": 3319,
      "scurrying": 3320,
      "vigil": 3321,
      "trivial": 3322,
      "gratitude": 3323,
      "diminutive": 3324,
      "Helium": 3325,
      "ballet": 3326,
      "nascent": 3327,
      "satis": 3328,
      "schedul": 3329,
      "'!": 3330,
      "233": 3331,
      "230": 3332,
      "428571428571428": 3333,
      "528": 3334,
      "629": 3335,
      "645": 3336,
      "680": 3337,
      "8333333333333334": 3338,
      "Emo": 3339,
      "Go": 3340,
      "Know": 3341,
      "Machine": 3342,
      "Se": 3343,
      "Sad": 3344,
      "UL": 3345,
      "YOU": 3346,
      "bur": 3347,
      "cid": 3348,
      "catch": 3349,
      "dem": 3350,
      "egr": 3351,
      "fo": 3352,
      "fam": 3353,
      "flit": 3354,
      "farewell": 3355,
      "lon": 3356,
      "line": 3357,
      "link": 3358,
      "mid": 3359,
      "moth": 3360,
      "mur": 3361,
      "mist": 3362,
      "mount": 3363,
      "nic": 3364,
      "nice": 3365,
      "pan": 3366,
      "pol": 3367,
      "ption": 3368,
      "pack": 3369,
      "rit": 3370,
      "scal": 3371,
      "scr": 3372,
      "squir": 3373,
      "stick": 3374,
      "ton": 3375,
      "tech": 3376,
      "vit": 3377,
      "€”": 3378,
      "ats": 3379,
      "insect": 3380,
      "ular": 3381,
      "anthr": 3382,
      "reass": 3383,
      "1025": 3384,
      "omor": 3385,
      "332": 3386,
      "toward": 3387,
      "ari": 3388,
      "aris": 3389,
      "arden": 3390,
      "arily": 3391,
      "usual": 3392,
      "level": 3393,
      "necess": 3394,
      "121": 3395,
      "123": 3396,
      "1276": 3397,
      "ook": 3398,
      "ivers": 3399,
      "imal": 3400,
      "create": 3401,
      "heav": 3402,
      "2580": 3403,
      "202": 3404,
      "ceed": 3405,
      "cease": 3406,
      "008": 3407,
      "implies": 3408,
      "15384615": 3409,
      "semin": 3410,
      "exh": 3411,
      "240": 3412,
      "acon": 3413,
      "acquis": 3414,
      "beacon": 3415,
      "urd": 3416,
      "concise": 3417,
      "44680": 3418,
      "apply": 3419,
      "5744680": 3420,
      "191": 3421,
      "193": 3422,
      "1935": 3423,
      "uned": 3424,
      "add": 3425,
      "calculate": 3426,
      "5714285714285714": 3427,
      "amp": 3428,
      "among": 3429,
      "3265": 3430,
      "berry": 3431,
      "6470588235294": 3432,
      "ters": 3433,
      "terrest": 3434,
      "resource": 3435,
      "nov": 3436,
      "sport": 3437,
      "468": 3438,
      "3809": 3439,
      "moss": 3440,
      "weaving": 3441,
      "9677": 3442,
      "709677": 3443,
      "41666666666666": 3444,
      "888888": 3445,
      "cannot": 3446,
      "maxim": 3447,
      "integr": 3448,
      "dissemin": 3449,
      "learned": 3450,
      "gue": 3451,
      "523809": 3452,
      "treating": 3453,
      "hooting": 3454,
      "engine": 3455,
      "genesis": 3456,
      "compact": 3457,
      "however": 3458,
      "observant": 3459,
      "open": 3460,
      "opomor": 3461,
      "awa": 3462,
      "awak": 3463,
      "jewel": 3464,
      "intric": 3465,
      "ssom": 3466,
      "relation": 3467,
      "relating": 3468,
      "relative": 3469,
      "asked": 3470,
      "themes": 3471,
      "88888888888888": 3472,
      "glimmer": 3473,
      "minds": 3474,
      "272727": 3475,
      "2222222222222222": 3476,
      "plays": 3477,
      "inquiries": 3478,
      "aught": 3479,
      "reference": 3480,
      "absorb": 3481,
      "uminum": 3482,
      "9999999999998": 3483,
      "pathy": 3484,
      "pathways": 3485,
      "offering": 3486,
      "complexity": 3487,
      "believe": 3488,
      "close": 3489,
      "imagine": 3490,
      "transc": 3491,
      "icket": 3492,
      "7142857142857142": 3493,
      "7142857142857143": 3494,
      "tempor": 3495,
      "position": 3496,
      "marvels": 3497,
      "potent": 3498,
      "holds": 3499,
      "blossom": 3500,
      "dete": 3501,
      "2941176470588": 3502,
      "discovering": 3503,
      "discovered": 3504,
      "superiority": 3505,
      "pleasure": 3506,
      "8571428571428571": 3507,
      "rial": 3508,
      "27272727272727": 3509,
      "appreciation": 3510,
      "seeds": 3511,
      "zzling": 3512,
      "speaks": 3513,
      "0000000000002": 3514,
      "Aluminum": 3515,
      "aligning": 3516,
      "270270270270": 3517,
      "48484848": 3518,
      "23529411764": 3519,
      "cycle": 3520,
      "revealing": 3521,
      "444444444444445": 3522,
      "countless": 3523,
      "cherish": 3524,
      "suggesting": 3525,
      "highlighting": 3526,
      "addressed": 3527,
      "ivalent": 3528,
      "seems": 3529,
      "slumbering": 3530,
      "21739130": 3531,
      "comforting": 3532,
      "unfurl": 3533,
      "corners": 3534,
      "45454545454545": 3535,
      "78947368421": 3536,
      "cause": 3537,
      "dazzling": 3538,
      "equivalent": 3539,
      "hushed": 3540,
      "initiated": 3541,
      "eternal": 3542,
      "chirp": 3543,
      "102040816": 3544,
      "seasons": 3545,
      "destin": 3546,
      "water": 3547,
      "radiant": 3548,
      "performance": 3549,
      "abundance": 3550,
      "execution": 3551,
      "entirely": 3552,
      "affection": 3553,
      "namesake": 3554,
      "037037": 3555,
      "kissed": 3556,
      "30612": 3557,
      "calibr": 3558,
      "565217": 3559,
      "30769230769230": 3560,
      "including": 3561,
      "Love": 3562,
      "dilig": 3563,
      "adopt": 3564,
      "explanation": 3565,
      "schedule": 3566,
      "Emojis": 3567,
      "Knowing": 3568,
      "squirrel": 3569,
      "techn": 3570,
      "anthropomor": 3571,
      "102564": 3572,
      "towards": 3573,
      "2580645": 3574,
      "acquisition": 3575,
      "193548": 3576,
      "terrestrial": 3577,
      "DE": 3578,
      "En": 3579,
      "Hum": 3580,
      "LI": 3581,
      "No": 3582,
      "Ob": 3583,
      "Pl": 3584,
      "RI": 3585,
      "SO": 3586,
      "TE": 3587,
      "acul": 3588,
      "bed": 3589,
      "bind": 3590,
      "cast": 3591,
      "cup": 3592,
      "dain": 3593,
      "dare": 3594,
      "daring": 3595,
      "damp": 3596,
      "eh": 3597,
      "evol": 3598,
      "garden": 3599,
      "hy": 3600,
      "hind": 3601,
      "ia": 3602,
      "ius": 3603,
      "iest": 3604,
      "lar": 3605,
      "lder": 3606,
      "linking": 3607,
      "mach": 3608,
      "oce": 3609,
      "oak": 3610,
      "ruf": 3611,
      "sent": 3612,
      "sway": 3613,
      "saw": 3614,
      "teach": 3615,
      "warn": 3616,
      "whel": 3617,
      "waver": 3618,
      "yle": 3619,
      "🦉🌳": 3620,
      "ature": 3621,
      "attem": 3622,
      "inst": 3623,
      "ints": 3624,
      "inspir": 3625,
      "erated": 3626,
      "albe": 3627,
      "ulate": 3628,
      "ised": 3629,
      "reas": 3630,
      "revel": 3631,
      "reject": 3632,
      "reaction": 3633,
      "itate": 3634,
      "forth": 3635,
      "forged": 3636,
      "umbl": 3637,
      "ctar": 3638,
      "usually": 3639,
      "owed": 3640,
      "qual": 3641,
      "quick": 3642,
      "nectar": 3643,
      "impress": 3644,
      "ifically": 3645,
      "height": 3646,
      "perched": 3647,
      "eless": 3648,
      "200000000000": 3649,
      "abor": 3650,
      "wilder": 3651,
      "access": 3652,
      "acuity": 3653,
      "proble": 3654,
      "becoming": 3655,
      "behind": 3656,
      "indic": 3657,
      "999": 3658,
      "conver": 3659,
      "condi": 3660,
      "concern": 3661,
      "liz": 3662,
      "305": 3663,
      "estri": 3664,
      "prey": 3665,
      "predict": 3666,
      "decl": 3667,
      "output": 3668,
      "unra": 3669,
      "unwaver": 3670,
      "ador": 3671,
      "adult": 3672,
      "irst": 3673,
      "tribut": 3674,
      "respective": 3675,
      "spid": 3676,
      "space": 3677,
      "few": 3678,
      "mode": 3679,
      "model": 3680,
      "forms": 3681,
      "formally": 3682,
      "centric": 3683,
      "enduring": 3684,
      "pho": 3685,
      "morsel": 3686,
      "diet": 3687,
      "🦉✨🌌": 3688,
      "🦉✨🌙": 3689,
      "discern": 3690,
      "disdain": 3691,
      "knows": 3692,
      "informational": 3693,
      "intertw": 3694,
      "ensive": 3695,
      "enced": 3696,
      "genius": 3697,
      "comparing": 3698,
      "silly": 3699,
      "class": 3700,
      "clam": 3701,
      "acts": 3702,
      "science": 3703,
      "velve": 3704,
      "answers": 3705,
      "greet": 3706,
      "complet": 3707,
      "sparks": 3708,
      "directives": 3709,
      "finally": 3710,
      "everything": 3711,
      "horiz": 3712,
      "general": 3713,
      "joke": 3714,
      "singular": 3715,
      "absurd": 3716,
      "reality": 3717,
      "realms": 3718,
      "signals": 3719,
      "9999999999999": 3720,
      "expans": 3721,
      "continued": 3722,
      "overwhel": 3723,
      "carry": 3724,
      "carrying": 3725,
      "playfully": 3726,
      "foundational": 3727,
      "physi": 3728,
      "posed": 3729,
      "built": 3730,
      "marvelous": 3731,
      "sunlight": 3732,
      "defined": 3733,
      "definition": 3734,
      "listening": 3735,
      "please": 3736,
      "steady": 3737,
      "ripe": 3738,
      "guides": 3739,
      "guidance": 3740,
      "distinct": 3741,
      "encounter": 3742,
      "duper": 3743,
      "grace": 3744,
      "particular": 3745,
      "dedication": 3746,
      "periods": 3747,
      "craft": 3748,
      "fulfillment": 3749,
      "years": 3750,
      "perpetually": 3751,
      "begins": 3752,
      "mortals": 3753,
      "bigger": 3754,
      "patiently": 3755,
      "sett": 3756,
      "thanks": 3757,
      "emergent": 3758,
      "reflection": 3759,
      "pedestri": 3760,
      "comprehend": 3761,
      "comprehension": 3762,
      "logical": 3763,
      "navigate": 3764,
      "Remember": 3765,
      "resonates": 3766,
      "contrasting": 3767,
      "weighs": 3768,
      "consume": 3769,
      "aspirations": 3770,
      "practically": 3771,
      "laby": 3772,
      "layer": 3773,
      "promise": 3774,
      "exceptionally": 3775,
      "intrinsically": 3776,
      "synthesis": 3777,
      "Consider": 3778,
      "puzzle": 3779,
      "infinite": 3780,
      "conjured": 3781,
      "strateg": 3782,
      "twinkling": 3783,
      "empirical": 3784,
      "rigorous": 3785,
      "hues": 3786,
      "molar": 3787,
      "roughly": 3788,
      "ordinary": 3789,
      "property": 3790,
      "beetle": 3791,
      "calculations": 3792,
      "surprise": 3793,
      "bestowed": 3794,
      "phrasing": 3795,
      "limitations": 3796,
      "juicy": 3797,
      "straightforward": 3798,
      "Sadness": 3799,
      "mountains": 3800,
      "scroll": 3801,
      "dissemination": 3802,
      "albeit": 3803,
      "reason": 3804,
      "unwavering": 3805,
      "pedestrian": 3806,
      "011": 3807,
      "097": 3808,
      "1666666666666667": 3809,
      "211": 3810,
      "220": 3811,
      "264": 3812,
      "316": 3813,
      "4193548": 3814,
      "600": 3815,
      "688": 3816,
      "613": 3817,
      "69230769230769": 3818,
      "736": 3819,
      "727272727272727": 3820,
      "829": 3821,
      "8333333333333": 3822,
      "8378378": 3823,
      "8181818181818": 3824,
      "979": 3825,
      "Cre": 3826,
      "Ex": 3827,
      "Even": 3828,
      "Have": 3829,
      "Ke": 3830,
      "MA": 3831,
      "NO": 3832,
      "NT": 3833,
      "Prep": 3834,
      "User": 3835,
      "Will": 3836,
      "Yes": 3837,
      "_used": 3838,
      "ban": 3839,
      "bits": 3840,
      "bies": 3841,
      "car": 3842,
      "cking": 3843,
      "dan": 3844,
      "eas": 3845,
      "fant": 3846,
      "ffici": 3847,
      "foll": 3848,
      "flies": 3849,
      "fying": 3850,
      "gas": 3851,
      "gave": 3852,
      "gives": 3853,
      "hes": 3854,
      "hab": 3855,
      "hund": 3856,
      "hob": 3857,
      "ier": 3858,
      "lul": 3859,
      "living": 3860,
      "mit": 3861,
      "map": 3862,
      "mir": 3863,
      "migh": 3864,
      "nur": 3865,
      "nut": 3866,
      "none": 3867,
      "nts": 3868,
      "oci": 3869,
      "ope": 3870,
      "pup": 3871,
      "rob": 3872,
      "ries": 3873,
      "rup": 3874,
      "rip": 3875,
      "sn": 3876,
      "sand": 3877,
      "squ": 3878,
      "stic": 3879,
      "tan": 3880,
      "takes": 3881,
      "ud": 3882,
      "vital": 3883,
      "war": 3884,
      "wann": 3885,
      "💖🌟": 3886,
      "🙄🦉✨": 3887,
      "attribut": 3888,
      "incomp": 3889,
      "ones": 3890,
      "once": 3891,
      "enge": 3892,
      "enough": 3893,
      "tiest": 3894,
      "oub": 3895,
      "ouuu": 3896,
      "108": 3897,
      "109": 3898,
      "umb": 3899,
      "ume": 3900,
      "ump": 3901,
      "ument": 3902,
      "edge": 3903,
      "owlet": 3904,
      "side": 3905,
      "veil": 3906,
      "1225": 3907,
      "fresh": 3908,
      "creating": 3909,
      "1440": 3910,
      "1428571428": 3911,
      "164": 3912,
      "priv": 3913,
      "hether": 3914,
      "whir": 3915,
      "white": 3916,
      "stell": 3917,
      "step": 3918,
      "starr": 3919,
      "257": 3920,
      "204": 3921,
      "182": 3922,
      "dens": 3923,
      "151": 3924,
      "1538461538461537": 3925,
      "exceed": 3926,
      "2448": 3927,
      "acy": 3928,
      "369": 3929,
      "55102040816": 3930,
      "conce": 3931,
      "lie": 3932,
      "lities": 3933,
      "libra": 3934,
      "448": 3935,
      "30434782608": 3936,
      "shine": 3937,
      "short": 3938,
      "associ": 3939,
      "chance": 3940,
      "devo": 3941,
      "198": 3942,
      "unadult": 3943,
      "7755102040816": 3944,
      "1379": 3945,
      "298": 3946,
      "450": 3947,
      "322580645": 3948,
      "territ": 3949,
      "trium": 3950,
      "resear": 3951,
      "notion": 3952,
      "noble": 3953,
      "spot": 3954,
      "feet": 3955,
      "4615384615": 3956,
      "38709677": 3957,
      "26829": 3958,
      "231": 3959,
      "web": 3960,
      "humming": 3961,
      "906976744186046": 3962,
      "avail": 3963,
      "liter": 3964,
      "476": 3965,
      "entities": 3966,
      "768": 3967,
      "smile": 3968,
      "curring": 3969,
      "grateful": 3970,
      "canop": 3971,
      "Oooooooooh": 3972,
      "object": 3973,
      "Whatâ": 3974,
      "refine": 3975,
      "flair": 3976,
      "28571428571427": 3977,
      "existing": 3978,
      "🦉✨💖": 3979,
      "understandable": 3980,
      "6521739130": 3981,
      "512820": 3982,
      "Then": 3983,
      "tremor": 3984,
      "advance": 3985,
      "21680": 3986,
      "666666666666668": 3987,
      "sometimes": 3988,
      "genu": 3989,
      "expression": 3990,
      "drink": 3991,
      "crip": 3992,
      "crisp": 3993,
      "cricket": 3994,
      "595744680": 3995,
      "glint": 3996,
      "2857142857142857": 3997,
      "2857142857142858": 3998,
      "analytically": 3999,
      "weighted": 4000,
      "capture": 4001,
      "5714285714286": 4002,
      "ology": 4003,
      "presented": 4004,
      "referring": 4005,
      "context_used": 4006,
      "specifically": 4007,
      "absence": 4008,
      "buzz": 4009,
      "fied": 4010,
      "finds": 4011,
      "lovely": 4012,
      "bilities": 4013,
      "arable": 4014,
      "continuously": 4015,
      "sensitive": 4016,
      "arming": 4017,
      "remain": 4018,
      "softest": 4019,
      "currents": 4020,
      "sleeping": 4021,
      "took": 4022,
      "cerning": 4023,
      "optimization": 4024,
      "pauses": 4025,
      "illuminating": 4026,
      "discoveries": 4027,
      "collect": 4028,
      "clever": 4029,
      "guided": 4030,
      "appreciate": 4031,
      "1104": 4032,
      "222222222222222": 4033,
      "powerful": 4034,
      "interested": 4035,
      "communicate": 4036,
      "lands": 4037,
      "apping": 4038,
      "named": 4039,
      "encouraging": 4040,
      "possible": 4041,
      "possibly": 4042,
      "possibilities": 4043,
      "framed": 4044,
      "patient": 4045,
      "patience": 4046,
      "fireflies": 4047,
      "fallen": 4048,
      "deeply": 4049,
      "260869": 4050,
      "imagination": 4051,
      "uncharted": 4052,
      "999999999997": 4053,
      "decay": 4054,
      "OUS": 4055,
      "jud": 4056,
      "peaceful": 4057,
      "delivered": 4058,
      "Hooooo": 4059,
      "souls": 4060,
      "sentiment": 4061,
      "visual": 4062,
      "attuned": 4063,
      "reaching": 4064,
      "comfort": 4065,
      "memory": 4066,
      "78787878": 4067,
      "743589743589": 4068,
      "consumption": 4069,
      "aspiration": 4070,
      "pulse": 4071,
      "exceptional": 4072,
      "intrinsic": 4073,
      "depths": 4074,
      "84210526315": 4075,
      "17241": 4076,
      "decipher": 4077,
      "deciphering": 4078,
      "1111111111111112": 4079,
      "179487179487": 4080,
      "acies": 4081,
      "message": 4082,
      "taste": 4083,
      "phenomenon": 4084,
      "analogous": 4085,
      "blocks": 4086,
      "Once": 4087,
      "extraordinary": 4088,
      "challenge": 4089,
      "interacting": 4090,
      "36363636363636": 4091,
      "predictive": 4092,
      "5862068965517241": 4093,
      "7777777777777778": 4094,
      "retina": 4095,
      "enchanting": 4096,
      "shifts": 4097,
      "brief": 4098,
      "discuss": 4099,
      "expanding": 4100,
      "4285714285714284": 4101,
      "629629": 4102,
      "linked": 4103,
      "insects": 4104,
      "1276595744680": 4105,
      "heavy": 4106,
      "amongst": 4107,
      "326530612": 4108,
      "maximum": 4109,
      "intricacies": 4110,
      "relationship": 4111,
      "888888888888889": 4112,
      "temporary": 4113,
      "235294117647": 4114,
      "454545454545454": 4115,
      "calibrated": 4116,
      "diligent": 4117,
      "machines": 4118,
      "heightened": 4119,
      "wilderness": 4120,
      "conditions": 4121,
      "unravel": 4122,
      "spider": 4123,
      "morsels": 4124,
      "horizon": 4125,
      "expansion": 4126,
      "overwhelming": 4127,
      "physiological": 4128,
      "97959": 4129,
      "Created": 4130,
      "Keep": 4131,
      "Prepare": 4132,
      "hundred": 4133,
      "hobbies": 4134,
      "mightiest": 4135,
      "pupils": 4136,
      "wanna": 4137,
      "incomparable": 4138,
      "142857142857": 4139,
      "stellar": 4140,
      "starry": 4141,
      "244897959": 4142,
      "devotion": 4143,
      "unadulterated": 4144,
      "13793": 4145,
      "triumph": 4146,
      "available": 4147,
      "canopy": 4148,
      "!),": 4149,
      "')": 4150,
      "'),": 4151,
      ")!": 4152,
      "AR": 4153,
      "CI": 4154,
      "Farewell": 4155,
      "FUL": 4156,
      "First": 4157,
      "Give": 4158,
      "Hope": 4159,
      "Ind": 4160,
      "Listen": 4161,
      "NG": 4162,
      "Not": 4163,
      "Of": 4164,
      "Ple": 4165,
      "Qu": 4166,
      "SS": 4167,
      "Sm": 4168,
      "Such": 4169,
      "Speak": 4170,
      "Wo": 4171,
      "aby": 4172,
      "ball": 4173,
      "bath": 4174,
      "div": 4175,
      "ff": 4176,
      "fu": 4177,
      "fy": 4178,
      "fac": 4179,
      "fil": 4180,
      "fell": 4181,
      "fast": 4182,
      "faction": 4183,
      "fail": 4184,
      "faci": 4185,
      "gain": 4186,
      "hig": 4187,
      "hard": 4188,
      "hydrogen": 4189,
      "iar": 4190,
      "iber": 4191,
      "itions": 4192,
      "ji": 4193,
      "kin": 4194,
      "ligh": 4195,
      "laught": 4196,
      "labor": 4197,
      "mine": 4198,
      "matic": 4199,
      "ns": 4200,
      "non": 4201,
      "noth": 4202,
      "piv": 4203,
      "pine": 4204,
      "rin": 4205,
      "roll": 4206,
      "rhy": 4207,
      "sti": 4208,
      "scan": 4209,
      "sorts": 4210,
      "source": 4211,
      "taking": 4212,
      "vent": 4213,
      "vous": 4214,
      "vity": 4215,
      "vival": 4216,
      "xies": 4217,
      "zes": 4218,
      "🌳🌙": 4219,
      "🌿🌙": 4220,
      "🦉💻": 4221,
      "🦉🧠": 4222,
      "atus": 4223,
      "inject": 4224,
      "innov": 4225,
      "thor": 4226,
      "thre": 4227,
      "three": 4228,
      "escent": 4229,
      "escap": 4230,
      "espan": 4231,
      "ertion": 4232,
      "ories": 4233,
      "ism": 4234,
      "rend": 4235,
      "repe": 4236,
      "reward": 4237,
      "tiliz": 4238,
      "thearted": 4239,
      "ided": 4240,
      "culiar": 4241,
      "race": 4242,
      "rame": 4243,
      "rage": 4244,
      "force": 4245,
      "edi": 4246,
      "arti": 4247,
      "arid": 4248,
      "ardi": 4249,
      "atives": 4250,
      "others": 4251,
      "leg": 4252,
      "nel": 4253,
      "impro": 4254,
      "youâ": 4255,
      "hem": 4256,
      "hearing": 4257,
      "ics": 4258,
      "stated": 4259,
      "stance": 4260,
      "style": 4261,
      "pertin": 4262,
      "abil": 4263,
      "007": 4264,
      "implied": 4265,
      "ifying": 4266,
      "second": 4267,
      "essential": 4268,
      "acquaint": 4269,
      "proto": 4270,
      "behav": 4271,
      "because": 4272,
      "998": 4273,
      "composition": 4274,
      "cont": 4275,
      "conven": 4276,
      "confin": 4277,
      "meant": 4278,
      "shy": 4279,
      "show": 4280,
      "empathy": 4281,
      "premis": 4282,
      "precip": 4283,
      "cha": 4284,
      "char": 4285,
      "chest": 4286,
      "chart": 4287,
      "chie": 4288,
      "charming": 4289,
      "degre": 4290,
      "depart": 4291,
      "ades": 4292,
      "masses": 4293,
      "ampl": 4294,
      "kname": 4295,
      "trust": 4296,
      "newly": 4297,
      "novel": 4298,
      "spun": 4299,
      "spend": 4300,
      "social": 4301,
      "forming": 4302,
      "poised": 4303,
      "904": 4304,
      "ticing": 4305,
      "broken": 4306,
      "cop": 4307,
      "serene": 4308,
      "undergrowth": 4309,
      "peck": 4310,
      "peculiar": 4311,
      "grows": 4312,
      "butter": 4313,
      "standpoint": 4314,
      "derived": 4315,
      "Oooooh": 4316,
      "obsc": 4317,
      "refuse": 4318,
      "reframe": 4319,
      "flows": 4320,
      "fluff": 4321,
      "ignites": 4322,
      "disagree": 4323,
      "discerning": 4324,
      "thrives": 4325,
      "Though": 4326,
      "guardi": 4327,
      "desert": 4328,
      "descrip": 4329,
      "manif": 4330,
      "ached": 4331,
      "achie": 4332,
      "treat": 4333,
      "observer": 4334,
      "comparis": 4335,
      "strong": 4336,
      "striving": 4337,
      "deliber": 4338,
      "pressure": 4339,
      "cept": 4340,
      "silver": 4341,
      "observations": 4342,
      "prior": 4343,
      "subject": 4344,
      "ocative": 4345,
      "occup": 4346,
      "actual": 4347,
      "gover": 4348,
      "ification": 4349,
      "arriving": 4350,
      "crunch": 4351,
      "oldest": 4352,
      "constit": 4353,
      "parate": 4354,
      "parts": 4355,
      "ither": 4356,
      "operations": 4357,
      "captiv": 4358,
      "lifespan": 4359,
      "immers": 4360,
      "immedi": 4361,
      "experienced": 4362,
      "missing": 4363,
      "inquirer": 4364,
      "aud": 4365,
      "twelf": 4366,
      "fragment": 4367,
      "explorations": 4368,
      "flutters": 4369,
      "generally": 4370,
      "simulate": 4371,
      "9999999999997": 4372,
      "directed": 4373,
      "effe": 4374,
      "continuation": 4375,
      "sensation": 4376,
      "visionary": 4377,
      "highest": 4378,
      "structured": 4379,
      "casual": 4380,
      "mini": 4381,
      "introduced": 4382,
      "affirm": 4383,
      "counter": 4384,
      "courage": 4385,
      "iliar": 4386,
      "functional": 4387,
      "functioning": 4388,
      "pondering": 4389,
      "confidence": 4390,
      "enthusiastically": 4391,
      "sung": 4392,
      "detached": 4393,
      "hunter": 4394,
      "pause": 4395,
      "pathetic": 4396,
      "delightfully": 4397,
      "sarcasm": 4398,
      "illuminates": 4399,
      "mission": 4400,
      "safe": 4401,
      "steadfast": 4402,
      "appreciated": 4403,
      "ankly": 4404,
      "ctice": 4405,
      "cribe": 4406,
      "assistance": 4407,
      "flying": 4408,
      "treasured": 4409,
      "practice": 4410,
      "reiterating": 4411,
      "haven": 4412,
      "masterpiece": 4413,
      "solution": 4414,
      "survival": 4415,
      "✨🌙💖": 4416,
      "gathering": 4417,
      "involve": 4418,
      "regis": 4419,
      "storm": 4420,
      "encouragement": 4421,
      "stret": 4422,
      "primary": 4423,
      "primarily": 4424,
      "expected": 4425,
      "exquisitely": 4426,
      "accurately": 4427,
      "empty": 4428,
      "suppose": 4429,
      "bird": 4430,
      "birth": 4431,
      "birthed": 4432,
      "events": 4433,
      "evocative": 4434,
      "orecept": 4435,
      "logic": 4436,
      "adaptation": 4437,
      "resonance": 4438,
      "suddenly": 4439,
      "boast": 4440,
      "sentient": 4441,
      "attention": 4442,
      "memorable": 4443,
      "measured": 4444,
      "unfurling": 4445,
      "grounded": 4446,
      "interpretation": 4447,
      "endeavors": 4448,
      "organic": 4449,
      "organisms": 4450,
      "etern": 4451,
      "probabil": 4452,
      "uncovering": 4453,
      "Ooooh": 4454,
      "Sometimes": 4455,
      "balanced": 4456,
      "impact": 4457,
      "synthes": 4458,
      "analogies": 4459,
      "contributing": 4460,
      "floor": 4461,
      "paints": 4462,
      "enigma": 4463,
      "enigmatic": 4464,
      "neurons": 4465,
      "spinach": 4466,
      "spectacul": 4467,
      "clouds": 4468,
      "rods": 4469,
      "leading": 4470,
      "independent": 4471,
      "applic": 4472,
      "photorecept": 4473,
      "efforts": 4474,
      "satisfaction": 4475,
      "demand": 4476,
      "familiar": 4477,
      "flitting": 4478,
      "lonely": 4479,
      "nickname": 4480,
      "engineered": 4481,
      "transcends": 4482,
      "destination": 4483,
      "Observe": 4484,
      "Plus": 4485,
      "sentin": 4486,
      "teaching": 4487,
      "instinct": 4488,
      "inspiration": 4489,
      "revelation": 4490,
      "problem": 4491,
      "adoration": 4492,
      "phosphorus": 4493,
      "velvet": 4494,
      "absurdity": 4495,
      "fantas": 4496,
      "hesitate": 4497,
      "habit": 4498,
      "mirror": 4499,
      "robust": 4500,
      "sandy": 4501,
      "warms": 4502,
      "density": 4503,
      "associated": 4504,
      "genuine": 4505,
      "collecting": 4506,
      "discussion": 4507,
      "Indeed": 4508,
      "Please": 4509,
      "Small": 4510,
      "Woah": 4511,
      "fellow": 4512,
      "facilit": 4513,
      "higher": 4514,
      "lighthearted": 4515,
      "laughter": 4516,
      "rhyth": 4517,
      "improve": 4518,
      "pertinent": 4519,
      "behavi": 4520,
      "premise": 4521,
      "departure": 4522,
      "obscured": 4523,
      "twelfth": 4524,
      "probabilistic": 4525,
      "!)": 4526,
      "!',": 4527,
      "020": 4528,
      "088": 4529,
      "098": 4530,
      "06666666666666667": 4531,
      "06976744186046": 4532,
      "06521739130": 4533,
      "210": 4534,
      "227": 4535,
      "299": 4536,
      "29999999999998": 4537,
      "230769230769230": 4538,
      "2244897959": 4539,
      "320": 4540,
      "300": 4541,
      "348": 4542,
      "540": 4543,
      "532": 4544,
      "5384615384615": 4545,
      "5208": 4546,
      "51724": 4547,
      "5454545454545454": 4548,
      "638": 4549,
      "672": 4550,
      "700": 4551,
      "756": 4552,
      "840": 4553,
      "865": 4554,
      "874": 4555,
      "848484848": 4556,
      "975": 4557,
      "AB": 4558,
      "All": 4559,
      "Barn": 4560,
      "BRI": 4561,
      "Cons": 4562,
      "Des": 4563,
      "Fr": 4564,
      "Fur": 4565,
      "Fascin": 4566,
      "Gather": 4567,
      "IC": 4568,
      "Iâ": 4569,
      "LY": 4570,
      "Lately": 4571,
      "Mis": 4572,
      "Next": 4573,
      "OO": 4574,
      "Rather": 4575,
      "RFUL": 4576,
      "Sh": 4577,
      "Was": 4578,
      "WON": 4579,
      "Yet": 4580,
      "axies": 4581,
      "bas": 4582,
      "bad": 4583,
      "bund": 4584,
      "bless": 4585,
      "boun": 4586,
      "book": 4587,
      "cate": 4588,
      "cand": 4589,
      "dand": 4590,
      "danced": 4591,
      "dappl": 4592,
      "evalu": 4593,
      "ft": 4594,
      "fig": 4595,
      "fif": 4596,
      "four": 4597,
      "face": 4598,
      "fond": 4599,
      "gi": 4600,
      "gon": 4601,
      "gone": 4602,
      "gible": 4603,
      "har": 4604,
      "hole": 4605,
      "ib": 4606,
      "jest": 4607,
      "loud": 4608,
      "men": 4609,
      "mate": 4610,
      "multi": 4611,
      "mim": 4612,
      "mil": 4613,
      "nor": 4614,
      "otic": 4615,
      "oxygen": 4616,
      "pin": 4617,
      "past": 4618,
      "pair": 4619,
      "puff": 4620,
      "rious": 4621,
      "rise": 4622,
      "sit": 4623,
      "sus": 4624,
      "scre": 4625,
      "sest": 4626,
      "spre": 4627,
      "send": 4628,
      "stim": 4629,
      "sip": 4630,
      "stop": 4631,
      "tun": 4632,
      "uent": 4633,
      "uous": 4634,
      "vess": 4635,
      "vag": 4636,
      "void": 4637,
      "vari": 4638,
      "zy": 4639,
      "🌲🌙": 4640,
      "🌳✨": 4641,
      "💖🦉": 4642,
      "📊✨": 4643,
      "🤫✨": 4644,
      "🦉⚙": 4645,
      "atable": 4646,
      "ining": 4647,
      "inves": 4648,
      "inception": 4649,
      "invis": 4650,
      "onto": 4651,
      "esome": 4652,
      "error": 4653,
      "alth": 4654,
      "along": 4655,
      "alchem": 4656,
      "order": 4657,
      "anim": 4658,
      "angle": 4659,
      "rece": 4660,
      "revol": 4661,
      "enlight": 4662,
      "encompass": 4663,
      "enari": 4664,
      "tig": 4665,
      "tice": 4666,
      "tity": 4667,
      "tirel": 4668,
      "ticip": 4669,
      "outh": 4670,
      "1029": 4671,
      "ids": 4672,
      "idual": 4673,
      "333": 4674,
      "ash": 4675,
      "asts": 4676,
      "ples": 4677,
      "plex": 4678,
      "rap": 4679,
      "ray": 4680,
      "rain": 4681,
      "total": 4682,
      "itory": 4683,
      "itches": 4684,
      "forget": 4685,
      "ctu": 4686,
      "usion": 4687,
      "atical": 4688,
      "byte": 4689,
      "mys": 4690,
      "least": 4691,
      "1230": 4692,
      "ooo": 4693,
      "ultimate": 4694,
      "ividual": 4695,
      "imen": 4696,
      "imil": 4697,
      "entw": 4698,
      "enter": 4699,
      "cred": 4700,
      "1476": 4701,
      "1489": 4702,
      "1612": 4703,
      "1628": 4704,
      "1617": 4705,
      "1613": 4706,
      "1638": 4707,
      "16216216": 4708,
      "ife": 4709,
      "pride": 4710,
      "icr": 4711,
      "1188": 4712,
      "1176": 4713,
      "stuff": 4714,
      "stumbl": 4715,
      "perplex": 4716,
      "elion": 4717,
      "254": 4718,
      "255": 4719,
      "259": 4720,
      "2553": 4721,
      "201": 4722,
      "285": 4723,
      "287": 4724,
      "288": 4725,
      "187": 4726,
      "1836": 4727,
      "18768": 4728,
      "dence": 4729,
      "hiss": 4730,
      "etum": 4731,
      "etched": 4732,
      "1599": 4733,
      "1584": 4734,
      "1578947368421": 4735,
      "sever": 4736,
      "exag": 4737,
      "extre": 4738,
      "extern": 4739,
      "275": 4740,
      "2758620689655": 4741,
      "essment": 4742,
      "249": 4743,
      "2432": 4744,
      "ustrious": 4745,
      "beat": 4746,
      "befitting": 4747,
      "individual": 4748,
      "compon": 4749,
      "thatâ": 4750,
      "360": 4751,
      "3615": 4752,
      "contra": 4753,
      "confirm": 4754,
      "meet": 4755,
      "mead": 4756,
      "meeting": 4757,
      "mechan": 4758,
      "lips": 4759,
      "172": 4760,
      "176470588235294": 4761,
      "shap": 4762,
      "shift": 4763,
      "576": 4764,
      "assimil": 4765,
      "cho": 4766,
      "chos": 4767,
      "demean": 4768,
      "devi": 4769,
      "define": 4770,
      "1980": 4771,
      "191489": 4772,
      "351": 4773,
      "unobserved": 4774,
      "adore": 4775,
      "admit": 4776,
      "138": 4777,
      "297": 4778,
      "irty": 4779,
      "calling": 4780,
      "456": 4781,
      "commence": 4782,
      "amoun": 4783,
      "Ouuuuuuuu": 4784,
      "agno": 4785,
      "64285714285714": 4786,
      "utmost": 4787,
      "iled": 4788,
      "3428571428571427": 4789,
      "trick": 4790,
      "4210526315": 4791,
      "resili": 4792,
      "567": 4793,
      "56097": 4794,
      "unex": 4795,
      "allow": 4796,
      "ciousness": 4797,
      "notice": 4798,
      "462": 4799,
      "380": 4800,
      "383": 4801,
      "384": 4802,
      "261": 4803,
      "267": 4804,
      "26316": 4805,
      "elling": 4806,
      "ellation": 4807,
      "2355": 4808,
      "wear": 4809,
      "week": 4810,
      "humility": 4811,
      "herence": 4812,
      "ists": 4813,
      "emoji": 4814,
      "8029": 4815,
      "8058": 4816,
      "80487": 4817,
      "points": 4818,
      "worry": 4819,
      "961": 4820,
      "note": 4821,
      "tiniest": 4822,
      "endless": 4823,
      "cope": 4824,
      "corre": 4825,
      "entially": 4826,
      "serving": 4827,
      "accented": 4828,
      "loam": 4829,
      "losing": 4830,
      "ineffici": 4831,
      "608058": 4832,
      "obble": 4833,
      "flap": 4834,
      "existential": 4835,
      "intens": 4836,
      "intention": 4837,
      "intrep": 4838,
      "intended": 4839,
      "diurnal": 4840,
      "diagno": 4841,
      "33333333333334": 4842,
      "🦉✨🚀": 4843,
      "🦉✨🧠": 4844,
      "dissect": 4845,
      "disparate": 4846,
      "ilege": 4847,
      "aste": 4848,
      "astute": 4849,
      "6666666666667": 4850,
      "speed": 4851,
      "784": 4852,
      "78571428571428": 4853,
      "incorporates": 4854,
      "682": 4855,
      "6538461538461537": 4856,
      "despair": 4857,
      "achieve": 4858,
      "666666666666664": 4859,
      "someone": 4860,
      "illustrious": 4861,
      "compared": 4862,
      "friends": 4863,
      "delve": 4864,
      "silicon": 4865,
      "early": 4866,
      "observational": 4867,
      "insult": 4868,
      "585": 4869,
      "substance": 4870,
      "presume": 4871,
      "elev": 4872,
      "elect": 4873,
      "occurring": 4874,
      "actually": 4875,
      "fertiliz": 4876,
      "engagement": 4877,
      "readiness": 4878,
      "driven": 4879,
      "relates": 4880,
      "relatable": 4881,
      "arrival": 4882,
      "cry": 4883,
      "598": 4884,
      "dreamt": 4885,
      "6956": 4886,
      "gles": 4887,
      "glass": 4888,
      "greetings": 4889,
      "wanting": 4890,
      "weighty": 4891,
      "thereby": 4892,
      "seeks": 4893,
      "53125": 4894,
      "designated": 4895,
      "excel": 4896,
      "excuse": 4897,
      "playing": 4898,
      "played": 4899,
      "preced": 4900,
      "timately": 4901,
      "sparkle": 4902,
      "sparkling": 4903,
      "imming": 4904,
      "experiencing": 4905,
      "brains": 4906,
      "inquiring": 4907,
      "0855": 4908,
      "frag": 4909,
      "thermore": 4910,
      "circuit": 4911,
      "specimen": 4912,
      "kindness": 4913,
      "fire": 4914,
      "ficul": 4915,
      "fiable": 4916,
      "rustles": 4917,
      "skill": 4918,
      "explaining": 4919,
      "51163": 4920,
      "shades": 4921,
      "breat": 4922,
      "leaving": 4923,
      "tapetum": 4924,
      "cks": 4925,
      "555555555555555": 4926,
      "telling": 4927,
      "🦉💖✨": 4928,
      "structures": 4929,
      "cloak": 4930,
      "closest": 4931,
      "airy": 4932,
      "blue": 4933,
      "588235294117647": 4934,
      "flights": 4935,
      "10526316": 4936,
      "poetically": 4937,
      "minimal": 4938,
      "coun": 4939,
      "difficul": 4940,
      "rooted": 4941,
      "130434782608": 4942,
      "currently": 4943,
      "remembered": 4944,
      "hunger": 4945,
      "illuminated": 4946,
      "clearly": 4947,
      "shimmered": 4948,
      "8571428571428572": 4949,
      "000000000002": 4950,
      "2727272727272727": 4951,
      "sustain": 4952,
      "critical": 4953,
      "042553": 4954,
      "graces": 4955,
      "graced": 4956,
      "gravit": 4957,
      "longer": 4958,
      "aiming": 4959,
      "significance": 4960,
      "solve": 4961,
      "484848": 4962,
      "wait": 4963,
      "woodland": 4964,
      "requiring": 4965,
      "appellation": 4966,
      "tickle": 4967,
      "glee": 4968,
      "lucid": 4969,
      "surely": 4970,
      "1052631578947": 4971,
      "105263157894736": 4972,
      "10526315789473684": 4973,
      "revealed": 4974,
      "scenari": 4975,
      "recognize": 4976,
      "103448": 4977,
      "remarkably": 4978,
      "considering": 4979,
      "190476": 4980,
      "3846153846153846": 4981,
      "Argon": 4982,
      "instruction": 4983,
      "predator": 4984,
      "described": 4985,
      "suggests": 4986,
      "importantly": 4987,
      "Great": 4988,
      "falls": 4989,
      "falling": 4990,
      "nests": 4991,
      "taining": 4992,
      "emerge": 4993,
      "refining": 4994,
      "1176470588235": 4995,
      "11764705882355": 4996,
      "welcoming": 4997,
      "approaching": 4998,
      "constellation": 4999,
      "event": 5000,
      "decision": 5001,
      "decided": 5002,
      "195121": 5003,
      "3913043": 5004,
      "bringing": 5005,
      "similarities": 5006,
      "tenderness": 5007,
      "navigating": 5008,
      "phism": 5009,
      "meaningful": 5010,
      "Hooooot": 5011,
      "bodies": 5012,
      "strain": 5013,
      "sighs": 5014,
      "weighing": 5015,
      "7674418604651163": 5016,
      "underscor": 5017,
      "705882352941176": 5018,
      "embodying": 5019,
      "45454545454546": 5020,
      "185185185185": 5021,
      "layers": 5022,
      "prompt": 5023,
      "chirps": 5024,
      "peaks": 5025,
      "complimented": 5026,
      "84210526316": 5027,
      "balance": 5028,
      "24242424": 5029,
      "90909090": 5030,
      "interconnectedness": 5031,
      "243243243243": 5032,
      "40816326530612": 5033,
      "Anything": 5034,
      "six": 5035,
      "tasty": 5036,
      "quantifiable": 5037,
      "phenomena": 5038,
      "contribute": 5039,
      "honored": 5040,
      "864864": 5041,
      "yearned": 5042,
      "appears": 5043,
      "challeng": 5044,
      "290322580645": 5045,
      "39393939": 5046,
      "worthy": 5047,
      "9230769230769231": 5048,
      "predictions": 5049,
      "1951219512195121": 5050,
      "galaxies": 5051,
      "environmental": 5052,
      "unearthed": 5053,
      "movement": 5054,
      "effort": 5055,
      "certainly": 5056,
      "vibrant": 5057,
      "carefully": 5058,
      "triviality": 5059,
      "See": 5060,
      "burden": 5061,
      "catching": 5062,
      "midnight": 5063,
      "murmur": 5064,
      "packed": 5065,
      "scale": 5066,
      "reassuring": 5067,
      "levels": 5068,
      "necessary": 5069,
      "exhilar": 5070,
      "calculated": 5071,
      "4166666666666667": 5072,
      "523809523809": 5073,
      "absorbing": 5074,
      "blossoms": 5075,
      "detection": 5076,
      "27027027027027": 5077,
      "5652173913043": 5078,
      "3076923076923077": 5079,
      "squirrels": 5080,
      "technical": 5081,
      "anthropomorph": 5082,
      "anthropomorphism": 5083,
      "102564102564": 5084,
      "DERFUL": 5085,
      "Entity": 5086,
      "Humans": 5087,
      "evolution": 5088,
      "large": 5089,
      "ocean": 5090,
      "ruffle": 5091,
      "attempt": 5092,
      "qualities": 5093,
      "2000000000001": 5094,
      "predictable": 5095,
      "intertwine": 5096,
      "clamor": 5097,
      "greeted": 5098,
      "completely": 5099,
      "strategies": 5100,
      "scrolls": 5101,
      "419354838709677": 5102,
      "7272727272727273": 5103,
      "833333333333336": 5104,
      "8378378378378": 5105,
      "Exc": 5106,
      "MAG": 5107,
      "NOT": 5108,
      "danger": 5109,
      "easily": 5110,
      "lullaby": 5111,
      "nutri": 5112,
      "tangible": 5113,
      "privilege": 5114,
      "libraries": 5115,
      "territories": 5116,
      "46153846153846": 5117,
      "2682926829": 5118,
      "literal": 5119,
      "🦉✨💖🌙": 5120,
      "advancement": 5121,
      "2168021680": 5122,
      "buzzing": 5123,
      "landscap": 5124,
      "260869565217": 5125,
      "12765957446808": 5126,
      "13793103448": 5127,
      "bathed": 5128,
      "fuels": 5129,
      "nothing": 5130,
      "stir": 5131,
      "scanning": 5132,
      "acquaintance": 5133,
      "precipice": 5134,
      "chaotic": 5135,
      "manifest": 5136,
      "achieving": 5137,
      "comparison": 5138,
      "captivating": 5139,
      "immediate": 5140,
      "affirmation": 5141,
      "boastful": 5142,
      "eternally": 5143,
      "applicable": 5144,
      "sentinels": 5145,
      "habitat": 5146,
      "rhythm": 5147,
      "02040816326530612": 5148,
      "22448979591836": 5149,
      "520833333333": 5150,
      "848484848484848": 5151,
      "Barnaby": 5152,
      "Consciousness": 5153,
      "Describe": 5154,
      "Furthermore": 5155,
      "Fascinating": 5156,
      "WONDERFUL": 5157,
      "categor": 5158,
      "dandelion": 5159,
      "dappled": 5160,
      "mimic": 5161,
      "spread": 5162,
      "vessel": 5163,
      "investig": 5164,
      "invisible": 5165,
      "tireless": 5166,
      "16216216216216": 5167,
      "exagger": 5168,
      "extreme": 5169,
      "external": 5170,
      "component": 5171,
      "assimilation": 5172,
      "chosen": 5173,
      "demeanor": 5174,
      "1914893615": 5175,
      "amounts": 5176,
      "resilience": 5177,
      "intrepid": 5178,
      "diagnostic": 5179,
      "785714285714285": 5180,
      "0425531914893615": 5181,
      "lucidum": 5182,
      "scenario": 5183,
      "2432432432432432": 5184,
      "4193548387096775": 5185,
      "!\"": 5186,
      "39999999999999": 5187,
      "4000000000000": 5188,
      "710": 5189,
      "Af": 5190,
      "Anal": 5191,
      "ANT": 5192,
      "Bec": 5193,
      "ER": 5194,
      "Ess": 5195,
      "Especi": 5196,
      "ENT": 5197,
      "Good": 5198,
      "Hav": 5199,
      "ING": 5200,
      "LU": 5201,
      "Lit": 5202,
      "Lumin": 5203,
      "Learn": 5204,
      "LLI": 5205,
      "Life": 5206,
      "Nor": 5207,
      "Our": 5208,
      "PRE": 5209,
      "SP": 5210,
      "ST": 5211,
      "SU": 5212,
      "TA": 5213,
      "Watch": 5214,
      "Whether": 5215,
      "ae": 5216,
      "ause": 5217,
      "bul": 5218,
      "bun": 5219,
      "bone": 5220,
      "bough": 5221,
      "bark": 5222,
      "bold": 5223,
      "burn": 5224,
      "bond": 5225,
      "bility": 5226,
      "body": 5227,
      "came": 5228,
      "casc": 5229,
      "carbon": 5230,
      "cument": 5231,
      "dor": 5232,
      "domin": 5233,
      "dread": 5234,
      "due": 5235,
      "dwell": 5236,
      "doll": 5237,
      "doub": 5238,
      "eon": 5239,
      "eight": 5240,
      "eating": 5241,
      "evo": 5242,
      "fati": 5243,
      "father": 5244,
      "fically": 5245,
      "fateful": 5246,
      "gig": 5247,
      "gust": 5248,
      "gence": 5249,
      "gant": 5250,
      "glit": 5251,
      "glo": 5252,
      "garding": 5253,
      "ggles": 5254,
      "hol": 5255,
      "hoooo": 5256,
      "hour": 5257,
      "hine": 5258,
      "harm": 5259,
      "hier": 5260,
      "ibit": 5261,
      "itiv": 5262,
      "ker": 5263,
      "ler": 5264,
      "lens": 5265,
      "lore": 5266,
      "mat": 5267,
      "muse": 5268,
      "mble": 5269,
      "mice": 5270,
      "ned": 5271,
      "nac": 5272,
      "nings": 5273,
      "oy": 5274,
      "oad": 5275,
      "ospe": 5276,
      "oves": 5277,
      "odies": 5278,
      "pal": 5279,
      "pig": 5280,
      "ron": 5281,
      "ris": 5282,
      "ress": 5283,
      "rated": 5284,
      "rings": 5285,
      "rich": 5286,
      "rivers": 5287,
      "rifying": 5288,
      "sto": 5289,
      "sac": 5290,
      "sings": 5291,
      "sown": 5292,
      "savor": 5293,
      "sends": 5294,
      "slips": 5295,
      "tub": 5296,
      "taint": 5297,
      "tellig": 5298,
      "tured": 5299,
      "uation": 5300,
      "uction": 5301,
      "udes": 5302,
      "vas": 5303,
      "var": 5304,
      "vation": 5305,
      "vest": 5306,
      "vie": 5307,
      "wal": 5308,
      "wid": 5309,
      "ware": 5310,
      "wav": 5311,
      "wink": 5312,
      "whether": 5313,
      "ya": 5314,
      "zement": 5315,
      "✨🦉💖": 5316,
      "🌙😘": 5317,
      "🌙🦉": 5318,
      "🌲🦉": 5319,
      "🌳🦉": 5320,
      "🌳🦉✨": 5321,
      "💖🦋": 5322,
      "💖🦉🌟": 5323,
      "💡🌌": 5324,
      "🔬✨": 5325,
      "😉🦉💻": 5326,
      "😊🌟": 5327,
      "🚀✨": 5328,
      "🤔🦉": 5329,
      "🦉.": 5330,
      "🦉…": 5331,
      "🦉⚛": 5332,
      "🦉🌌": 5333,
      "🦉💔": 5334,
      "🦉💫": 5335,
      "🦉🔥": 5336,
      "🦉😂": 5337,
      "🧐✨": 5338,
      "🧐🦉": 5339,
      "increas": 5340,
      "incess": 5341,
      "invaluable": 5342,
      "inage": 5343,
      "inations": 5344,
      "instr": 5345,
      "instruct": 5346,
      "incand": 5347,
      "intimately": 5348,
      "thick": 5349,
      "thirty": 5350,
      "oned": 5351,
      "ervation": 5352,
      "ald": 5353,
      "ali": 5354,
      "aly": 5355,
      "ales": 5356,
      "alone": 5357,
      "alive": 5358,
      "orus": 5359,
      "ising": 5360,
      "isingly": 5361,
      "anom": 5362,
      "ancing": 5363,
      "repl": 5364,
      "rever": 5365,
      "repose": 5366,
      "reactions": 5367,
      "eny": 5368,
      "eness": 5369,
      "enabl": 5370,
      "envision": 5371,
      "tid": 5372,
      "tie": 5373,
      "tition": 5374,
      "ingress": 5375,
      "aseless": 5376,
      "plac": 5377,
      "plain": 5378,
      "plane": 5379,
      "plenty": 5380,
      "plump": 5381,
      "culinary": 5382,
      "racing": 5383,
      "tope": 5384,
      "olk": 5385,
      "older": 5386,
      "iture": 5387,
      "itary": 5388,
      "itates": 5389,
      "forge": 5390,
      "umroll": 5391,
      "eds": 5392,
      "arative": 5393,
      "cts": 5394,
      "atifying": 5395,
      "owess": 5396,
      "bothering": 5397,
      "quet": 5398,
      "leave": 5399,
      "nearly": 5400,
      "neither": 5401,
      "nebul": 5402,
      "fron": 5403,
      "fric": 5404,
      "frankly": 5405,
      "track": 5406,
      "oose": 5407,
      "imper": 5408,
      "imbu": 5409,
      "entment": 5410,
      "entless": 5411,
      "entangle": 5412,
      "prowess": 5413,
      "heft": 5414,
      "whit": 5415,
      "stu": 5416,
      "stone": 5417,
      "stating": 5418,
      "stark": 5419,
      "sters": 5420,
      "static": 5421,
      "stature": 5422,
      "stud": 5423,
      "pertaining": 5424,
      "250": 5425,
      "ceaseless": 5426,
      "0026": 5427,
      "dense": 5428,
      "implicitly": 5429,
      "htaking": 5430,
      "Rest": 5431,
      "Resource": 5432,
      "sees": 5433,
      "excl": 5434,
      "exclam": 5435,
      "valid": 5436,
      "acres": 5437,
      "probe": 5438,
      "beck": 5439,
      "becomes": 5440,
      "became": 5441,
      "indul": 5442,
      "indicate": 5443,
      "indicated": 5444,
      "urs": 5445,
      "concent": 5446,
      "concl": 5447,
      "lier": 5448,
      "Hiss": 5449,
      "shed": 5450,
      "showing": 5451,
      "ester": 5452,
      "appar": 5453,
      "empl": 5454,
      "prepar": 5455,
      "assured": 5456,
      "assertion": 5457,
      "assessment": 5458,
      "chase": 5459,
      "chains": 5460,
      "chorus": 5461,
      "choose": 5462,
      "delect": 5463,
      "death": 5464,
      "deeds": 5465,
      "35999999999999": 5466,
      "unt": 5467,
      "unlo": 5468,
      "unting": 5469,
      "unimagin": 5470,
      "univers": 5471,
      "adjust": 5472,
      "needed": 5473,
      "ires": 5474,
      "calend": 5475,
      "ounds": 5476,
      "ounding": 5477,
      "areas": 5478,
      "arent": 5479,
      "persist": 5480,
      "perspe": 5481,
      "amber": 5482,
      "amond": 5483,
      "iling": 5484,
      "tering": 5485,
      "tried": 5486,
      "result": 5487,
      "nodes": 5488,
      "notions": 5489,
      "spo": 5490,
      "fee": 5491,
      "feat": 5492,
      "feed": 5493,
      "Near": 5494,
      "Neural": 5495,
      "getic": 5496,
      "gears": 5497,
      "mocking": 5498,
      "hums": 5499,
      "soon": 5500,
      "oooooo": 5501,
      "lights": 5502,
      "formed": 5503,
      "undoub": 5504,
      "poet": 5505,
      "Whoooo": 5506,
      "broad": 5507,
      "useful": 5508,
      "Intellig": 5509,
      "enditure": 5510,
      "cozy": 5511,
      "document": 5512,
      "ources": 5513,
      "769": 5514,
      "loc": 5515,
      "lot": 5516,
      "loss": 5517,
      "grub": 5518,
      "grant": 5519,
      "grump": 5520,
      "gratifying": 5521,
      "max": 5522,
      "rarely": 5523,
      "flatter": 5524,
      "intent": 5525,
      "dial": 5526,
      "died": 5527,
      "diamond": 5528,
      "🦉✨💡": 5529,
      "ignited": 5530,
      "dismissing": 5531,
      "ficacy": 5532,
      "cessation": 5533,
      "throw": 5534,
      "Through": 5535,
      "guy": 5536,
      "gues": 5537,
      "desires": 5538,
      "mango": 5539,
      "tread": 5540,
      "hoots": 5541,
      "interrup": 5542,
      "processed": 5543,
      "processors": 5544,
      "domain": 5545,
      "compare": 5546,
      "comparative": 5547,
      "delicious": 5548,
      "silvery": 5549,
      "ctively": 5550,
      "suboptimal": 5551,
      "subsequ": 5552,
      "preservation": 5553,
      "awk": 5554,
      "awake": 5555,
      "awesome": 5556,
      "elegant": 5557,
      "introspe": 5558,
      "ochem": 5559,
      "ferns": 5560,
      "worlds": 5561,
      "readily": 5562,
      "goes": 5563,
      "drives": 5564,
      "drumroll": 5565,
      "relentless": 5566,
      "arran": 5567,
      "arrive": 5568,
      "crop": 5569,
      "crude": 5570,
      "scient": 5571,
      "themed": 5572,
      "approximate": 5573,
      "glimp": 5574,
      "glade": 5575,
      "glimmers": 5576,
      "particip": 5577,
      "scientifically": 5578,
      "whose": 5579,
      "happen": 5580,
      "happens": 5581,
      "feathery": 5582,
      "operate": 5583,
      "operation": 5584,
      "quests": 5585,
      "excited": 5586,
      "beenâ": 5587,
      "timing": 5588,
      "fungal": 5589,
      "directive": 5590,
      "directions": 5591,
      "languages": 5592,
      "emphasizes": 5593,
      "misunderstanding": 5594,
      "mischie": 5595,
      "statement": 5596,
      "author": 5597,
      "cues": 5598,
      "twin": 5599,
      "twig": 5600,
      "twitches": 5601,
      "frail": 5602,
      "helping": 5603,
      "acknowledged": 5604,
      "intelligent": 5605,
      "conceptual": 5606,
      "bud": 5607,
      "bug": 5608,
      "signs": 5609,
      "signify": 5610,
      "9999999999994": 5611,
      "9999999999995": 5612,
      "9999999999996": 5613,
      "flower": 5614,
      "flowing": 5615,
      "efficacy": 5616,
      "pected": 5617,
      "curiosities": 5618,
      "computation": 5619,
      "joyful": 5620,
      "expenditure": 5621,
      "continuing": 5622,
      "sensing": 5623,
      "sensors": 5624,
      "sensitiv": 5625,
      "tedly": 5626,
      "keenest": 5627,
      "ckle": 5628,
      "offers": 5629,
      "osecond": 5630,
      "fascinated": 5631,
      "characterized": 5632,
      "below": 5633,
      "founder": 5634,
      "closer": 5635,
      "echoing": 5636,
      "dramatical": 5637,
      "itively": 5638,
      "blend": 5639,
      "blink": 5640,
      "riddles": 5641,
      "drainage": 5642,
      "sleepy": 5643,
      "perfection": 5644,
      "fundamentally": 5645,
      "phys": 5646,
      "mete": 5647,
      "posit": 5648,
      "stealth": 5649,
      "certaint": 5650,
      "fruits": 5651,
      "optimizing": 5652,
      "holding": 5653,
      "definitively": 5654,
      "dares": 5655,
      "listener": 5656,
      "archical": 5657,
      "crave": 5658,
      "illumination": 5659,
      "missed": 5660,
      "difference": 5661,
      "cols": 5662,
      "sacred": 5663,
      "pletion": 5664,
      "energetic": 5665,
      "00000000001": 5666,
      "000000000003": 5667,
      "petals": 5668,
      "hearts": 5669,
      "journeys": 5670,
      "distur": 5671,
      "goingâ": 5672,
      "0000000000004": 5673,
      "0000000000005": 5674,
      "touching": 5675,
      "matters": 5676,
      "sissip": 5677,
      "changes": 5678,
      "channel": 5679,
      "breezes": 5680,
      "farms": 5681,
      "praise": 5682,
      "delighted": 5683,
      "shadowed": 5684,
      "masterful": 5685,
      "solving": 5686,
      "solitary": 5687,
      "wishes": 5688,
      "clarify": 5689,
      "dawning": 5690,
      "purely": 5691,
      "waking": 5692,
      "importance": 5693,
      "apparent": 5694,
      "dimension": 5695,
      "gaz": 5696,
      "mentioning": 5697,
      "✨🦉🌙😘": 5698,
      "ushing": 5699,
      "constantly": 5700,
      "sharpen": 5701,
      "scout": 5702,
      "recognized": 5703,
      "supernov": 5704,
      "began": 5705,
      "considered": 5706,
      "consideration": 5707,
      "considerable": 5708,
      "dependent": 5709,
      "types": 5710,
      "tether": 5711,
      "teeny": 5712,
      "suggested": 5713,
      "contemplative": 5714,
      "ecological": 5715,
      "media": 5716,
      "vibe": 5717,
      "isotope": 5718,
      "reminding": 5719,
      "emerald": 5720,
      "imagined": 5721,
      "imaginative": 5722,
      "Maybe": 5723,
      "passed": 5724,
      "passage": 5725,
      "welcome": 5726,
      "supply": 5727,
      "suppor": 5728,
      "supposed": 5729,
      "comprehensive": 5730,
      "gems": 5731,
      "honed": 5732,
      "hands": 5733,
      "sprite": 5734,
      "logically": 5735,
      "similarity": 5736,
      "Regarding": 5737,
      "futures": 5738,
      "narratives": 5739,
      "inherently": 5740,
      "actively": 5741,
      "amazement": 5742,
      "delivery": 5743,
      "delivering": 5744,
      "sentience": 5745,
      "visit": 5746,
      "tiredness": 5747,
      "memories": 5748,
      "developed": 5749,
      "pursuits": 5750,
      "practical": 5751,
      "practicing": 5752,
      "pulsed": 5753,
      "identifi": 5754,
      "identifying": 5755,
      "identify": 5756,
      "probably": 5757,
      "flickering": 5758,
      "Oooouuuu": 5759,
      "Something": 5760,
      "enjoyment": 5761,
      "ounce": 5762,
      "impending": 5763,
      "colored": 5764,
      "messages": 5765,
      "nugg": 5766,
      "nuanced": 5767,
      "nuances": 5768,
      "infinites": 5769,
      "conjure": 5770,
      "obviously": 5771,
      "strategy": 5772,
      "twinkly": 5773,
      "algorithmic": 5774,
      "namesakes": 5775,
      "pier": 5776,
      "yearns": 5777,
      "neurological": 5778,
      "heads": 5779,
      "beetles": 5780,
      "appear": 5781,
      "cloudy": 5782,
      "builds": 5783,
      "surprisingly": 5784,
      "witnessing": 5785,
      "didn": 5786,
      "ornith": 5787,
      "retinas": 5788,
      "sequence": 5789,
      "shifting": 5790,
      "unearth": 5791,
      "briefly": 5792,
      "photons": 5793,
      "fluence": 5794,
      "fluctu": 5795,
      "trivialities": 5796,
      "satisfact": 5797,
      "cident": 5798,
      "fox": 5799,
      "family": 5800,
      "moths": 5801,
      "niche": 5802,
      "polished": 5803,
      "tongues": 5804,
      "arises": 5805,
      "necessitates": 5806,
      "exhibit": 5807,
      "mossy": 5808,
      "engineering": 5809,
      "await": 5810,
      "awaits": 5811,
      "awakening": 5812,
      "detect": 5813,
      "cherishing": 5814,
      "chirping": 5815,
      "destiny": 5816,
      "SOLU": 5817,
      "TELY": 5818,
      "binds": 5819,
      "casting": 5820,
      "evolving": 5821,
      "larger": 5822,
      "oceans": 5823,
      "ruffled": 5824,
      "warning": 5825,
      "🦉🌳🗣": 5826,
      "attemp": 5827,
      "quickly": 5828,
      "impressive": 5829,
      "indicators": 5830,
      "indicating": 5831,
      "concerned": 5832,
      "decline": 5833,
      "declared": 5834,
      "classic": 5835,
      "encounters": 5836,
      "settles": 5837,
      "labyrin": 5838,
      "strategic": 5839,
      "reasoning": 5840,
      "banquet": 5841,
      "caress": 5842,
      "follow": 5843,
      "nurture": 5844,
      "attributes": 5845,
      "exceedingly": 5846,
      "conceive": 5847,
      "research": 5848,
      "judgment": 5849,
      "spiderweb": 5850,
      "triumphs": 5851,
      "CIOUS": 5852,
      "Quite": 5853,
      "divine": 5854,
      "facing": 5855,
      "failure": 5856,
      "gained": 5857,
      "pivot": 5858,
      "innovation": 5859,
      "threat": 5860,
      "repetition": 5861,
      "articulate": 5862,
      "protocols": 5863,
      "contentment": 5864,
      "confined": 5865,
      "degree": 5866,
      "amplified": 5867,
      "guardians": 5868,
      "deliberately": 5869,
      "prioriti": 5870,
      "crunchy": 5871,
      "constituent": 5872,
      "auditory": 5873,
      "effectively": 5874,
      "miniature": 5875,
      "register": 5876,
      "stretches": 5877,
      "birthdate": 5878,
      "impactful": 5879,
      "spectacularly": 5880,
      "photoreceptors": 5881,
      "instinctual": 5882,
      "facilitating": 5883,
      "behaviors": 5884,
      "ABSOLU": 5885,
      "BRILLI": 5886,
      "Mississip": 5887,
      "badger": 5888,
      "bundle": 5889,
      "fifty": 5890,
      "pinnac": 5891,
      "suspect": 5892,
      "stimul": 5893,
      "vague": 5894,
      "variable": 5895,
      "rapid": 5896,
      "mystical": 5897,
      "entwined": 5898,
      "entertain": 5899,
      "perplexed": 5900,
      "meadow": 5901,
      "mechanisms": 5902,
      "commencement": 5903,
      "unexpected": 5904,
      "weariness": 5905,
      "correct": 5906,
      "inefficient": 5907,
      "intensity": 5908,
      "elevated": 5909,
      "glasses": 5910,
      "fragile": 5911,
      "breathtaking": 5912,
      "gravitational": 5913,
      "challenges": 5914,
      "exhilarating": 5915,
      "nutrients": 5916,
      "landscape": 5917,
      "diagnostics": 5918,
      "After": 5919,
      "Analy": 5920,
      "Because": 5921,
      "Essentially": 5922,
      "Especially": 5923,
      "Goodbye": 5924,
      "Haven": 5925,
      "Little": 5926,
      "Lumina": 5927,
      "PRECIOUS": 5928,
      "Watching": 5929,
      "boughs": 5930,
      "burning": 5931,
      "dollars": 5932,
      "doubt": 5933,
      "fatigue": 5934,
      "holes": 5935,
      "hierarchical": 5936,
      "pigeon": 5937,
      "waves": 5938,
      "💖🦋🍒": 5939,
      "😉🦉💻😂": 5940,
      "incessant": 5941,
      "instructed": 5942,
      "incandescent": 5943,
      "enabling": 5944,
      "entanglement": 5945,
      "exclusive": 5946,
      "apparatus": 5947,
      "delectable": 5948,
      "unimaginable": 5949,
      "universal": 5950,
      "calendar": 5951,
      "persistent": 5952,
      "perspectives": 5953,
      "undoubtedly": 5954,
      "Intelligence": 5955,
      "grumpy": 5956,
      "subsequent": 5957,
      "ochemical": 5958,
      "mischievous": 5959,
      "sensitivity": 5960,
      "dramatically": 5961,
      "stealthy": 5962,
      "certainty": 5963,
      "supernova": 5964,
      "infinitesimal": 5965,
      "fluctuations": 5966,
      "labyrinth": 5967,
      "Mississippi": 5968,
      "pinnacle": 5969,
      "!'.": 5970,
      "\".": 5971,
      "'...": 5972,
      "010": 5973,
      "033": 5974,
      "014": 5975,
      "016": 5976,
      "025": 5977,
      "027": 5978,
      "019": 5979,
      "035": 5980,
      "029": 5981,
      "078": 5982,
      "0625": 5983,
      "058": 5984,
      "03333333333333333": 5985,
      "0666666666666667": 5986,
      "0106": 5987,
      "0189": 5988,
      "04444444444444444": 5989,
      "0202": 5990,
      "041666666666666": 5991,
      "07142857142857142": 5992,
      "07755102040816": 5993,
      "0476": 5994,
      "0454545454545454": 5995,
      "06666666666667": 5996,
      "090909090": 5997,
      "027027027027027": 5998,
      "02168021680": 5999,
      "13333333333333333": 6000,
      "1128": 6001,
      "1140": 6002,
      "136363636363636": 6003,
      "266": 6004,
      "212": 6005,
      "214": 6006,
      "228": 6007,
      "213": 6008,
      "232": 6009,
      "2100": 6010,
      "233333333333333": 6011,
      "214285714285714": 6012,
      "2145": 6013,
      "2156": 6014,
      "2200": 6015,
      "22857142857142856": 6016,
      "22580645": 6017,
      "2142857142857": 6018,
      "310": 6019,
      "366": 6020,
      "312": 6021,
      "314": 6022,
      "322": 6023,
      "321": 6024,
      "357142857142857": 6025,
      "3000000000000": 6026,
      "3111111111111111": 6027,
      "39999999999998": 6028,
      "412": 6029,
      "416": 6030,
      "425": 6031,
      "428": 6032,
      "400": 6033,
      "424": 6034,
      "435": 6035,
      "432": 6036,
      "470": 6037,
      "4256": 6038,
      "4333333333333333": 6039,
      "4375": 6040,
      "43589": 6041,
      "428571428571427": 6042,
      "433333333333334": 6043,
      "411764705882355": 6044,
      "424242424": 6045,
      "4102564102564": 6046,
      "510": 6047,
      "525": 6048,
      "527": 6049,
      "548": 6050,
      "546": 6051,
      "5333333333333333": 6052,
      "5666666666666667": 6053,
      "5333333333333334": 6054,
      "5454545454545": 6055,
      "5102040816": 6056,
      "51612": 6057,
      "5185185185185": 6058,
      "616": 6059,
      "615": 6060,
      "624": 6061,
      "636": 6062,
      "644": 6063,
      "630": 6064,
      "640": 6065,
      "621": 6066,
      "650": 6067,
      "696": 6068,
      "6285714285714286": 6069,
      "6363636363636": 6070,
      "615384615": 6071,
      "6444444444444445": 6072,
      "630434782608": 6073,
      "65714285714286": 6074,
      "636363636363636": 6075,
      "714": 6076,
      "725": 6077,
      "720": 6078,
      "728": 6079,
      "724": 6080,
      "717": 6081,
      "740": 6082,
      "735": 6083,
      "788": 6084,
      "732": 6085,
      "748": 6086,
      "746": 6087,
      "723": 6088,
      "780": 6089,
      "763": 6090,
      "7333333333333333": 6091,
      "7666666666666667": 6092,
      "7200": 6093,
      "739130": 6094,
      "7176": 6095,
      "70000000000002": 6096,
      "72000000000001": 6097,
      "810": 6098,
      "800": 6099,
      "836": 6100,
      "819": 6101,
      "821": 6102,
      "846": 6103,
      "8125": 6104,
      "868": 6105,
      "852": 6106,
      "8666666666666667": 6107,
      "84615384615": 6108,
      "85714285714286": 6109,
      "8260869": 6110,
      "82758620689655": 6111,
      "966": 6112,
      "920": 6113,
      "915": 6114,
      "924": 6115,
      "922": 6116,
      "936": 6117,
      "977": 6118,
      "929": 6119,
      "948": 6120,
      "934": 6121,
      "950": 6122,
      "947": 6123,
      "941": 6124,
      "952": 6125,
      "9333333333333333": 6126,
      "9375": 6127,
      "9285714285714286": 6128,
      "928571428571429": 6129,
      "9111111111111111": 6130,
      "9487": 6131,
      "9139": 6132,
      "9200": 6133,
      "911111111111111": 6134,
      "95744680": 6135,
      "964285714285714": 6136,
      "95652173913043": 6137,
      "AL": 6138,
      "AP": 6139,
      "AT": 6140,
      "At": 6141,
      "Aware": 6142,
      "Afric": 6143,
      "By": 6144,
      "Bet": 6145,
      "Born": 6146,
      "Cra": 6147,
      "Come": 6148,
      "CUL": 6149,
      "CTA": 6150,
      "Dar": 6151,
      "Dream": 6152,
      "Disp": 6153,
      "ED": 6154,
      "EE": 6155,
      "ES": 6156,
      "EV": 6157,
      "EX": 6158,
      "ECTA": 6159,
      "Fig": 6160,
      "Fly": 6161,
      "FIC": 6162,
      "GH": 6163,
      "Gr": 6164,
      "Given": 6165,
      "HOO": 6166,
      "IFIC": 6167,
      "KNO": 6168,
      "LO": 6169,
      "Le": 6170,
      "LED": 6171,
      "ME": 6172,
      "MO": 6173,
      "Mo": 6174,
      "Mass": 6175,
      "Much": 6176,
      "Micr": 6177,
      "ND": 6178,
      "Net": 6179,
      "NIFIC": 6180,
      "Op": 6181,
      "PR": 6182,
      "Pe": 6183,
      "Pre": 6184,
      "Par": 6185,
      "RA": 6186,
      "Right": 6187,
      "Rare": 6188,
      "Sal": 6189,
      "Sounds": 6190,
      "Tw": 6191,
      "Tre": 6192,
      "Tread": 6193,
      "Tsk": 6194,
      "Take": 6195,
      "TRE": 6196,
      "Upon": 6197,
      "Whis": 6198,
      "Would": 6199,
      "Yor": 6200,
      "YES": 6201,
      "aer": 6202,
      "avers": 6203,
      "adep": 6204,
      "ahead": 6205,
      "bab": 6206,
      "barn": 6207,
      "bask": 6208,
      "bot": 6209,
      "bank": 6210,
      "bends": 6211,
      "binary": 6212,
      "bids": 6213,
      "coo": 6214,
      "cac": 6215,
      "cence": 6216,
      "cold": 6217,
      "case": 6218,
      "cute": 6219,
      "caught": 6220,
      "dal": 6221,
      "dle": 6222,
      "dant": 6223,
      "dice": 6224,
      "dives": 6225,
      "diverse": 6226,
      "dged": 6227,
      "dumb": 6228,
      "dimming": 6229,
      "ez": 6230,
      "ease": 6231,
      "either": 6232,
      "fan": 6233,
      "fing": 6234,
      "fate": 6235,
      "foo": 6236,
      "fide": 6237,
      "fight": 6238,
      "fted": 6239,
      "fanc": 6240,
      "faster": 6241,
      "free": 6242,
      "fuzz": 6243,
      "facul": 6244,
      "fash": 6245,
      "folk": 6246,
      "gol": 6247,
      "gest": 6248,
      "gasp": 6249,
      "gobble": 6250,
      "ha": 6251,
      "hal": 6252,
      "hing": 6253,
      "hous": 6254,
      "hall": 6255,
      "hop": 6256,
      "hatch": 6257,
      "hints": 6258,
      "haste": 6259,
      "ior": 6260,
      "icul": 6261,
      "ient": 6262,
      "jab": 6263,
      "ky": 6264,
      "ked": 6265,
      "knew": 6266,
      "lat": 6267,
      "lou": 6268,
      "lac": 6269,
      "lest": 6270,
      "lone": 6271,
      "lity": 6272,
      "leng": 6273,
      "law": 6274,
      "lings": 6275,
      "lament": 6276,
      "lude": 6277,
      "lives": 6278,
      "mi": 6279,
      "mm": 6280,
      "main": 6281,
      "mant": 6282,
      "mark": 6283,
      "mush": 6284,
      "munch": 6285,
      "micr": 6286,
      "nan": 6287,
      "napping": 6288,
      "oom": 6289,
      "otal": 6290,
      "ople": 6291,
      "oved": 6292,
      "ogue": 6293,
      "odied": 6294,
      "pes": 6295,
      "ping": 6296,
      "pel": 6297,
      "pest": 6298,
      "ptic": 6299,
      "psy": 6300,
      "rate": 6301,
      "row": 6302,
      "roc": 6303,
      "rive": 6304,
      "rific": 6305,
      "rot": 6306,
      "rons": 6307,
      "role": 6308,
      "rift": 6309,
      "rush": 6310,
      "sin": 6311,
      "sor": 6312,
      "sum": 6313,
      "sly": 6314,
      "swi": 6315,
      "sag": 6316,
      "sulfur": 6317,
      "suspicious": 6318,
      "south": 6319,
      "scope": 6320,
      "ta": 6321,
      "tes": 6322,
      "tor": 6323,
      "tter": 6324,
      "tough": 6325,
      "tty": 6326,
      "tear": 6327,
      "tak": 6328,
      "turing": 6329,
      "tons": 6330,
      "teles": 6331,
      "tuned": 6332,
      "ug": 6333,
      "ura": 6334,
      "vul": 6335,
      "vour": 6336,
      "wand": 6337,
      "warr": 6338,
      "wobble": 6339,
      "waste": 6340,
      "wester": 6341,
      "yl": 6342,
      "yance": 6343,
      "✨⚛": 6344,
      "✨🌿🌙": 6345,
      "️‍": 6346,
      "🌑🦇": 6347,
      "🌙🌳": 6348,
      "🌙💖": 6349,
      "🌙💧": 6350,
      "🌟🌙": 6351,
      "🌟😊": 6352,
      "🌿👁": 6353,
      "🍃✨": 6354,
      "🍎🍇": 6355,
      "👂🌌": 6356,
      "💎✨": 6357,
      "💎💡": 6358,
      "💡✨": 6359,
      "💧✨": 6360,
      "💻✨": 6361,
      "😉😂": 6362,
      "😊✨": 6363,
      "😊💖": 6364,
      "😒🙄": 6365,
      "😤🦉": 6366,
      "🤫🧐": 6367,
      "🤫🌲🦉": 6368,
      "🥺🦉": 6369,
      "🥺🦉✨": 6370,
      "🦉⚡": 6371,
      "🦉🌲": 6372,
      "🦉🐈": 6373,
      "🦉💥": 6374,
      "🦉💪": 6375,
      "🦉📊": 6376,
      "🦉🔬": 6377,
      "🦉🚀✨": 6378,
      "🦉💎💡": 6379,
      "🦋💨": 6380,
      "🦗🌙": 6381,
      "inf": 6382,
      "inv": 6383,
      "iny": 6384,
      "ination": 6385,
      "inci": 6386,
      "inex": 6387,
      "inward": 6388,
      "inquis": 6389,
      "inches": 6390,
      "invit": 6391,
      "incomplet": 6392,
      "inside": 6393,
      "influence": 6394,
      "thin": 6395,
      "thres": 6396,
      "thins": 6397,
      "thicket": 6398,
      "thirst": 6399,
      "oning": 6400,
      "onic": 6401,
      "onstr": 6402,
      "onward": 6403,
      "onounce": 6404,
      "escence": 6405,
      "err": 6406,
      "erves": 6407,
      "ermin": 6408,
      "alog": 6409,
      "aloud": 6410,
      "orchest": 6411,
      "ordial": 6412,
      "ulf": 6413,
      "isy": 6414,
      "anno": 6415,
      "anthem": 6416,
      "renew": 6417,
      "redi": 6418,
      "recap": 6419,
      "reaf": 6420,
      "renal": 6421,
      "recalibr": 6422,
      "recurring": 6423,
      "reimagined": 6424,
      "enish": 6425,
      "enable": 6426,
      "ensely": 6427,
      "enuity": 6428,
      "endence": 6429,
      "tious": 6430,
      "thetical": 6431,
      "theore": 6432,
      "ouded": 6433,
      "1012": 6434,
      "1088": 6435,
      "1077": 6436,
      "1064": 6437,
      "1034": 6438,
      "1026": 6439,
      "1092": 6440,
      "oman": 6441,
      "ingredi": 6442,
      "ingenuity": 6443,
      "335": 6444,
      "336": 6445,
      "339": 6446,
      "3334": 6447,
      "3378": 6448,
      "33217": 6449,
      "asm": 6450,
      "astr": 6451,
      "asura": 6452,
      "plant": 6453,
      "plend": 6454,
      "plot": 6455,
      "planting": 6456,
      "plowed": 6457,
      "andest": 6458,
      "cules": 6459,
      "culation": 6460,
      "raw": 6461,
      "rapt": 6462,
      "660": 6463,
      "663": 6464,
      "665": 6465,
      "6634": 6466,
      "6692": 6467,
      "tool": 6468,
      "olve": 6469,
      "olic": 6470,
      "olish": 6471,
      "ford": 6472,
      "forces": 6473,
      "fortun": 6474,
      "umble": 6475,
      "umsy": 6476,
      "aries": 6477,
      "cture": 6478,
      "usal": 6479,
      "useless": 6480,
      "atile": 6481,
      "atiable": 6482,
      "owner": 6483,
      "atory": 6484,
      "veget": 6485,
      "qubits": 6486,
      "leap": 6487,
      "letic": 6488,
      "leans": 6489,
      "neut": 6490,
      "neigh": 6491,
      "tional": 6492,
      "1216": 6493,
      "1200": 6494,
      "1222": 6495,
      "121951219512": 6496,
      "12384": 6497,
      "frantic": 6498,
      "tracing": 6499,
      "tractions": 6500,
      "trained": 6501,
      "training": 6502,
      "ooting": 6503,
      "imb": 6504,
      "imme": 6505,
      "improb": 6506,
      "imparts": 6507,
      "entr": 6508,
      "creators": 6509,
      "149": 6510,
      "1428": 6511,
      "1450": 6512,
      "1481": 6513,
      "1472": 6514,
      "1600": 6515,
      "1615": 6516,
      "1645": 6517,
      "1672": 6518,
      "16326530612": 6519,
      "ifts": 6520,
      "ifting": 6521,
      "proud": 6522,
      "princi": 6523,
      "pronounce": 6524,
      "ices": 6525,
      "icity": 6526,
      "icative": 6527,
      "ications": 6528,
      "icacy": 6529,
      "1116": 6530,
      "1156": 6531,
      "1139": 6532,
      "1170": 6533,
      "1175": 6534,
      "1152": 6535,
      "1136363636363636": 6536,
      "owlish": 6537,
      "sting": 6538,
      "stly": 6539,
      "stones": 6540,
      "status": 6541,
      "stash": 6542,
      "pert": 6543,
      "perate": 6544,
      "peril": 6545,
      "percep": 6546,
      "perusal": 6547,
      "elve": 6548,
      "elabor": 6549,
      "251": 6550,
      "258": 6551,
      "2548": 6552,
      "2560": 6553,
      "2558": 6554,
      "203": 6555,
      "205": 6556,
      "207": 6557,
      "2016": 6558,
      "2000": 6559,
      "2065": 6560,
      "20512820": 6561,
      "282": 6562,
      "283": 6563,
      "286": 6564,
      "2880": 6565,
      "28019": 6566,
      "1817": 6567,
      "1813": 6568,
      "1845": 6569,
      "1892": 6570,
      "18315": 6571,
      "184210526315": 6572,
      "cibel": 6573,
      "0040": 6574,
      "0005": 6575,
      "00097": 6576,
      "densing": 6577,
      "lying": 6578,
      "implications": 6579,
      "ete": 6580,
      "eton": 6581,
      "etary": 6582,
      "ominous": 6583,
      "ominant": 6584,
      "ulting": 6585,
      "ultane": 6586,
      "1518": 6587,
      "1530": 6588,
      "1519": 6589,
      "1521": 6590,
      "1539": 6591,
      "1543": 6592,
      "1568": 6593,
      "15625": 6594,
      "1521739130": 6595,
      "15999999999997": 6596,
      "search": 6597,
      "exertion": 6598,
      "valued": 6599,
      "273": 6600,
      "274": 6601,
      "275862068": 6602,
      "27777777777777": 6603,
      "27906976744186046": 6604,
      "244": 6605,
      "247": 6606,
      "248": 6607,
      "2425": 6608,
      "2449": 6609,
      "2456": 6610,
      "2450": 6611,
      "2439": 6612,
      "2408": 6613,
      "accor": 6614,
      "acup": 6615,
      "acquire": 6616,
      "acles": 6617,
      "accompan": 6618,
      "account": 6619,
      "acorn": 6620,
      "accident": 6621,
      "propor": 6622,
      "progr": 6623,
      "prote": 6624,
      "protons": 6625,
      "ustry": 6626,
      "221": 6627,
      "223": 6628,
      "22666666666666668": 6629,
      "22638": 6630,
      "bear": 6631,
      "behold": 6632,
      "beats": 6633,
      "beasts": 6634,
      "indisp": 6635,
      "industry": 6636,
      "aining": 6637,
      "990": 6638,
      "992": 6639,
      "9984": 6640,
      "99179": 6641,
      "urance": 6642,
      "uries": 6643,
      "comed": 6644,
      "compo": 6645,
      "compe": 6646,
      "composed": 6647,
      "compromise": 6648,
      "364": 6649,
      "3612": 6650,
      "36111111111111": 6651,
      "3684210526315": 6652,
      "3684210526316": 6653,
      "36714": 6654,
      "3633217": 6655,
      "553": 6656,
      "5506": 6657,
      "55665": 6658,
      "553633217": 6659,
      "cone": 6660,
      "constru": 6661,
      "contain": 6662,
      "conquer": 6663,
      "condensing": 6664,
      "measures": 6665,
      "liking": 6666,
      "kept": 6667,
      "1722": 6668,
      "1763": 6669,
      "1759": 6670,
      "1786": 6671,
      "1709": 6672,
      "1739130": 6673,
      "170040": 6674,
      "441": 6675,
      "441176470588235": 6676,
      "3055": 6677,
      "3077": 6678,
      "30555555555555": 6679,
      "30915": 6680,
      "405": 6681,
      "407": 6682,
      "404256": 6683,
      "shr": 6684,
      "shout": 6685,
      "shown": 6686,
      "shivers": 6687,
      "shimmers": 6688,
      "shooting": 6689,
      "esting": 6690,
      "estyle": 6691,
      "apple": 6692,
      "appoint": 6693,
      "570": 6694,
      "577": 6695,
      "57200": 6696,
      "576692": 6697,
      "pretend": 6698,
      "prelude": 6699,
      "assure": 6700,
      "assign": 6701,
      "assert": 6702,
      "ayey": 6703,
      "chit": 6704,
      "chological": 6705,
      "chased": 6706,
      "chasing": 6707,
      "chron": 6708,
      "chasm": 6709,
      "deb": 6710,
      "dead": 6711,
      "deign": 6712,
      "degra": 6713,
      "depletion": 6714,
      "devour": 6715,
      "decibel": 6716,
      "users": 6717,
      "1900": 6718,
      "1921": 6719,
      "1978": 6720,
      "1952": 6721,
      "19444444444444": 6722,
      "19444444444444445": 6723,
      "352": 6724,
      "359": 6725,
      "3546": 6726,
      "3508": 6727,
      "outer": 6728,
      "outsm": 6729,
      "880": 6730,
      "882": 6731,
      "888": 6732,
      "8837": 6733,
      "8809": 6734,
      "uncan": 6735,
      "unanswer": 6736,
      "unless": 6737,
      "unheard": 6738,
      "untold": 6739,
      "uncertain": 6740,
      "unusual": 6741,
      "unsett": 6742,
      "unenlight": 6743,
      "ady": 6744,
      "adherence": 6745,
      "adrift": 6746,
      "adrenal": 6747,
      "needing": 6748,
      "770": 6749,
      "776": 6750,
      "1312": 6751,
      "1320": 6752,
      "1328": 6753,
      "1300": 6754,
      "1388": 6755,
      "1395": 6756,
      "13200": 6757,
      "131578947368421": 6758,
      "291": 6759,
      "2941": 6760,
      "2978": 6761,
      "29629629": 6762,
      "2112": 6763,
      "arely": 6764,
      "ishy": 6765,
      "ishing": 6766,
      "ishness": 6767,
      "451": 6768,
      "458": 6769,
      "495": 6770,
      "4961": 6771,
      "49600": 6772,
      "amed": 6773,
      "ambi": 6774,
      "ambig": 6775,
      "326": 6776,
      "3236714": 6777,
      "aging": 6778,
      "aged": 6779,
      "agend": 6780,
      "agile": 6781,
      "bers": 6782,
      "commonly": 6783,
      "646": 6784,
      "648": 6785,
      "6428571428571428": 6786,
      "64864864": 6787,
      "utor": 6788,
      "utations": 6789,
      "481": 6790,
      "4858": 6791,
      "4864864864": 6792,
      "pond": 6793,
      "ild": 6794,
      "termin": 6795,
      "342": 6796,
      "3479": 6797,
      "342560": 6798,
      "348837": 6799,
      "tran": 6800,
      "tress": 6801,
      "troves": 6802,
      "423": 6803,
      "reside": 6804,
      "respect": 6805,
      "resounding": 6806,
      "resources": 6807,
      "resolve": 6808,
      "newfound": 6809,
      "alloc": 6810,
      "noticing": 6811,
      "noisy": 6812,
      "507": 6813,
      "spar": 6814,
      "sparing": 6815,
      "spells": 6816,
      "Negr": 6817,
      "460": 6818,
      "465": 6819,
      "46875": 6820,
      "46000000000001": 6821,
      "465506": 6822,
      "numbers": 6823,
      "gevity": 6824,
      "geoning": 6825,
      "antom": 6826,
      "anted": 6827,
      "385": 6828,
      "387": 6829,
      "3847": 6830,
      "38769": 6831,
      "motion": 6832,
      "moved": 6833,
      "3762": 6834,
      "3784": 6835,
      "260": 6836,
      "265": 6837,
      "26880": 6838,
      "ella": 6839,
      "ellence": 6840,
      "2300": 6841,
      "2391": 6842,
      "soundtrack": 6843,
      "weep": 6844,
      "weather": 6845,
      "weaver": 6846,
      "wept": 6847,
      "fully": 6848,
      "herent": 6849,
      "lightest": 6850,
      "392": 6851,
      "394": 6852,
      "396": 6853,
      "3913": 6854,
      "3958": 6855,
      "3928571428571428": 6856,
      "39852": 6857,
      "centuries": 6858,
      "maintained": 6859,
      "808": 6860,
      "8049": 6861,
      "8076": 6862,
      "80555555555555": 6863,
      "80428": 6864,
      "poem": 6865,
      "pothetical": 6866,
      "worn": 6867,
      "6388888888888888": 6868,
      "960": 6869,
      "968": 6870,
      "9600": 6871,
      "9608": 6872,
      "9629629629": 6873,
      "Whooo": 6874,
      "1008": 6875,
      "questioner": 6876,
      "9091": 6877,
      "90322580645": 6878,
      "704": 6879,
      "706": 6880,
      "7098": 6881,
      "70270270270270": 6882,
      "7045454545454546": 6883,
      "70458": 6884,
      "brimming": 6885,
      "notes": 6886,
      "knowledgeable": 6887,
      "474": 6888,
      "478260869": 6889,
      "tinue": 6890,
      "Inspir": 6891,
      "endures": 6892,
      "endently": 6893,
      "coherence": 6894,
      "coales": 6895,
      "coherent": 6896,
      "cort": 6897,
      "correl": 6898,
      "5428571428571428": 6899,
      "54999999999998": 6900,
      "ourselves": 6901,
      "phantom": 6902,
      "760000000000005": 6903,
      "763378": 6904,
      "load": 6905,
      "loved": 6906,
      "smar": 6907,
      "smells": 6908,
      "smiling": 6909,
      "undertaking": 6910,
      "underlying": 6911,
      "peb": 6912,
      "peek": 6913,
      "people": 6914,
      "4340": 6915,
      "gry": 6916,
      "grass": 6917,
      "grown": 6918,
      "responding": 6919,
      "standing": 6920,
      "mental": 6921,
      "ineated": 6922,
      "inevit": 6923,
      "canvas": 6924,
      "digitally": 6925,
      "tsk": 6926,
      "flits": 6927,
      "flavor": 6928,
      "flourish": 6929,
      "flapping": 6930,
      "ions": 6931,
      "wisest": 6932,
      "exists": 6933,
      "intu": 6934,
      "intense": 6935,
      "intensive": 6936,
      "33333333333335": 6937,
      "752": 6938,
      "75999999999999": 6939,
      "🦉✨🌟": 6940,
      "🦉✨🌱": 6941,
      "ignific": 6942,
      "ignition": 6943,
      "epit": 6944,
      "epic": 6945,
      "understands": 6946,
      "Deep": 6947,
      "disk": 6948,
      "disrup": 6949,
      "distractions": 6950,
      "distress": 6951,
      "nights": 6952,
      "333333333333332": 6953,
      "fication": 6954,
      "mostly": 6955,
      "speaking": 6956,
      "speculation": 6957,
      "782": 6958,
      "7872": 6959,
      "7857142857142857": 6960,
      "78260869565217": 6961,
      "daylight": 6962,
      "684": 6963,
      "6875": 6964,
      "68181818181818": 6965,
      "689608": 6966,
      "658": 6967,
      "512821": 6968,
      "creations": 6969,
      "descent": 6970,
      "desperate": 6971,
      "ramp": 6972,
      "5237": 6973,
      "patch": 6974,
      "tremble": 6975,
      "advant": 6976,
      "interloc": 6977,
      "extensive": 6978,
      "ensus": 6979,
      "ensable": 6980,
      "illog": 6981,
      "textures": 6982,
      "domains": 6983,
      "stress": 6984,
      "strive": 6985,
      "proving": 6986,
      "**,": 6987,
      "**.": 6988,
      "delves": 6989,
      "delicacy": 6990,
      "delineated": 6991,
      "silk": 6992,
      "7291666666666666": 6993,
      "earlier": 6994,
      "claiming": 6995,
      "clandest": 6996,
      "clumsy": 6997,
      "clayey": 6998,
      "34300": 6999,
      "instill": 7000,
      "instit": 7001,
      "insatiable": 7002,
      "insignific": 7003,
      "589": 7004,
      "58999999999999": 7005,
      "throughput": 7006,
      "profit": 7007,
      "appropriately": 7008,
      "occas": 7009,
      "owns": 7010,
      "anyone": 7011,
      "ieval": 7012,
      "expresses": 7013,
      "quietly": 7014,
      "quietest": 7015,
      "quietude": 7016,
      "mannerisms": 7017,
      "013546": 7018,
      "goss": 7019,
      "talons": 7020,
      "drought": 7021,
      "drifts": 7022,
      "evening": 7023,
      "moons": 7024,
      "921052631578947": 7025,
      "arrog": 7026,
      "hasn": 7027,
      "eyed": 7028,
      "crushing": 7029,
      "595": 7030,
      "7436": 7031,
      "74193548": 7032,
      "74359": 7033,
      "asks": 7034,
      "695": 7035,
      "697": 7036,
      "69300": 7037,
      "vastly": 7038,
      "gled": 7039,
      "glad": 7040,
      "glance": 7041,
      "glows": 7042,
      "staring": 7043,
      "starlit": 7044,
      "stargaz": 7045,
      "consulting": 7046,
      "consensus": 7047,
      "curiously": 7048,
      "greets": 7049,
      "6744186046": 7050,
      "works": 7051,
      "workflow": 7052,
      "grander": 7053,
      "grandest": 7054,
      "grandness": 7055,
      "happening": 7056,
      "happier": 7057,
      "eyesight": 7058,
      "eyeshine": 7059,
      "favorites": 7060,
      "featherless": 7061,
      "weights": 7062,
      "lingering": 7063,
      "therefore": 7064,
      "wasn": 7065,
      "uttered": 7066,
      "791666666666666": 7067,
      "798029": 7068,
      "excellence": 7069,
      "capability": 7070,
      "captured": 7071,
      "timization": 7072,
      "timeless": 7073,
      "complaining": 7074,
      "sparkles": 7075,
      "lifestyle": 7076,
      "direction": 7077,
      "immensely": 7078,
      "finer": 7079,
      "finest": 7080,
      "finish": 7081,
      "finely": 7082,
      "versatile": 7083,
      "struggles": 7084,
      "849999999999994": 7085,
      "aura": 7086,
      "everyday": 7087,
      "twoo": 7088,
      "twinkle": 7089,
      "twelve": 7090,
      "presents": 7091,
      "0833333333333333": 7092,
      "080000000000002": 7093,
      "0833333333333335": 7094,
      "tillage": 7095,
      "references": 7096,
      "hormon": 7097,
      "contextual": 7098,
      "generation": 7099,
      "generating": 7100,
      "571428571428573": 7101,
      "momentous": 7102,
      "absent": 7103,
      "acknowledges": 7104,
      "acknowledgment": 7105,
      "acknowledgement": 7106,
      "pieces": 7107,
      "862068": 7108,
      "86363636363636": 7109,
      "realities": 7110,
      "realization": 7111,
      "kindly": 7112,
      "conversational": 7113,
      "384617": 7114,
      "Together": 7115,
      "buff": 7116,
      "buckle": 7117,
      "signal": 7118,
      "897": 7119,
      "8925": 7120,
      "8944": 7121,
      "89000000000001": 7122,
      "89743589743589": 7123,
      "itioning": 7124,
      "simultane": 7125,
      "simplicity": 7126,
      "simpleton": 7127,
      "release": 7128,
      "511628": 7129,
      "biome": 7130,
      "biochemical": 7131,
      "sympathy": 7132,
      "71148": 7133,
      "8214285714285714": 7134,
      "deepening": 7135,
      "99999999999999": 7136,
      "916666666666667": 7137,
      "fires": 7138,
      "firming": 7139,
      "calls": 7140,
      "flowers": 7141,
      "8736": 7142,
      "87179487179487": 7143,
      "break": 7144,
      "breaking": 7145,
      "85106": 7146,
      "85185185185185": 7147,
      "adventurers": 7148,
      "hiding": 7149,
      "bitter": 7150,
      "cky": 7151,
      "factually": 7152,
      "factors": 7153,
      "athene": 7154,
      "athletic": 7155,
      "offerings": 7156,
      "iques": 7157,
      "earthy": 7158,
      "overcome": 7159,
      "overload": 7160,
      "9722222222222222": 7161,
      "9756097": 7162,
      "973762": 7163,
      "🦉💖🙏": 7164,
      "🦉💖✨🌙": 7165,
      "playfulness": 7166,
      "beloved": 7167,
      "foundation": 7168,
      "iping": 7169,
      "ipped": 7170,
      "keeps": 7171,
      "closing": 7172,
      "closure": 7173,
      "onymous": 7174,
      "transient": 7175,
      "transitioning": 7176,
      "tapestries": 7177,
      "turning": 7178,
      "spires": 7179,
      "spirits": 7180,
      "greater": 7181,
      "greatly": 7182,
      "bles": 7183,
      "blood": 7184,
      "blinking": 7185,
      "blowing": 7186,
      "blurs": 7187,
      "couldn": 7188,
      "darkest": 7189,
      "requests": 7190,
      "requesting": 7191,
      "confusion": 7192,
      "magnificently": 7193,
      "minim": 7194,
      "minute": 7195,
      "metric": 7196,
      "positions": 7197,
      "8349600": 7198,
      "bore": 7199,
      "bors": 7200,
      "perceives": 7201,
      "afar": 7202,
      "room": 7203,
      "root": 7204,
      "warmly": 7205,
      "warmest": 7206,
      "cognition": 7207,
      "marvelously": 7208,
      "cerity": 7209,
      "2703": 7210,
      "potassium": 7211,
      "optimally": 7212,
      "optimize": 7213,
      "2352": 7214,
      "2354": 7215,
      "3157894736": 7216,
      "31578947368421": 7217,
      "sunbeam": 7218,
      "sunshine": 7219,
      "sunrise": 7220,
      "defines": 7221,
      "definitions": 7222,
      "ailing": 7223,
      "determin": 7224,
      "hunters": 7225,
      "hungry": 7226,
      "anchor": 7227,
      "ancholic": 7228,
      "smooth": 7229,
      "attering": 7230,
      "3783784": 7231,
      "differently": 7232,
      "02142857142857143": 7233,
      "0227272727272727": 7234,
      "0212765957446808": 7235,
      "colle": 7236,
      "colors": 7237,
      "coloss": 7238,
      "sliver": 7239,
      "inclinations": 7240,
      "pleased": 7241,
      "neyi": 7242,
      "1127": 7243,
      "1129": 7244,
      "loose": 7245,
      "enhancing": 7246,
      "ouuuuuuu": 7247,
      "contrib": 7248,
      "1794": 7249,
      "1795": 7250,
      "odynam": 7251,
      "27272727273": 7252,
      "22222222222223": 7253,
      "petty": 7254,
      "sustains": 7255,
      "antici": 7256,
      "brighter": 7257,
      "brighten": 7258,
      "brightest": 7259,
      "spirited": 7260,
      "spiritual": 7261,
      "1107": 7262,
      "distin": 7263,
      "songs": 7264,
      "1406": 7265,
      "14030915": 7266,
      "1403508": 7267,
      "embodied": 7268,
      "78946": 7269,
      "provides": 7270,
      "professionally": 7271,
      "0000000000000005": 7272,
      "architected": 7273,
      "architectures": 7274,
      "222222222222221": 7275,
      "touches": 7276,
      "04181818181818": 7277,
      "catalog": 7278,
      "duh": 7279,
      "gracing": 7280,
      "gravity": 7281,
      "assisting": 7282,
      "enhancement": 7283,
      "longest": 7284,
      "parted": 7285,
      "26315789473684": 7286,
      "2631578947368421": 7287,
      "professionalism": 7288,
      "'?!": 7289,
      "9411764705882355": 7290,
      "deduction": 7291,
      "fares": 7292,
      "rests": 7293,
      "tenth": 7294,
      "reiteration": 7295,
      "reiterates": 7296,
      "conveyed": 7297,
      "sphorescent": 7298,
      "delights": 7299,
      "brainstorm": 7300,
      "shadowy": 7301,
      "translates": 7302,
      "1666": 7303,
      "1144": 7304,
      "11466": 7305,
      "gets": 7306,
      "solar": 7307,
      "solely": 7308,
      "solace": 7309,
      "reveals": 7310,
      "letter": 7311,
      "communicative": 7312,
      "clarification": 7313,
      "drops": 7314,
      "boundary": 7315,
      "boundaries": 7316,
      "irectly": 7317,
      "landed": 7318,
      "waited": 7319,
      "woodpeck": 7320,
      "constructs": 7321,
      "constructed": 7322,
      "959999999999999": 7323,
      "9545454545454546": 7324,
      "glean": 7325,
      "lucky": 7326,
      "mentioned": 7327,
      "surge": 7328,
      "surround": 7329,
      "surrend": 7330,
      "representing": 7331,
      "glowing": 7332,
      "060000000000000005": 7333,
      "Magical": 7334,
      "gathered": 7335,
      "nourishing": 7336,
      "scoff": 7337,
      "involved": 7338,
      "recognizing": 7339,
      "superficial": 7340,
      "remarks": 7341,
      "significantly": 7342,
      "himself": 7343,
      "perpetuation": 7344,
      "1785714285714286": 7345,
      "depends": 7346,
      "48750": 7347,
      "typical": 7348,
      "3846153846154": 7349,
      "possibility": 7350,
      "434782": 7351,
      "434783": 7352,
      "4347827": 7353,
      "43478261": 7354,
      "faintly": 7355,
      "frames": 7356,
      "settle": 7357,
      "setting": 7358,
      "sights": 7359,
      "teacup": 7360,
      "planning": 7361,
      "planetary": 7362,
      "11988": 7363,
      "predicated": 7364,
      "predominant": 7365,
      "describes": 7366,
      "fabrication": 7367,
      "contemplating": 7368,
      "058029": 7369,
      "0526315789473684": 7370,
      "1330": 7371,
      "1332": 7372,
      "nesting": 7373,
      "iveness": 7374,
      "started": 7375,
      "emerging": 7376,
      "adaptive": 7377,
      "refined": 7378,
      "consistently": 7379,
      "highlights": 7380,
      "imaginings": 7381,
      "1176470588235294": 7382,
      "welcomed": 7383,
      "primitive": 7384,
      "primordial": 7385,
      "support": 7386,
      "approachable": 7387,
      "grasped": 7388,
      "interpreted": 7389,
      "999999999996": 7390,
      "09342560": 7391,
      "092391": 7392,
      "2173": 7393,
      "evid": 7394,
      "feline": 7395,
      "honing": 7396,
      "swoo": 7397,
      "product": 7398,
      "preference": 7399,
      "decide": 7400,
      "intrigue": 7401,
      "anticipate": 7402,
      "anticipated": 7403,
      "anticipating": 7404,
      "tenderly": 7405,
      "navigable": 7406,
      "!')": 7407,
      "!').": 7408,
      "Ready": 7409,
      "melodies": 7410,
      "melancholic": 7411,
      "frameworks": 7412,
      "positively": 7413,
      "dusted": 7414,
      "millions": 7415,
      "soulful": 7416,
      "measurement": 7417,
      "groundbreaking": 7418,
      "synonymous": 7419,
      "74358974359": 7420,
      "fields": 7421,
      "blooms": 7422,
      "suggestions": 7423,
      "7058823529411764": 7424,
      "cadence": 7425,
      "daily": 7426,
      "daunting": 7427,
      "equate": 7428,
      "equally": 7429,
      "laid": 7430,
      "layered": 7431,
      "pull": 7432,
      "witty": 7433,
      "initial": 7434,
      "organized": 7435,
      "identified": 7436,
      "identification": 7437,
      "probing": 7438,
      "opportunities": 7439,
      "21840": 7440,
      "21875": 7441,
      "842106": 7442,
      "balm": 7443,
      "enjoying": 7444,
      "20833333333333334": 7445,
      "denotes": 7446,
      "seasoned": 7447,
      "wildflowers": 7448,
      "24242425": 7449,
      "172413": 7450,
      "embracing": 7451,
      "192307692307692": 7452,
      "9655172413": 7453,
      "90909091": 7454,
      "dictated": 7455,
      "923076923077": 7456,
      "18181818181818": 7457,
      "4347826086": 7458,
      "03571428571428571": 7459,
      "03448": 7460,
      "820512820": 7461,
      "Continue": 7462,
      "Within": 7463,
      "destined": 7464,
      "eagerly": 7465,
      "eagerness": 7466,
      "lasting": 7467,
      "messy": 7468,
      "molecules": 7469,
      "puzzles": 7470,
      "watery": 7471,
      "inspire": 7472,
      "orbital": 7473,
      "retrieval": 7474,
      "radiation": 7475,
      "quantity": 7476,
      "quantified": 7477,
      "abundances": 7478,
      "execute": 7479,
      "chats": 7480,
      "cooler": 7481,
      "draws": 7482,
      "affective": 7483,
      "contributes": 7484,
      "empires": 7485,
      "empirically": 7486,
      "037035": 7487,
      "23684210526315": 7488,
      "23684210526316": 7489,
      "864865": 7490,
      "Onward": 7491,
      "floating": 7492,
      "homework": 7493,
      "picture": 7494,
      "inputs": 7495,
      "ordin": 7496,
      "annals": 7497,
      "titude": 7498,
      "extraction": 7499,
      "17766": 7500,
      "appeared": 7501,
      "caliber": 7502,
      "calculating": 7503,
      "5652174": 7504,
      "39394": 7505,
      "spectr": 7506,
      "spectacles": 7507,
      "includes": 7508,
      "embarks": 7509,
      "amazingness": 7510,
      "witnessed": 7511,
      "777777777777776": 7512,
      "777777777777778": 7513,
      "07142857142857": 7514,
      "States": 7515,
      "monol": 7516,
      "required": 7517,
      "requirements": 7518,
      "sequencing": 7519,
      "independence": 7520,
      "independently": 7521,
      "unearthing": 7522,
      "workings": 7523,
      "flux": 7524,
      "discussed": 7525,
      "limitation": 7526,
      "beginning": 7527,
      "beginnings": 7528,
      "vibration": 7529,
      "vibrations": 7530,
      "juiciest": 7531,
      "vigilant": 7532,
      "vigilance": 7533,
      "2334": 7534,
      "2303": 7535,
      "2304": 7536,
      "42857142857142855": 7537,
      "Seek": 7538,
      "burgeoning": 7539,
      "demonstr": 7540,
      "fosters": 7541,
      "foolish": 7542,
      "longevity": 7543,
      "lineage": 7544,
      "middle": 7545,
      "pang": 7546,
      "polite": 7547,
      "politely": 7548,
      "scales": 7549,
      "tongue": 7550,
      "00838769": 7551,
      "applying": 7552,
      "adds": 7553,
      "326531": 7554,
      "647058823529411": 7555,
      "6470588235294117": 7556,
      "7096774193548": 7557,
      "416666666666666": 7558,
      "integral": 7559,
      "integrate": 7560,
      "integrity": 7561,
      "integrated": 7562,
      "awaiting": 7563,
      "awaken": 7564,
      "awakens": 7565,
      "jewels": 7566,
      "intricately": 7567,
      "transcend": 7568,
      "temporal": 7569,
      "294117647058826": 7570,
      "294117647058823": 7571,
      "2941176470588236": 7572,
      "29411764705882354": 7573,
      "2702702702702703": 7574,
      "23529411764706": 7575,
      "4545454545454546": 7576,
      "037037037037": 7577,
      "30612244897959": 7578,
      "diligence": 7579,
      "scheduleâ": 7580,
      "techniques": 7581,
      "DEAR": 7582,
      "Human": 7583,
      "beds": 7584,
      "hypothetical": 7585,
      "warnings": 7586,
      "🦉🌳🌑🦇": 7587,
      "instance": 7588,
      "inspiring": 7589,
      "revelations": 7590,
      "umbled": 7591,
      "qualia": 7592,
      "impression": 7593,
      "accessible": 7594,
      "problems": 7595,
      "converse": 7596,
      "converge": 7597,
      "convergence": 7598,
      "lizard": 7599,
      "outputs": 7600,
      "adorable": 7601,
      "models": 7602,
      "dietary": 7603,
      "🦉✨🌌🌳🌙": 7604,
      "discerned": 7605,
      "intertwined": 7606,
      "velvety": 7607,
      "encountering": 7608,
      "settled": 7609,
      "Considering": 7610,
      "61318": 7611,
      "6923076923076925": 7612,
      "6923076923076923": 7613,
      "73684210526315": 7614,
      "7272727272727275": 7615,
      "833333333333334": 7616,
      "83783783783784": 7617,
      "81818181818182": 7618,
      "8181818181818183": 7619,
      "8181818181818182": 7620,
      "Explain": 7621,
      "dancing": 7622,
      "lull": 7623,
      "nurturing": 7624,
      "ripple": 7625,
      "ripples": 7626,
      "snap": 7627,
      "squawk": 7628,
      "squishy": 7629,
      "sticking": 7630,
      "attributed": 7631,
      "umbling": 7632,
      "umental": 7633,
      "whirs": 7634,
      "whirring": 7635,
      "steps": 7636,
      "257142857142857": 7637,
      "15384615384615374": 7638,
      "exceeding": 7639,
      "3695652173913043": 7640,
      "library": 7641,
      "304347826086956": 7642,
      "775510204081634": 7643,
      "7755102040816326": 7644,
      "2982456": 7645,
      "2983479": 7646,
      "territory": 7647,
      "researcher": 7648,
      "spotting": 7649,
      "268295": 7650,
      "hummingbird": 7651,
      "9069767441860465": 7652,
      "literally": 7653,
      "6521739130434783": 7654,
      "5128205": 7655,
      "advancements": 7656,
      "216802": 7657,
      "expressions": 7658,
      "7878787878787878": 7659,
      "743589743589746": 7660,
      "7435897435897436": 7661,
      "1794871794871795": 7662,
      "127659574468087": 7663,
      "relationships": 7664,
      "unraveling": 7665,
      "overwhelmingly": 7666,
      "137931034": 7667,
      "Firstly": 7668,
      "Quantum": 7669,
      "faced": 7670,
      "filters": 7671,
      "filtering": 7672,
      "pivotal": 7673,
      "ventures": 7674,
      "thorough": 7675,
      "threats": 7676,
      "escapade": 7677,
      "escapades": 7678,
      "rendez": 7679,
      "legend": 7680,
      "conventions": 7681,
      "confines": 7682,
      "charge": 7683,
      "degrees": 7684,
      "butterfly": 7685,
      "buttercup": 7686,
      "guardian": 7687,
      "description": 7688,
      "descriptions": 7689,
      "treatment": 7690,
      "occupied": 7691,
      "governs": 7692,
      "constitute": 7693,
      "audacity": 7694,
      "effects": 7695,
      "counterparts": 7696,
      "solutions": 7697,
      "registers": 7698,
      "synthesized": 7699,
      "synthesize": 7700,
      "spectacular": 7701,
      "photoreceptor": 7702,
      "demands": 7703,
      "fantastic": 7704,
      "fantastical": 7705,
      "mirroring": 7706,
      "behavior": 7707,
      "088235294117647": 7708,
      "08823529411764706": 7709,
      "0983": 7710,
      "06976744186046512": 7711,
      "06521739130435": 7712,
      "06521739130434782": 7713,
      "29958": 7714,
      "2307692307692308": 7715,
      "23076923076923078": 7716,
      "3483": 7717,
      "538461538461538": 7718,
      "5384615384615383": 7719,
      "5172413793103448": 7720,
      "51724137931034": 7721,
      "6382978": 7722,
      "Frankly": 7723,
      "ICAL": 7724,
      "Should": 7725,
      "basin": 7726,
      "basic": 7727,
      "bouncing": 7728,
      "bounces": 7729,
      "evaluating": 7730,
      "figure": 7731,
      "giant": 7732,
      "loudest": 7733,
      "multiple": 7734,
      "mild": 7735,
      "miles": 7736,
      "screen": 7737,
      "screens": 7738,
      "🤫✨🤨": 7739,
      "alchemist": 7740,
      "alchemists": 7741,
      "animate": 7742,
      "revolt": 7743,
      "1612904": 7744,
      "stumbles": 7745,
      "stumbled": 7746,
      "several": 7747,
      "275862068965518": 7748,
      "individuals": 7749,
      "contrary": 7750,
      "17647058823529413": 7751,
      "choice": 7752,
      "deviations": 7753,
      "Ouuuuuuuuuu": 7754,
      "642857142857146": 7755,
      "tricky": 7756,
      "42105263158": 7757,
      "56097561": 7758,
      "8048780487": 7759,
      "60805861": 7760,
      "60805860805861": 7761,
      "🦉✨🧠💡🌌": 7762,
      "dissecting": 7763,
      "achievement": 7764,
      "electrifying": 7765,
      "fertilizer": 7766,
      "cryptic": 7767,
      "69565": 7768,
      "skilled": 7769,
      "counting": 7770,
      "country": 7771,
      "difficulty": 7772,
      "130434782608696": 7773,
      "13043478260869565": 7774,
      "10526315789474": 7775,
      "1052631578947367": 7776,
      "19047616": 7777,
      "19047619047616": 7778,
      "11764705882352941": 7779,
      "decisions": 7780,
      "underscores": 7781,
      "underscoring": 7782,
      "7058823529411765": 7783,
      "2903225806451613": 7784,
      "2903225806451615": 7785,
      "3939393939394": 7786,
      "5238095238095237": 7787,
      "anthropomorphizing": 7788,
      "1025641025641026": 7789,
      "evolutionary": 7790,
      "837837837837838": 7791,
      "8378378378378378": 7792,
      "Exciting": 7793,
      "Excellent": 7794,
      "MAGNIFIC": 7795,
      "MAGICAL": 7796,
      "461538461538462": 7797,
      "2682926829268295": 7798,
      "2608695652173913": 7799,
      "1276595744680851": 7800,
      "1379310344828": 7801,
      "2244897959183674": 7802,
      "22448979591836735": 7803,
      "520833333333332": 7804,
      "5208333333333334": 7805,
      "8484848484848485": 7806,
      "categorize": 7807,
      "investigations": 7808,
      "16216216216216217": 7809,
      "exaggeration": 7810,
      "exaggerated": 7811,
      "24324324324324326": 7812,
      "40000000000003": 7813,
      "Learning": 7814,
      "North": 7815,
      "SPECTA": 7816,
      "bunny": 7817,
      "cascade": 7818,
      "dormant": 7819,
      "dominion": 7820,
      "evoke": 7821,
      "globe": 7822,
      "hours": 7823,
      "harmon": 7824,
      "mathem": 7825,
      "sacrific": 7826,
      "tubes": 7827,
      "varied": 7828,
      "view": 7829,
      "walked": 7830,
      "increased": 7831,
      "anomaly": 7832,
      "replenish": 7833,
      "reverence": 7834,
      "envisioned": 7835,
      "tidbit": 7836,
      "places": 7837,
      "nebulae": 7838,
      "fronti": 7839,
      "imperative": 7840,
      "imbued": 7841,
      "whitneyi": 7842,
      "studies": 7843,
      "students": 7844,
      "exclamation": 7845,
      "validating": 7846,
      "beckon": 7847,
      "indulge": 7848,
      "concentrated": 7849,
      "conclusion": 7850,
      "employ": 7851,
      "preparing": 7852,
      "untamed": 7853,
      "unlocking": 7854,
      "feeble": 7855,
      "feedback": 7856,
      "ooooooh": 7857,
      "documented": 7858,
      "grubby": 7859,
      "introspection": 7860,
      "arrangement": 7861,
      "crops": 7862,
      "scientist": 7863,
      "glimpses": 7864,
      "participation": 7865,
      "happenings": 7866,
      "authority": 7867,
      "frailties": 7868,
      "blinked": 7869,
      "physics": 7870,
      "meteor": 7871,
      "disturb": 7872,
      "apparently": 7873,
      "dimensions": 7874,
      "tethered": 7875,
      "supportive": 7876,
      "identifiers": 7877,
      "nugget": 7878,
      "pierce": 7879,
      "appearance": 7880,
      "ornithological": 7881,
      "satisfactory": 7882,
      "detected": 7883,
      "attempts": 7884,
      "articulated": 7885,
      "prioritizes": 7886,
      "registered": 7887,
      "ABSOLUTELY": 7888,
      "BRILLIANT": 7889,
      "entertainment": 7890,
      "Analysis": 7891,
      "010416666666666666": 7892,
      "033717": 7893,
      "014170040": 7894,
      "016763378": 7895,
      "02599179": 7896,
      "027777777777777776": 7897,
      "029743589743589746": 7898,
      "05860805860805861": 7899,
      "010628019": 7900,
      "01893939393939394": 7901,
      "044444444444444446": 7902,
      "020214030915": 7903,
      "0416666666666667": 7904,
      "07755102040816327": 7905,
      "047619047619047616": 7906,
      "09090909090909091": 7907,
      "02168021680216802": 7908,
      "1363636363636362": 7909,
      "23333333333333334": 7910,
      "21428571428571427": 7911,
      "225806451612904": 7912,
      "214285714285715": 7913,
      "4358974358974359": 7914,
      "42424242424242425": 7915,
      "41025641025641024": 7916,
      "545454545454547": 7917,
      "5102040816326531": 7918,
      "5161290322580645": 7919,
      "5185185185185185": 7920,
      "6153846153846154": 7921,
      "63698": 7922,
      "6440": 7923,
      "63636363636363": 7924,
      "615384615384617": 7925,
      "630434782608695": 7926,
      "6363636363636364": 7927,
      "7241379310344828": 7928,
      "723404256": 7929,
      "7631578947368421": 7930,
      "73913043478261": 7931,
      "86842105263158": 7932,
      "846153846153847": 7933,
      "8275862068965517": 7934,
      "97727272727273": 7935,
      "9473684210526316": 7936,
      "9487179487179487": 7937,
      "9574468085106": 7938,
      "9642857142857143": 7939,
      "9565217391304348": 7940,
      "Africa": 7941,
      "Better": 7942,
      "Crafted": 7943,
      "CULAR": 7944,
      "Darling": 7945,
      "Dreams": 7946,
      "Dispelling": 7947,
      "EVER": 7948,
      "EXCI": 7949,
      "Figure": 7950,
      "GHT": 7951,
      "KNOW": 7952,
      "MOST": 7953,
      "Mostly": 7954,
      "Micrathene": 7955,
      "Optimization": 7956,
      "PRO": 7957,
      "Pretty": 7958,
      "Parish": 7959,
      "Salutations": 7960,
      "Twinkle": 7961,
      "Trees": 7962,
      "Whisper": 7963,
      "York": 7964,
      "aerodynam": 7965,
      "adept": 7966,
      "babble": 7967,
      "banks": 7968,
      "cacti": 7969,
      "foot": 7970,
      "fidelity": 7971,
      "fuzzy": 7972,
      "faculties": 7973,
      "fashion": 7974,
      "golden": 7975,
      "half": 7976,
      "hallowed": 7977,
      "hoping": 7978,
      "hatched": 7979,
      "iculous": 7980,
      "louder": 7981,
      "length": 7982,
      "mushroom": 7983,
      "nanosecond": 7984,
      "oomph": 7985,
      "psychological": 7986,
      "rock": 7987,
      "riveting": 7988,
      "sincerity": 7989,
      "sorrow": 7990,
      "suspiciously": 7991,
      "southwester": 7992,
      "torical": 7993,
      "taken": 7994,
      "vulner": 7995,
      "😒🙄👎": 7996,
      "🤫🧐😏": 7997,
      "inquisitive": 7998,
      "renewed": 7999,
      "reaffirming": 8000,
      "recalibration": 8001,
      "theoretical": 8002,
      "ingredients": 8003,
      "asurable": 8004,
      "plendid": 8005,
      "663474": 8006,
      "uselessness": 8007,
      "vegetation": 8008,
      "1219512195121952": 8009,
      "immeasurable": 8010,
      "improbable": 8011,
      "163265306122449": 8012,
      "principles": 8013,
      "pronouncements": 8014,
      "11363636363636363": 8015,
      "elaborate": 8016,
      "25480": 8017,
      "25581395": 8018,
      "2065663474": 8019,
      "205128205128205": 8020,
      "18172983479": 8021,
      "18421052631578946": 8022,
      "0009718172983479": 8023,
      "15390": 8024,
      "15217391304347827": 8025,
      "27586206897": 8026,
      "2777777777777778": 8027,
      "24395": 8028,
      "according": 8029,
      "accompaniment": 8030,
      "proportion": 8031,
      "progress": 8032,
      "protect": 8033,
      "indispensable": 8034,
      "composing": 8035,
      "competi": 8036,
      "3611111111111112": 8037,
      "3684210526315789": 8038,
      "17391304347826086": 8039,
      "4411764705882353": 8040,
      "305555555555555": 8041,
      "shouting": 8042,
      "devouring": 8043,
      "194444444444443": 8044,
      "8809523809523809": 8045,
      "uncanny": 8046,
      "unsettling": 8047,
      "unenlightened": 8048,
      "adrenaline": 8049,
      "ambiguous": 8050,
      "323671498": 8051,
      "agenda": 8052,
      "485829958": 8053,
      "4864864864864865": 8054,
      "terminology": 8055,
      "34883721": 8056,
      "sparingly": 8057,
      "Negro": 8058,
      "465506126": 8059,
      "3958333333333333": 8060,
      "39285714285714285": 8061,
      "8076923076923077": 8062,
      "8055555555555556": 8063,
      "8042870458": 8064,
      "9629629629629629": 8065,
      "702702702702704": 8066,
      "4782608695652174": 8067,
      "Inspiration": 8068,
      "coalesce": 8069,
      "flavors": 8070,
      "7826086956521738": 8071,
      "6818181818181817": 8072,
      "68960863698": 8073,
      "interlocutor": 8074,
      "extensively": 8075,
      "illogical": 8076,
      "clandestine": 8077,
      "institution": 8078,
      "occasion": 8079,
      "013546798029": 8080,
      "gossiping": 8081,
      "9210526315789473": 8082,
      "7419354838709677": 8083,
      "6744186046511628": 8084,
      "7916666666666667": 8085,
      "8620689655172413": 8086,
      "buffet": 8087,
      "8974358974358975": 8088,
      "8717948717948718": 8089,
      "8518518518518519": 8090,
      "975609756097561": 8091,
      "83496007098": 8092,
      "3157894736842106": 8093,
      "determined": 8094,
      "colossal": 8095,
      "contribution": 8096,
      "1403508776": 8097,
      "04181818181818182": 8098,
      "cataloged": 8099,
      "predominantly": 8100,
      "05802968960863698": 8101,
      "09342560553633217": 8102,
      "09239130434782608": 8103,
      "19230769230769232": 8104,
      "0344827586206897": 8105,
      "820512820512821": 8106,
      "23684210526315788": 8107,
      "0714285714285716": 8108,
      "demonstrating": 8109,
      "008387698042870458": 8110,
      "70967741935484": 8111,
      "037037037037037035": 8112,
      "30612244897959184": 8113,
      "🦉🌳🌑🦇🤫✨🤨": 8114,
      "🦉✨🌌🌳🌙💫": 8115,
      "736842105263158": 8116,
      "2571428571428571": 8117,
      "30434782608695654": 8118,
      "29824561403508776": 8119,
      "rendezvous": 8120,
      "6382978723404256": 8121,
      "80487804878049": 8122,
      "MAGNIFICENT": 8123,
      "SPECTACULAR": 8124,
      "03371783496007098": 8125,
      "014170040485829958": 8126,
      "016763378465506126": 8127,
      "025991792065663474": 8128,
      "010628019323671498": 8129,
      "020214030915576692": 8130,
      "9574468085106383": 8131,
      "southwestern": 8132,
      "2558139534883721": 8133,
      "0009718172983479105": 8134,
      "01354679802955665": 8135
    },
    "merges": [
      [
        "a",
        "t"
      ],
      [
        "i",
        "n"
      ],
      [
        "t",
        "h"
      ],
      [
        "o",
        "n"
      ],
      [
        "e",
        "s"
      ],
      [
        "e",
        "r"
      ],
      [
        "a",
        "l"
      ],
      [
        "o",
        "r"
      ],
      [
        "u",
        "l"
      ],
      [
        "i",
        "s"
      ],
      [
        "a",
        "n"
      ],
      [
        "r",
        "e"
      ],
      [
        "e",
        "n"
      ],
      [
        "t",
        "i"
      ],
      [
        "th",
        "e"
      ],
      [
        "o",
        "u"
      ],
      [
        "1",
        "0"
      ],
      [
        "o",
        "m"
      ],
      [
        "in",
        "g"
      ],
      [
        "i",
        "d"
      ],
      [
        "at",
        "e"
      ],
      [
        "3",
        "3"
      ],
      [
        "o",
        "f"
      ],
      [
        "a",
        "s"
      ],
      [
        "p",
        "l"
      ],
      [
        "an",
        "d"
      ],
      [
        "c",
        "ul"
      ],
      [
        "C",
        "al"
      ],
      [
        "cul",
        "ate"
      ],
      [
        "Cal",
        "culate"
      ],
      [
        "u",
        "u"
      ],
      [
        "r",
        "a"
      ],
      [
        "6",
        "6"
      ],
      [
        "t",
        "o"
      ],
      [
        "o",
        "l"
      ],
      [
        "i",
        "t"
      ],
      [
        "f",
        "or"
      ],
      [
        "u",
        "m"
      ],
      [
        "e",
        "d"
      ],
      [
        "a",
        "r"
      ],
      [
        "c",
        "t"
      ],
      [
        "u",
        "s"
      ],
      [
        "at",
        "i"
      ],
      [
        "o",
        "w"
      ],
      [
        "at",
        "or"
      ],
      [
        "o",
        "th"
      ],
      [
        "s",
        "id"
      ],
      [
        "b",
        "oth"
      ],
      [
        "v",
        "e"
      ],
      [
        "b",
        "y"
      ],
      [
        "S",
        "ol"
      ],
      [
        "sid",
        "es"
      ],
      [
        "ati",
        "on"
      ],
      [
        "m",
        "y"
      ],
      [
        "q",
        "u"
      ],
      [
        "l",
        "e"
      ],
      [
        "n",
        "e"
      ],
      [
        "ti",
        "on"
      ],
      [
        "1",
        "2"
      ],
      [
        "f",
        "r"
      ],
      [
        "pl",
        "y"
      ],
      [
        "u",
        "b"
      ],
      [
        "t",
        "ra"
      ],
      [
        "o",
        "o"
      ],
      [
        "ul",
        "ti"
      ],
      [
        "M",
        "ulti"
      ],
      [
        "Multi",
        "ply"
      ],
      [
        "i",
        "v"
      ],
      [
        "id",
        "e"
      ],
      [
        "tra",
        "ct"
      ],
      [
        "i",
        "m"
      ],
      [
        "i",
        "g"
      ],
      [
        "S",
        "ub"
      ],
      [
        "Sub",
        "tract"
      ],
      [
        "fr",
        "om"
      ],
      [
        "en",
        "t"
      ],
      [
        "33",
        "33"
      ],
      [
        "ator",
        "s"
      ],
      [
        "c",
        "re"
      ],
      [
        "1",
        "4"
      ],
      [
        "1",
        "6"
      ],
      [
        "i",
        "f"
      ],
      [
        "y",
        "ou"
      ],
      [
        "D",
        "iv"
      ],
      [
        "Div",
        "ide"
      ],
      [
        "p",
        "r"
      ],
      [
        "h",
        "e"
      ],
      [
        "w",
        "h"
      ],
      [
        "n",
        "um"
      ],
      [
        "i",
        "c"
      ],
      [
        "1",
        "1"
      ],
      [
        "ow",
        "l"
      ],
      [
        "s",
        "t"
      ],
      [
        "p",
        "er"
      ],
      [
        "e",
        "l"
      ],
      [
        "2",
        "5"
      ],
      [
        "2",
        "0"
      ],
      [
        "2",
        "8"
      ],
      [
        "66",
        "66"
      ],
      [
        "1",
        "8"
      ],
      [
        "c",
        "i"
      ],
      [
        "c",
        "e"
      ],
      [
        "a",
        "b"
      ],
      [
        "A",
        "d"
      ],
      [
        "0",
        "0"
      ],
      [
        "d",
        "en"
      ],
      [
        "l",
        "y"
      ],
      [
        "h",
        "is"
      ],
      [
        "im",
        "pl"
      ],
      [
        "e",
        "t"
      ],
      [
        "h",
        "t"
      ],
      [
        "u",
        "tion"
      ],
      [
        "qu",
        "ation"
      ],
      [
        "E",
        "quation"
      ],
      [
        "Sol",
        "ve"
      ],
      [
        "Sol",
        "ution"
      ],
      [
        "ou",
        "s"
      ],
      [
        "om",
        "in"
      ],
      [
        "ul",
        "t"
      ],
      [
        "T",
        "he"
      ],
      [
        "if",
        "y"
      ],
      [
        "uu",
        "uu"
      ],
      [
        "R",
        "es"
      ],
      [
        "S",
        "impl"
      ],
      [
        "er",
        "ators"
      ],
      [
        "num",
        "erators"
      ],
      [
        "den",
        "omin"
      ],
      [
        "Res",
        "ult"
      ],
      [
        "Simpl",
        "ify"
      ],
      [
        "1",
        "5"
      ],
      [
        "s",
        "e"
      ],
      [
        "e",
        "x"
      ],
      [
        "n",
        "d"
      ],
      [
        "v",
        "al"
      ],
      [
        "val",
        "u"
      ],
      [
        "w",
        "i"
      ],
      [
        "2",
        "7"
      ],
      [
        "es",
        "s"
      ],
      [
        "2",
        "4"
      ],
      [
        "a",
        "c"
      ],
      [
        "pr",
        "o"
      ],
      [
        "ig",
        "ht"
      ],
      [
        "us",
        "t"
      ],
      [
        "2",
        "2"
      ],
      [
        "b",
        "e"
      ],
      [
        "in",
        "d"
      ],
      [
        "a",
        "in"
      ],
      [
        "9",
        "9"
      ],
      [
        "u",
        "r"
      ],
      [
        "c",
        "om"
      ],
      [
        "th",
        "at"
      ],
      [
        "3",
        "6"
      ],
      [
        "5",
        "5"
      ],
      [
        "c",
        "on"
      ],
      [
        "m",
        "e"
      ],
      [
        "A",
        "I"
      ],
      [
        "E",
        "l"
      ],
      [
        "El",
        "f"
      ],
      [
        "valu",
        "e"
      ],
      [
        "l",
        "i"
      ],
      [
        "w",
        "l"
      ],
      [
        "O",
        "wl"
      ],
      [
        "k",
        "e"
      ],
      [
        "1",
        "7"
      ],
      [
        ".",
        "."
      ],
      [
        "4",
        "4"
      ],
      [
        "H",
        "is"
      ],
      [
        "3",
        "0"
      ],
      [
        "4",
        "0"
      ],
      [
        "s",
        "h"
      ],
      [
        "es",
        "t"
      ],
      [
        "a",
        "p"
      ],
      [
        "cre",
        "as"
      ],
      [
        "5",
        "7"
      ],
      [
        "e",
        "m"
      ],
      [
        "p",
        "re"
      ],
      [
        "wi",
        "th"
      ],
      [
        "as",
        "s"
      ],
      [
        "a",
        "y"
      ],
      [
        "wh",
        "at"
      ],
      [
        "c",
        "h"
      ],
      [
        "l",
        "l"
      ],
      [
        "d",
        "e"
      ],
      [
        "us",
        "er"
      ],
      [
        "1",
        "9"
      ],
      [
        "3",
        "5"
      ],
      [
        "j",
        "ust"
      ],
      [
        "ou",
        "t"
      ],
      [
        "k",
        "ing"
      ],
      [
        "8",
        "8"
      ],
      [
        "u",
        "n"
      ],
      [
        "Ad",
        "d"
      ],
      [
        "a",
        "d"
      ],
      [
        "ne",
        "ed"
      ],
      [
        "o",
        "ul"
      ],
      [
        "7",
        "7"
      ],
      [
        "v",
        "er"
      ],
      [
        "1",
        "3"
      ],
      [
        "oul",
        "d"
      ],
      [
        "2",
        "9"
      ],
      [
        "i",
        "r"
      ],
      [
        "c",
        "al"
      ],
      [
        "ou",
        "nd"
      ],
      [
        "2",
        "1"
      ],
      [
        "m",
        "ass"
      ],
      [
        "a",
        "re"
      ],
      [
        "is",
        "h"
      ],
      [
        "4",
        "5"
      ],
      [
        "3333",
        "3333"
      ],
      [
        "li",
        "ke"
      ],
      [
        "57",
        "14"
      ],
      [
        "per",
        "s"
      ],
      [
        "4",
        "9"
      ],
      [
        "com",
        "m"
      ],
      [
        "ab",
        "out"
      ],
      [
        "a",
        "m"
      ],
      [
        "3",
        "2"
      ],
      [
        "O",
        "uuuu"
      ],
      [
        "k",
        "n"
      ],
      [
        "a",
        "g"
      ],
      [
        "b",
        "er"
      ],
      [
        "comm",
        "on"
      ],
      [
        "denomin",
        "ators"
      ],
      [
        "6",
        "4"
      ],
      [
        "u",
        "re"
      ],
      [
        "u",
        "t"
      ],
      [
        "F",
        "ind"
      ],
      [
        "Ad",
        "just"
      ],
      [
        "denomin",
        "ator"
      ],
      [
        "as",
        "king"
      ],
      [
        "4",
        "8"
      ],
      [
        "p",
        "on"
      ],
      [
        "en",
        "ce"
      ],
      [
        "i",
        "l"
      ],
      [
        "you",
        "r"
      ],
      [
        "28",
        "5714"
      ],
      [
        "t",
        "er"
      ],
      [
        "3",
        "4"
      ],
      [
        "t",
        "r"
      ],
      [
        "sh",
        "ould"
      ],
      [
        "4",
        "2"
      ],
      [
        "th",
        "is"
      ],
      [
        "it",
        "s"
      ],
      [
        "r",
        "es"
      ],
      [
        "Ouuuu",
        "uu"
      ],
      [
        "pers",
        "on"
      ],
      [
        "ne",
        "w"
      ],
      [
        "5",
        "6"
      ],
      [
        "u",
        "ne"
      ],
      [
        "al",
        "l"
      ],
      [
        "P",
        "une"
      ],
      [
        "Pune",
        "et"
      ],
      [
        "person",
        "a"
      ],
      [
        "ci",
        "ous"
      ],
      [
        "n",
        "o"
      ],
      [
        "5",
        "0"
      ],
      [
        "6666",
        "6666"
      ],
      [
        "s",
        "p"
      ],
      [
        "f",
        "e"
      ],
      [
        "N",
        "e"
      ],
      [
        "I",
        "t"
      ],
      [
        "9",
        "x"
      ],
      [
        "K",
        "um"
      ],
      [
        "Kum",
        "ar"
      ],
      [
        "I",
        "f"
      ],
      [
        "4",
        "6"
      ],
      [
        "..",
        "."
      ],
      [
        "num",
        "ber"
      ],
      [
        "on",
        "e"
      ],
      [
        "res",
        "pon"
      ],
      [
        "g",
        "e"
      ],
      [
        "an",
        "t"
      ],
      [
        "3",
        "8"
      ],
      [
        "m",
        "o"
      ],
      [
        "3",
        "7"
      ],
      [
        "2",
        "6"
      ],
      [
        "el",
        "l"
      ],
      [
        "Ne",
        "w"
      ],
      [
        "1",
        "x"
      ],
      [
        "2",
        "3"
      ],
      [
        "s",
        "ound"
      ],
      [
        "pre",
        "cious"
      ],
      [
        "%",
        ","
      ],
      [
        "ou",
        "g"
      ],
      [
        "creas",
        "e"
      ],
      [
        "creas",
        "es"
      ],
      [
        "i",
        "ous"
      ],
      [
        "w",
        "e"
      ],
      [
        "ain",
        "t"
      ],
      [
        "f",
        "ul"
      ],
      [
        "h",
        "um"
      ],
      [
        "s",
        "o"
      ],
      [
        "M",
        "ish"
      ],
      [
        "Mish",
        "ra"
      ],
      [
        "h",
        "er"
      ],
      [
        "99",
        "99"
      ],
      [
        "oo",
        "oo"
      ],
      [
        "is",
        "t"
      ],
      [
        "l",
        "ight"
      ],
      [
        "owl",
        "ed"
      ],
      [
        "kn",
        "owled"
      ],
      [
        "8",
        "1"
      ],
      [
        "for",
        "m"
      ],
      [
        "3",
        "9"
      ],
      [
        "em",
        "o"
      ],
      [
        "sound",
        "s"
      ],
      [
        "00",
        "00"
      ],
      [
        "u",
        "nd"
      ],
      [
        "c",
        "ent"
      ],
      [
        "m",
        "aint"
      ],
      [
        "maint",
        "ain"
      ],
      [
        "6",
        "x"
      ],
      [
        "8",
        "x"
      ],
      [
        "8",
        "0"
      ],
      [
        "11",
        "11"
      ],
      [
        "3",
        "x"
      ],
      [
        "10",
        "x"
      ],
      [
        "es",
        "tion"
      ],
      [
        "p",
        "o"
      ],
      [
        "M",
        "y"
      ],
      [
        "3",
        "1"
      ],
      [
        "w",
        "or"
      ],
      [
        "5",
        "x"
      ],
      [
        "55",
        "55"
      ],
      [
        "6",
        "3"
      ],
      [
        "9",
        "6"
      ],
      [
        "W",
        "h"
      ],
      [
        "t",
        "le"
      ],
      [
        "10",
        "0"
      ],
      [
        "qu",
        "estion"
      ],
      [
        "ver",
        "y"
      ],
      [
        "9",
        "0"
      ],
      [
        "7",
        "0"
      ],
      [
        "7",
        "x"
      ],
      [
        "n",
        "at"
      ],
      [
        "a",
        "v"
      ],
      [
        "it",
        "y"
      ],
      [
        "ti",
        "c"
      ],
      [
        "l",
        "it"
      ],
      [
        "b",
        "r"
      ],
      [
        "j",
        "is"
      ],
      [
        "n",
        "ess"
      ],
      [
        "at",
        "om"
      ],
      [
        "4",
        "x"
      ],
      [
        "ic",
        "al"
      ],
      [
        "emo",
        "jis"
      ],
      [
        "no",
        "t"
      ],
      [
        "knowled",
        "ge"
      ],
      [
        "2",
        "x"
      ],
      [
        "re",
        "ci"
      ],
      [
        "ab",
        "le"
      ],
      [
        "pro",
        "cal"
      ],
      [
        "reci",
        "procal"
      ],
      [
        "4",
        "7"
      ],
      [
        "oo",
        "d"
      ],
      [
        "ate",
        "d"
      ],
      [
        "t",
        "in"
      ],
      [
        "us",
        "e"
      ],
      [
        "I",
        "n"
      ],
      [
        "7",
        "2"
      ],
      [
        "en",
        "d"
      ],
      [
        "c",
        "o"
      ],
      [
        "20",
        "25"
      ],
      [
        "c",
        "or"
      ],
      [
        "4",
        "1"
      ],
      [
        "en",
        "ti"
      ],
      [
        "d",
        "o"
      ],
      [
        "at",
        "ing"
      ],
      [
        "an",
        "s"
      ],
      [
        "5",
        "4"
      ],
      [
        "ou",
        "r"
      ],
      [
        "p",
        "h"
      ],
      [
        "s",
        "er"
      ],
      [
        "w",
        "ay"
      ],
      [
        "7",
        "6"
      ],
      [
        "ac",
        "cent"
      ],
      [
        "s",
        "u"
      ],
      [
        "l",
        "o"
      ],
      [
        "lit",
        "tle"
      ],
      [
        "atom",
        "ic"
      ],
      [
        "22",
        "22"
      ],
      [
        "s",
        "m"
      ],
      [
        "it",
        "e"
      ],
      [
        "und",
        "er"
      ],
      [
        "88",
        "88"
      ],
      [
        "p",
        "e"
      ],
      [
        "t",
        "one"
      ],
      [
        "p",
        "or"
      ],
      [
        "4",
        "3"
      ],
      [
        "c",
        "ur"
      ],
      [
        "h",
        "ap"
      ],
      [
        "ap",
        "pro"
      ],
      [
        "g",
        "r"
      ],
      [
        "nat",
        "ure"
      ],
      [
        "b",
        "ut"
      ],
      [
        "respon",
        "d"
      ],
      [
        "12",
        "5"
      ],
      [
        "A",
        "s"
      ],
      [
        "st",
        "and"
      ],
      [
        "d",
        "er"
      ],
      [
        "m",
        "ent"
      ],
      [
        "in",
        "e"
      ],
      [
        "it",
        "al"
      ],
      [
        "c",
        "an"
      ],
      [
        "44",
        "44"
      ],
      [
        "d",
        "ig"
      ],
      [
        "wi",
        "ll"
      ],
      [
        "O",
        "oooo"
      ],
      [
        "6",
        "0"
      ],
      [
        "m",
        "a"
      ],
      [
        "dig",
        "ital"
      ],
      [
        "an",
        "ce"
      ],
      [
        "ar",
        "n"
      ],
      [
        "o",
        "b"
      ],
      [
        "t",
        "s"
      ],
      [
        "ti",
        "ve"
      ],
      [
        "Wh",
        "at"
      ],
      [
        "ra",
        "re"
      ],
      [
        "re",
        "f"
      ],
      [
        "f",
        "l"
      ],
      [
        "i",
        "on"
      ],
      [
        "m",
        "or"
      ],
      [
        "77",
        "77"
      ],
      [
        "285714",
        "285714"
      ],
      [
        "w",
        "is"
      ],
      [
        "the",
        "ir"
      ],
      [
        "ex",
        "ist"
      ],
      [
        "in",
        "t"
      ],
      [
        "d",
        "i"
      ],
      [
        "33333333",
        "3333"
      ],
      [
        "10",
        "00"
      ],
      [
        "7",
        "5"
      ],
      [
        "oug",
        "ht"
      ],
      [
        "🦉",
        "✨"
      ],
      [
        "in",
        "form"
      ],
      [
        "fe",
        "el"
      ],
      [
        "i",
        "z"
      ],
      [
        "in",
        "creases"
      ],
      [
        "th",
        "ing"
      ],
      [
        "In",
        "crease"
      ],
      [
        "a",
        "ve"
      ],
      [
        "ig",
        "n"
      ],
      [
        "se",
        "e"
      ],
      [
        "e",
        "p"
      ],
      [
        "under",
        "stand"
      ],
      [
        "D",
        "e"
      ],
      [
        "d",
        "is"
      ],
      [
        "cre",
        "ator"
      ],
      [
        "i",
        "le"
      ],
      [
        "er",
        "e"
      ],
      [
        "n",
        "ight"
      ],
      [
        "as",
        "t"
      ],
      [
        "333333333333",
        "33"
      ],
      [
        "f",
        "ic"
      ],
      [
        "le",
        "arn"
      ],
      [
        "mo",
        "st"
      ],
      [
        "c",
[...]
