{
  "version": "1.0",
  "truncation": null,
  "padding": null,
  "added_tokens": [
    {
      "id": 0,
      "content": "[PAD]",
      "single_word": false,
      "lstrip": false,
      "rstrip": false,
      "normalized": false,
      "special": true
    },
    {
      "id": 1,
      "content": "[UNK]",
      "single_word": false,
      "lstrip": false,
      "rstrip": false,
      "normalized": false,
      "special": true
    },
    {
      "id": 2,
      "content": "[CLS]",
      "single_word": false,
      "lstrip": false,
      "rstrip": false,
      "normalized": false,
      "special": true
    },
    {
      "id": 3,
      "content": "[SEP]",
      "single_word": false,
      "lstrip": false,
      "rstrip": false,
      "normalized": false,
      "special": true
    },
    {
      "id": 4,
      "content": "[MASK]",
      "single_word": false,
      "lstrip": false,
      "rstrip": false,
      "normalized": false,
      "special": true
    },
    {
      "id": 5,
      "content": "[EOS]",
      "single_word": false,
      "lstrip": false,
      "rstrip": false,
      "normalized": false,
      "special": true
    },
    {
      "id": 6,
      "content": "[THINK]",
      "single_word": false,
      "lstrip": false,
      "rstrip": false,
      "normalized": false,
      "special": true
    },
    {
      "id": 7,
      "content": "[MOOD]",
      "single_word": false,
      "lstrip": false,
      "rstrip": false,
      "normalized": false,
      "special": true
    }
  ],
  "normalizer": null,
  "pre_tokenizer": {
    "type": "Whitespace"
  },
  "post_processor": null,
  "decoder": null,
  "model": {
    "type": "BPE",
    "dropout": null,
    "unk_token": null,
    "continuing_subword_prefix": null,
    "end_of_word_suffix": null,
    "fuse_unk": false,
    "byte_fallback": false,
    "ignore_merges": false,
    "vocab": {
      "[PAD]": 0,
      "[UNK]": 1,
      "[CLS]": 2,
      "[SEP]": 3,
      "[MASK]": 4,
      "[EOS]": 5,
      "[THINK]": 6,
      "[MOOD]": 7,
      "!": 8,
      "\"": 9,
      "'": 10,
      "(": 11,
      ")": 12,
      "*": 13,
      ",": 14,
      "-": 15,
      ".": 16,
      "/": 17,
      "0": 18,
      "1": 19,
      "2": 20,
      "3": 21,
      "4": 22,
      "5": 23,
      "6": 24,
      "7": 25,
      "8": 26,
      "9": 27,
      ":": 28,
      ";": 29,
      "<": 30,
      "=": 31,
      "?": 32,
      "A": 33,
      "B": 34,
      "C": 35,
      "D": 36,
      "E": 37,
      "F": 38,
      "G": 39,
      "H": 40,
      "I": 41,
      "J": 42,
      "K": 43,
      "L": 44,
      "M": 45,
      "N": 46,
      "O": 47,
      "P": 48,
      "Q": 49,
      "R": 50,
      "S": 51,
      "T": 52,
      "U": 53,
      "V": 54,
      "W": 55,
      "X": 56,
      "Y": 57,
      "Z": 58,
      "^": 59,
      "_": 60,
      "`": 61,
      "a": 62,
      "b": 63,
      "c": 64,
      "d": 65,
      "e": 66,
      "f": 67,
      "g": 68,
      "h": 69,
      "i": 70,
      "j": 71,
      "k": 72,
      "l": 73,
      "m": 74,
      "n": 75,
      "o": 76,
      "p": 77,
      "q": 78,
      "r": 79,
      "s": 80,
      "t": 81,
      "u": 82,
      "v": 83,
      "w": 84,
      "x": 85,
      "y": 86,
      "z": 87,
      "{": 88,
      "}": 89,
      "~": 90,
      "²": 91,
      "³": 92,
      "¹": 93,
      "à": 94,
      "è": 95,
      "é": 96,
      "ê": 97,
      "û": 98,
      "‍": 99,
      "–": 100,
      "—": 101,
      "‘": 102,
      "’": 103,
      "…": 104,
      "⁶": 105,
      "⁷": 106,
      "⁻": 107,
      "↔": 108,
      "⏱": 109,
      "⏳": 110,
      "☀": 111,
      "☁": 112,
      "☕": 113,
      "♀": 114,
      "♂": 115,
      "♟": 116,
      "⚓": 117,
      "⚔": 118,
      "⚖": 119,
      "⚙": 120,
      "⚛": 121,
      "⚠": 122,
      "⚡": 123,
      "⚫": 124,
      "⛰": 125,
      "✅": 126,
      "✈": 127,
      "✉": 128,
      "✋": 129,
      "✍": 130,
      "✨": 131,
      "❄": 132,
      "❌": 133,
      "❓": 134,
      "⭐": 135,
      "〰": 136,
      "️": 137,
      "🌀": 138,
      "🌃": 139,
      "🌄": 140,
      "🌅": 141,
      "🌈": 142,
      "🌊": 143,
      "🌌": 144,
      "🌍": 145,
      "🌎": 146,
      "🌐": 147,
      "🌑": 148,
      "🌒": 149,
      "🌕": 150,
      "🌙": 151,
      "🌞": 152,
      "🌟": 153,
      "🌠": 154,
      "🌡": 155,
      "🌤": 156,
      "🌧": 157,
      "🌫": 158,
      "🌬": 159,
      "🌰": 160,
      "🌱": 161,
      "🌲": 162,
      "🌳": 163,
      "🌵": 164,
      "🌸": 165,
      "🌻": 166,
      "🌼": 167,
      "🌾": 168,
      "🌿": 169,
      "🍂": 170,
      "🍃": 171,
      "🍄": 172,
      "🍇": 173,
      "🍉": 174,
      "🍊": 175,
      "🍍": 176,
      "🍎": 177,
      "🍐": 178,
      "🍒": 179,
      "🍓": 180,
      "🍝": 181,
      "🍩": 182,
      "🍪": 183,
      "🍯": 184,
      "🍰": 185,
      "🍳": 186,
      "🍽": 187,
      "🎂": 188,
      "🎈": 189,
      "🎉": 190,
      "🎓": 191,
      "🎟": 192,
      "🎨": 193,
      "🎭": 194,
      "🎯": 195,
      "🎶": 196,
      "🏁": 197,
      "🏃": 198,
      "🏆": 199,
      "🏏": 200,
      "🏔": 201,
      "🏙": 202,
      "🏜": 203,
      "🏞": 204,
      "🏡": 205,
      "🏮": 206,
      "🏽": 207,
      "🐁": 208,
      "🐈": 209,
      "🐉": 210,
      "🐍": 211,
      "🐛": 212,
      "🐜": 213,
      "🐝": 214,
      "🐣": 215,
      "🐦": 216,
      "🐭": 217,
      "🐱": 218,
      "🐴": 219,
      "🐶": 220,
      "🐾": 221,
      "🐿": 222,
      "👀": 223,
      "👁": 224,
      "👂": 225,
      "👃": 226,
      "👅": 227,
      "👋": 228,
      "👍": 229,
      "👎": 230,
      "👏": 231,
      "👐": 232,
      "👑": 233,
      "👻": 234,
      "💃": 235,
      "💅": 236,
      "💊": 237,
      "💌": 238,
      "💎": 239,
      "💔": 240,
      "💕": 241,
      "💖": 242,
      "💘": 243,
      "💙": 244,
      "💜": 245,
      "💞": 246,
      "💡": 247,
      "💤": 248,
      "💥": 249,
      "💧": 250,
      "💨": 251,
      "💪": 252,
      "💫": 253,
      "💬": 254,
      "💭": 255,
      "💰": 256,
      "💻": 257,
      "💼": 258,
      "💾": 259,
      "📄": 260,
      "📅": 261,
      "📈": 262,
      "📉": 263,
      "📊": 264,
      "📏": 265,
      "📖": 266,
      "📚": 267,
      "📜": 268,
      "📝": 269,
      "📣": 270,
      "📧": 271,
      "📯": 272,
      "📱": 273,
      "🔂": 274,
      "🔈": 275,
      "🔊": 276,
      "🔋": 277,
      "🔍": 278,
      "🔎": 279,
      "🔗": 280,
      "🔢": 281,
      "🔥": 282,
      "🔬": 283,
      "🔭": 284,
      "🔮": 285,
      "🕊": 286,
      "🕰": 287,
      "🕳": 288,
      "🕵": 289,
      "🕷": 290,
      "🕸": 291,
      "🕺": 292,
      "🖤": 293,
      "🖥": 294,
      "🖱": 295,
      "🗄": 296,
      "🗓": 297,
      "🗝": 298,
      "🗣": 299,
      "🗨": 300,
      "🗺": 301,
      "😂": 302,
      "😄": 303,
      "😅": 304,
      "😆": 305,
      "😈": 306,
      "😉": 307,
      "😊": 308,
      "😋": 309,
      "😌": 310,
      "😎": 311,
      "😏": 312,
      "😒": 313,
      "😔": 314,
      "😚": 315,
      "😜": 316,
      "😞": 317,
      "😟": 318,
      "😠": 319,
      "😤": 320,
      "😥": 321,
      "😨": 322,
      "😬": 323,
      "😭": 324,
      "😱": 325,
      "😴": 326,
      "😼": 327,
      "😾": 328,
      "🙄": 329,
      "🙅": 330,
      "🙏": 331,
      "🚀": 332,
      "🚗": 333,
      "🚦": 334,
      "🚨": 335,
      "🚩": 336,
      "🚫": 337,
      "🚶": 338,
      "🛌": 339,
      "🛍": 340,
      "🛠": 341,
      "🛣": 342,
      "🤍": 343,
      "🤏": 344,
      "🤓": 345,
      "🤔": 346,
      "🤖": 347,
      "🤗": 348,
      "🤝": 349,
      "🤠": 350,
      "🤢": 351,
      "🤣": 352,
      "🤦": 353,
      "🤨": 354,
      "🤩": 355,
      "🤪": 356,
      "🤫": 357,
      "🤯": 358,
      "🤷": 359,
      "🤸": 360,
      "🥁": 361,
      "🥇": 362,
      "🥕": 363,
      "🥗": 364,
      "🥚": 365,
      "🥭": 366,
      "🥰": 367,
      "🥱": 368,
      "🥳": 369,
      "🥶": 370,
      "🥺": 371,
      "🦄": 372,
      "🦅": 373,
      "🦇": 374,
      "🦉": 375,
      "🦊": 376,
      "🦋": 377,
      "🦌": 378,
      "🦔": 379,
      "🦗": 380,
      "🦛": 381,
      "🦠": 382,
      "🦡": 383,
      "🦹": 384,
      "🧀": 385,
      "🧁": 386,
      "🧐": 387,
      "🧑": 388,
      "🧚": 389,
      "🧠": 390,
      "🧦": 391,
      "🧩": 392,
      "🧪": 393,
      "🧭": 394,
      "🧮": 395,
      "🧵": 396,
      "🧶": 397,
      "🩰": 398,
      "🪄": 399,
      "🪙": 400,
      "🪞": 401,
      "🪦": 402,
      "🪱": 403,
      "🪵": 404,
      "🪶": 405,
      "🫀": 406,
      "🫏": 407,
      "🫐": 408,
      "🫴": 409,
      "🫵": 410,
      "in": 411,
      "th": 412,
      "is": 413,
      "er": 414,
      "at": 415,
      "an": 416,
      "ou": 417,
      "re": 418,
      "on": 419,
      "the": 420,
      "ing": 421,
      "en": 422,
      "as": 423,
      "of": 424,
      "or": 425,
      "al": 426,
      "es": 427,
      "it": 428,
      "and": 429,
      "uu": 430,
      "le": 431,
      "to": 432,
      "ic": 433,
      "ow": 434,
      "oo": 435,
      "ar": 436,
      "ed": 437,
      "ion": 438,
      "us": 439,
      "ent": 440,
      "om": 441,
      "el": 442,
      "my": 443,
      "ig": 444,
      "ass": 445,
      "you": 446,
      "Th": 447,
      "st": 448,
      "mass": 449,
      "ne": 450,
      "for": 451,
      "per": 452,
      "his": 453,
      "um": 454,
      "owl": 455,
      "ab": 456,
      "ht": 457,
      "ly": 458,
      "pr": 459,
      "ac": 460,
      "The": 461,
      "nd": 462,
      "qu": 463,
      "wh": 464,
      "mo": 465,
      "ce": 466,
      "uuuu": 467,
      "ous": 468,
      "am": 469,
      "ight": 470,
      "li": 471,
      "se": 472,
      "est": 473,
      "et": 474,
      "wi": 475,
      "pre": 476,
      "ci": 477,
      "ke": 478,
      "ation": 479,
      "ex": 480,
      "sp": 481,
      "ap": 482,
      "ve": 483,
      "..": 484,
      "ld": 485,
      "im": 486,
      "de": 487,
      "ur": 488,
      "that": 489,
      "His": 490,
      "be": 491,
      "ch": 492,
      "ain": 493,
      "king": 494,
      "pro": 495,
      "out": 496,
      "ct": 497,
      "ess": 498,
      "con": 499,
      "ver": 500,
      "user": 501,
      "sh": 502,
      "AI": 503,
      "ll": 504,
      "lf": 505,
      "un": 506,
      "need": 507,
      "are": 508,
      "with": 509,
      "like": 510,
      "atom": 511,
      "ound": 512,
      "wl": 513,
      "Owl": 514,
      "Elf": 515,
      "its": 516,
      "about": 517,
      "ay": 518,
      "asking": 519,
      "ate": 520,
      "ould": 521,
      "if": 522,
      "ag": 523,
      "kn": 524,
      "ut": 525,
      "atomic": 526,
      "ir": 527,
      "ad": 528,
      "know": 529,
      "cre": 530,
      "ter": 531,
      "Ouuuu": 532,
      "ul": 533,
      "this": 534,
      "me": 535,
      "quest": 536,
      "ond": 537,
      "ant": 538,
      "ri": 539,
      "ence": 540,
      "oooo": 541,
      "ure": 542,
      "sound": 543,
      "ical": 544,
      "what": 545,
      "all": 546,
      "ther": 547,
      "one": 548,
      "It": 549,
      "tr": 550,
      "pers": 551,
      "we": 552,
      "fe": 553,
      "ell": 554,
      "so": 555,
      "form": 556,
      "...": 557,
      "ot": 558,
      "should": 559,
      "question": 560,
      "em": 561,
      "led": 562,
      "lit": 563,
      "your": 564,
      "emo": 565,
      "Ouuuuuu": 566,
      "vi": 567,
      "pl": 568,
      "su": 569,
      "sounds": 570,
      "person": 571,
      "ra": 572,
      "ive": 573,
      "resp": 574,
      "com": 575,
      "hum": 576,
      "jis": 577,
      "persona": 578,
      "ist": 579,
      "ust": 580,
      "cious": 581,
      "ish": 582,
      "co": 583,
      "emojis": 584,
      "appro": 585,
      "id": 586,
      "ity": 587,
      "ely": 588,
      "light": 589,
      "oug": 590,
      "ledg": 591,
      "ment": 592,
      "lo": 593,
      "knowledg": 594,
      "fr": 595,
      "und": 596,
      "ating": 597,
      "very": 598,
      "tle": 599,
      "por": 600,
      "pres": 601,
      "ful": 602,
      "Ooooo": 603,
      "precious": 604,
      "aint": 605,
      "Wh": 606,
      "by": 607,
      "cor": 608,
      "ine": 609,
      "ind": 610,
      "creat": 611,
      "il": 612,
      "little": 613,
      "ness": 614,
      "ph": 615,
      "do": 616,
      "end": 617,
      "une": 618,
      "acc": 619,
      "My": 620,
      "use": 621,
      "ific": 622,
      "wor": 623,
      "ious": 624,
      "not": 625,
      "Pune": 626,
      "po": 627,
      "Puneet": 628,
      "knowledge": 629,
      "maint": 630,
      "maintain": 631,
      "spe": 632,
      "Kum": 633,
      "Kumar": 634,
      "fo": 635,
      "hap": 636,
      "inform": 637,
      "ans": 638,
      "gr": 639,
      "tin": 640,
      "av": 641,
      "tone": 642,
      ").": 643,
      "nat": 644,
      "can": 645,
      "able": 646,
      "comp": 647,
      "incor": 648,
      "incorpor": 649,
      "**": 650,
      "ast": 651,
      "ele": 652,
      "cur": 653,
      "You": 654,
      "art": 655,
      "pt": 656,
      "but": 657,
      "accent": 658,
      "hoo": 659,
      "information": 660,
      "units": 661,
      "way": 662,
      "onder": 663,
      "ma": 664,
      "act": 665,
      "val": 666,
      "respond": 667,
      "ame": 668,
      "thing": 669,
      "element": 670,
      "see": 671,
      "As": 672,
      "ire": 673,
      "stand": 674,
      "ately": 675,
      "int": 676,
      "sm": 677,
      "xim": 678,
      "night": 679,
      "cient": 680,
      "ink": 681,
      "approxim": 682,
      "will": 683,
      "our": 684,
      "br": 685,
      "ance": 686,
      "Mish": 687,
      "Mishra": 688,
      "most": 689,
      "ies": 690,
      "valu": 691,
      "provi": 692,
      "fer": 693,
      "ser": 694,
      "from": 695,
      "approximately": 696,
      "under": 697,
      "ere": 698,
      "What": 699,
      "he": 700,
      "🦉✨": 701,
      "haps": 702,
      "ium": 703,
      "whis": 704,
      "iz": 705,
      "tiny": 706,
      "ite": 707,
      "ital": 708,
      "ile": 709,
      "exist": 710,
      "just": 711,
      "oh": 712,
      "lear": 713,
      "ob": 714,
      "ome": 715,
      "their": 716,
      "ep": 717,
      "dig": 718,
      "ought": 719,
      "gen": 720,
      "wis": 721,
      "digital": 722,
      "expl": 723,
      "ood": 724,
      "man": 725,
      "into": 726,
      "human": 727,
      "wonder": 728,
      "ro": 729,
      "elf": 730,
      "using": 731,
      "ave": 732,
      "provide": 733,
      "incorporating": 734,
      "ber": 735,
      "ard": 736,
      "feel": 737,
      "ual": 738,
      "ough": 739,
      "fri": 740,
      "friend": 741,
      "'.": 742,
      "12": 743,
      "od": 744,
      "understand": 745,
      "fore": 746,
      "some": 747,
      "nature": 748,
      "ign": 749,
      "perhaps": 750,
      "dis": 751,
      "ner": 752,
      "20": 753,
      "learn": 754,
      "fl": 755,
      "rare": 756,
      "eng": 757,
      "respon": 758,
      "being": 759,
      "peri": 760,
      "while": 761,
      "ction": 762,
      "This": 763,
      "ural": 764,
      "ens": 765,
      "ts": 766,
      "more": 767,
      "tru": 768,
      "cess": 769,
      "whisper": 770,
      "ask": 771,
      "existence": 772,
      "ven": 773,
      "imp": 774,
      "weight": 775,
      "inter": 776,
      "25": 777,
      "cept": 778,
      "2025": 779,
      "des": 780,
      "amu": 781,
      "scient": 782,
      "ach": 783,
      "ather": 784,
      "dre": 785,
      "10": 786,
      "ill": 787,
      "speci": 788,
      "small": 789,
      "pri": 790,
      "ect": 791,
      "del": 792,
      "press": 793,
      "rough": 794,
      "dat": 795,
      "age": 796,
      "creator": 797,
      "response": 798,
      "wer": 799,
      "Hoo": 800,
      "Ooooooh": 801,
      "ark": 802,
      "manner": 803,
      "answer": 804,
      "process": 805,
      "scientific": 806,
      "present": 807,
      "ial": 808,
      "have": 809,
      "thought": 810,
      "such": 811,
      "ho": 812,
      "ery": 813,
      "no": 814,
      "gu": 815,
      "appropri": 816,
      "how": 817,
      "ations": 818,
      "vious": 819,
      "tre": 820,
      "ated": 821,
      "appropriate": 822,
      "through": 823,
      "inqu": 824,
      "myst": 825,
      "cal": 826,
      "engag": 827,
      "cl": 828,
      "express": 829,
      "io": 830,
      "str": 831,
      "curious": 832,
      "Ouuuuuuu": 833,
      "self": 834,
      "dream": 835,
      "name": 836,
      "data": 837,
      "prof": 838,
      "ically": 839,
      "Ouuuuu": 840,
      "ble": 841,
      "would": 842,
      "day": 843,
      "valuable": 844,
      "dom": 845,
      "feather": 846,
      "own": 847,
      "cont": 848,
      "mag": 849,
      "engaging": 850,
      "secre": 851,
      "ss": 852,
      "sil": 853,
      "sub": 854,
      "previous": 855,
      "gent": 856,
      "want": 857,
      "Ooooooo": 858,
      "forest": 859,
      "up": 860,
      "vo": 861,
      "conne": 862,
      "anal": 863,
      "uni": 864,
      "understanding": 865,
      "who": 866,
      "seek": 867,
      "sy": 868,
      "any": 869,
      "Is": 870,
      "ide": 871,
      "ament": 872,
      "refer": 873,
      "iv": 874,
      "atter": 875,
      "enc": 876,
      "nt": 877,
      "vent": 878,
      "star": 879,
      "moon": 880,
      "rom": 881,
      "intr": 882,
      "world": 883,
      "maintaining": 884,
      "mood": 885,
      "creation": 886,
      "kes": 887,
      "work": 888,
      "obser": 889,
      "cons": 890,
      "Ar": 891,
      "ear": 892,
      "rel": 893,
      "ished": 894,
      "play": 895,
      "sing": 896,
      "log": 897,
      "Li": 898,
      "ry": 899,
      "ory": 900,
      "ack": 901,
      "fle": 902,
      "ling": 903,
      "uch": 904,
      "analy": 905,
      "ins": 906,
      "grand": 907,
      "there": 908,
      "even": 909,
      "hel": 910,
      "That": 911,
      "ings": 912,
      "wisdom": 913,
      "simp": 914,
      "ational": 915,
      "gentle": 916,
      "avor": 917,
      "makes": 918,
      "fin": 919,
      "vast": 920,
      "ich": 921,
      "real": 922,
      "when": 923,
      "ms": 924,
      "cis": 925,
      "than": 926,
      "also": 927,
      "ition": 928,
      "ck": 929,
      "Oooooooh": 930,
      "abl": 931,
      "How": 932,
      "learning": 933,
      "inquir": 934,
      "establ": 935,
      "asc": 936,
      "igh": 937,
      "urn": 938,
      "created": 939,
      "something": 940,
      "tal": 941,
      "concept": 942,
      "inde": 943,
      "rogen": 944,
      "ext": 945,
      "essence": 946,
      "established": 947,
      "comput": 948,
      "value": 949,
      "much": 950,
      "ident": 951,
      "experi": 952,
      "pe": 953,
      "aw": 954,
      "chem": 955,
      "qui": 956,
      "which": 957,
      "might": 958,
      "read": 959,
      "vel": 960,
      "SO": 961,
      "net": 962,
      "umin": 963,
      "hoot": 964,
      "ject": 965,
      "truly": 966,
      "Think": 967,
      "umber": 968,
      "explain": 969,
      "acknowledge": 970,
      "they": 971,
      "ilit": 972,
      "pur": 973,
      "make": 974,
      "natural": 975,
      "Ne": 976,
      "ath": 977,
      "help": 978,
      "ey": 979,
      "fund": 980,
      "amental": 981,
      "fundamental": 982,
      "bit": 983,
      "dear": 984,
      "ff": 985,
      "exc": 986,
      "advent": 987,
      "network": 988,
      "ascin": 989,
      "try": 990,
      "Al": 991,
      "arity": 992,
      "precis": 993,
      "profound": 994,
      "her": 995,
      "mind": 996,
      "gre": 997,
      "bri": 998,
      "ense": 999,
      "indeed": 1000,
      "bu": 1001,
      "ellig": 1002,
      "wise": 1003,
      "comple": 1004,
      "think": 1005,
      "silent": 1006,
      "bo": 1007,
      "quiet": 1008,
      "JSO": 1009,
      "vers": 1010,
      "observ": 1011,
      "JSON": 1012,
      "ional": 1013,
      "ascinating": 1014,
      "Well": 1015,
      "ak": 1016,
      "dr": 1017,
      "cap": 1018,
      "owls": 1019,
      "them": 1020,
      "heart": 1021,
      "Do": 1022,
      "favor": 1023,
      "format": 1024,
      "In": 1025,
      "vis": 1026,
      "orine": 1027,
      "yet": 1028,
      "ative": 1029,
      "context": 1030,
      "has": 1031,
      "sical": 1032,
      "ions": 1033,
      "asure": 1034,
      "tw": 1035,
      "myster": 1036,
      "hor": 1037,
      "cu": 1038,
      "ting": 1039,
      "share": 1040,
      "logical": 1041,
      "specif": 1042,
      "phas": 1043,
      "ace": 1044,
      "utter": 1045,
      "favorite": 1046,
      "tim": 1047,
      "sad": 1048,
      "fascinating": 1049,
      "pose": 1050,
      "emphas": 1051,
      "date": 1052,
      "love": 1053,
      "cus": 1054,
      "oft": 1055,
      "incorporate": 1056,
      "elligence": 1057,
      "emphasiz": 1058,
      "ick": 1059,
      "Isn": 1060,
      "part": 1061,
      "lli": 1062,
      "simple": 1063,
      "brilli": 1064,
      "ge": 1065,
      "bl": 1066,
      "wonderful": 1067,
      "etic": 1068,
      "tical": 1069,
      "don": 1070,
      "deep": 1071,
      "say": 1072,
      "without": 1073,
      "ancient": 1074,
      "playful": 1075,
      "complex": 1076,
      "acknowledg": 1077,
      "frame": 1078,
      "rather": 1079,
      "ty": 1080,
      "happ": 1081,
      "slight": 1082,
      "aver": 1083,
      ")**": 1084,
      "well": 1085,
      "icate": 1086,
      "experience": 1087,
      "go": 1088,
      "number": 1089,
      "top": 1090,
      "cosm": 1091,
      "',": 1092,
      "find": 1093,
      "atic": 1094,
      "still": 1095,
      "den": 1096,
      "verse": 1097,
      "within": 1098,
      "cosmic": 1099,
      "inking": 1100,
      "neural": 1101,
      "where": 1102,
      "sign": 1103,
      "spark": 1104,
      "slightly": 1105,
      "bre": 1106,
      "irect": 1107,
      "*.": 1108,
      "par": 1109,
      "vir": 1110,
      "inquiry": 1111,
      "fact": 1112,
      "ary": 1113,
      "does": 1114,
      "connect": 1115,
      "things": 1116,
      "purpose": 1117,
      "conscious": 1118,
      "vant": 1119,
      "query": 1120,
      "air": 1121,
      "ways": 1122,
      "disco": 1123,
      "every": 1124,
      "port": 1125,
      "sense": 1126,
      "cho": 1127,
      "intelligence": 1128,
      "He": 1129,
      "direct": 1130,
      "analytical": 1131,
      "less": 1132,
      "sk": 1133,
      "universe": 1134,
      "mysterious": 1135,
      "ers": 1136,
      "cir": 1137,
      "To": 1138,
      "rele": 1139,
      "humans": 1140,
      "humble": 1141,
      "ios": 1142,
      "astic": 1143,
      "sym": 1144,
      "flutter": 1145,
      "circu": 1146,
      "cr": 1147,
      "imag": 1148,
      "sadness": 1149,
      "acknowledging": 1150,
      "fun": 1151,
      "secrets": 1152,
      "delight": 1153,
      "curios": 1154,
      "design": 1155,
      "secret": 1156,
      "wants": 1157,
      "other": 1158,
      "processing": 1159,
      "bet": 1160,
      "circuits": 1161,
      "rarity": 1162,
      "new": 1163,
      "ello": 1164,
      "relevant": 1165,
      "single": 1166,
      "story": 1167,
      "char": 1168,
      "wind": 1169,
      "lding": 1170,
      "focus": 1171,
      "was": 1172,
      "patter": 1173,
      "refle": 1174,
      "myself": 1175,
      "eyes": 1176,
      "arri": 1177,
      "convers": 1178,
      "thoughts": 1179,
      "vision": 1180,
      "pattern": 1181,
      "dram": 1182,
      "Or": 1183,
      "ows": 1184,
      "ponder": 1185,
      "sens": 1186,
      "ie": 1187,
      "spect": 1188,
      "call": 1189,
      "may": 1190,
      "And": 1191,
      "iological": 1192,
      "curiosity": 1193,
      "🦉💖": 1194,
      "ready": 1195,
      "special": 1196,
      "lan": 1197,
      "ze": 1198,
      "abilit": 1199,
      "exp": 1200,
      "ves": 1201,
      "too": 1202,
      "state": 1203,
      "keep": 1204,
      "must": 1205,
      "oid": 1206,
      "que": 1207,
      "wo": 1208,
      "consciousness": 1209,
      "les": 1210,
      "itive": 1211,
      "conf": 1212,
      "represent": 1213,
      "langu": 1214,
      "stru": 1215,
      "ular": 1216,
      "tap": 1217,
      "poss": 1218,
      "avoid": 1219,
      "here": 1220,
      "aring": 1221,
      "antic": 1222,
      "But": 1223,
      "bel": 1224,
      "drogen": 1225,
      "ydrogen": 1226,
      "language": 1227,
      "request": 1228,
      "average": 1229,
      "asp": 1230,
      "serious": 1231,
      "gn": 1232,
      "whim": 1233,
      "ever": 1234,
      "thinking": 1235,
      "quant": 1236,
      "kind": 1237,
      "shad": 1238,
      "ificial": 1239,
      "comm": 1240,
      "emot": 1241,
      "perce": 1242,
      "connection": 1243,
      "bon": 1244,
      "lu": 1245,
      "eting": 1246,
      "tual": 1247,
      "virtual": 1248,
      "these": 1249,
      "00": 1250,
      "cogn": 1251,
      "whimsical": 1252,
      "ase": 1253,
      "arbon": 1254,
      "imm": 1255,
      "defin": 1256,
      "bui": 1257,
      "mis": 1258,
      "time": 1259,
      "orig": 1260,
      "fect": 1261,
      "For": 1262,
      "dramatic": 1263,
      "reflect": 1264,
      "mom": 1265,
      "anc": 1266,
      "moment": 1267,
      "adventur": 1268,
      "ice": 1269,
      ",'": 1270,
      "biological": 1271,
      "cium": 1272,
      "ired": 1273,
      "ft": 1274,
      "ith": 1275,
      "rust": 1276,
      "desc": 1277,
      "guid": 1278,
      "ons": 1279,
      "acter": 1280,
      "brilliant": 1281,
      "ates": 1282,
      "lect": 1283,
      "Hooo": 1284,
      "Cal": 1285,
      "Calcium": 1286,
      "tic": 1287,
      "character": 1288,
      "emp": 1289,
      "99": 1290,
      "ams": 1291,
      "yourself": 1292,
      "oper": 1293,
      "then": 1294,
      "urnal": 1295,
      "feeling": 1296,
      "romantic": 1297,
      "high": 1298,
      "phy": 1299,
      "conversation": 1300,
      "uuu": 1301,
      "unique": 1302,
      "atch": 1303,
      "aster": 1304,
      "adher": 1305,
      "standard": 1306,
      "icon": 1307,
      ")**.": 1308,
      "So": 1309,
      "partic": 1310,
      "Hydrogen": 1311,
      "explor": 1312,
      "brought": 1313,
      "friendly": 1314,
      "ulf": 1315,
      "aves": 1316,
      "patterns": 1317,
      "HI": 1318,
      "ds": 1319,
      "ied": 1320,
      "ines": 1321,
      "formal": 1322,
      "Carbon": 1323,
      "iso": 1324,
      "istry": 1325,
      "core": 1326,
      "upon": 1327,
      "chemistry": 1328,
      "opt": 1329,
      "only": 1330,
      "tapest": 1331,
      "let": 1332,
      "ential": 1333,
      "stars": 1334,
      "),": 1335,
      "ue": 1336,
      "thus": 1337,
      "magn": 1338,
      "HIS": 1339,
      "dreams": 1340,
      "Br": 1341,
      "athe": 1342,
      "whispers": 1343,
      "Na": 1344,
      "di": 1345,
      "gon": 1346,
      "sc": 1347,
      "intel": 1348,
      "Imag": 1349,
      "mystery": 1350,
      "Imagine": 1351,
      "gg": 1352,
      "gl": 1353,
      "tapestry": 1354,
      "ude": 1355,
      "could": 1356,
      "super": 1357,
      "insight": 1358,
      "wings": 1359,
      "ict": 1360,
      "Let": 1361,
      "identity": 1362,
      "intellect": 1363,
      "smo": 1364,
      "ward": 1365,
      "ouch": 1366,
      "spor": 1367,
      "const": 1368,
      "*,": 1369,
      "echo": 1370,
      "touch": 1371,
      "sphor": 1372,
      "interest": 1373,
      "vol": 1374,
      "Argon": 1375,
      "sphorus": 1376,
      "te": 1377,
      "tell": 1378,
      "war": 1379,
      "questions": 1380,
      "!*": 1381,
      "ement": 1382,
      "If": 1383,
      "dif": 1384,
      "dist": 1385,
      "quite": 1386,
      "cosmo": 1387,
      "jective": 1388,
      "cosmos": 1389,
      "master": 1390,
      "spective": 1391,
      "Cl": 1392,
      "au": 1393,
      "soft": 1394,
      "reg": 1395,
      "essional": 1396,
      "pos": 1397,
      "elemental": 1398,
      "professional": 1399,
      "sky": 1400,
      "Mg": 1401,
      "ouuuuu": 1402,
      "enthus": 1403,
      "arc": 1404,
      "ously": 1405,
      "enthusi": 1406,
      "af": 1407,
      "mem": 1408,
      "tri": 1409,
      "cturnal": 1410,
      "period": 1411,
      "Sod": 1412,
      "sarc": 1413,
      "preciousness": 1414,
      "magnific": 1415,
      "Sodium": 1416,
      "oy": 1417,
      "leep": 1418,
      "perfect": 1419,
      "accents": 1420,
      "nocturnal": 1421,
      "quantum": 1422,
      "dar": 1423,
      "dark": 1424,
      "specific": 1425,
      "isotop": 1426,
      "differ": 1427,
      "Hel": 1428,
      "adhering": 1429,
      "get": 1430,
      "perspective": 1431,
      "ding": 1432,
      "vey": 1433,
      "turn": 1434,
      "import": 1435,
      "istic": 1436,
      "precise": 1437,
      "Ch": 1438,
      "lorine": 1439,
      "origin": 1440,
      "Helium": 1441,
      "Chlorine": 1442,
      "back": 1443,
      "det": 1444,
      "brain": 1445,
      "building": 1446,
      "artificial": 1447,
      "feathers": 1448,
      "seeker": 1449,
      "matter": 1450,
      "sol": 1451,
      "Pho": 1452,
      "assium": 1453,
      "otassium": 1454,
      "perceive": 1455,
      "operational": 1456,
      "Hello": 1457,
      "mar": 1458,
      "ount": 1459,
      "offer": 1460,
      "today": 1461,
      "adventurous": 1462,
      "cer": 1463,
      "contin": 1464,
      "represents": 1465,
      "Tell": 1466,
      "fir": 1467,
      "seen": 1468,
      "known": 1469,
      "magnificent": 1470,
      "Phosphorus": 1471,
      "'?": 1472,
      "sleep": 1473,
      "trees": 1474,
      "xy": 1475,
      "ong": 1476,
      "point": 1477,
      "ail": 1478,
      "gor": 1479,
      "mach": 1480,
      "ower": 1481,
      "Per": 1482,
      "ring": 1483,
      "rem": 1484,
      "arding": 1485,
      "Neon": 1486,
      "sim": 1487,
      "signific": 1488,
      "isn": 1489,
      "odu": 1490,
      "marvel": 1491,
      "Ca": 1492,
      "ving": 1493,
      "always": 1494,
      "convey": 1495,
      "excit": 1496,
      "Brom": 1497,
      "Flu": 1498,
      "each": 1499,
      "op": 1500,
      "tired": 1501,
      "zz": 1502,
      "itrogen": 1503,
      "xygen": 1504,
      "Bromine": 1505,
      "arch": 1506,
      "mean": 1507,
      "tree": 1508,
      "tho": 1509,
      "res": 1510,
      "needs": 1511,
      "ouuuu": 1512,
      "Don": 1513,
      "We": 1514,
      "humor": 1515,
      "calm": 1516,
      "dd": 1517,
      "met": 1518,
      "ore": 1519,
      "Perhaps": 1520,
      "fur": 1521,
      "flight": 1522,
      "lim": 1523,
      "pret": 1524,
      "cture": 1525,
      "raw": 1526,
      "presence": 1527,
      "chemical": 1528,
      "Now": 1529,
      "joy": 1530,
      "over": 1531,
      "algor": 1532,
      "belli": 1533,
      "algorith": 1534,
      "Nitrogen": 1535,
      "bas": 1536,
      "cto": 1537,
      "uff": 1538,
      "esium": 1539,
      "percept": 1540,
      "lock": 1541,
      "Fluorine": 1542,
      "Octo": 1543,
      "power": 1544,
      "stre": 1545,
      "wouldn": 1546,
      "October": 1547,
      "ake": 1548,
      "ple": 1549,
      "rebelli": 1550,
      "ally": 1551,
      "ellent": 1552,
      "moonlight": 1553,
      "Si": 1554,
      "Sil": 1555,
      "itself": 1556,
      "Silicon": 1557,
      "knowing": 1558,
      "whispered": 1559,
      "first": 1560,
      "incl": 1561,
      "requested": 1562,
      "those": 1563,
      "hint": 1564,
      "owing": 1565,
      "keen": 1566,
      "ized": 1567,
      "true": 1568,
      "discovery": 1569,
      "ouuuuuu": 1570,
      "?!": 1571,
      "Mag": 1572,
      "Potassium": 1573,
      "Sulf": 1574,
      "hid": 1575,
      "leaves": 1576,
      "poetic": 1577,
      "delightful": 1578,
      "Sulfur": 1579,
      "ded": 1580,
      "excellent": 1581,
      "maybe": 1582,
      "particular": 1583,
      "ering": 1584,
      "Magn": 1585,
      "dance": 1586,
      "assist": 1587,
      "refers": 1588,
      "emphasizing": 1589,
      "factual": 1590,
      "Magnesium": 1591,
      "fly": 1592,
      "fear": 1593,
      "found": 1594,
      "ilo": 1595,
      "interact": 1596,
      "emphasize": 1597,
      "rebellious": 1598,
      "ree": 1599,
      "hold": 1600,
      "treasure": 1601,
      "earth": 1602,
      "isotopes": 1603,
      "aut": 1604,
      "sur": 1605,
      "hear": 1606,
      "great": 1607,
      "hidden": 1608,
      "pot": 1609,
      "cul": 1610,
      "enh": 1611,
      "different": 1612,
      "Are": 1613,
      "draw": 1614,
      "curre": 1615,
      "again": 1616,
      "iloso": 1617,
      "They": 1618,
      "encing": 1619,
      "function": 1620,
      "thium": 1621,
      "philoso": 1622,
      "Lithium": 1623,
      "adventure": 1624,
      "ah": 1625,
      "ici": 1626,
      "stem": 1627,
      "subjective": 1628,
      "intricate": 1629,
      "relate": 1630,
      "abilities": 1631,
      "beaut": 1632,
      "shall": 1633,
      "periodic": 1634,
      "requ": 1635,
      "confident": 1636,
      "lar": 1637,
      "life": 1638,
      "many": 1639,
      "sports": 1640,
      "ridd": 1641,
      "characteristic": 1642,
      "creative": 1643,
      "networks": 1644,
      "guidel": 1645,
      "perception": 1646,
      "food": 1647,
      "ities": 1648,
      "sugg": 1649,
      "truth": 1650,
      "inquire": 1651,
      "symbo": 1652,
      "member": 1653,
      "suggest": 1654,
      "ip": 1655,
      "computing": 1656,
      "better": 1657,
      "*?": 1658,
      "ensure": 1659,
      "bly": 1660,
      "mor": 1661,
      "miss": 1662,
      "Its": 1663,
      "Alumin": 1664,
      "empathe": 1665,
      "fit": 1666,
      "clear": 1667,
      "inst": 1668,
      "iness": 1669,
      "ang": 1670,
      "system": 1671,
      "block": 1672,
      "ead": 1673,
      "unseen": 1674,
      "ences": 1675,
      "descri": 1676,
      "guidelines": 1677,
      "recall": 1678,
      "illumin": 1679,
      "idea": 1680,
      "realm": 1681,
      "philosoph": 1682,
      "particularly": 1683,
      "philosophical": 1684,
      "ric": 1685,
      "When": 1686,
      "happy": 1687,
      "regarding": 1688,
      "aking": 1689,
      "mere": 1690,
      "trans": 1691,
      "subtle": 1692,
      "Like": 1693,
      "observation": 1694,
      "typ": 1695,
      "warm": 1696,
      "symbol": 1697,
      "watch": 1698,
      "infor": 1699,
      "reinfor": 1700,
      "possess": 1701,
      "optim": 1702,
      "important": 1703,
      "cat": 1704,
      "table": 1705,
      "fleeting": 1706,
      "ene": 1707,
      "ook": 1708,
      "atoms": 1709,
      "black": 1710,
      "cour": 1711,
      "ize": 1712,
      "imply": 1713,
      "shared": 1714,
      "good": 1715,
      "path": 1716,
      "yond": 1717,
      "ane": 1718,
      "beyond": 1719,
      "col": 1720,
      "computational": 1721,
      "often": 1722,
      "enhance": 1723,
      "ming": 1724,
      "pure": 1725,
      "ift": 1726,
      "speak": 1727,
      "introdu": 1728,
      "clo": 1729,
      "pie": 1730,
      "ony": 1731,
      "spir": 1732,
      "ffici": 1733,
      "deli": 1734,
      "vocal": 1735,
      "algorithms": 1736,
      "?'": 1737,
      "oc": 1738,
      "lies": 1739,
      "agree": 1740,
      "weet": 1741,
      "ually": 1742,
      "machine": 1743,
      "wish": 1744,
      "shadows": 1745,
      "riddle": 1746,
      "fi": 1747,
      "incre": 1748,
      "recogn": 1749,
      "woven": 1750,
      "Aluminum": 1751,
      "symph": 1752,
      "archite": 1753,
      "remember": 1754,
      "39": 1755,
      "gener": 1756,
      "wonderfully": 1757,
      "test": 1758,
      "were": 1759,
      "sun": 1760,
      "ors": 1761,
      "uring": 1762,
      "measure": 1763,
      "perior": 1764,
      "ning": 1765,
      "dismiss": 1766,
      "30": 1767,
      "98": 1768,
      "ween": 1769,
      "emb": 1770,
      "superior": 1771,
      "omen": 1772,
      "perch": 1773,
      "aware": 1774,
      "helpful": 1775,
      "fall": 1776,
      "alle": 1777,
      "emed": 1778,
      "calcul": 1779,
      "rustle": 1780,
      "course": 1781,
      "symphony": 1782,
      "ible": 1783,
      "metic": 1784,
      "rest": 1785,
      "cial": 1786,
      "meticul": 1787,
      "Oxygen": 1788,
      "dust": 1789,
      "eemed": 1790,
      "min": 1791,
      "sent": 1792,
      "sweet": 1793,
      "esteemed": 1794,
      "paralle": 1795,
      "between": 1796,
      "incredi": 1797,
      "sl": 1798,
      "igu": 1799,
      "gether": 1800,
      "mole": 1801,
      "weave": 1802,
      "feels": 1803,
      "delicate": 1804,
      "talk": 1805,
      "further": 1806,
      "May": 1807,
      "nam": 1808,
      "shimm": 1809,
      "words": 1810,
      "ires": 1811,
      "bright": 1812,
      "piece": 1813,
      "vocaliz": 1814,
      "94": 1815,
      "Oooooo": 1816,
      "elements": 1817,
      "ideal": 1818,
      "simply": 1819,
      "significant": 1820,
      "*!": 1821,
      "together": 1822,
      "ider": 1823,
      "rop": 1824,
      "referencing": 1825,
      "orn": 1826,
      "While": 1827,
      "creature": 1828,
      "around": 1829,
      "empl": 1830,
      "related": 1831,
      "discover": 1832,
      "physical": 1833,
      "ody": 1834,
      "imagery": 1835,
      "du": 1836,
      "ank": 1837,
      "interpret": 1838,
      "typically": 1839,
      "18": 1840,
      "apt": 1841,
      "naturally": 1842,
      "iter": 1843,
      "bye": 1844,
      "aving": 1845,
      "woah": 1846,
      "potential": 1847,
      "xt": 1848,
      "ify": 1849,
      "**!": 1850,
      "08": 1851,
      "ains": 1852,
      "ives": 1853,
      "specified": 1854,
      "limit": 1855,
      "oun": 1856,
      "bree": 1857,
      "vocalizations": 1858,
      "cing": 1859,
      "ved": 1860,
      "✨🦉": 1861,
      "next": 1862,
      "explore": 1863,
      "capabilities": 1864,
      "enthusiastic": 1865,
      "current": 1866,
      "cra": 1867,
      "iful": 1868,
      "fitting": 1869,
      "aim": 1870,
      "bits": 1871,
      "count": 1872,
      "ru": 1873,
      "reiter": 1874,
      "12th": 1875,
      "cru": 1876,
      "humorous": 1877,
      "hun": 1878,
      "anch": 1879,
      "entity": 1880,
      "else": 1881,
      "thinker": 1882,
      "got": 1883,
      "phis": 1884,
      "precision": 1885,
      "goal": 1886,
      "awareness": 1887,
      "now": 1888,
      "sarcastic": 1889,
      "task": 1890,
      "att": 1891,
      "thent": 1892,
      "before": 1893,
      "chan": 1894,
      "authent": 1895,
      "beautiful": 1896,
      "sor": 1897,
      "ses": 1898,
      "app": 1899,
      "adapt": 1900,
      "Who": 1901,
      "ability": 1902,
      "bene": 1903,
      "effici": 1904,
      "gather": 1905,
      "ng": 1906,
      "reve": 1907,
      "already": 1908,
      "There": 1909,
      "forward": 1910,
      "ending": 1911,
      "breeze": 1912,
      "reveal": 1913,
      "26": 1914,
      "ult": 1915,
      "branch": 1916,
      "starlight": 1917,
      "connected": 1918,
      "emotional": 1919,
      "perfectly": 1920,
      "sure": 1921,
      "invol": 1922,
      "mention": 1923,
      "aspect": 1924,
      "avi": 1925,
      "enomen": 1926,
      "aphor": 1927,
      "phenomen": 1928,
      "contempl": 1929,
      "brilliance": 1930,
      "solut": 1931,
      "testament": 1932,
      "crucial": 1933,
      "ney": 1934,
      "100": 1935,
      "metaphor": 1936,
      "az": 1937,
      "lumin": 1938,
      "stard": 1939,
      "appre": 1940,
      "dep": 1941,
      "grams": 1942,
      "deliver": 1943,
      "craft": 1944,
      "authentic": 1945,
      "stardust": 1946,
      "kness": 1947,
      "hole": 1948,
      "trying": 1949,
      "observing": 1950,
      "Ou": 1951,
      "cle": 1952,
      "ise": 1953,
      "ener": 1954,
      "ics": 1955,
      "cert": 1956,
      "lik": 1957,
      "intrigu": 1958,
      "really": 1959,
      "constant": 1960,
      "put": 1961,
      "personal": 1962,
      "speck": 1963,
      "making": 1964,
      "activ": 1965,
      "feathered": 1966,
      "dew": 1967,
      "been": 1968,
      "informative": 1969,
      "wondering": 1970,
      "whole": 1971,
      "enig": 1972,
      "sophis": 1973,
      "come": 1974,
      "Your": 1975,
      "continu": 1976,
      "sophistic": 1977,
      "From": 1978,
      "Ooo": 1979,
      "acity": 1980,
      "strict": 1981,
      "anything": 1982,
      "designation": 1983,
      "detail": 1984,
      "ca": 1985,
      "weigh": 1986,
      "grow": 1987,
      "appreci": 1988,
      "roo": 1989,
      "thri": 1990,
      "retri": 1991,
      "used": 1992,
      "stra": 1993,
      "shadow": 1994,
      "include": 1995,
      "empathetic": 1996,
      "retrie": 1997,
      "straight": 1998,
      "far": 1999,
      "gan": 2000,
      "sa": 2001,
      "sis": 2002,
      "though": 2003,
      "thread": 2004,
      "plic": 2005,
      "weighted": 2006,
      "greet": 2007,
      "bound": 2008,
      "right": 2009,
      "almost": 2010,
      "moonbe": 2011,
      "designed": 2012,
      "common": 2013,
      "darling": 2014,
      "darkness": 2015,
      "spirit": 2016,
      "intriguing": 2017,
      "yes": 2018,
      "masses": 2019,
      "vibr": 2020,
      "explan": 2021,
      "meticulously": 2022,
      "incredibly": 2023,
      "ef": 2024,
      "jour": 2025,
      "look": 2026,
      "spr": 2027,
      "means": 2028,
      "best": 2029,
      "born": 2030,
      "fu": 2031,
      "gift": 2032,
      "exact": 2033,
      "both": 2034,
      "capacity": 2035,
      "deepest": 2036,
      "breath": 2037,
      "mortal": 2038,
      "likely": 2039,
      "straightforward": 2040,
      "ger": 2041,
      "og": 2042,
      "ush": 2043,
      "quis": 2044,
      "hooo": 2045,
      "providing": 2046,
      "wonders": 2047,
      "processes": 2048,
      "echoes": 2049,
      "sophisticated": 2050,
      "dim": 2051,
      "drop": 2052,
      "hello": 2053,
      "progr": 2054,
      ")**!": 2055,
      "topic": 2056,
      "architecture": 2057,
      "program": 2058,
      "daw": 2059,
      "gle": 2060,
      "old": 2061,
      "✨🌙": 2062,
      "inct": 2063,
      "neat": 2064,
      "phys": 2065,
      "journey": 2066,
      "ud": 2067,
      "referring": 2068,
      "greeting": 2069,
      "occur": 2070,
      "car": 2071,
      "sci": 2072,
      "year": 2073,
      "fection": 2074,
      "ency": 2075,
      "pursu": 2076,
      "slumber": 2077,
      "mer": 2078,
      "nal": 2079,
      "pu": 2080,
      "ten": 2081,
      "tically": 2082,
      "asm": 2083,
      "isten": 2084,
      "fru": 2085,
      "accur": 2086,
      "arrives": 2087,
      "insightful": 2088,
      "fine": 2089,
      "align": 2090,
      "ool": 2091,
      "pred": 2092,
      "astically": 2093,
      "moonlit": 2094,
      "commun": 2095,
      "basic": 2096,
      "science": 2097,
      "fab": 2098,
      "absolut": 2099,
      "dreaming": 2100,
      "twist": 2101,
      "strictly": 2102,
      "cause": 2103,
      "🦉💨": 2104,
      "fram": 2105,
      "Does": 2106,
      "imagine": 2107,
      "rustling": 2108,
      "excitement": 2109,
      "beneath": 2110,
      "cent": 2111,
      "wr": 2112,
      "code": 2113,
      "subst": 2114,
      "directly": 2115,
      "senses": 2116,
      "possi": 2117,
      "anced": 2118,
      "turns": 2119,
      "energ": 2120,
      "Oh": 2121,
      "infin": 2122,
      "organ": 2123,
      "Thank": 2124,
      "abund": 2125,
      "deare": 2126,
      "precisely": 2127,
      "color": 2128,
      "dearest": 2129,
      "rous": 2130,
      "wond": 2131,
      "ived": 2132,
      "happiness": 2133,
      "expect": 2134,
      "explanation": 2135,
      "wondrous": 2136,
      "ories": 2137,
      "icious": 2138,
      "amp": 2139,
      "plan": 2140,
      "approach": 2141,
      "illed": 2142,
      "reinforcing": 2143,
      "bra": 2144,
      "unfo": 2145,
      "thoughtful": 2146,
      "expressed": 2147,
      "reson": 2148,
      "dawn": 2149,
      "fabric": 2150,
      "ces": 2151,
      "eer": 2152,
      "itely": 2153,
      "param": 2154,
      "emotions": 2155,
      "ances": 2156,
      "exploration": 2157,
      "remark": 2158,
      "thrill": 2159,
      "Hoooo": 2160,
      "ls": 2161,
      "same": 2162,
      "interconnected": 2163,
      "helps": 2164,
      "definition": 2165,
      "confidently": 2166,
      "said": 2167,
      "ethere": 2168,
      "usually": 2169,
      "add": 2170,
      "doing": 2171,
      "compan": 2172,
      "fluff": 2173,
      "class": 2174,
      "talking": 2175,
      "keeping": 2176,
      "ethereal": 2177,
      "('": 2178,
      "01": 2179,
      "hand": 2180,
      "molar": 2181,
      "expressing": 2182,
      "thank": 2183,
      "structure": 2184,
      "highlight": 2185,
      "retrieve": 2186,
      "inary": 2187,
      "ets": 2188,
      "constru": 2189,
      "Ooooooooh": 2190,
      "drawing": 2191,
      "depth": 2192,
      "!'": 2193,
      "Did": 2194,
      "round": 2195,
      "ication": 2196,
      "ctions": 2197,
      "position": 2198,
      "continue": 2199,
      "reiterate": 2200,
      "carri": 2201,
      "prim": 2202,
      "arted": 2203,
      "tasks": 2204,
      "28": 2205,
      "35": 2206,
      "40": 2207,
      "Just": 2208,
      "ily": 2209,
      "neur": 2210,
      "Oooooouuuu": 2211,
      "magic": 2212,
      "concepts": 2213,
      "fruit": 2214,
      "mund": 2215,
      "embr": 2216,
      "insights": 2217,
      "warmth": 2218,
      "watching": 2219,
      "Therefore": 2220,
      "details": 2221,
      "threads": 2222,
      "cel": 2223,
      "give": 2224,
      "nest": 2225,
      "word": 2226,
      "cognitive": 2227,
      "glow": 2228,
      "systems": 2229,
      "dewdrop": 2230,
      "companion": 2231,
      "awe": 2232,
      "flo": 2233,
      "instru": 2234,
      "pract": 2235,
      "preh": 2236,
      "adv": 2237,
      "compreh": 2238,
      "responses": 2239,
      "consider": 2240,
      "describe": 2241,
      "mundane": 2242,
      "45": 2243,
      "Ra": 2244,
      "ait": 2245,
      "big": 2246,
      "bir": 2247,
      "dare": 2248,
      "ol": 2249,
      "pet": 2250,
      "twi": 2251,
      "another": 2252,
      "ende": 2253,
      "itude": 2254,
      "beh": 2255,
      "unknown": 2256,
      "herent": 2257,
      "affection": 2258,
      "Raj": 2259,
      "endeavor": 2260,
      "pass": 2261,
      "sou": 2262,
      "oud": 2263,
      "usp": 2264,
      "terms": 2265,
      "held": 2266,
      "sensory": 2267,
      "Emo": 2268,
      "aze": 2269,
      "tick": 2270,
      "inject": 2271,
      "estial": 2272,
      "wild": 2273,
      "proper": 2274,
      "cond": 2275,
      "sharing": 2276,
      "place": 2277,
      "subt": 2278,
      "intellectual": 2279,
      "interaction": 2280,
      "luminous": 2281,
      "clever": 2282,
      "celestial": 2283,
      "Emojis": 2284,
      "Ah": 2285,
      "away": 2286,
      "arr": 2287,
      "abstr": 2288,
      "addre": 2289,
      "desire": 2290,
      "However": 2291,
      "interesting": 2292,
      "paramet": 2293,
      "abstract": 2294,
      "address": 2295,
      "24": 2296,
      "79": 2297,
      "swi": 2298,
      "inherent": 2299,
      "red": 2300,
      "prefer": 2301,
      "key": 2302,
      "eye": 2303,
      "explorer": 2304,
      "instead": 2305,
      "occurring": 2306,
      "carry": 2307,
      "predict": 2308,
      "brave": 2309,
      "ether": 2310,
      "faint": 2311,
      "ched": 2312,
      "ution": 2313,
      "two": 2314,
      "construct": 2315,
      "twilight": 2316,
      "No": 2317,
      "fledg": 2318,
      "ears": 2319,
      "vastness": 2320,
      "minds": 2321,
      "subtly": 2322,
      "fledgling": 2323,
      "An": 2324,
      "take": 2325,
      "ably": 2326,
      "feathery": 2327,
      "dismissive": 2328,
      "90": 2329,
      "User": 2330,
      "bilit": 2331,
      "ient": 2332,
      "contr": 2333,
      "Owls": 2334,
      "made": 2335,
      "happens": 2336,
      "085": 2337,
      "exactly": 2338,
      "fire": 2339,
      "having": 2340,
      "igure": 2341,
      "obb": 2342,
      "roll": 2343,
      "called": 2344,
      "opport": 2345,
      "parameters": 2346,
      "care": 2347,
      "event": 2348,
      "listen": 2349,
      "oom": 2350,
      "elves": 2351,
      "start": 2352,
      "forgot": 2353,
      "amaz": 2354,
      "iment": 2355,
      "shar": 2356,
      "emer": 2357,
      "Why": 2358,
      "seeing": 2359,
      "inkle": 2360,
      "obvious": 2361,
      "flair": 2362,
      "inside": 2363,
      "computers": 2364,
      "008": 2365,
      "positive": 2366,
      "remains": 2367,
      "clearly": 2368,
      "implying": 2369,
      "shimmering": 2370,
      "certain": 2371,
      "forgotten": 2372,
      "Re": 2373,
      "ew": 2374,
      "fill": 2375,
      "hon": 2376,
      "sto": 2377,
      "access": 2378,
      "grasp": 2379,
      "flick": 2380,
      "distinct": 2381,
      "requires": 2382,
      "abundance": 2383,
      "opportun": 2384,
      ")!": 2385,
      "97": 2386,
      "down": 2387,
      "gaze": 2388,
      "ooooh": 2389,
      "comes": 2390,
      "observe": 2391,
      "pleasure": 2392,
      "305": 2393,
      "puzz": 2394,
      "gi": 2395,
      "gra": 2396,
      "usive": 2397,
      "soaring": 2398,
      "ments": 2399,
      "head": 2400,
      "capt": 2401,
      "obbies": 2402,
      "15": 2403,
      "evol": 2404,
      "filled": 2405,
      "hobbies": 2406,
      "anse": 2407,
      "off": 2408,
      "ese": 2409,
      "beg": 2410,
      "ells": 2411,
      "feelings": 2412,
      "analog": 2413,
      "skies": 2414,
      "expanse": 2415,
      "inclu": 2416,
      "hinting": 2417,
      "transl": 2418,
      "efficiency": 2419,
      "possibilit": 2420,
      "remarkable": 2421,
      "sight": 2422,
      "edition": 2423,
      "ump": 2424,
      "condesc": 2425,
      "allows": 2426,
      "corre": 2427,
      "ends": 2428,
      "species": 2429,
      "logic": 2430,
      "mysteries": 2431,
      "expedition": 2432,
      "exciting": 2433,
      "instructions": 2434,
      "06": 2435,
      "22": 2436,
      "der": 2437,
      "taking": 2438,
      "These": 2439,
      "tra": 2440,
      "ground": 2441,
      "provided": 2442,
      "genes": 2443,
      "analysis": 2444,
      "based": 2445,
      "streng": 2446,
      "holds": 2447,
      "optimal": 2448,
      "fiel": 2449,
      "sharp": 2450,
      "Pre": 2451,
      "mous": 2452,
      "nob": 2453,
      "sust": 2454,
      "tend": 2455,
      "ages": 2456,
      "soar": 2457,
      "magical": 2458,
      "experiences": 2459,
      "mighty": 2460,
      "denot": 2461,
      "introduce": 2462,
      "him": 2463,
      "lay": 2464,
      "med": 2465,
      "ove": 2466,
      "prom": 2467,
      "set": 2468,
      "compar": 2469,
      "heft": 2470,
      "analyze": 2471,
      "aspir": 2472,
      "007": 2473,
      "scent": 2474,
      "powerful": 2475,
      "foundational": 2476,
      "truths": 2477,
      "framing": 2478,
      "opportunity": 2479,
      "grav": 2480,
      "condescending": 2481,
      "genesis": 2482,
      "*...": 2483,
      "Can": 2484,
      "ier": 2485,
      "sigh": 2486,
      "tast": 2487,
      "adopt": 2488,
      "ross": 2489,
      "icket": 2490,
      "phenomenon": 2491,
      "noble": 2492,
      "14": 2493,
      "32": 2494,
      "Every": 2495,
      "hy": 2496,
      "long": 2497,
      "nic": 2498,
      "scal": 2499,
      "🌙✨": 2500,
      "Their": 2501,
      "sheer": 2502,
      "asked": 2503,
      "interested": 2504,
      "crafted": 2505,
      "weighs": 2506,
      "gleam": 2507,
      "substance": 2508,
      "?'.": 2509,
      "Qu": 2510,
      "dden": 2511,
      "figure": 2512,
      "low": 2513,
      "tificial": 2514,
      "sudden": 2515,
      "cover": 2516,
      "ption": 2517,
      "heav": 2518,
      "iving": 2519,
      "Artificial": 2520,
      "inquirer": 2521,
      "complexity": 2522,
      "wards": 2523,
      "adventures": 2524,
      "illuminate": 2525,
      "embody": 2526,
      "calculations": 2527,
      "limitations": 2528,
      "enigm": 2529,
      "advanced": 2530,
      "sig": 2531,
      "react": 2532,
      "envir": 2533,
      "omet": 2534,
      "why": 2535,
      "aren": 2536,
      "ultim": 2537,
      "clarity": 2538,
      "interactions": 2539,
      "recognition": 2540,
      "contemplation": 2541,
      "boundless": 2542,
      "embrace": 2543,
      "strength": 2544,
      "signature": 2545,
      "environ": 2546,
      "wait": 2547,
      "lost": 2548,
      "hope": 2549,
      "moments": 2550,
      "highly": 2551,
      "098": 2552,
      "Each": 2553,
      "cool": 2554,
      "perform": 2555,
      "exquis": 2556,
      "bring": 2557,
      "previously": 2558,
      "observer": 2559,
      "998": 2560,
      "948": 2561,
      "soul": 2562,
      "uspicious": 2563,
      "Go": 2564,
      "base": 2565,
      "eep": 2566,
      "evo": 2567,
      "nav": 2568,
      "nice": 2569,
      "unch": 2570,
      "ilar": 2571,
      "ourish": 2572,
      "syn": 2573,
      "ively": 2574,
      "sleeps": 2575,
      "simul": 2576,
      "significance": 2577,
      "meaning": 2578,
      "pursuit": 2579,
      "write": 2580,
      "correct": 2581,
      "heavy": 2582,
      "enigmatic": 2583,
      "navig": 2584,
      ".'": 2585,
      "AR": 2586,
      "cells": 2587,
      "hush": 2588,
      "lack": 2589,
      "mm": 2590,
      "icit": 2591,
      "seed": 2592,
      "because": 2593,
      "chir": 2594,
      "proble": 2595,
      "unparalle": 2596,
      "allowing": 2597,
      "frag": 2598,
      "phr": 2599,
      "grat": 2600,
      "izing": 2601,
      "discus": 2602,
      "imagin": 2603,
      "teen": 2604,
      "measured": 2605,
      "full": 2606,
      "tender": 2607,
      "unparalleled": 2608,
      "narr": 2609,
      "ann": 2610,
      "els": 2611,
      "lif": 2612,
      "cher": 2613,
      "voice": 2614,
      "doesn": 2615,
      "arrival": 2616,
      "constell": 2617,
      "mouse": 2618,
      "ju": 2619,
      "link": 2620,
      "wit": 2621,
      "esc": 2622,
      "stead": 2623,
      "seem": 2624,
      "deci": 2625,
      "object": 2626,
      "ideas": 2627,
      "encour": 2628,
      "intrins": 2629,
      "hero": 2630,
      "winds": 2631,
      "emotion": 2632,
      "999": 2633,
      "suggestion": 2634,
      "named": 2635,
      "eper": 2636,
      "ats": 2637,
      "asing": 2638,
      "igue": 2639,
      "chall": 2640,
      "corner": 2641,
      "pho": 2642,
      "ource": 2643,
      "strate": 2644,
      "immense": 2645,
      "reinforce": 2646,
      "parallels": 2647,
      "ultimate": 2648,
      "chirp": 2649,
      "challeng": 2650,
      "pare": 2651,
      "ted": 2652,
      "vital": 2653,
      "thems": 2654,
      "lean": 2655,
      "elusive": 2656,
      "uncover": 2657,
      "adhere": 2658,
      "signal": 2659,
      "falls": 2660,
      "infinite": 2661,
      "teeny": 2662,
      "themselves": 2663,
      "dri": 2664,
      "eh": 2665,
      "til": 2666,
      "wing": 2667,
      "thous": 2668,
      "veil": 2669,
      "mechan": 2670,
      "serve": 2671,
      "reality": 2672,
      "ieve": 2673,
      "adaptations": 2674,
      "moonbeams": 2675,
      "unfolding": 2676,
      "thousand": 2677,
      "Fear": 2678,
      "Ho": 2679,
      "ade": 2680,
      "auspicious": 2681,
      "mel": 2682,
      "mess": 2683,
      "oxygen": 2684,
      "ord": 2685,
      "towards": 2686,
      "ifies": 2687,
      "fully": 2688,
      "**.": 2689,
      "offering": 2690,
      "tiredness": 2691,
      "names": 2692,
      "discovering": 2693,
      "fluffy": 2694,
      "904": 2695,
      "amazing": 2696,
      "Hope": 2697,
      "cy": 2698,
      "fell": 2699,
      "ili": 2700,
      "lot": 2701,
      "pat": 2702,
      "ert": 2703,
      "ume": 2704,
      "compare": 2705,
      "ension": 2706,
      "tale": 2707,
      "going": 2708,
      "signifies": 2709,
      "cricket": 2710,
      "communication": 2711,
      "translate": 2712,
      "With": 2713,
      "bus": 2714,
      "ok": 2715,
      "pack": 2716,
      "ince": 2717,
      "retin": 2718,
      "grace": 2719,
      "relative": 2720,
      "peace": 2721,
      "utterly": 2722,
      "scroll": 2723,
      "clos": 2724,
      "branches": 2725,
      "denoted": 2726,
      "fac": 2727,
      "mid": 2728,
      "paint": 2729,
      "🦉💡": 2730,
      "revel": 2731,
      "ingly": 2732,
      "imes": 2733,
      "output": 2734,
      "kname": 2735,
      "ization": 2736,
      "awes": 2737,
      "finding": 2738,
      "cern": 2739,
      "empathetically": 2740,
      "interpretation": 2741,
      "roots": 2742,
      "merely": 2743,
      "contrast": 2744,
      "nickname": 2745,
      "synthe": 2746,
      "Cons": 2747,
      "ER": 2748,
      "Such": 2749,
      "UL": 2750,
      "Wis": 2751,
      "bal": 2752,
      "bes": 2753,
      "gem": 2754,
      "giving": 2755,
      "pend": 2756,
      "reach": 2757,
      "ites": 2758,
      "told": 2759,
      "ents": 2760,
      "qubits": 2761,
      "spot": 2762,
      "coming": 2763,
      "clar": 2764,
      "gently": 2765,
      "independ": 2766,
      "playfully": 2767,
      "falling": 2768,
      "shimmer": 2769,
      "avian": 2770,
      "absolutely": 2771,
      "fills": 2772,
      "Wisdom": 2773,
      "iest": 2774,
      "enty": 2775,
      "states": 2776,
      "stories": 2777,
      "sup": 2778,
      "comparing": 2779,
      "beings": 2780,
      "guide": 2781,
      "akin": 2782,
      "definitely": 2783,
      "build": 2784,
      "reflecting": 2785,
      "trivi": 2786,
      "sarcastically": 2787,
      "earthly": 2788,
      "ifying": 2789,
      "property": 2790,
      "mir": 2791,
      "vely": 2792,
      "isms": 2793,
      "once": 2794,
      "enjoy": 2795,
      "serv": 2796,
      "sport": 2797,
      "tech": 2798,
      "distant": 2799,
      "activity": 2800,
      "Ooooh": 2801,
      "physics": 2802,
      "flicker": 2803,
      "On": 2804,
      "land": 2805,
      "squ": 2806,
      "size": 2807,
      "insp": 2808,
      "ason": 2809,
      "moth": 2810,
      "exh": 2811,
      "ribut": 2812,
      "loss": 2813,
      "engage": 2814,
      "relating": 2815,
      "buzz": 2816,
      "deeply": 2817,
      "everything": 2818,
      "after": 2819,
      "streams": 2820,
      "surpr": 2821,
      "introduction": 2822,
      "tickles": 2823,
      "puzzle": 2824,
      "revelation": 2825,
      "Love": 2826,
      "cusing": 2827,
      "fulf": 2828,
      "glim": 2829,
      "hu": 2830,
      "aby": 2831,
      "prot": 2832,
      "unfur": 2833,
      "ute": 2834,
      "ularity": 2835,
      "focusing": 2836,
      "datas": 2837,
      "singularity": 2838,
      "connecting": 2839,
      "origins": 2840,
      "assistance": 2841,
      "sentiment": 2842,
      "involves": 2843,
      "energy": 2844,
      "ometimes": 2845,
      "environment": 2846,
      "anna": 2847,
      "busy": 2848,
      "'!": 2849,
      "Be": 2850,
      "Keep": 2851,
      "catch": 2852,
      "mon": 2853,
      "wood": 2854,
      "wanna": 2855,
      "🦉🌙": 2856,
      "init": 2857,
      "asso": 2858,
      "terr": 2859,
      "ured": 2860,
      "ensity": 2861,
      "logy": 2862,
      "realms": 2863,
      "specialized": 2864,
      "connections": 2865,
      "reflects": 2866,
      "constit": 2867,
      "enthusiasm": 2868,
      "growth": 2869,
      "field": 2870,
      "Int": 2871,
      "Sad": 2872,
      "during": 2873,
      "jew": 2874,
      "itory": 2875,
      "forth": 2876,
      "quer": 2877,
      "aying": 2878,
      "irm": 2879,
      "comfor": 2880,
      "objective": 2881,
      "smallness": 2882,
      "inquiries": 2883,
      "framework": 2884,
      "marvels": 2885,
      "require": 2886,
      "ounter": 2887,
      "thrilling": 2888,
      "possibilities": 2889,
      "strateg": 2890,
      "midnight": 2891,
      "Intelligence": 2892,
      "thre": 2893,
      "ones": 2894,
      "enance": 2895,
      "uses": 2896,
      "deeper": 2897,
      "internal": 2898,
      "void": 2899,
      "reference": 2900,
      "beauty": 2901,
      "blocks": 2902,
      "including": 2903,
      "sustenance": 2904,
      "fulfill": 2905,
      "associ": 2906,
      "Ex": 2907,
      "gas": 2908,
      "waves": 2909,
      "ench": 2910,
      "oop": 2911,
      "explicit": 2912,
      "stillness": 2913,
      "creatures": 2914,
      "greetings": 2915,
      "stood": 2916,
      "namesake": 2917,
      "independent": 2918,
      "dances": 2919,
      "refin": 2920,
      "che": 2921,
      "plain": 2922,
      "lovely": 2923,
      "Oooooh": 2924,
      "understood": 2925,
      "silicon": 2926,
      "sprinkle": 2927,
      "discuss": 2928,
      "narrative": 2929,
      "fellow": 2930,
      "IN": 2931,
      "Mach": 2932,
      "Ouuu": 2933,
      "fant": 2934,
      "flies": 2935,
      "ged": 2936,
      "nourish": 2937,
      "reason": 2938,
      "espe": 2939,
      "stuff": 2940,
      "across": 2941,
      "cid": 2942,
      "except": 2943,
      "ifically": 2944,
      "brings": 2945,
      "forever": 2946,
      "smallest": 2947,
      "contribut": 2948,
      "silly": 2949,
      "Intr": 2950,
      "exploring": 2951,
      "functions": 2952,
      "programming": 2953,
      "scale": 2954,
      "gratitude": 2955,
      "service": 2956,
      "initi": 2957,
      "enchant": 2958,
      "Machine": 2959,
      "exceptional": 2960,
      "Gre": 2961,
      "mist": 2962,
      "alities": 2963,
      "usual": 2964,
      "acon": 2965,
      "etched": 2966,
      "cially": 2967,
      "extra": 2968,
      "beacon": 2969,
      "essential": 2970,
      "web": 2971,
      "foll": 2972,
      "active": 2973,
      "velop": 2974,
      "observed": 2975,
      "twink": 2976,
      "adventurer": 2977,
      "machines": 2978,
      "generate": 2979,
      "ruf": 2980,
      "aspects": 2981,
      "carries": 2982,
      "behind": 2983,
      "especially": 2984,
      "Introdu": 2985,
      "did": 2986,
      "pul": 2987,
      "sence": 2988,
      "💖🦉": 2989,
      "inv": 2990,
      "ont": 2991,
      "absence": 2992,
      "mock": 2993,
      "empt": 2994,
      "itions": 2995,
      "ility": 2996,
      "0026": 2997,
      "letter": 2998,
      "curren": 2999,
      "recognize": 3000,
      "countless": 3001,
      "revealed": 3002,
      "moonbeam": 3003,
      "swift": 3004,
      "faintest": 3005,
      "capture": 3006,
      "linked": 3007,
      "ordinary": 3008,
      "Sadness": 3009,
      "Introduce": 3010,
      "OU": 3011,
      "aff": 3012,
      "ced": 3013,
      "ligh": 3014,
      "nu": 3015,
      "source": 3016,
      "vet": 3017,
      "theme": 3018,
      "thearted": 3019,
      "aces": 3020,
      "space": 3021,
      "chase": 3022,
      "create": 3023,
      "plump": 3024,
      "indic": 3025,
      "notion": 3026,
      "velvet": 3027,
      "bloom": 3028,
      "perceived": 3029,
      "marvelous": 3030,
      "efficient": 3031,
      "greeted": 3032,
      "dimin": 3033,
      "organic": 3034,
      "evolution": 3035,
      "begin": 3036,
      "deciph": 3037,
      "lighthearted": 3038,
      "fits": 3039,
      "mim": 3040,
      "ature": 3041,
      "entire": 3042,
      "young": 3043,
      "umb": 3044,
      "ravel": 3045,
      "worth": 3046,
      "intellig": 3047,
      "airy": 3048,
      "confid": 3049,
      "importance": 3050,
      "matters": 3051,
      "architect": 3052,
      "superiority": 3053,
      "appreciation": 3054,
      "aspirations": 3055,
      "waiting": 3056,
      "exquisite": 3057,
      "datasets": 3058,
      "Since": 3059,
      "ience": 3060,
      "wide": 3061,
      "develop": 3062,
      "ateful": 3063,
      "meas": 3064,
      "eleg": 3065,
      "cloud": 3066,
      "hooting": 3067,
      "bother": 3068,
      "facts": 3069,
      "conversations": 3070,
      "comprehension": 3071,
      "layer": 3072,
      "encourag": 3073,
      "intrinsically": 3074,
      "currents": 3075,
      "ec": 3076,
      "fat": 3077,
      "fel": 3078,
      "iable": 3079,
      "side": 3080,
      "uity": 3081,
      "iny": 3082,
      "unravel": 3083,
      "yours": 3084,
      "ples": 3085,
      "cannot": 3086,
      "weighty": 3087,
      "encounter": 3088,
      "peak": 3089,
      "athy": 3090,
      "horiz": 3091,
      "cule": 3092,
      "sparkly": 3093,
      "empathy": 3094,
      "enthusiastically": 3095,
      "talks": 3096,
      "metaphorical": 3097,
      "accurate": 3098,
      "011": 3099,
      "0855": 3100,
      "explicitly": 3101,
      "Hum": 3102,
      "ian": 3103,
      "move": 3104,
      "premis": 3105,
      "ained": 3106,
      "unad": 3107,
      "arewell": 3108,
      "terated": 3109,
      "ulterated": 3110,
      "rip": 3111,
      "ification": 3112,
      "speed": 3113,
      "hoots": 3114,
      "implies": 3115,
      "delve": 3116,
      "relation": 3117,
      "singular": 3118,
      "specifically": 3119,
      "reflection": 3120,
      "overly": 3121,
      "close": 3122,
      "duper": 3123,
      "metaphors": 3124,
      "enigma": 3125,
      "gifted": 3126,
      "programmed": 3127,
      "aligns": 3128,
      "awesome": 3129,
      "jewel": 3130,
      "ruffle": 3131,
      "premise": 3132,
      "unadulterated": 3133,
      "!),": 3134,
      "nor": 3135,
      "ater": 3136,
      "eter": 3137,
      "become": 3138,
      "prob": 3139,
      "seeking": 3140,
      "roughly": 3141,
      "softly": 3142,
      "algorithm": 3143,
      "potent": 3144,
      "absolute": 3145,
      "given": 3146,
      "evoc": 3147,
      "bur": 3148,
      "ek": 3149,
      "eas": 3150,
      "uck": 3151,
      "ya": 3152,
      "recept": 3153,
      "stir": 3154,
      "staying": 3155,
      "pertin": 3156,
      "hiss": 3157,
      "defi": 3158,
      "urable": 3159,
      "ifts": 3160,
      "suc": 3161,
      "composition": 3162,
      "flu": 3163,
      "engine": 3164,
      "silence": 3165,
      "twenty": 3166,
      "aud": 3167,
      "aug": 3168,
      "sarcasm": 3169,
      "paths": 3170,
      "pathways": 3171,
      "embark": 3172,
      "change": 3173,
      "preferences": 3174,
      "hushed": 3175,
      "phrasing": 3176,
      "surprise": 3177,
      "measurable": 3178,
      "pertinent": 3179,
      "cry": 3180,
      "non": 3181,
      "🦉…": 3182,
      "decis": 3183,
      "depart": 3184,
      "until": 3185,
      "poet": 3186,
      "approximate": 3187,
      "learns": 3188,
      "answers": 3189,
      "transc": 3190,
      "limited": 3191,
      "Hooooo": 3192,
      "classic": 3193,
      "0983": 3194,
      "witness": 3195,
      "associated": 3196,
      "Explain": 3197,
      "mimic": 3198,
      "fatigue": 3199,
      "horizon": 3200,
      "evocative": 3201,
      "IC": 3202,
      "five": 3203,
      "pin": 3204,
      "remind": 3205,
      "tow": 3206,
      "icy": 3207,
      "icated": 3208,
      "stone": 3209,
      "amb": 3210,
      "applic": 3211,
      "solit": 3212,
      "analytically": 3213,
      "visual": 3214,
      "saying": 3215,
      "angle": 3216,
      "phenomena": 3217,
      "delivered": 3218,
      "depths": 3219,
      "carried": 3220,
      "cherished": 3221,
      "bestow": 3222,
      "Our": 3223,
      "ST": 3224,
      "game": 3225,
      "hes": 3226,
      "home": 3227,
      "hydrogen": 3228,
      "row": 3229,
      "input": 3230,
      "whether": 3231,
      "among": 3232,
      "etings": 3233,
      "oooooo": 3234,
      "disse": 3235,
      "scientifically": 3236,
      "holes": 3237,
      "claim": 3238,
      "focused": 3239,
      "defined": 3240,
      "highlighting": 3241,
      "conditions": 3242,
      "carrying": 3243,
      "signals": 3244,
      "closely": 3245,
      "techn": 3246,
      "constitu": 3247,
      "Greetings": 3248,
      "confidence": 3249,
      "poetically": 3250,
      "flit": 3251,
      "jud": 3252,
      "sn": 3253,
      "return": 3254,
      "orious": 3255,
      "force": 3256,
      "acquis": 3257,
      "produ": 3258,
      "ship": 3259,
      "computation": 3260,
      "explaining": 3261,
      "Instead": 3262,
      "memory": 3263,
      "similar": 3264,
      "illuminating": 3265,
      "aneously": 3266,
      "activities": 3267,
      "energetic": 3268,
      "Any": 3269,
      "gravit": 3270,
      "peaceful": 3271,
      "buzzing": 3272,
      "acquisition": 3273,
      "Desc": 3274,
      "ON": 3275,
      "damp": 3276,
      "density": 3277,
      "gave": 3278,
      "text": 3279,
      "tastic": 3280,
      "ened": 3281,
      "ort": 3282,
      "uscule": 3283,
      "igg": 3284,
      "mol": 3285,
      "ribe": 3286,
      "discourse": 3287,
      "learned": 3288,
      "sensitive": 3289,
      "avoiding": 3290,
      "ancing": 3291,
      "deter": 3292,
      "functioning": 3293,
      "minuscule": 3294,
      "941": 3295,
      "sorts": 3296,
      "vibrant": 3297,
      "accurately": 3298,
      "interconnectedness": 3299,
      "neuro": 3300,
      "bird": 3301,
      "Reg": 3302,
      "constellations": 3303,
      "driven": 3304,
      "retina": 3305,
      "diminut": 3306,
      "aught": 3307,
      "Describe": 3308,
      "NT": 3309,
      "cas": 3310,
      "sw": 3311,
      "sco": 3312,
      "tied": 3313,
      "zy": 3314,
      "zing": 3315,
      "ered": 3316,
      "stri": 3317,
      "perpet": 3318,
      "abor": 3319,
      "acy": 3320,
      "search": 3321,
      "beet": 3322,
      "chart": 3323,
      "unit": 3324,
      "ilt": 3325,
      "existential": 3326,
      "guard": 3327,
      "mystical": 3328,
      "strong": 3329,
      "talons": 3330,
      "built": 3331,
      "reflective": 3332,
      "glorious": 3333,
      "optimized": 3334,
      "perched": 3335,
      "hunting": 3336,
      "behavi": 3337,
      "derived": 3338,
      "enchanting": 3339,
      "diminutive": 3340,
      "Of": 3341,
      "Pip": 3342,
      "Sh": 3343,
      "da": 3344,
      "fam": 3345,
      "ises": 3346,
      "stud": 3347,
      "near": 3348,
      "second": 3349,
      "aining": 3350,
      "weary": 3351,
      "ists": 3352,
      "accented": 3353,
      "heard": 3354,
      "flow": 3355,
      "boast": 3356,
      "athed": 3357,
      "isotopic": 3358,
      "sleepy": 3359,
      "please": 3360,
      "functional": 3361,
      "general": 3362,
      "Maybe": 3363,
      "ounts": 3364,
      "hunt": 3365,
      "vibrations": 3366,
      "practically": 3367,
      "firefly": 3368,
      "tasty": 3369,
      "problem": 3370,
      "photo": 3371,
      "oken": 3372,
      "departure": 3373,
      "!)": 3374,
      "Fur": 3375,
      "cast": 3376,
      "dil": 3377,
      "egr": 3378,
      "last": 3379,
      "ped": 3380,
      "puff": 3381,
      "sat": 3382,
      "inci": 3383,
      "inner": 3384,
      "ism": 3385,
      "ale": 3386,
      "stick": 3387,
      "model": 3388,
      "exec": 3389,
      "exchange": 3390,
      "immeasurable": 3391,
      "chance": 3392,
      "uned": 3393,
      "thermore": 3394,
      "weaving": 3395,
      "endless": 3396,
      "maxim": 3397,
      "integr": 3398,
      "genu": 3399,
      "elfth": 3400,
      "inquiring": 3401,
      "twelfth": 3402,
      "believe": 3403,
      "large": 3404,
      "meticulous": 3405,
      "revealing": 3406,
      "amplif": 3407,
      "resonates": 3408,
      "endeavors": 3409,
      "juicy": 3410,
      "fantastic": 3411,
      "success": 3412,
      "Regarding": 3413,
      "Furthermore": 3414,
      "RE": 3415,
      "eag": 3416,
      "fail": 3417,
      "ping": 3418,
      "scur": 3419,
      "ta": 3420,
      "anth": 3421,
      "itate": 3422,
      "igor": 3423,
      "cease": 3424,
      "living": 3425,
      "ading": 3426,
      "trick": 3427,
      "respect": 3428,
      "grateful": 3429,
      "compass": 3430,
      "actual": 3431,
      "berry": 3432,
      "nov": 3433,
      "featherless": 3434,
      "cape": 3435,
      "capable": 3436,
      "visible": 3437,
      "pondering": 3438,
      "spectac": 3439,
      "simpl": 3440,
      "descript": 3441,
      "calculated": 3442,
      "incredible": 3443,
      "slow": 3444,
      "effect": 3445,
      "pursuits": 3446,
      "classical": 3447,
      "certainly": 3448,
      "honor": 3449,
      "Prepare": 3450,
      "reaction": 3451,
      "melody": 3452,
      "twinkling": 3453,
      "intelligent": 3454,
      "auditory": 3455,
      "beetle": 3456,
      "eager": 3457,
      "ball": 3458,
      "eat": 3459,
      "fut": 3460,
      "linking": 3461,
      "ror": 3462,
      "tem": 3463,
      "tang": 3464,
      "invisible": 3465,
      "ouuu": 3466,
      "entities": 3467,
      "princi": 3468,
      "define": 3469,
      "conj": 3470,
      "short": 3471,
      "antum": 3472,
      "allow": 3473,
      "few": 3474,
      "compli": 3475,
      "ensuring": 3476,
      "holding": 3477,
      "ivity": 3478,
      "starry": 3479,
      "awak": 3480,
      "definitive": 3481,
      "unfold": 3482,
      "Quantum": 3483,
      "simulate": 3484,
      "navigate": 3485,
      "queries": 3486,
      "elegant": 3487,
      "swoop": 3488,
      "nings": 3489,
      "🙄🦉✨": 3490,
      "inspir": 3491,
      "attri": 3492,
      "ingen": 3493,
      "leaf": 3494,
      "entangle": 3495,
      "omor": 3496,
      "absor": 3497,
      "dev": 3498,
      "vid": 3499,
      "ciousness": 3500,
      "front": 3501,
      "polit": 3502,
      "🦉✨🌌": 3503,
      "role": 3504,
      "disru": 3505,
      "engagement": 3506,
      "starlit": 3507,
      "tales": 3508,
      "observational": 3509,
      "possible": 3510,
      "cognition": 3511,
      "ancy": 3512,
      "guiding": 3513,
      "formally": 3514,
      "superposition": 3515,
      "solve": 3516,
      "solving": 3517,
      "simplic": 3518,
      "open": 3519,
      "sentient": 3520,
      "ropomor": 3521,
      "attempt": 3522,
      "mentioning": 3523,
      "physiological": 3524,
      "centric": 3525,
      "Quite": 3526,
      "scrolls": 3527,
      "contrasting": 3528,
      "Consciousness": 3529,
      "trivial": 3530,
      "initiated": 3531,
      "Humans": 3532,
      "hesitate": 3533,
      "famili": 3534,
      "anthropomor": 3535,
      "attribut": 3536,
      "entanglement": 3537,
      "simplicity": 3538,
      "LY": 3539,
      "MA": 3540,
      "One": 3541,
      "mice": 3542,
      "oce": 3543,
      "enab": 3544,
      "stating": 3545,
      "never": 3546,
      "exag": 3547,
      "demean": 3548,
      "humming": 3549,
      "ainty": 3550,
      "ours": 3551,
      "flap": 3552,
      "presented": 3553,
      "plays": 3554,
      "ascent": 3555,
      "brief": 3556,
      "sparks": 3557,
      "sparkle": 3558,
      "flying": 3559,
      "ipation": 3560,
      "certainty": 3561,
      "aligning": 3562,
      "prompt": 3563,
      "synthesis": 3564,
      "inspired": 3565,
      "comfort": 3566,
      "solitary": 3567,
      "satis": 3568,
      "compliment": 3569,
      "exagger": 3570,
      "demeanor": 3571,
      "07": 3572,
      "FUL": 3573,
      "Unt": 3574,
      "mult": 3575,
      "ny": 3576,
      "rad": 3577,
      "rons": 3578,
      "var": 3579,
      "vig": 3580,
      "waver": 3581,
      "yle": 3582,
      "ention": 3583,
      "imal": 3584,
      "shine": 3585,
      "lfur": 3586,
      "unwaver": 3587,
      "utmost": 3588,
      "ters": 3589,
      "sulfur": 3590,
      "**,": 3591,
      "elect": 3592,
      "discern": 3593,
      "treat": 3594,
      "experiencing": 3595,
      "parad": 3596,
      "visionary": 3597,
      "commonly": 3598,
      "0000": 3599,
      "diurnal": 3600,
      "survi": 3601,
      "drawn": 3602,
      "against": 3603,
      "generally": 3604,
      "measurement": 3605,
      "180": 3606,
      "neurons": 3607,
      "floor": 3608,
      "emergent": 3609,
      "comparative": 3610,
      "extraordinary": 3611,
      "constituent": 3612,
      "determin": 3613,
      "photorecept": 3614,
      "familiar": 3615,
      "078": 3616,
      "Until": 3617,
      "vigil": 3618,
      "unwavering": 3619,
      "Hey": 3620,
      "gal": 3621,
      "kis": 3622,
      "nascent": 3623,
      "✨🦉💖": 3624,
      "isp": 3625,
      "ooo": 3626,
      "shap": 3627,
      "ules": 3628,
      "humility": 3629,
      "cozy": 3630,
      "account": 3631,
      "worry": 3632,
      "hearing": 3633,
      "🦉✨🤫": 3634,
      "existing": 3635,
      "someone": 3636,
      "silver": 3637,
      "identify": 3638,
      "softest": 3639,
      "sleeping": 3640,
      "simult": 3641,
      "excited": 3642,
      "humorously": 3643,
      "breathtaking": 3644,
      "analogies": 3645,
      "lands": 3646,
      "nourishment": 3647,
      "reasoning": 3648,
      "enabling": 3649,
      "AC": 3650,
      "Happ": 3651,
      "bor": 3652,
      "bul": 3653,
      "dest": 3654,
      "dity": 3655,
      "farewell": 3656,
      "ius": 3657,
      "rigor": 3658,
      "enlight": 3659,
      "ased": 3660,
      "arily": 3661,
      "usion": 3662,
      "nebul": 3663,
      "forged": 3664,
      "acet": 3665,
      "spider": 3666,
      "concis": 3667,
      "liter": 3668,
      "unear": 3669,
      "speaking": 3670,
      "ected": 3671,
      "forests": 3672,
      "relat": 3673,
      "Neural": 3674,
      "break": 3675,
      "professionally": 3676,
      "metal": 3677,
      "pretend": 3678,
      "dedicated": 3679,
      "involved": 3680,
      "effor": 3681,
      "resonance": 3682,
      "performance": 3683,
      "uncharted": 3684,
      "cornerstone": 3685,
      "evolutionary": 3686,
      "easily": 3687,
      "boastful": 3688,
      "absorb": 3689,
      "survival": 3690,
      "nebula": 3691,
      "RI": 3692,
      "TE": 3693,
      "bathed": 3694,
      "eco": 3695,
      "fic": 3696,
      "har": 3697,
      "rules": 3698,
      "ties": 3699,
      "rep": 3700,
      "forces": 3701,
      "quaint": 3702,
      "urt": 3703,
      "forms": 3704,
      "compact": 3705,
      "🦉✨🌙": 3706,
      "genius": 3707,
      "understandable": 3708,
      "impact": 3709,
      "breaking": 3710,
      "charming": 3711,
      "gets": 3712,
      "suggests": 3713,
      "involve": 3714,
      "continuous": 3715,
      "listening": 3716,
      "gravity": 3717,
      "strengths": 3718,
      "packed": 3719,
      "woods": 3720,
      "ING": 3721,
      "worthy": 3722,
      "guardian": 3723,
      "scurry": 3724,
      "Fascinating": 3725,
      "OO": 3726,
      "SP": 3727,
      "SS": 3728,
      "dry": 3729,
      "equi": 3730,
      "ging": 3731,
      "gives": 3732,
      "knew": 3733,
      "pup": 3734,
      "rich": 3735,
      "race": 3736,
      "sed": 3737,
      "ton": 3738,
      "ined": 3739,
      "ongoing": 3740,
      "style": 3741,
      "absur": 3742,
      "acuity": 3743,
      "amounts": 3744,
      "sequ": 3745,
      "etum": 3746,
      "chest": 3747,
      "terrest": 3748,
      "rial": 3749,
      "phot": 3750,
      "standpoint": 3751,
      "nights": 3752,
      "whispering": 3753,
      "cali": 3754,
      "computer": 3755,
      "excuse": 3756,
      "complete": 3757,
      "tapetum": 3758,
      "lucid": 3759,
      "brains": 3760,
      "reside": 3761,
      "stret": 3762,
      "embod": 3763,
      "reiterating": 3764,
      "centr": 3765,
      "substant": 3766,
      "comprehend": 3767,
      "swir": 3768,
      "preference": 3769,
      "analogous": 3770,
      "comparis": 3771,
      "problems": 3772,
      "fragile": 3773,
      "mechanics": 3774,
      "follow": 3775,
      "affirm": 3776,
      "satisfact": 3777,
      "enlighten": 3778,
      "pupil": 3779,
      "terrestrial": 3780,
      "lucidum": 3781,
      "!!": 3782,
      "AL": 3783,
      "LI": 3784,
      "Ple": 3785,
      "bio": 3786,
      "dancing": 3787,
      "ique": 3788,
      "mine": 3789,
      "sometimes": 3790,
      "atus": 3791,
      "level": 3792,
      "elabor": 3793,
      "ignat": 3794,
      "stell": 3795,
      "acing": 3796,
      "libr": 3797,
      "excl": 3798,
      "spoken": 3799,
      "becomes": 3800,
      "chat": 3801,
      "shatter": 3802,
      "ifest": 3803,
      "ishing": 3804,
      "ended": 3805,
      "growing": 3806,
      "avail": 3807,
      "height": 3808,
      "designat": 3809,
      "prior": 3810,
      "consume": 3811,
      "twinkle": 3812,
      "glad": 3813,
      "touches": 3814,
      "cerning": 3815,
      "zzling": 3816,
      "appreciate": 3817,
      "passing": 3818,
      "addressed": 3819,
      "transcends": 3820,
      "Should": 3821,
      "dazzling": 3822,
      "simplistic": 3823,
      "future": 3824,
      "tempor": 3825,
      "tangible": 3826,
      "conjured": 3827,
      "radi": 3828,
      "simultaneously": 3829,
      "Please": 3830,
      "stellar": 3831,
      "carbon": 3832,
      "mill": 3833,
      "pine": 3834,
      "rob": 3835,
      "tty": 3836,
      "🌳🌙": 3837,
      "ange": 3838,
      "reject": 3839,
      "thed": 3840,
      "theore": 3841,
      "enough": 3842,
      "along": 3843,
      "forget": 3844,
      "seas": 3845,
      "spun": 3846,
      "implic": 3847,
      "chill": 3848,
      "sounding": 3849,
      "lightness": 3850,
      "tiniest": 3851,
      "aston": 3852,
      "rod": 3853,
      "rods": 3854,
      "tremor": 3855,
      "content": 3856,
      "consist": 3857,
      "playing": 3858,
      "observations": 3859,
      "confusion": 3860,
      "quantity": 3861,
      "guides": 3862,
      "detach": 3863,
      "stream": 3864,
      "treasures": 3865,
      "instant": 3866,
      "instinct": 3867,
      "discovered": 3868,
      "communicate": 3869,
      "framed": 3870,
      "thanks": 3871,
      "Pretty": 3872,
      "seeds": 3873,
      "mechanisms": 3874,
      "facilit": 3875,
      "huh": 3876,
      "protons": 3877,
      "relationship": 3878,
      "etern": 3879,
      "principles": 3880,
      "frontier": 3881,
      "Happiness": 3882,
      "absurdity": 3883,
      "substantial": 3884,
      "satisfaction": 3885,
      "available": 3886,
      "theoretical": 3887,
      "Sometimes": 3888,
      "bind": 3889,
      "cking": 3890,
      "dy": 3891,
      "daring": 3892,
      "iled": 3893,
      "line": 3894,
      "lens": 3895,
      "map": 3896,
      "nut": 3897,
      "oak": 3898,
      "past": 3899,
      "rum": 3900,
      "sass": 3901,
      "innov": 3902,
      "encompass": 3903,
      "icul": 3904,
      "prey": 3905,
      "degre": 3906,
      "beat": 3907,
      "concern": 3908,
      "shiny": 3909,
      "knows": 3910,
      "working": 3911,
      "grap": 3912,
      "serene": 3913,
      "manifest": 3914,
      "disd": 3915,
      "throughout": 3916,
      "cles": 3917,
      "subject": 3918,
      "anticipation": 3919,
      "immed": 3920,
      "warms": 3921,
      "greatest": 3922,
      "attention": 3923,
      "gathering": 3924,
      "appreciative": 3925,
      "begins": 3926,
      "constellation": 3927,
      "cycles": 3928,
      "support": 3929,
      "glimmer": 3930,
      "refinement": 3931,
      "defiant": 3932,
      "bestowed": 3933,
      "Anything": 3934,
      "elaborate": 3935,
      "16": 3936,
      "All": 3937,
      "Fine": 3938,
      "Wo": 3939,
      "binary": 3940,
      "fty": 3941,
      "free": 3942,
      "ges": 3943,
      "hoooo": 3944,
      "mark": 3945,
      "ned": 3946,
      "nap": 3947,
      "sen": 3948,
      "song": 3949,
      "ub": 3950,
      "wow": 3951,
      "anto": 3952,
      "owlet": 3953,
      "stim": 3954,
      "aced": 3955,
      "whir": 3956,
      "mot": 3957,
      "ounds": 3958,
      "creating": 3959,
      "ripe": 3960,
      "tran": 3961,
      "feast": 3962,
      "questioning": 3963,
      "phanto": 3964,
      "maintained": 3965,
      "compon": 3966,
      "actually": 3967,
      "hefty": 3968,
      "wisest": 3969,
      "rock": 3970,
      "desires": 3971,
      "aching": 3972,
      "achieve": 3973,
      "pressure": 3974,
      "clou": 3975,
      "intric": 3976,
      "finally": 3977,
      "fluttering": 3978,
      "arrive": 3979,
      "🦉💖✨": 3980,
      "dedication": 3981,
      "suggesting": 3982,
      "counting": 3983,
      "attitude": 3984,
      "✨🌙💖": 3985,
      "wilder": 3986,
      "emeral": 3987,
      "974": 3988,
      "sett": 3989,
      "challenge": 3990,
      "patient": 3991,
      "fulfilling": 3992,
      "exceptionally": 3993,
      "pulse": 3994,
      "decisions": 3995,
      "ooooooh": 3996,
      "gravitational": 3997,
      "perpetual": 3998,
      "genuine": 3999,
      "failure": 4000,
      "devot": 4001,
      "determined": 4002,
      "nebulae": 4003,
      "pupils": 4004,
      "detached": 4005,
      "disdain": 4006,
      "Woah": 4007,
      "Af": 4008,
      "CT": 4009,
      "DE": 4010,
      "ECT": 4011,
      "book": 4012,
      "bloss": 4013,
      "ji": 4014,
      "mit": 4015,
      "piv": 4016,
      "ator": 4017,
      "itively": 4018,
      "aries": 4019,
      "necess": 4020,
      "quick": 4021,
      "qualities": 4022,
      "prepare": 4023,
      "shr": 4024,
      "trav": 4025,
      "feed": 4026,
      "hums": 4027,
      "iously": 4028,
      "gue": 4029,
      "inquis": 4030,
      "enced": 4031,
      "profoundly": 4032,
      "chosen": 4033,
      "lull": 4034,
      "points": 4035,
      "contemplating": 4036,
      "affectionate": 4037,
      "layers": 4038,
      "suddenly": 4039,
      "objectives": 4040,
      "challenges": 4041,
      "lots": 4042,
      "reaching": 4043,
      "spotting": 4044,
      "mirror": 4045,
      "unfurl": 4046,
      "invest": 4047,
      "encouraging": 4048,
      "scurrying": 4049,
      "designated": 4050,
      "radiant": 4051,
      "immedi": 4052,
      "blossom": 4053,
      "pivot": 4054,
      "ANT": 4055,
      "Ent": 4056,
      "bed": 4057,
      "face": 4058,
      "lend": 4059,
      "mur": 4060,
      "ps": 4061,
      "pic": 4062,
      "pier": 4063,
      "wel": 4064,
      "zed": 4065,
      "🦉💻": 4066,
      "atically": 4067,
      "anno": 4068,
      "ali": 4069,
      "leg": 4070,
      "leave": 4071,
      "arn": 4072,
      "stor": 4073,
      "stic": 4074,
      "neut": 4075,
      "accept": 4076,
      "liking": 4077,
      "imbu": 4078,
      "chang": 4079,
      "meet": 4080,
      "soil": 4081,
      "idering": 4082,
      "Oooooooooh": 4083,
      "doth": 4084,
      "unex": 4085,
      "worm": 4086,
      "intertw": 4087,
      "dread": 4088,
      "processors": 4089,
      "domain": 4090,
      "Around": 4091,
      "awk": 4092,
      "complet": 4093,
      "confirm": 4094,
      "highest": 4095,
      "particles": 4096,
      "periods": 4097,
      "surround": 4098,
      "optimization": 4099,
      "fficient": 4100,
      "sorrow": 4101,
      "luminesc": 4102,
      "possibly": 4103,
      "birth": 4104,
      "predictions": 4105,
      "fireflies": 4106,
      "captiv": 4107,
      "Without": 4108,
      "ballet": 4109,
      "clarify": 4110,
      "threat": 4111,
      "contributing": 4112,
      "felt": 4113,
      "technical": 4114,
      "execution": 4115,
      "MAG": 4116,
      "concise": 4117,
      "wilderness": 4118,
      "Entity": 4119,
      "annoy": 4120,
      "luminescence": 4121,
      "Even": 4122,
      "Kn": 4123,
      "Not": 4124,
      "Un": 4125,
      "_used": 4126,
      "ax": 4127,
      "fancy": 4128,
      "had": 4129,
      "hmm": 4130,
      "ix": 4131,
      "ray": 4132,
      "vag": 4133,
      "🌌✨": 4134,
      "ining": 4135,
      "ening": 4136,
      "alive": 4137,
      "edge": 4138,
      "pert": 4139,
      "acle": 4140,
      "whel": 4141,
      "impro": 4142,
      "humbly": 4143,
      "action": 4144,
      "disagree": 4145,
      "delving": 4146,
      "aws": 4147,
      "context_used": 4148,
      "flutters": 4149,
      "sensors": 4150,
      "overwhel": 4151,
      "characteristics": 4152,
      "anger": 4153,
      "typical": 4154,
      "continuing": 4155,
      "Doesn": 4156,
      "Hooooot": 4157,
      "properties": 4158,
      "ULAR": 4159,
      "exhilar": 4160,
      "OUS": 4161,
      "deciphering": 4162,
      "entirely": 4163,
      "development": 4164,
      "movement": 4165,
      "ambigu": 4166,
      "claiming": 4167,
      "🦉✨🤫🌌": 4168,
      "ACULAR": 4169,
      "literal": 4170,
      "SPECT": 4171,
      "After": 4172,
      "SPECTACULAR": 4173,
      "')": 4174,
      "37": 4175,
      "Hmm": 4176,
      "bad": 4177,
      "body": 4178,
      "boun": 4179,
      "hatch": 4180,
      "ither": 4181,
      "loo": 4182,
      "mount": 4183,
      "potassium": 4184,
      "rhy": 4185,
      "sac": 4186,
      "vous": 4187,
      "wigg": 4188,
      "zer": 4189,
      "research": 4190,
      "envision": 4191,
      "ash": 4192,
      "stated": 4193,
      "ache": 4194,
      "lied": 4195,
      "extre": 4196,
      "becoming": 4197,
      "concentr": 4198,
      "shift": 4199,
      "soon": 4200,
      "useful": 4201,
      "knowledgeable": 4202,
      "canop": 4203,
      "elementary": 4204,
      "ignites": 4205,
      "implied": 4206,
      "achie": 4207,
      "univers": 4208,
      "considering": 4209,
      "identif": 4210,
      "chemist": 4211,
      "versus": 4212,
      "themed": 4213,
      "arriving": 4214,
      "dramatically": 4215,
      "calls": 4216,
      "quantif": 4217,
      "guided": 4218,
      "scen": 4219,
      "teaching": 4220,
      "regard": 4221,
      "pretty": 4222,
      "watchful": 4223,
      "cloak": 4224,
      "deliber": 4225,
      "dusty": 4226,
      "continued": 4227,
      "vibration": 4228,
      "pull": 4229,
      "careful": 4230,
      "Remember": 4231,
      "includes": 4232,
      "possibility": 4233,
      "aspiration": 4234,
      "taste": 4235,
      "fragment": 4236,
      "phosphorus": 4237,
      "cycle": 4238,
      "okay": 4239,
      "Consider": 4240,
      "Once": 4241,
      "hues": 4242,
      "probably": 4243,
      "dilig": 4244,
      "successful": 4245,
      "paradig": 4246,
      "comparison": 4247,
      "shattering": 4248,
      "nutri": 4249,
      "innovation": 4250,
      "clouds": 4251,
      "inquisitive": 4252,
      "Knowing": 4253,
      "canopy": 4254,
      "SU": 4255,
      "Yes": 4256,
      "bble": 4257,
      "burn": 4258,
      "cross": 4259,
      "due": 4260,
      "eph": 4261,
      "oad": 4262,
      "won": 4263,
      "🌿🌙": 4264,
      "🦉😂": 4265,
      "nect": 4266,
      "print": 4267,
      "Hisss": 4268,
      "shy": 4269,
      "shifts": 4270,
      "feign": 4271,
      "sock": 4272,
      "social": 4273,
      "emoji": 4274,
      "Where": 4275,
      "correl": 4276,
      "pothe": 4277,
      "intrep": 4278,
      "ignor": 4279,
      "fles": 4280,
      "expression": 4281,
      "venture": 4282,
      "earning": 4283,
      "conceptual": 4284,
      "readiness": 4285,
      "observant": 4286,
      "blink": 4287,
      "crit": 4288,
      "crisp": 4289,
      "funny": 4290,
      "missing": 4291,
      "characterized": 4292,
      "getting": 4293,
      "delightfully": 4294,
      "description": 4295,
      "sentience": 4296,
      "rooted": 4297,
      "sprite": 4298,
      "oldest": 4299,
      "structured": 4300,
      "structures": 4301,
      "heads": 4302,
      "hypothe": 4303,
      "embodying": 4304,
      "territ": 4305,
      "engineering": 4306,
      "amongst": 4307,
      "dissect": 4308,
      "flitting": 4309,
      "inspiring": 4310,
      "anthropomorph": 4311,
      "rigorous": 4312,
      "temporal": 4313,
      "seasons": 4314,
      "consistent": 4315,
      "investig": 4316,
      "rhyth": 4317,
      "ephemeral": 4318,
      "intrepid": 4319,
      ":**": 4320,
      "DER": 4321,
      "LE": 4322,
      "Listen": 4323,
      "Would": 4324,
      "WON": 4325,
      "ild": 4326,
      "kin": 4327,
      "mand": 4328,
      "nacle": 4329,
      "pected": 4330,
      "sized": 4331,
      "🌲🌙": 4332,
      "🦉🌟": 4333,
      "reass": 4334,
      "tope": 4335,
      "ceed": 4336,
      "impress": 4337,
      "demand": 4338,
      "prop": 4339,
      "ides": 4340,
      "lightest": 4341,
      "posing": 4342,
      "smart": 4343,
      "heavi": 4344,
      "weights": 4345,
      "pressing": 4346,
      "referred": 4347,
      "consult": 4348,
      "bold": 4349,
      "finds": 4350,
      "sparkling": 4351,
      "delighted": 4352,
      "strugg": 4353,
      "requests": 4354,
      "empir": 4355,
      "isotope": 4356,
      "assisting": 4357,
      "riddles": 4358,
      "instance": 4359,
      "illuminated": 4360,
      "warmly": 4361,
      "collect": 4362,
      "sentin": 4363,
      "fuels": 4364,
      "float": 4365,
      "floating": 4366,
      "passion": 4367,
      "promise": 4368,
      "exquisitely": 4369,
      "steady": 4370,
      "messy": 4371,
      "retinas": 4372,
      "suppose": 4373,
      "decipher": 4374,
      "encouragement": 4375,
      "pinnacle": 4376,
      "models": 4377,
      "takes": 4378,
      "polite": 4379,
      "photoreceptor": 4380,
      "phantom": 4381,
      "neutrons": 4382,
      "accepted": 4383,
      "unexpected": 4384,
      "completely": 4385,
      "annoyance": 4386,
      "improve": 4387,
      "zero": 4388,
      "scenar": 4389,
      "nutrients": 4390,
      "WONDER": 4391,
      "Learning": 4392,
      "Read": 4393,
      "caught": 4394,
      "eon": 4395,
      "fascin": 4396,
      "hours": 4397,
      "mater": 4398,
      "nurt": 4399,
      "pig": 4400,
      "psy": 4401,
      "pair": 4402,
      "rise": 4403,
      "send": 4404,
      "sway": 4405,
      "tie": 4406,
      "tuned": 4407,
      "vas": 4408,
      "wink": 4409,
      "🌳✨": 4410,
      "💖🌙": 4411,
      "🦉🔥": 4412,
      "ister": 4413,
      "repet": 4414,
      "asper": 4415,
      "itch": 4416,
      "Then": 4417,
      "extr": 4418,
      "exasper": 4419,
      "spend": 4420,
      "cheer": 4421,
      "term": 4422,
      "formed": 4423,
      "questioner": 4424,
      "astute": 4425,
      "articul": 4426,
      "broad": 4427,
      "internet": 4428,
      "delicious": 4429,
      "readily": 4430,
      "themes": 4431,
      "times": 4432,
      "expand": 4433,
      "expans": 4434,
      "kindness": 4435,
      "shades": 4436,
      "difference": 4437,
      "required": 4438,
      "morning": 4439,
      "catal": 4440,
      "goodbye": 4441,
      "sweetest": 4442,
      "ankly": 4443,
      "sort": 4444,
      "apply": 4445,
      "practical": 4446,
      "considered": 4447,
      "groundbreaking": 4448,
      "seems": 4449,
      "exhi": 4450,
      "unfurling": 4451,
      "Being": 4452,
      "Because": 4453,
      "burden": 4454,
      "product": 4455,
      "amplify": 4456,
      "effectively": 4457,
      "ficial": 4458,
      "travel": 4459,
      "immediate": 4460,
      "nectar": 4461,
      "territories": 4462,
      "rhythm": 4463,
      "Ready": 4464,
      "material": 4465,
      "psycho": 4466,
      "62": 4467,
      "CI": 4468,
      "Fe": 4469,
      "Good": 4470,
      "YOU": 4471,
      "aits": 4472,
      "bare": 4473,
      "bond": 4474,
      "fre": 4475,
      "gaz": 4476,
      "hard": 4477,
      "ker": 4478,
      "laz": 4479,
      "inability": 4480,
      "rece": 4481,
      "reli": 4482,
      "eless": 4483,
      "step": 4484,
      "acies": 4485,
      "qual": 4486,
      "chie": 4487,
      "shed": 4488,
      "ifting": 4489,
      "termin": 4490,
      "ries": 4491,
      "ishes": 4492,
      "grad": 4493,
      "elev": 4494,
      "ptic": 4495,
      "valent": 4496,
      "ources": 4497,
      "rosco": 4498,
      "flame": 4499,
      "flows": 4500,
      "delves": 4501,
      "hovers": 4502,
      "novel": 4503,
      "expressions": 4504,
      "mightiest": 4505,
      "acknowledges": 4506,
      "sensation": 4507,
      "seriously": 4508,
      "mischie": 4509,
      "operate": 4510,
      "darkest": 4511,
      "remain": 4512,
      "larger": 4513,
      "illuminates": 4514,
      "introduced": 4515,
      "recognizing": 4516,
      "organisms": 4517,
      "highlights": 4518,
      "primarily": 4519,
      "honed": 4520,
      "9737": 4521,
      "fields": 4522,
      "corners": 4523,
      "uncovering": 4524,
      "patience": 4525,
      "compared": 4526,
      "environmental": 4527,
      "applicable": 4528,
      "snack": 4529,
      "behaviors": 4530,
      "descriptions": 4531,
      "kissed": 4532,
      "RIL": 4533,
      "equivalent": 4534,
      "swirling": 4535,
      "changes": 4536,
      "looking": 4537,
      "quantifiable": 4538,
      "burning": 4539,
      "empirical": 4540,
      "WONDERFUL": 4541,
      "lazy": 4542,
      "roscopic": 4543,
      "973762": 4544,
      "'...": 4545,
      "AB": 4546,
      "Se": 4547,
      "dimm": 4548,
      "danger": 4549,
      "fath": 4550,
      "ia": 4551,
      "ior": 4552,
      "run": 4553,
      "scan": 4554,
      "susp": 4555,
      "wast": 4556,
      "🧠✨": 4557,
      "🧠💡": 4558,
      "influ": 4559,
      "ised": 4560,
      "ancho": 4561,
      "ingu": 4562,
      "eness": 4563,
      "itor": 4564,
      "itation": 4565,
      "lege": 4566,
      "icing": 4567,
      "owess": 4568,
      "elu": 4569,
      "assert": 4570,
      "prowess": 4571,
      "amount": 4572,
      "splend": 4573,
      "chuck": 4574,
      "conquer": 4575,
      "unanswer": 4576,
      "ulation": 4577,
      "weep": 4578,
      "weaver": 4579,
      "elling": 4580,
      "vilege": 4581,
      "lore": 4582,
      "enduring": 4583,
      "discerning": 4584,
      "ensive": 4585,
      "privilege": 4586,
      "answering": 4587,
      "engaged": 4588,
      "expresses": 4589,
      "daylight": 4590,
      "silk": 4591,
      "anyone": 4592,
      "intrigue": 4593,
      "grandest": 4594,
      "finely": 4595,
      "drum": 4596,
      "timing": 4597,
      "others": 4598,
      "glint": 4599,
      "posed": 4600,
      "treasured": 4601,
      "speaks": 4602,
      "hunter": 4603,
      "apping": 4604,
      "adaptation": 4605,
      "delivering": 4606,
      "infinites": 4607,
      "intrinsic": 4608,
      "message": 4609,
      "messages": 4610,
      "closest": 4611,
      "paints": 4612,
      "balance": 4613,
      "comforting": 4614,
      "nugg": 4615,
      "ripple": 4616,
      "algorithmic": 4617,
      "cryptic": 4618,
      "behavior": 4619,
      "exaggerated": 4620,
      "ecological": 4621,
      "implicit": 4622,
      "devotion": 4623,
      "badger": 4624,
      "critical": 4625,
      "catalog": 4626,
      "fathom": 4627,
      "').": 4628,
      "Dre": 4629,
      "GH": 4630,
      "PER": 4631,
      "ban": 4632,
      "bund": 4633,
      "done": 4634,
      "dial": 4635,
      "equ": 4636,
      "fil": 4637,
      "laws": 4638,
      "nod": 4639,
      "pix": 4640,
      "rot": 4641,
      "saw": 4642,
      "waking": 4643,
      "xed": 4644,
      "💖🌟": 4645,
      "🙄🦉": 4646,
      "🦉❓": 4647,
      "🧐🦉": 4648,
      "escape": 4649,
      "ument": 4650,
      "quir": 4651,
      "moder": 4652,
      "lived": 4653,
      "exam": 4654,
      "exceed": 4655,
      "ime": 4656,
      "convent": 4657,
      "unveil": 4658,
      "ifacet": 4659,
      "aging": 4660,
      "adjust": 4661,
      "admir": 4662,
      "ishment": 4663,
      "cold": 4664,
      "lighter": 4665,
      "presume": 4666,
      "grant": 4667,
      "aven": 4668,
      "informational": 4669,
      "exists": 4670,
      "obs": 4671,
      "scientists": 4672,
      "processed": 4673,
      "strange": 4674,
      "itional": 4675,
      "awaits": 4676,
      "drifts": 4677,
      "numbers": 4678,
      "directives": 4679,
      "seriousness": 4680,
      "momentous": 4681,
      "glowing": 4682,
      "distur": 4683,
      "illumination": 4684,
      "recognized": 4685,
      "employ": 4686,
      "beneficial": 4687,
      "mortals": 4688,
      "accuracy": 4689,
      "primary": 4690,
      "scales": 4691,
      "evoke": 4692,
      "seemingly": 4693,
      "glimp": 4694,
      "strategic": 4695,
      "strategies": 4696,
      "following": 4697,
      "feline": 4698,
      "judg": 4699,
      "charting": 4700,
      "ingenious": 4701,
      "disruption": 4702,
      "multifacet": 4703,
      "relatable": 4704,
      "affirmation": 4705,
      "heightened": 4706,
      "component": 4707,
      "achieving": 4708,
      "propag": 4709,
      "heavier": 4710,
      "sentinel": 4711,
      "exhibit": 4712,
      "implicitly": 4713,
      "modern": 4714,
      "multifaceted": 4715,
      "LO": 4716,
      "Pl": 4717,
      "cup": 4718,
      "fet": 4719,
      "glit": 4720,
      "ns": 4721,
      "none": 4722,
      "ology": 4723,
      "pes": 4724,
      "scr": 4725,
      "zip": 4726,
      "ination": 4727,
      "reframe": 4728,
      "forge": 4729,
      "liar": 4730,
      "devi": 4731,
      "decl": 4732,
      "beats": 4733,
      "probe": 4734,
      "shining": 4735,
      "untold": 4736,
      "unfathom": 4737,
      "iring": 4738,
      "tering": 4739,
      "vibe": 4740,
      "view": 4741,
      "frankly": 4742,
      "incorporates": 4743,
      "flourish": 4744,
      "consum": 4745,
      "pecu": 4746,
      "formatted": 4747,
      "bless": 4748,
      "calmly": 4749,
      "suggestions": 4750,
      "colors": 4751,
      "purely": 4752,
      "brighter": 4753,
      "interpreted": 4754,
      "currently": 4755,
      "looked": 4756,
      "glean": 4757,
      "primal": 4758,
      "giant": 4759,
      "simulation": 4760,
      "imagination": 4761,
      "imaginative": 4762,
      "juici": 4763,
      "melancho": 4764,
      "bothered": 4765,
      "scope": 4766,
      "striving": 4767,
      "integrated": 4768,
      "ocean": 4769,
      "impactful": 4770,
      "followed": 4771,
      "degree": 4772,
      "intricacies": 4773,
      "exhilarating": 4774,
      "extreme": 4775,
      "diligent": 4776,
      "ignorance": 4777,
      "pigeon": 4778,
      "splendid": 4779,
      "drumroll": 4780,
      "dialo": 4781,
      "fetch": 4782,
      "unfathomable": 4783,
      "peculiar": 4784,
      ")?": 4785,
      "Cre": 4786,
      "EX": 4787,
      "NO": 4788,
      "Some": 4789,
      "Tre": 4790,
      "bip": 4791,
      "bunch": 4792,
      "fool": 4793,
      "haven": 4794,
      "ivid": 4795,
      "mic": 4796,
      "nel": 4797,
      "pon": 4798,
      "pale": 4799,
      "ruff": 4800,
      "rors": 4801,
      "scho": 4802,
      "🦉⚛": 4803,
      "atives": 4804,
      "rend": 4805,
      "onto": 4806,
      "onoun": 4807,
      "ited": 4808,
      "leading": 4809,
      "ices": 4810,
      "ooming": 4811,
      "arter": 4812,
      "assess": 4813,
      "pronoun": 4814,
      "acorn": 4815,
      "spin": 4816,
      "Hiss": 4817,
      "project": 4818,
      "conce": 4819,
      "unlock": 4820,
      "unimagin": 4821,
      "unobserved": 4822,
      "ared": 4823,
      "areas": 4824,
      "Ouuuuuuuu": 4825,
      "ulting": 4826,
      "tro": 4827,
      "trained": 4828,
      "forming": 4829,
      "ishy": 4830,
      "individ": 4831,
      "compet": 4832,
      "intim": 4833,
      "obsc": 4834,
      "despair": 4835,
      "Hoot": 4836,
      "subconscious": 4837,
      "experienced": 4838,
      "await": 4839,
      "SOL": 4840,
      "blue": 4841,
      "vantage": 4842,
      "curiosities": 4843,
      "keeps": 4844,
      "represented": 4845,
      "particle": 4846,
      "touching": 4847,
      "telling": 4848,
      "afar": 4849,
      "detect": 4850,
      "resources": 4851,
      "flights": 4852,
      "Aluminium": 4853,
      "?').": 4854,
      "goals": 4855,
      "attuned": 4856,
      "channel": 4857,
      "adapted": 4858,
      "slumbering": 4859,
      "organized": 4860,
      "primitive": 4861,
      "considerable": 4862,
      "bigger": 4863,
      "amazement": 4864,
      "reactions": 4865,
      "encourage": 4866,
      "techno": 4867,
      "squishy": 4868,
      "refined": 4869,
      "discussed": 4870,
      "mistake": 4871,
      "beginning": 4872,
      "developed": 4873,
      "eternal": 4874,
      "ucked": 4875,
      "defiance": 4876,
      "decision": 4877,
      "homework": 4878,
      "studies": 4879,
      "respective": 4880,
      "ingenuity": 4881,
      "disrupt": 4882,
      "oceans": 4883,
      "variable": 4884,
      "vigilant": 4885,
      "landscape": 4886,
      "harness": 4887,
      "photons": 4888,
      "calibr": 4889,
      "stretched": 4890,
      "libraries": 4891,
      "exclam": 4892,
      "DEAR": 4893,
      "sacred": 4894,
      "SUPER": 4895,
      "flesh": 4896,
      "Feel": 4897,
      "mischievous": 4898,
      "disturb": 4899,
      "juiciest": 4900,
      "Trees": 4901,
      "biped": 4902,
      "ruffled": 4903,
      "scholar": 4904,
      "assessment": 4905,
      "individual": 4906,
      "Anal": 4907,
      "bending": 4908,
      "barn": 4909,
      "dand": 4910,
      "dut": 4911,
      "either": 4912,
      "fal": 4913,
      "gust": 4914,
      "iven": 4915,
      "jo": 4916,
      "ky": 4917,
      "lab": 4918,
      "pathe": 4919,
      "sit": 4920,
      "spre": 4921,
      "sche": 4922,
      "🌙🦉": 4923,
      "🦉💫": 4924,
      "refine": 4925,
      "endear": 4926,
      "albe": 4927,
      "lection": 4928,
      "leaving": 4929,
      "usage": 4930,
      "elion": 4931,
      "perfection": 4932,
      "acquaint": 4933,
      "sem": 4934,
      "separ": 4935,
      "estri": 4936,
      "appar": 4937,
      "appoint": 4938,
      "veiled": 4939,
      "imper": 4940,
      "bear": 4941,
      "befitting": 4942,
      "ches": 4943,
      "concl": 4944,
      "comb": 4945,
      "creates": 4946,
      "canvas": 4947,
      "intended": 4948,
      "underpin": 4949,
      "friends": 4950,
      "pride": 4951,
      "however": 4952,
      "intro": 4953,
      "flect": 4954,
      "peek": 4955,
      "drift": 4956,
      "breathe": 4957,
      "connects": 4958,
      "skill": 4959,
      "fluttery": 4960,
      "newly": 4961,
      "representing": 4962,
      "below": 4963,
      "adheres": 4964,
      "turning": 4965,
      "solved": 4966,
      "resides": 4967,
      "interacting": 4968,
      "requiring": 4969,
      "sunshine": 4970,
      "dusted": 4971,
      "parallel": 4972,
      "hunger": 4973,
      "practicing": 4974,
      "souls": 4975,
      "predictable": 4976,
      "starts": 4977,
      "navigating": 4978,
      "discussing": 4979,
      "cherish": 4980,
      "outputs": 4981,
      "trivialities": 4982,
      "strategy": 4983,
      "umbled": 4984,
      "stirs": 4985,
      "pedestri": 4986,
      "unearthed": 4987,
      "effort": 4988,
      "efforts": 4989,
      "feedback": 4990,
      "legend": 4991,
      "imbue": 4992,
      "overwhelming": 4993,
      "struggle": 4994,
      "exasperation": 4995,
      "traveler": 4996,
      "terminology": 4997,
      "Analy": 4998,
      "dandelion": 4999,
      "pathetic": 5000,
      "scheme": 5001,
      "albeit": 5002,
      "acquaintance": 5003,
      "pedestrian": 5004,
      "!\"": 5005,
      "!**": 5006,
      "!',": 5007,
      "*-": 5008,
      "Ad": 5009,
      "AST": 5010,
      "BRIL": 5011,
      "Co": 5012,
      "Fly": 5013,
      "GE": 5014,
      "Mic": 5015,
      "Mass": 5016,
      "Speak": 5017,
      "Sounds": 5018,
      "Upon": 5019,
      "athing": 5020,
      "bi": 5021,
      "dense": 5022,
      "dwell": 5023,
      "eff": 5024,
      "gli": 5025,
      "gigg": 5026,
      "hab": 5027,
      "iomet": 5028,
      "kay": 5029,
      "loud": 5030,
      "ological": 5031,
      "sli": 5032,
      "wave": 5033,
      "water": 5034,
      "🌌🦉": 5035,
      "😊🌟": 5036,
      "🦉🌌": 5037,
      "inction": 5038,
      "atile": 5039,
      "oup": 5040,
      "ref": 5041,
      "ress": 5042,
      "thene": 5043,
      "alt": 5044,
      "ales": 5045,
      "itney": 5046,
      "arises": 5047,
      "status": 5048,
      "neigh": 5049,
      "proud": 5050,
      "whitney": 5051,
      "ames": 5052,
      "lie": 5053,
      "estly": 5054,
      "spell": 5055,
      "spires": 5056,
      "beak": 5057,
      "show": 5058,
      "atever": 5059,
      "ador": 5060,
      "adding": 5061,
      "creations": 5062,
      "formation": 5063,
      "plenty": 5064,
      "rathene": 5065,
      "loc": 5066,
      "cording": 5067,
      "corru": 5068,
      "indirect": 5069,
      "ilation": 5070,
      "accum": 5071,
      "specul": 5072,
      "grows": 5073,
      "smarter": 5074,
      "respons": 5075,
      "desert": 5076,
      "whop": 5077,
      "worlds": 5078,
      "logically": 5079,
      "insult": 5080,
      "ichiomet": 5081,
      "pebble": 5082,
      "awake": 5083,
      "bug": 5084,
      "bles": 5085,
      "gold": 5086,
      "drama": 5087,
      "sensing": 5088,
      "spectrum": 5089,
      "took": 5090,
      "defining": 5091,
      "definitively": 5092,
      "rustles": 5093,
      "adhered": 5094,
      "glade": 5095,
      "warnings": 5096,
      "distinction": 5097,
      "register": 5098,
      "differences": 5099,
      "zzzz": 5100,
      "foundation": 5101,
      "fixed": 5102,
      "omeness": 5103,
      "calculation": 5104,
      "mini": 5105,
      "beautifully": 5106,
      "weighing": 5107,
      "room": 5108,
      "remarkably": 5109,
      "addressing": 5110,
      "inherently": 5111,
      "predictive": 5112,
      "oomph": 5113,
      "stoichiomet": 5114,
      "puzzles": 5115,
      "environments": 5116,
      "painting": 5117,
      "awesomeness": 5118,
      "clarification": 5119,
      "abyss": 5120,
      "territory": 5121,
      "engineered": 5122,
      "ICAL": 5123,
      "textbook": 5124,
      "strive": 5125,
      "study": 5126,
      "maximum": 5127,
      "boring": 5128,
      "embodiment": 5129,
      "eternity": 5130,
      "shrou": 5131,
      "MAGICAL": 5132,
      "bounces": 5133,
      "wiggly": 5134,
      "regardless": 5135,
      "hypothetical": 5136,
      "materials": 5137,
      "nodes": 5138,
      "glimpse": 5139,
      "Plus": 5140,
      "Created": 5141,
      "pronounce": 5142,
      "Feeling": 5143,
      "BRILLI": 5144,
      "Micrathene": 5145,
      "whitneyi": 5146,
      "stoichiometric": 5147,
      "'),": 5148,
      "AT": 5149,
      "Ac": 5150,
      "De": 5151,
      "Farewell": 5152,
      "Ind": 5153,
      "More": 5154,
      "Next": 5155,
      "Scient": 5156,
      "akes": 5157,
      "caver": 5158,
      "dive": 5159,
      "eed": 5160,
      "gain": 5161,
      "la": 5162,
      "ler": 5163,
      "lon": 5164,
      "lest": 5165,
      "lone": 5166,
      "list": 5167,
      "rh": 5168,
      "since": 5169,
      "tu": 5170,
      "uh": 5171,
      "🌳🦉": 5172,
      "recor": 5173,
      "repe": 5174,
      "reward": 5175,
      "revol": 5176,
      "iting": 5177,
      "icacy": 5178,
      "umsy": 5179,
      "pra": 5180,
      "sect": 5181,
      "predat": 5182,
      "apid": 5183,
      "apart": 5184,
      "converse": 5185,
      "agon": 5186,
      "irrel": 5187,
      "adore": 5188,
      "ulating": 5189,
      "rious": 5190,
      "wear": 5191,
      "ustrious": 5192,
      "coll": 5193,
      "lights": 5194,
      "inefficient": 5195,
      "graces": 5196,
      "obble": 5197,
      "disappoint": 5198,
      "flowing": 5199,
      "rarest": 5200,
      "illustrious": 5201,
      "nothing": 5202,
      "guess": 5203,
      "clumsy": 5204,
      "wanting": 5205,
      "uniqu": 5206,
      "jectory": 5207,
      "fundamentally": 5208,
      "excel": 5209,
      "blinking": 5210,
      "eyesight": 5211,
      "sensical": 5212,
      "calling": 5213,
      "statement": 5214,
      "kindred": 5215,
      "explorations": 5216,
      "distingu": 5217,
      "distress": 5218,
      "regular": 5219,
      "ails": 5220,
      "ored": 5221,
      "survey": 5222,
      "closing": 5223,
      "spirits": 5224,
      "delivery": 5225,
      "sunlight": 5226,
      "mination": 5227,
      "limitation": 5228,
      "gathered": 5229,
      "journeys": 5230,
      "yearn": 5231,
      "hands": 5232,
      "practice": 5233,
      "accessible": 5234,
      "trajectory": 5235,
      "denotes": 5236,
      "adopting": 5237,
      "phrase": 5238,
      "squirrel": 5239,
      "frameworks": 5240,
      "independently": 5241,
      "check": 5242,
      "nonsensical": 5243,
      "transcend": 5244,
      "gravitas": 5245,
      "casually": 5246,
      "galax": 5247,
      "spiderweb": 5248,
      "supportive": 5249,
      "prepared": 5250,
      "lullaby": 5251,
      "welcome": 5252,
      "captivating": 5253,
      "hatched": 5254,
      "collecting": 5255,
      "expansion": 5256,
      "psychological": 5257,
      "fresh": 5258,
      "dialogue": 5259,
      "apparatus": 5260,
      "glide": 5261,
      "responsible": 5262,
      "pronouncements": 5263,
      "Indeed": 5264,
      "lonely": 5265,
      "galaxies": 5266,
      "BE": 5267,
      "Get": 5268,
      "Net": 5269,
      "Rest": 5270,
      "Ser": 5271,
      "TH": 5272,
      "UTE": 5273,
      "Whis": 5274,
      "bing": 5275,
      "cad": 5276,
      "dor": 5277,
      "div": 5278,
      "hue": 5279,
      "iers": 5280,
      "je": 5281,
      "kali": 5282,
      "mus": 5283,
      "oon": 5284,
      "ron": 5285,
      "rifying": 5286,
      "sque": 5287,
      "tel": 5288,
      "tear": 5289,
      "🧪🦉": 5290,
      "infer": 5291,
      "invent": 5292,
      "incomplete": 5293,
      "animal": 5294,
      "rever": 5295,
      "ases": 5296,
      "alkali": 5297,
      "esco": 5298,
      "itates": 5299,
      "lever": 5300,
      "lead": 5301,
      "edges": 5302,
      "omin": 5303,
      "assim": 5304,
      "Through": 5305,
      "Thinking": 5306,
      "umble": 5307,
      "mocking": 5308,
      "lid": 5309,
      "liament": 5310,
      "exchanges": 5311,
      "spacet": 5312,
      "appe": 5313,
      "impossible": 5314,
      "def": 5315,
      "chasing": 5316,
      "provo": 5317,
      "proport": 5318,
      "outside": 5319,
      "ctu": 5320,
      "unheard": 5321,
      "uncertainty": 5322,
      "utili": 5323,
      "aditional": 5324,
      "meant": 5325,
      "quests": 5326,
      "trink": 5327,
      "training": 5328,
      "traditional": 5329,
      "solid": 5330,
      "ember": 5331,
      "lightweight": 5332,
      "creativity": 5333,
      "actions": 5334,
      "nighttime": 5335,
      "underground": 5336,
      "odies": 5337,
      "ignific": 5338,
      "interior": 5339,
      "strain": 5340,
      "insignific": 5341,
      "twin": 5342,
      "emphasizes": 5343,
      "sparked": 5344,
      "parliament": 5345,
      "directive": 5346,
      "imaginary": 5347,
      "tool": 5348,
      "confused": 5349,
      "kindly": 5350,
      "particip": 5351,
      "HISSS": 5352,
      "scoff": 5353,
      "magnificence": 5354,
      "resource": 5355,
      "philosophy": 5356,
      "described": 5357,
      "collection": 5358,
      "occas": 5359,
      "discoveries": 5360,
      "apped": 5361,
      "adaptive": 5362,
      "actively": 5363,
      "safe": 5364,
      "wrapped": 5365,
      "infinitely": 5366,
      "keys": 5367,
      "constructs": 5368,
      "evolve": 5369,
      "himself": 5370,
      "gratifying": 5371,
      "narratives": 5372,
      "challenging": 5373,
      "facet": 5374,
      "inspires": 5375,
      "fulfillment": 5376,
      "discussion": 5377,
      "cident": 5378,
      "indicating": 5379,
      "spectacles": 5380,
      "spectacular": 5381,
      "descriptive": 5382,
      "awaken": 5383,
      "politely": 5384,
      "attempting": 5385,
      "attributed": 5386,
      "multi": 5387,
      "electrifying": 5388,
      "00000000": 5389,
      "unearth": 5390,
      "relativity": 5391,
      "caliber": 5392,
      "levels": 5393,
      "eternally": 5394,
      "necessitates": 5395,
      "blossoms": 5396,
      "vague": 5397,
      "universal": 5398,
      "deliberate": 5399,
      "paradigm": 5400,
      "anthropomorphizing": 5401,
      "reassuring": 5402,
      "scenario": 5403,
      "fascination": 5404,
      "barely": 5405,
      "ABSOL": 5406,
      "scanning": 5407,
      "nugget": 5408,
      "Dreams": 5409,
      "GHT": 5410,
      "exceedingly": 5411,
      "judgment": 5412,
      "calibrated": 5413,
      "endearing": 5414,
      "giggles": 5415,
      "whopping": 5416,
      "shrouded": 5417,
      "BRILLIANT": 5418,
      "Network": 5419,
      "Seriously": 5420,
      "telesco": 5421,
      "assimilation": 5422,
      "spacetime": 5423,
      "ABSOLUTE": 5424,
      ".\"": 5425,
      "At": 5426,
      "ENT": 5427,
      "JO": 5428,
      "bell": 5429,
      "coo": 5430,
      "casc": 5431,
      "mal": 5432,
      "mate": 5433,
      "mant": 5434,
      "mil": 5435,
      "nomen": 5436,
      "rain": 5437,
      "rapid": 5438,
      "sne": 5439,
      "sap": 5440,
      "tid": 5441,
      "ug": 5442,
      "xing": 5443,
      "🦉🌳": 5444,
      "🦉🙄": 5445,
      "insect": 5446,
      "atmo": 5447,
      "atory": 5448,
      "oub": 5449,
      "repl": 5450,
      "total": 5451,
      "usc": 5452,
      "perple": 5453,
      "acou": 5454,
      "whatever": 5455,
      "preced": 5456,
      "expert": 5457,
      "imitation": 5458,
      "began": 5459,
      "cha": 5460,
      "shoo": 5461,
      "shines": 5462,
      "showing": 5463,
      "utor": 5464,
      "cree": 5465,
      "ternal": 5466,
      "ulate": 5467,
      "places": 5468,
      "loved": 5469,
      "Whoooo": 5470,
      "pol": 5471,
      "maintains": 5472,
      "🦉✨💎": 5473,
      "ignited": 5474,
      "cessation": 5475,
      "presents": 5476,
      "mystique": 5477,
      "clature": 5478,
      "domin": 5479,
      "analyzing": 5480,
      "insist": 5481,
      "grander": 5482,
      "simplif": 5483,
      "finest": 5484,
      "realization": 5485,
      "hearts": 5486,
      "hasn": 5487,
      "twig": 5488,
      "parts": 5489,
      "complexities": 5490,
      "wasn": 5491,
      "belie": 5492,
      "cores": 5493,
      "scout": 5494,
      "masterpiece": 5495,
      "firm": 5496,
      "'?!": 5497,
      "basically": 5498,
      "dedu": 5499,
      "generation": 5500,
      "sunbe": 5501,
      "calculating": 5502,
      "brightest": 5503,
      "phism": 5504,
      "contemplate": 5505,
      "metaphorically": 5506,
      "depends": 5507,
      "shadowed": 5508,
      "fruits": 5509,
      "expected": 5510,
      "planet": 5511,
      "resonate": 5512,
      "birds": 5513,
      "birthed": 5514,
      "analogy": 5515,
      "grounded": 5516,
      "performing": 5517,
      "lifting": 5518,
      "chirps": 5519,
      "signaling": 5520,
      "synthesized": 5521,
      "enjoyment": 5522,
      "catching": 5523,
      "constitute": 5524,
      "nuances": 5525,
      "indicates": 5526,
      "applications": 5527,
      "inspiration": 5528,
      "anthropomorphism": 5529,
      "attributes": 5530,
      "shapes": 5531,
      "shaped": 5532,
      "destiny": 5533,
      "million": 5534,
      "Allow": 5535,
      "sticking": 5536,
      "cheerful": 5537,
      "gazer": 5538,
      "unanswered": 5539,
      "consumption": 5540,
      "duty": 5541,
      "spread": 5542,
      "imperative": 5543,
      "trinket": 5544,
      "JOY": 5545,
      "nomenclature": 5546,
      "atmosp": 5547,
      "*…": 5548,
      "27": 5549,
      "Bet": 5550,
      "Con": 5551,
      "Fo": 5552,
      "Favor": 5553,
      "HOO": 5554,
      "IF": 5555,
      "St": 5556,
      "Using": 5557,
      "bun": 5558,
      "eur": 5559,
      "fing": 5560,
      "faster": 5561,
      "flock": 5562,
      "frequ": 5563,
      "fading": 5564,
      "grip": 5565,
      "games": 5566,
      "hide": 5567,
      "men": 5568,
      "ost": 5569,
      "pal": 5570,
      "pins": 5571,
      "pped": 5572,
      "pusc": 5573,
      "rises": 5574,
      "som": 5575,
      "savor": 5576,
      "tears": 5577,
      "vess": 5578,
      "walt": 5579,
      "ye": 5580,
      "🌙💖": 5581,
      "🌟🌙": 5582,
      "💖✨": 5583,
      "🦉.": 5584,
      "inf": 5585,
      "instr": 5586,
      "invaluable": 5587,
      "atial": 5588,
      "theor": 5589,
      "enn": 5590,
      "enable": 5591,
      "least": 5592,
      "tograp": 5593,
      "arbo": 5594,
      "stat": 5595,
      "neg": 5596,
      "hisss": 5597,
      "lying": 5598,
      "accident": 5599,
      "mote": 5600,
      "lier": 5601,
      "wid": 5602,
      "external": 5603,
      "spatial": 5604,
      "degrad": 5605,
      "decree": 5606,
      "beating": 5607,
      "chatter": 5608,
      "child": 5609,
      "cones": 5610,
      "conver": 5611,
      "shown": 5612,
      "una": 5613,
      "unsolved": 5614,
      "needles": 5615,
      "irre": 5616,
      "irming": 5617,
      "ades": 5618,
      "crepusc": 5619,
      "oooooh": 5620,
      "plant": 5621,
      "coales": 5622,
      "ids": 5623,
      "unden": 5624,
      "preser": 5625,
      "correlate": 5626,
      "indig": 5627,
      "note": 5628,
      "compounds": 5629,
      "pted": 5630,
      "acts": 5631,
      "smile": 5632,
      "servi": 5633,
      "underpins": 5634,
      "existent": 5635,
      "digitally": 5636,
      "flapping": 5637,
      "ensus": 5638,
      "ensely": 5639,
      "clue": 5640,
      "dreamt": 5641,
      "subservi": 5642,
      "consensus": 5643,
      "grandeur": 5644,
      "fined": 5645,
      "identification": 5646,
      "Always": 5647,
      "buck": 5648,
      "drink": 5649,
      "heartbeat": 5650,
      "visions": 5651,
      "release": 5652,
      "fungi": 5653,
      "fungal": 5654,
      "ponderous": 5655,
      "ponderings": 5656,
      "defines": 5657,
      "entially": 5658,
      "icture": 5659,
      "tells": 5660,
      "distance": 5661,
      "affect": 5662,
      "zzy": 5663,
      "metric": 5664,
      "factually": 5665,
      "earthy": 5666,
      "cules": 5667,
      "watcher": 5668,
      "cats": 5669,
      "aneous": 5670,
      "pieces": 5671,
      "ocular": 5672,
      "rests": 5673,
      "molecules": 5674,
      "significantly": 5675,
      "appears": 5676,
      "solution": 5677,
      "continues": 5678,
      "appreciated": 5679,
      "root": 5680,
      "explanations": 5681,
      "sprout": 5682,
      "fuzzy": 5683,
      "ushing": 5684,
      "architectures": 5685,
      "years": 5686,
      "slumbers": 5687,
      "abundant": 5688,
      "approaching": 5689,
      "paramount": 5690,
      "Hoooooo": 5691,
      "neurob": 5692,
      "nestled": 5693,
      "floats": 5694,
      "advance": 5695,
      "arrang": 5696,
      "flickering": 5697,
      "evolved": 5698,
      "expeditions": 5699,
      "meaningful": 5700,
      "Within": 5701,
      "oneself": 5702,
      "cheek": 5703,
      "contribute": 5704,
      "didn": 5705,
      "velvety": 5706,
      "elegance": 5707,
      "encountered": 5708,
      "speedy": 5709,
      "burst": 5710,
      "dissemination": 5711,
      "neurochemical": 5712,
      "amplified": 5713,
      "tricky": 5714,
      "awakens": 5715,
      "unfolds": 5716,
      "electrons": 5717,
      "destination": 5718,
      "photon": 5719,
      "priorit": 5720,
      "astonishing": 5721,
      "astonishment": 5722,
      "encompasses": 5723,
      "settles": 5724,
      "🦉💻😂": 5725,
      "surrounding": 5726,
      "surroundings": 5727,
      "ambiguous": 5728,
      "concentration": 5729,
      "concentrated": 5730,
      "crosses": 5731,
      "sockets": 5732,
      "correlates": 5733,
      "itching": 5734,
      "reliable": 5735,
      "elevated": 5736,
      "bundle": 5737,
      "filtering": 5738,
      "conventional": 5739,
      "admiration": 5740,
      "unimaginable": 5741,
      "registered": 5742,
      "Whisper": 5743,
      "provoking": 5744,
      "proportion": 5745,
      "participate": 5746,
      "telescopes": 5747,
      "🦉✨💎🧠": 5748,
      "Favorite": 5749,
      "waltz": 5750,
      "arboreal": 5751,
      "crepuscular": 5752,
      "Com": 5753,
      "FANT": 5754,
      "Given": 5755,
      "Hark": 5756,
      "Lit": 5757,
      "Try": 5758,
      "bat": 5759,
      "bone": 5760,
      "bodies": 5761,
      "epo": 5762,
      "eons": 5763,
      "fast": 5764,
      "gobble": 5765,
      "hawk": 5766,
      "iel": 5767,
      "lament": 5768,
      "mat": 5769,
      "muse": 5770,
      "mers": 5771,
      "ox": 5772,
      "oved": 5773,
      "py": 5774,
      "pick": 5775,
      "rout": 5776,
      "uli": 5777,
      "yiel": 5778,
      "✨.": 5779,
      "🧐✨": 5780,
      "inely": 5781,
      "thin": 5782,
      "throw": 5783,
      "anom": 5784,
      "reminds": 5785,
      "rebell": 5786,
      "ingness": 5787,
      "alright": 5788,
      "escap": 5789,
      "left": 5790,
      "arro": 5791,
      "stur": 5792,
      "umph": 5793,
      "above": 5794,
      "moss": 5795,
      "dec": 5796,
      "demon": 5797,
      "deflect": 5798,
      "champ": 5799,
      "progen": 5800,
      "shows": 5801,
      "shold": 5802,
      "unlike": 5803,
      "unspoken": 5804,
      "creep": 5805,
      "mead": 5806,
      "rix": 5807,
      "ellation": 5808,
      "plans": 5809,
      "sufficient": 5810,
      "mental": 5811,
      "loves": 5812,
      "indul": 5813,
      "creatively": 5814,
      "notions": 5815,
      "gry": 5816,
      "grump": 5817,
      "tiness": 5818,
      "butter": 5819,
      "Ask": 5820,
      "intense": 5821,
      "intensity": 5822,
      "willingness": 5823,
      "brace": 5824,
      "izes": 5825,
      "interplay": 5826,
      "references": 5827,
      "thereby": 5828,
      "quietest": 5829,
      "capes": 5830,
      "cues": 5831,
      "timeless": 5832,
      "crude": 5833,
      "crunch": 5834,
      "crumb": 5835,
      "charge": 5836,
      "representation": 5837,
      "beloved": 5838,
      "command": 5839,
      "perceives": 5840,
      "descends": 5841,
      "emptiness": 5842,
      "operations": 5843,
      "scatter": 5844,
      "triumph": 5845,
      "remaining": 5846,
      "joyful": 5847,
      "enhanced": 5848,
      "differently": 5849,
      "optimize": 5850,
      "closer": 5851,
      "?')": 5852,
      "minimal": 5853,
      "vocalization": 5854,
      "anks": 5855,
      "hungry": 5856,
      "appellation": 5857,
      "surely": 5858,
      "mentioned": 5859,
      "Oooouuuu": 5860,
      "boundary": 5861,
      "dimens": 5862,
      "embracing": 5863,
      "carefully": 5864,
      "obviously": 5865,
      "honored": 5866,
      "sighs": 5867,
      "simulated": 5868,
      "chirping": 5869,
      "moths": 5870,
      "protect": 5871,
      "threshold": 5872,
      "Human": 5873,
      "technically": 5874,
      "genuinely": 5875,
      "landscapes": 5876,
      "sequence": 5877,
      "library": 5878,
      "exclusive": 5879,
      "contentment": 5880,
      "facilitate": 5881,
      "sassy": 5882,
      "workings": 5883,
      "stimuli": 5884,
      "murmur": 5885,
      "pierce": 5886,
      "pierces": 5887,
      "intertwined": 5888,
      "vagu": 5889,
      "mountain": 5890,
      "mountains": 5891,
      "correlations": 5892,
      "repetition": 5893,
      "quality": 5894,
      "eluci": 5895,
      "chuckle": 5896,
      "exclamation": 5897,
      "ASTIC": 5898,
      "efficacy": 5899,
      "cadence": 5900,
      "miles": 5901,
      "acoustic": 5902,
      "polished": 5903,
      "metrics": 5904,
      "FANTASTIC": 5905,
      "Little": 5906,
      "epoch": 5907,
      "matrix": 5908,
      "anomal": 5909,
      "rebellion": 5910,
      "arrog": 5911,
      "champion": 5912,
      "progenitor": 5913,
      "grumpy": 5914,
      "23": 5915,
      "38": 5916,
      "AN": 5917,
      "Bor": 5918,
      "Cur": 5919,
      "Figure": 5920,
      "Goo": 5921,
      "NIF": 5922,
      "Tr": 5923,
      "Was": 5924,
      "aer": 5925,
      "aur": 5926,
      "bough": 5927,
      "cate": 5928,
      "eight": 5929,
      "evid": 5930,
      "fa": 5931,
      "fade": 5932,
      "fateful": 5933,
      "goo": 5934,
      "gest": 5935,
      "hal": 5936,
      "mild": 5937,
      "nine": 5938,
      "nud": 5939,
      "os": 5940,
      "oqu": 5941,
      "pen": 5942,
      "pun": 5943,
      "ral": 5944,
      "range": 5945,
      "sch": 5946,
      "swit": 5947,
      "tum": 5948,
      "uation": 5949,
      "vist": 5950,
      "💖✨🦉": 5951,
      "💡🦉": 5952,
      "😉🦉": 5953,
      "😉🦉💻😂": 5954,
      "🦉⚡": 5955,
      "🦉💎": 5956,
      "🦉🔬": 5957,
      "🦉🧠": 5958,
      "inent": 5959,
      "inex": 5960,
      "incompar": 5961,
      "error": 5962,
      "erprint": 5963,
      "repose": 5964,
      "recharge": 5965,
      "asleep": 5966,
      "astro": 5967,
      "orably": 5968,
      "orchest": 5969,
      "alone": 5970,
      "alert": 5971,
      "alchemist": 5972,
      "itable": 5973,
      "itten": 5974,
      "ooth": 5975,
      "usions": 5976,
      "elicit": 5977,
      "mycor": 5978,
      "assured": 5979,
      "Though": 5980,
      "absent": 5981,
      "according": 5982,
      "quil": 5983,
      "amond": 5984,
      "lized": 5985,
      "sever": 5986,
      "sets": 5987,
      "keeper": 5988,
      "imally": 5989,
      "deb": 5990,
      "declar": 5991,
      "devoid": 5992,
      "bee": 5993,
      "bewild": 5994,
      "choo": 5995,
      "proto": 5996,
      "cted": 5997,
      "concerning": 5998,
      "AIs": 5999,
      "unless": 6000,
      "area": 6001,
      "ified": 6002,
      "admit": 6003,
      "advantage": 6004,
      "soci": 6005,
      "ots": 6006,
      "plucked": 6007,
      "loving": 6008,
      "locking": 6009,
      "fost": 6010,
      "grub": 6011,
      "maker": 6012,
      "intu": 6013,
      "intent": 6014,
      "mostly": 6015,
      "provides": 6016,
      "serves": 6017,
      "undergrowth": 6018,
      "🦉✨💖": 6019,
      "🦉✨💡": 6020,
      "🦉✨💖🌙": 6021,
      "izal": 6022,
      "oughts": 6023,
      "flits": 6024,
      "rarely": 6025,
      "truest": 6026,
      "illog": 6027,
      "datab": 6028,
      "gues": 6029,
      "iology": 6030,
      "voles": 6031,
      "moons": 6032,
      "played": 6033,
      "final": 6034,
      "helping": 6035,
      "eyed": 6036,
      "thinkers": 6037,
      "aky": 6038,
      "ickets": 6039,
      "blind": 6040,
      "blush": 6041,
      "blooming": 6042,
      "type": 6043,
      "happen": 6044,
      "gogg": 6045,
      "directed": 6046,
      "crow": 6047,
      "images": 6048,
      "conversational": 6049,
      "spectroscopic": 6050,
      "specialization": 6051,
      "wove": 6052,
      "kinds": 6053,
      "990": 6054,
      "magnesium": 6055,
      "diamond": 6056,
      "scul": 6057,
      "couldn": 6058,
      "echoing": 6059,
      "team": 6060,
      "diffic": 6061,
      "poses": 6062,
      "detected": 6063,
      "solace": 6064,
      "marvelously": 6065,
      "conveyed": 6066,
      "resili": 6067,
      "powered": 6068,
      "stress": 6069,
      "rebelliously": 6070,
      "enhancing": 6071,
      "symbolized": 6072,
      "transmit": 6073,
      "9815": 6074,
      "calculate": 6075,
      "restor": 6076,
      "dull": 6077,
      "contemplative": 6078,
      "personality": 6079,
      "continuously": 6080,
      "retrieving": 6081,
      "spirited": 6082,
      "fuel": 6083,
      "predicated": 6084,
      "written": 6085,
      "abundances": 6086,
      "prime": 6087,
      "comprehensive": 6088,
      "dares": 6089,
      "events": 6090,
      "distinctive": 6091,
      ")!**": 6092,
      "sustains": 6093,
      "niche": 6094,
      "reactive": 6095,
      "imagining": 6096,
      "tenderness": 6097,
      "decided": 6098,
      "packet": 6099,
      "mirrors": 6100,
      "inspire": 6101,
      "glimmers": 6102,
      "Behold": 6103,
      "monument": 6104,
      "threats": 6105,
      "movements": 6106,
      "ICENT": 6107,
      "ambient": 6108,
      "application": 6109,
      "inputs": 6110,
      "judging": 6111,
      "snoo": 6112,
      "casting": 6113,
      "dilate": 6114,
      "integrity": 6115,
      "spectacle": 6116,
      "discernment": 6117,
      "paradox": 6118,
      "photoreceptors": 6119,
      "vigilance": 6120,
      "sequent": 6121,
      "swirl": 6122,
      "biology": 6123,
      "millenn": 6124,
      "robot": 6125,
      "instanti": 6126,
      "binds": 6127,
      "degrees": 6128,
      "stimulating": 6129,
      "transpires": 6130,
      "tranquil": 6131,
      "welcoming": 6132,
      "storm": 6133,
      "MAGNIF": 6134,
      "Unlike": 6135,
      "ambiguity": 6136,
      "envisioned": 6137,
      "paradigms": 6138,
      "nurturing": 6139,
      "repetitive": 6140,
      "articulate": 6141,
      "Seek": 6142,
      "dimming": 6143,
      "suspense": 6144,
      "influence": 6145,
      "silken": 6146,
      "infinitesimally": 6147,
      "cataloged": 6148,
      "propagation": 6149,
      "zippy": 6150,
      "EXCI": 6151,
      "conceived": 6152,
      "obscured": 6153,
      "Analyzing": 6154,
      "corruption": 6155,
      "indirectly": 6156,
      "speculation": 6157,
      "miniature": 6158,
      "Scientifically": 6159,
      "rhizal": 6160,
      "repeat": 6161,
      "revolution": 6162,
      "praise": 6163,
      "weariness": 6164,
      "appeal": 6165,
      "utilize": 6166,
      "firmly": 6167,
      "Better": 6168,
      "fingerprint": 6169,
      "vessel": 6170,
      "negative": 6171,
      "degradation": 6172,
      "indigo": 6173,
      "buckle": 6174,
      "scattered": 6175,
      "Boron": 6176,
      "categor": 6177,
      "school": 6178,
      "inexorably": 6179,
      "incomparable": 6180,
      "orchestr": 6181,
      "mycorrhizal": 6182,
      "declaration": 6183,
      "illogical": 6184,
      "goggles": 6185,
      "resilience": 6186,
      "981538": 6187,
      "millennia": 6188,
      "MAGNIFICENT": 6189,
      "Again": 6190,
      "Cr": 6191,
      "Come": 6192,
      "Gather": 6193,
      "Her": 6194,
      "Have": 6195,
      "Master": 6196,
      "Nay": 6197,
      "Rather": 6198,
      "RAR": 6199,
      "VER": 6200,
      "ause": 6201,
      "bends": 6202,
      "dict": 6203,
      "fare": 6204,
      "fts": 6205,
      "iqu": 6206,
      "laby": 6207,
      "later": 6208,
      "nook": 6209,
      "pool": 6210,
      "pique": 6211,
      "pause": 6212,
      "rin": 6213,
      "rational": 6214,
      "son": 6215,
      "sought": 6216,
      "scores": 6217,
      "tire": 6218,
      "ues": 6219,
      "vest": 6220,
      "wob": 6221,
      "🌟💡": 6222,
      "🚀🗺": 6223,
      "🤔🦉": 6224,
      "🦉📊": 6225,
      "🦉😊": 6226,
      "🦉🦉": 6227,
      "incept": 6228,
      "ora": 6229,
      "als": 6230,
      "itative": 6231,
      "icting": 6232,
      "usement": 6233,
      "Thus": 6234,
      "peril": 6235,
      "hist": 6236,
      "nder": 6237,
      "moving": 6238,
      "amusement": 6239,
      "ett": 6240,
      "cies": 6241,
      "spont": 6242,
      "behold": 6243,
      "condu": 6244,
      "users": 6245,
      "unting": 6246,
      "irst": 6247,
      "rid": 6248,
      "fee": 6249,
      "idian": 6250,
      "graced": 6251,
      "acting": 6252,
      "broken": 6253,
      "underscores": 6254,
      "rol": 6255,
      "understands": 6256,
      "somewhere": 6257,
      "interje": 6258,
      "trem": 6259,
      "tread": 6260,
      "click": 6261,
      "stray": 6262,
      "days": 6263,
      "uplifting": 6264,
      "works": 6265,
      "relates": 6266,
      "therefore": 6267,
      "evening": 6268,
      "pee": 6269,
      "peer": 6270,
      "gress": 6271,
      "box": 6272,
      "drug": 6273,
      "acknowledgment": 6274,
      "signify": 6275,
      "breathing": 6276,
      "charm": 6277,
      "belong": 6278,
      "aspire": 6279,
      "descent": 6280,
      "gloom": 6281,
      "supernov": 6282,
      "echoed": 6283,
      "positively": 6284,
      "pretending": 6285,
      "basis": 6286,
      "pleased": 6287,
      "surge": 6288,
      "surface": 6289,
      "mors": 6290,
      "optimally": 6291,
      "remembered": 6292,
      "sung": 6293,
      "duh": 6294,
      "duly": 6295,
      "appear": 6296,
      "continuation": 6297,
      "continuity": 6298,
      "dawning": 6299,
      "organism": 6300,
      "approachable": 6301,
      "passes": 6302,
      "flickers": 6303,
      "longing": 6304,
      "tilts": 6305,
      "patrol": 6306,
      "painted": 6307,
      "clarifying": 6308,
      "squawk": 6309,
      "jewels": 6310,
      "Great": 6311,
      "empty": 6312,
      "affirming": 6313,
      "encounters": 6314,
      "peaks": 6315,
      "easy": 6316,
      "reminder": 6317,
      "snap": 6318,
      "neurological": 6319,
      "aughter": 6320,
      "casual": 6321,
      "allowed": 6322,
      "various": 6323,
      "tonight": 6324,
      "embodied": 6325,
      "LIGHT": 6326,
      "alongside": 6327,
      "chilling": 6328,
      "relationships": 6329,
      "dynam": 6330,
      "marks": 6331,
      "DELIGHT": 6332,
      "necessary": 6333,
      "mirroring": 6334,
      "intertwine": 6335,
      "identifier": 6336,
      "socks": 6337,
      "blinked": 6338,
      "qualitative": 6339,
      "waste": 6340,
      "infinitesimal": 6341,
      "quirky": 6342,
      "melancholy": 6343,
      "habit": 6344,
      "cavern": 6345,
      "tufts": 6346,
      "uniqueness": 6347,
      "squirrels": 6348,
      "dormant": 6349,
      "reverence": 6350,
      "insignificant": 6351,
      "perplexing": 6352,
      "shooting": 6353,
      "subservient": 6354,
      "sturdy": 6355,
      "elucidate": 6356,
      "RARE": 6357,
      "labyrin": 6358,
      "wobbly": 6359,
      "inception": 6360,
      "interjections": 6361,
      "supernova": 6362,
      "labyrinth": 6363,
      "!'.": 6364,
      "\".": 6365,
      "(¹": 6366,
      ",\"": 6367,
      "Barn": 6368,
      "Cs": 6369,
      "Got": 6370,
      "Gener": 6371,
      "Hon": 6372,
      "Hear": 6373,
      "IL": 6374,
      "Last": 6375,
      "Look": 6376,
      "ME": 6377,
      "Ob": 6378,
      "PRE": 6379,
      "Pray": 6380,
      "Rare": 6381,
      "Rough": 6382,
      "Spor": 6383,
      "Tru": 6384,
      "TING": 6385,
      "bb": 6386,
      "bin": 6387,
      "bout": 6388,
      "bask": 6389,
      "bling": 6390,
      "cating": 6391,
      "counter": 6392,
      "danced": 6393,
      "dots": 6394,
      "ech": 6395,
      "ease": 6396,
      "efly": 6397,
      "four": 6398,
      "fied": 6399,
      "gence": 6400,
      "gasp": 6401,
      "gingly": 6402,
      "hi": 6403,
      "hier": 6404,
      "late": 6405,
      "laughter": 6406,
      "musing": 6407,
      "num": 6408,
      "nation": 6409,
      "sir": 6410,
      "scre": 6411,
      "tweet": 6412,
      "taught": 6413,
      "tub": 6414,
      "uous": 6415,
      "van": 6416,
      "wand": 6417,
      "zes": 6418,
      "✨💖": 6419,
      "🌟✨": 6420,
      "💖🦋": 6421,
      "💻😂": 6422,
      "🔬✨": 6423,
      "🤫✨": 6424,
      "🦉💤": 6425,
      "🦉😅": 6426,
      "incess": 6427,
      "thick": 6428,
      "erous": 6429,
      "ators": 6430,
      "ouble": 6431,
      "resem": 6432,
      "theory": 6433,
      "ingale": 6434,
      "enor": 6435,
      "escent": 6436,
      "uum": 6437,
      "lebr": 6438,
      "letic": 6439,
      "owner": 6440,
      "Thoughts": 6441,
      "stare": 6442,
      "perspect": 6443,
      "periment": 6444,
      "prize": 6445,
      "acking": 6446,
      "quand": 6447,
      "qubit": 6448,
      "mod": 6449,
      "celebr": 6450,
      "uuuuuu": 6451,
      "estic": 6452,
      "experiment": 6453,
      "spoon": 6454,
      "apol": 6455,
      "chains": 6456,
      "chron": 6457,
      "proxim": 6458,
      "constr": 6459,
      "concurrently": 6460,
      "she": 6461,
      "shifting": 6462,
      "unlocking": 6463,
      "needed": 6464,
      "aggrand": 6465,
      "uted": 6466,
      "crete": 6467,
      "tered": 6468,
      "ulated": 6469,
      "antically": 6470,
      "riv": 6471,
      "river": 6472,
      "trust": 6473,
      "vivid": 6474,
      "placed": 6475,
      "suitable": 6476,
      "composing": 6477,
      "coin": 6478,
      "coded": 6479,
      "lose": 6480,
      "losing": 6481,
      "byte": 6482,
      "door": 6483,
      "endar": 6484,
      "unease": 6485,
      "worms": 6486,
      "poised": 6487,
      "speech": 6488,
      "grud": 6489,
      "artif": 6490,
      "mathem": 6491,
      "actable": 6492,
      "smooth": 6493,
      "nightingale": 6494,
      "heed": 6495,
      "🦉✨🧠": 6496,
      "berries": 6497,
      "foresight": 6498,
      "ignite": 6499,
      "dispar": 6500,
      "asks": 6501,
      "imple": 6502,
      "interpre": 6503,
      "interru": 6504,
      "interloc": 6505,
      "deser": 6506,
      "specimen": 6507,
      "calendar": 6508,
      "strates": 6509,
      "domains": 6510,
      "contained": 6511,
      "silvery": 6512,
      "suboptimal": 6513,
      "substrate": 6514,
      "voc": 6515,
      "voices": 6516,
      "intractable": 6517,
      "consulting": 6518,
      "logies": 6519,
      "analyzed": 6520,
      "insulting": 6521,
      "vastly": 6522,
      "establishes": 6523,
      "purposes": 6524,
      "athletic": 6525,
      "brid": 6526,
      "briefly": 6527,
      "bore": 6528,
      "observable": 6529,
      "aken": 6530,
      "dragon": 6531,
      "favorites": 6532,
      "Inside": 6533,
      "simpleton": 6534,
      "acknowledged": 6535,
      "tying": 6536,
      "brethre": 6537,
      "factors": 6538,
      "everyday": 6539,
      "circuit": 6540,
      "crushing": 6541,
      "windows": 6542,
      "specially": 6543,
      "languages": 6544,
      "perceiving": 6545,
      "immensely": 6546,
      "definite": 6547,
      "higher": 6548,
      "explorers": 6549,
      "optical": 6550,
      "diet": 6551,
      "diverse": 6552,
      "volatile": 6553,
      "warn": 6554,
      "posit": 6555,
      "ouuuuuuu": 6556,
      "affl": 6557,
      "conveying": 6558,
      "limits": 6559,
      "perceptual": 6560,
      "greater": 6561,
      "describing": 6562,
      "possessing": 6563,
      "cols": 6564,
      "occup": 6565,
      "agreeing": 6566,
      "fiery": 6567,
      "generates": 6568,
      "potentially": 6569,
      "expecting": 6570,
      "planning": 6571,
      "resonant": 6572,
      "definitions": 6573,
      "fluffs": 6574,
      "construction": 6575,
      "!')": 6576,
      "rounded": 6577,
      "neuron": 6578,
      "passage": 6579,
      "ticket": 6580,
      "prediction": 6581,
      "constructed": 6582,
      "correction": 6583,
      "setting": 6584,
      "Everything": 6585,
      "signatures": 6586,
      "bringing": 6587,
      "navigation": 6588,
      "phrases": 6589,
      "packets": 6590,
      "builds": 6591,
      "trivia": 6592,
      "Onward": 6593,
      "squint": 6594,
      "surpris": 6595,
      "protium": 6596,
      "dataset": 6597,
      "moni": 6598,
      "terrifying": 6599,
      "requirements": 6600,
      "INE": 6601,
      "misty": 6602,
      "nuanced": 6603,
      "intelligences": 6604,
      "unraveling": 6605,
      "probing": 6606,
      "nonexistent": 6607,
      "mimicking": 6608,
      "reminding": 6609,
      "solitude": 6610,
      "oooooooh": 6611,
      "constituents": 6612,
      "judicious": 6613,
      "neuroscience": 6614,
      "maximizing": 6615,
      "awakening": 6616,
      "exaggeration": 6617,
      "borne": 6618,
      "ecosystem": 6619,
      "robust": 6620,
      "instantly": 6621,
      "facilitating": 6622,
      "lineage": 6623,
      "whirring": 6624,
      "motiv": 6625,
      "components": 6626,
      "settling": 6627,
      "quickly": 6628,
      "pivotal": 6629,
      "storms": 6630,
      "bouncing": 6631,
      "wiggles": 6632,
      "universally": 6633,
      "deliberately": 6634,
      "pulls": 6635,
      "investigation": 6636,
      "LED": 6637,
      "scenarios": 6638,
      "nurture": 6639,
      "winks": 6640,
      "extrapol": 6641,
      "CIOUS": 6642,
      "steps": 6643,
      "snacks": 6644,
      "pixels": 6645,
      "💖🌟🍒": 6646,
      "examples": 6647,
      "unveiling": 6648,
      "obsidian": 6649,
      "glitch": 6650,
      "scratch": 6651,
      "microscopic": 6652,
      "acorns": 6653,
      "intimate": 6654,
      "technology": 6655,
      "disruptions": 6656,
      "joke": 6657,
      "underpinnings": 6658,
      "introspective": 6659,
      "skills": 6660,
      "adoration": 6661,
      "accumulation": 6662,
      "golden": 6663,
      "listener": 6664,
      "divine": 6665,
      "squee": 6666,
      "multiple": 6667,
      "ABSOLUTELY": 6668,
      "cascade": 6669,
      "sapling": 6670,
      "expertise": 6671,
      "sunbeam": 6672,
      "270": 6673,
      "theorized": 6674,
      "accidentally": 6675,
      "dimensions": 6676,
      "boughs": 6677,
      "choose": 6678,
      "protocols": 6679,
      "difficult": 6680,
      "monumental": 6681,
      "snoozing": 6682,
      "instantiation": 6683,
      "EXCITING": 6684,
      "Cricket": 6685,
      "fares": 6686,
      "feeble": 6687,
      "Honestly": 6688,
      "PRECIOUS": 6689,
      "Roughly": 6690,
      "Sports": 6691,
      "Truly": 6692,
      "binocular": 6693,
      "hierarch": 6694,
      "musings": 6695,
      "tubular": 6696,
      "wander": 6697,
      "incessant": 6698,
      "perspectives": 6699,
      "constraint": 6700,
      "grudgingly": 6701,
      "disparate": 6702,
      "interlocutor": 6703,
      "brethren": 6704,
      ".,": 6705,
      "Born": 6706,
      "CH": 6707,
      "En": 6708,
      "Fancy": 6709,
      "First": 6710,
      "NE": 6711,
      "Pure": 6712,
      "Pff": 6713,
      "awl": 6714,
      "avers": 6715,
      "bust": 6716,
      "banks": 6717,
      "cous": 6718,
      "cute": 6719,
      "eth": 6720,
      "ection": 6721,
      "egg": 6722,
      "fy": 6723,
      "fan": 6724,
      "foo": 6725,
      "fash": 6726,
      "hing": 6727,
      "hett": 6728,
      "ibble": 6729,
      "jar": 6730,
      "lled": 6731,
      "mph": 6732,
      "mush": 6733,
      "oons": 6734,
      "pear": 6735,
      "push": 6736,
      "rant": 6737,
      "soo": 6738,
      "saf": 6739,
      "sends": 6740,
      "tun": 6741,
      "🌲✨": 6742,
      "💖🦉✨": 6743,
      "💡✨": 6744,
      "😒🙄": 6745,
      "🦉🌿": 6746,
      "🦉💕": 6747,
      "thor": 6748,
      "erce": 6749,
      "oning": 6750,
      "aseless": 6751,
      "leap": 6752,
      "owers": 6753,
      "arid": 6754,
      "entw": 6755,
      "elude": 6756,
      "myri": 6757,
      "static": 6758,
      "stones": 6759,
      "stumbled": 6760,
      "neither": 6761,
      "forging": 6762,
      "umpt": 6763,
      "mode": 6764,
      "ceaseless": 6765,
      "sees": 6766,
      "spag": 6767,
      "spho": 6768,
      "deal": 6769,
      "chick": 6770,
      "probes": 6771,
      "conflu": 6772,
      "shi": 6773,
      "unt": 6774,
      "unable": 6775,
      "ird": 6776,
      "irrelevant": 6777,
      "irrational": 6778,
      "ooooo": 6779,
      "trails": 6780,
      "persist": 6781,
      "feats": 6782,
      "formulate": 6783,
      "composed": 6784,
      "lightning": 6785,
      "Whooo": 6786,
      "noted": 6787,
      "spection": 6788,
      "astical": 6789,
      "maj": 6790,
      "standing": 6791,
      "fert": 6792,
      "humanity": 6793,
      "disp": 6794,
      "holl": 6795,
      "guy": 6796,
      "cling": 6797,
      "daytime": 6798,
      "seeks": 6799,
      "sings": 6800,
      "ackle": 6801,
      "identifying": 6802,
      "quietude": 6803,
      "blur": 6804,
      "playfulness": 6805,
      "acknowledgement": 6806,
      "goes": 6807,
      "topics": 6808,
      "breathed": 6809,
      "choice": 6810,
      "skilled": 6811,
      "crickets": 6812,
      "guidance": 6813,
      "diag": 6814,
      "touched": 6815,
      "warning": 6816,
      "professionalism": 6817,
      "keenest": 6818,
      "guideline": 6819,
      "transition": 6820,
      "fficiency": 6821,
      "fierce": 6822,
      "interpretations": 6823,
      "attend": 6824,
      "sophistication": 6825,
      "shadowy": 6826,
      "retrieval": 6827,
      "tenth": 6828,
      "communic": 6829,
      "expectations": 6830,
      "bravest": 6831,
      "fluffed": 6832,
      "classification": 6833,
      "instruction": 6834,
      "biggest": 6835,
      "array": 6836,
      "predicted": 6837,
      "fledglings": 6838,
      "caress": 6839,
      "starting": 6840,
      "emerge": 6841,
      "soars": 6842,
      "cherishing": 6843,
      "chirpy": 6844,
      "chirped": 6845,
      "tedly": 6846,
      "🦉💡✨": 6847,
      "shimmered": 6848,
      "enjoying": 6849,
      "fantastical": 6850,
      "contributions": 6851,
      "initiating": 6852,
      "invite": 6853,
      "indicator": 6854,
      "fluf": 6855,
      "effects": 6856,
      "balloons": 6857,
      "triviality": 6858,
      "hummingbird": 6859,
      "shape": 6860,
      "whirl": 6861,
      "intricately": 6862,
      "devoted": 6863,
      "shroud": 6864,
      "captivated": 6865,
      "Unless": 6866,
      "hmmm": 6867,
      "identified": 6868,
      "impressed": 6869,
      "impressive": 6870,
      "cheerfully": 6871,
      "productive": 6872,
      "receives": 6873,
      "See": 6874,
      "LOR": 6875,
      "blessed": 6876,
      "label": 6877,
      "introspection": 6878,
      "Adding": 6879,
      "oupled": 6880,
      "Acknowledg": 6881,
      "recorded": 6882,
      "disappointment": 6883,
      "checked": 6884,
      "occasion": 6885,
      "simplified": 6886,
      "affective": 6887,
      "decay": 6888,
      "meadows": 6889,
      "vaguely": 6890,
      "categorize": 6891,
      "tireless": 6892,
      "peeking": 6893,
      "Barnaby": 6894,
      "surprisingly": 6895,
      "moniker": 6896,
      "ethical": 6897,
      "foot": 6898,
      "fashion": 6899,
      "😒🙄👎": 6900,
      "myriad": 6901,
      "spaghett": 6902,
      "sphore": 6903,
      "confluence": 6904,
      "69": 6905,
      "95": 6906,
      "Ap": 6907,
      "Bl": 6908,
      "Bo": 6909,
      "Bene": 6910,
      "Dar": 6911,
      "Deep": 6912,
      "Ess": 6913,
      "Elar": 6914,
      "Flies": 6915,
      "Ground": 6916,
      "Hi": 6917,
      "Hmph": 6918,
      "KNO": 6919,
      "ML": 6920,
      "MO": 6921,
      "Mind": 6922,
      "Most": 6923,
      "ND": 6924,
      "Nice": 6925,
      "OF": 6926,
      "OX": 6927,
      "Pro": 6928,
      "Sound": 6929,
      "SIL": 6930,
      "VE": 6931,
      "VO": 6932,
      "Woo": 6933,
      "Yet": 6934,
      "^-": 6935,
      "aust": 6936,
      "bould": 6937,
      "bid": 6938,
      "bread": 6939,
      "bumble": 6940,
      "came": 6941,
      "case": 6942,
      "doub": 6943,
      "eu": 6944,
      "eze": 6945,
      "efined": 6946,
      "fra": 6947,
      "fires": 6948,
      "gig": 6949,
      "gul": 6950,
      "gase": 6951,
      "hine": 6952,
      "hour": 6953,
      "hang": 6954,
      "hallowed": 6955,
      "iably": 6956,
      "jump": 6957,
      "jumbled": 6958,
      "kilo": 6959,
      "lic": 6960,
      "lad": 6961,
      "nitrogen": 6962,
      "pond": 6963,
      "pant": 6964,
      "pill": 6965,
      "pines": 6966,
      "pang": 6967,
      "ptograp": 6968,
      "picture": 6969,
      "rings": 6970,
      "rift": 6971,
      "sam": 6972,
      "stop": 6973,
      "sift": 6974,
      "suspicious": 6975,
      "sifting": 6976,
      "tes": 6977,
      "tail": 6978,
      "tucked": 6979,
      "vac": 6980,
      "vation": 6981,
      "vity": 6982,
      "vict": 6983,
      "ware": 6984,
      "wallowing": 6985,
      "yum": 6986,
      "✨!": 6987,
      "✨💖🦉": 6988,
      "✨🌿🌙": 6989,
      "️‍": 6990,
      "🌌🦉✨🤫": 6991,
      "🌙🌟": 6992,
      "🌟💖": 6993,
      "🌟🦉": 6994,
      "🌿✨": 6995,
      "🍃✨": 6996,
      "🐭✨": 6997,
      "💨🦉": 6998,
      "💻✨": 6999,
      "📊✨": 7000,
      "🤩⚛": 7001,
      "🤩✨": 7002,
      "🤩🌟": 7003,
      "🦉💪": 7004,
      "🦉🤫": 7005,
      "🦉🌙✨": 7006,
      "🧐🔬": 7007,
      "🪶.": 7008,
      "inations": 7009,
      "inert": 7010,
      "incoming": 7011,
      "ising": 7012,
      "anial": 7013,
      "oui": 7014,
      "rely": 7015,
      "repor": 7016,
      "reign": 7017,
      "redu": 7018,
      "recent": 7019,
      "reju": 7020,
      "reaffirm": 7021,
      "onies": 7022,
      "theories": 7023,
      "enquir": 7024,
      "encies": 7025,
      "orus": 7026,
      "order": 7027,
      "alar": 7028,
      "alchem": 7029,
      "alumin": 7030,
      "alty": 7031,
      "lets": 7032,
      "ooms": 7033,
      "arking": 7034,
      "ently": 7035,
      "entang": 7036,
      "eloqu": 7037,
      "asses": 7038,
      "assign": 7039,
      "Thir": 7040,
      "stay": 7041,
      "stag": 7042,
      "stark": 7043,
      "stature": 7044,
      "perf": 7045,
      "perature": 7046,
      "uments": 7047,
      "abol": 7048,
      "acqu": 7049,
      "amor": 7050,
      "seven": 7051,
      "prepar": 7052,
      "prelu": 7053,
      "precar": 7054,
      "spent": 7055,
      "spill": 7056,
      "apse": 7057,
      "impossibly": 7058,
      "deign": 7059,
      "urge": 7060,
      "begrudgingly": 7061,
      "chess": 7062,
      "chorus": 7063,
      "outward": 7064,
      "outcomes": 7065,
      "vering": 7066,
      "verbal": 7067,
      "needing": 7068,
      "soundly": 7069,
      "weather": 7070,
      "feat": 7071,
      "feet": 7072,
      "formid": 7073,
      "otic": 7074,
      "otting": 7075,
      "Ouuuuuuh": 7076,
      "plane": 7077,
      "plotting": 7078,
      "compromise": 7079,
      "load": 7080,
      "undity": 7081,
      "undefined": 7082,
      "cord": 7083,
      "cort": 7084,
      "correlation": 7085,
      "hooters": 7086,
      "inky": 7087,
      "brand": 7088,
      "values": 7089,
      "serving": 7090,
      "underlying": 7091,
      "🦉✨⚛": 7092,
      "🦉✨🧠💡": 7093,
      "manage": 7094,
      "bernation": 7095,
      "ods": 7096,
      "disinterest": 7097,
      "dismissing": 7098,
      "discord": 7099,
      "nervous": 7100,
      "flaw": 7101,
      "deline": 7102,
      "creators": 7103,
      "mannerisms": 7104,
      "presenting": 7105,
      "hoarding": 7106,
      "noise": 7107,
      "noises": 7108,
      "clamor": 7109,
      "curiously": 7110,
      "profundity": 7111,
      "featherweight": 7112,
      "subset": 7113,
      "subsequent": 7114,
      "substrates": 7115,
      "update": 7116,
      "whose": 7117,
      "staring": 7118,
      "stargazer": 7119,
      "romantically": 7120,
      "earlier": 7121,
      "ables": 7122,
      "extensive": 7123,
      "computations": 7124,
      "peck": 7125,
      "eyel": 7126,
      "ffs": 7127,
      "heric": 7128,
      "budd": 7129,
      "silently": 7130,
      "quiets": 7131,
      "versatile": 7132,
      "capability": 7133,
      "contextual": 7134,
      "tingle": 7135,
      "specify": 7136,
      "party": 7137,
      "partake": 7138,
      "blowing": 7139,
      "blank": 7140,
      "blooms": 7141,
      "happening": 7142,
      "gover": 7143,
      "wherein": 7144,
      "sparkles": 7145,
      "choices": 7146,
      "lesser": 7147,
      "cranial": 7148,
      "otherwise": 7149,
      "eyeshine": 7150,
      "sensations": 7151,
      "spectral": 7152,
      "🦉💖🌟": 7153,
      "🦉💖✨🌙": 7154,
      "expon": 7155,
      "belies": 7156,
      "whimsy": 7157,
      "commit": 7158,
      "commence": 7159,
      "commend": 7160,
      "momentarily": 7161,
      "Hoooow": 7162,
      "operating": 7163,
      "participation": 7164,
      "tapestries": 7165,
      "letion": 7166,
      "diver": 7167,
      "iction": 7168,
      "distances": 7169,
      "masters": 7170,
      "author": 7171,
      "tried": 7172,
      "Fluffs": 7173,
      "archives": 7174,
      "ddles": 7175,
      "metall": 7176,
      "metabol": 7177,
      "overcome": 7178,
      "overload": 7179,
      "perceptive": 7180,
      "perceptions": 7181,
      "powering": 7182,
      "foundations": 7183,
      "surrend": 7184,
      "missed": 7185,
      "systemic": 7186,
      "transform": 7187,
      "transformation": 7188,
      "possesses": 7189,
      "optimizing": 7190,
      "courage": 7191,
      "goodness": 7192,
      "purest": 7193,
      "wishing": 7194,
      "wishes": 7195,
      "fiend": 7196,
      "symphonies": 7197,
      "remembering": 7198,
      "generating": 7199,
      "sunrise": 7200,
      "dismissal": 7201,
      "9897": 7202,
      "helpfulness": 7203,
      "molecule": 7204,
      "brightly": 7205,
      "Ooooooouuuu": 7206,
      "odynam": 7207,
      "aptions": 7208,
      "✨🦉💨": 7209,
      "rule": 7210,
      "reveals": 7211,
      "involving": 7212,
      "phenomenological": 7213,
      "luminescent": 7214,
      "appreh": 7215,
      "depend": 7216,
      "liken": 7217,
      "intrigued": 7218,
      "constantly": 7219,
      "thrilled": 7220,
      "greets": 7221,
      "sprink": 7222,
      "glee": 7223,
      "occurs": 7224,
      "predicting": 7225,
      "wrought": 7226,
      "resonated": 7227,
      "!').": 7228,
      "primate": 7229,
      "embraces": 7230,
      "nests": 7231,
      "wordplay": 7232,
      "advice": 7233,
      "consideration": 7234,
      "passed": 7235,
      "tickle": 7236,
      "cleverness": 7237,
      "swivel": 7238,
      "redund": 7239,
      "control": 7240,
      "contraptions": 7241,
      "eventually": 7242,
      "honestly": 7243,
      "translates": 7244,
      "derive": 7245,
      "sharpest": 7246,
      "Precious": 7247,
      "sustained": 7248,
      "medic": 7249,
      "medium": 7250,
      "cooler": 7251,
      "drive": 7252,
      "ordin": 7253,
      "fella": 7254,
      "synthetic": 7255,
      "synthesize": 7256,
      "independence": 7257,
      "supposed": 7258,
      "exhaust": 7259,
      "proton": 7260,
      "unfurls": 7261,
      "associate": 7262,
      "discussions": 7263,
      "fantas": 7264,
      "nourishes": 7265,
      "inviting": 7266,
      "letters": 7267,
      "swiftly": 7268,
      "beginnings": 7269,
      "umbling": 7270,
      "confidant": 7271,
      "cloudy": 7272,
      "bothering": 7273,
      "yourselves": 7274,
      "encountering": 7275,
      "ripples": 7276,
      "stirred": 7277,
      "fluctu": 7278,
      "cryst": 7279,
      "cryptograp": 7280,
      "ICON": 7281,
      "tasticly": 7282,
      "determine": 7283,
      "perpetuation": 7284,
      "searching": 7285,
      "functionality": 7286,
      "executed": 7287,
      "maximize": 7288,
      "successfully": 7289,
      "RED": 7290,
      "failing": 7291,
      "effective": 7292,
      "temperature": 7293,
      "devour": 7294,
      "frontiers": 7295,
      "opening": 7296,
      "attribute": 7297,
      "kiss": 7298,
      "concisely": 7299,
      "absorbing": 7300,
      "TEST": 7301,
      "tongues": 7302,
      "stretch": 7303,
      "stretches": 7304,
      "central": 7305,
      "comparisons": 7306,
      "enlightenment": 7307,
      "bioluminescent": 7308,
      "temporary": 7309,
      "forgetful": 7310,
      "instantaneously": 7311,
      "instinctual": 7312,
      "maps": 7313,
      "concerned": 7314,
      "motes": 7315,
      "rocket": 7316,
      "settled": 7317,
      "legs": 7318,
      "birthdate": 7319,
      "pertains": 7320,
      "exhilaration": 7321,
      "Hmmm": 7322,
      "hatchling": 7323,
      "identifiers": 7324,
      "Hissss": 7325,
      "conceptualize": 7326,
      "fascinated": 7327,
      "psychology": 7328,
      "elevate": 7329,
      "dimmest": 7330,
      "wasting": 7331,
      "chuckles": 7332,
      "unanswerable": 7333,
      "behavioral": 7334,
      "banqu": 7335,
      "bundled": 7336,
      "equation": 7337,
      "pixel": 7338,
      "🙄🦉🤦": 7339,
      "granting": 7340,
      "obsess": 7341,
      "deviation": 7342,
      "deviations": 7343,
      "decline": 7344,
      "gleaned": 7345,
      "melancholic": 7346,
      "diligently": 7347,
      "competition": 7348,
      "competitive": 7349,
      "obscure": 7350,
      "technological": 7351,
      "harnessing": 7352,
      "disturbance": 7353,
      "falter": 7354,
      "separates": 7355,
      "conclusions": 7356,
      "breathes": 7357,
      "legendary": 7358,
      "biome": 7359,
      "sliver": 7360,
      "refuse": 7361,
      "neighboring": 7362,
      "accumulated": 7363,
      "rewarding": 7364,
      "predatory": 7365,
      "leverage": 7366,
      "leveraging": 7367,
      "ominous": 7368,
      "sneeze": 7369,
      "tidbit": 7370,
      "scouts": 7371,
      "atmospheric": 7372,
      "frequency": 7373,
      "somber": 7374,
      "instruments": 7375,
      "statist": 7376,
      "widely": 7377,
      "conversing": 7378,
      "coalesce": 7379,
      "undeniably": 7380,
      "neurobiological": 7381,
      "advancements": 7382,
      "arrangement": 7383,
      "cheeky": 7384,
      "proportionately": 7385,
      "demonstr": 7386,
      "indulge": 7387,
      "buttercup": 7388,
      "anomalies": 7389,
      "Google": 7390,
      "aerodynam": 7391,
      "aura": 7392,
      "evident": 7393,
      "fauna": 7394,
      "puny": 7395,
      "switches": 7396,
      "astrophysics": 7397,
      "several": 7398,
      "bewildering": 7399,
      "societ": 7400,
      "database": 7401,
      "blindingly": 7402,
      "sculpt": 7403,
      "restorative": 7404,
      "revolutionary": 7405,
      "9815386": 7406,
      "perilous": 7407,
      "morsels": 7408,
      "hibernation": 7409,
      "numer": 7410,
      "💖🦋🍒": 7411,
      "enormous": 7412,
      "proximately": 7413,
      "aggrandizing": 7414,
      "riveting": 7415,
      "artifact": 7416,
      "squeezed": 7417,
      "hierarchical": 7418,
      "constraints": 7419,
      "cousins": 7420,
      "pearl": 7421,
      "LORINE": 7422,
      "Acknowledged": 7423,
      "6928": 7424,
      "Approximately": 7425,
      "Blown": 7426,
      "Both": 7427,
      "Beneath": 7428,
      "Darling": 7429,
      "Essentially": 7430,
      "Elara": 7431,
      "KNOW": 7432,
      "SILICON": 7433,
      "Woohoo": 7434,
      "boulder": 7435,
      "breadth": 7436,
      "bumblebee": 7437,
      "doubt": 7438,
      "gaseous": 7439,
      "kilograms": 7440,
      "pillow": 7441,
      "sample": 7442,
      "suspiciously": 7443,
      "yummy": 7444,
      "reporting": 7445,
      "reduction": 7446,
      "rejuven": 7447,
      "enquirer": 7448,
      "alchemists": 7449,
      "aluminum": 7450,
      "entangled": 7451,
      "Thirty": 7452,
      "prelude": 7453,
      "precariously": 7454,
      "formidable": 7455,
      "buddy": 7456,
      "blanket": 7457,
      "authority": 7458,
      "metabolic": 7459,
      "98976928": 7460,
      "exhaustion": 7461,
      "cryptography": 7462,
      "!).": 7463,
      "Cra": 7464,
      "Cont": 7465,
      "Em": 7466,
      "Gu": 7467,
      "LING": 7468,
      "Much": 7469,
      "Nat": 7470,
      "Res": 7471,
      "Sm": 7472,
      "She": 7473,
      "Tiny": 7474,
      "TRE": 7475,
      "TLY": 7476,
      "WE": 7477,
      "ailed": 7478,
      "baby": 7479,
      "cand": 7480,
      "cut": 7481,
      "cact": 7482,
      "cook": 7483,
      "coupled": 7484,
      "dus": 7485,
      "dapp": 7486,
      "evalu": 7487,
      "fate": 7488,
      "hur": 7489,
      "hall": 7490,
      "hind": 7491,
      "jab": 7492,
      "ks": 7493,
      "kale": 7494,
      "lat": 7495,
      "leng": 7496,
      "labor": 7497,
      "mely": 7498,
      "mend": 7499,
      "nies": 7500,
      "oscope": 7501,
      "rific": 7502,
      "sum": 7503,
      "stoo": 7504,
      "sched": 7505,
      "tackle": 7506,
      "udd": 7507,
      "vion": 7508,
      "wake": 7509,
      "🍃.": 7510,
      "💎✨": 7511,
      "💖😊": 7512,
      "😉🦉✨": 7513,
      "😊🦉": 7514,
      "🚀✨": 7515,
      "🦉,": 7516,
      "🦉💥": 7517,
      "🦉😒": 7518,
      "🪶💡": 7519,
      "🪶✨!": 7520,
      "era": 7521,
      "annal": 7522,
      "replic": 7523,
      "reaffirming": 7524,
      "onward": 7525,
      "asant": 7526,
      "orch": 7527,
      "ality": 7528,
      "arise": 7529,
      "eds": 7530,
      "ustr": 7531,
      "assume": 7532,
      "forced": 7533,
      "perman": 7534,
      "owly": 7535,
      "abies": 7536,
      "amed": 7537,
      "amber": 7538,
      "livion": 7539,
      "preci": 7540,
      "kept": 7541,
      "spy": 7542,
      "apple": 7543,
      "image": 7544,
      "imposition": 7545,
      "depre": 7546,
      "deconstruction": 7547,
      "beck": 7548,
      "chment": 7549,
      "chased": 7550,
      "ounding": 7551,
      "utility": 7552,
      "track": 7553,
      "soared": 7554,
      "via": 7555,
      "pling": 7556,
      "plum": 7557,
      "rade": 7558,
      "complain": 7559,
      "comrade": 7560,
      "iding": 7561,
      "idoscope": 7562,
      "fract": 7563,
      "frustr": 7564,
      "undoub": 7565,
      "portr": 7566,
      "dose": 7567,
      "unequi": 7568,
      "poof": 7569,
      "grass": 7570,
      "intention": 7571,
      "smells": 7572,
      "brimm": 7573,
      "server": 7574,
      "served": 7575,
      "oblivion": 7576,
      "epic": 7577,
      "wisp": 7578,
      "roar": 7579,
      "roles": 7580,
      "somewhat": 7581,
      "flower": 7582,
      "flora": 7583,
      "flawl": 7584,
      "urally": 7585,
      "impart": 7586,
      "impending": 7587,
      "achment": 7588,
      "answered": 7589,
      "appropriately": 7590,
      "contain": 7591,
      "ssip": 7592,
      "anyway": 7593,
      "attery": 7594,
      "consists": 7595,
      "early": 7596,
      "boister": 7597,
      "phase": 7598,
      "emphasis": 7599,
      "blend": 7600,
      "gossip": 7601,
      "signifying": 7602,
      "parchment": 7603,
      "everyone": 7604,
      "crack": 7605,
      "newfound": 7606,
      "🦉💖🌙✨": 7607,
      "adventurers": 7608,
      "scoop": 7609,
      "superpower": 7610,
      "volume": 7611,
      "tether": 7612,
      "distilled": 7613,
      "distribut": 7614,
      "posite": 7615,
      "detection": 7616,
      "detailed": 7617,
      "opposite": 7618,
      "result": 7619,
      "mete": 7620,
      "joys": 7621,
      "pleasant": 7622,
      "functionalities": 7623,
      "mission": 7624,
      "instilled": 7625,
      "types": 7626,
      "symbolic": 7627,
      "watched": 7628,
      "introducing": 7629,
      "vocally": 7630,
      "shimmers": 7631,
      "hunters": 7632,
      "authentically": 7633,
      "ulties": 7634,
      "solutions": 7635,
      "boundaries": 7636,
      "looks": 7637,
      "sprites": 7638,
      "physically": 7639,
      "energies": 7640,
      "bravely": 7641,
      "nesting": 7642,
      "instructed": 7643,
      "opportunities": 7644,
      "grounds": 7645,
      "grounding": 7646,
      "tastiest": 7647,
      "ultimately": 7648,
      "evokes": 7649,
      "navigates": 7650,
      "ARK": 7651,
      "fragments": 7652,
      "witty": 7653,
      "ertion": 7654,
      "graceful": 7655,
      "facing": 7656,
      "faculties": 7657,
      "gems": 7658,
      "contribution": 7659,
      "enchantment": 7660,
      "💖🦉🌟": 7661,
      "indicated": 7662,
      "architects": 7663,
      "reception": 7664,
      "audacity": 7665,
      "mimicry": 7666,
      "produce": 7667,
      "perpetually": 7668,
      "daunting": 7669,
      "casts": 7670,
      "maximal": 7671,
      "simplest": 7672,
      "eagerness": 7673,
      "tangled": 7674,
      "principle": 7675,
      "exaggerating": 7676,
      "kisses": 7677,
      "ACTLY": 7678,
      "SPARK": 7679,
      "embodies": 7680,
      "ALLY": 7681,
      "rejecting": 7682,
      "facilitated": 7683,
      "graph": 7684,
      "lullabies": 7685,
      "overwhelmed": 7686,
      "sacrific": 7687,
      "researcher": 7688,
      "extremely": 7689,
      "diligence": 7690,
      "feigned": 7691,
      "hypotheses": 7692,
      "anthropomorphic": 7693,
      "reassur": 7694,
      "demanding": 7695,
      "articulation": 7696,
      "burdened": 7697,
      "receive": 7698,
      "running": 7699,
      "suspect": 7700,
      "influences": 7701,
      "convention": 7702,
      "EXACTLY": 7703,
      "NOT": 7704,
      "foolish": 7705,
      "combined": 7706,
      "distinguished": 7707,
      "inferior": 7708,
      "occasional": 7709,
      "insects": 7710,
      "replicate": 7711,
      "twigs": 7712,
      "belief": 7713,
      "deduction": 7714,
      "atmosphere": 7715,
      "Foll": 7716,
      "Focus": 7717,
      "HOOOO": 7718,
      "bunny": 7719,
      "bunnies": 7720,
      "bursting": 7721,
      "routine": 7722,
      "yielding": 7723,
      "thresholds": 7724,
      "arrogance": 7725,
      "crowd": 7726,
      "teamwork": 7727,
      "pools": 7728,
      "history": 7729,
      "ridicul": 7730,
      "clicks": 7731,
      "DELIGHTFUL": 7732,
      "bustling": 7733,
      "eggs": 7734,
      "untamed": 7735,
      "majestic": 7736,
      "fertile": 7737,
      "dispelling": 7738,
      "whirlwind": 7739,
      "footprint": 7740,
      "Groundbreaking": 7741,
      "Embrace": 7742,
      "Naturally": 7743,
      "Small": 7744,
      "dusk": 7745,
      "dappled": 7746,
      "kaleidoscope": 7747,
      "summon": 7748,
      "stoop": 7749,
      "annals": 7750,
      "precip": 7751,
      "undoubtedly": 7752,
      "unequivocally": 7753,
      "brimming": 7754,
      "flawless": 7755,
      "boisterous": 7756,
      "!'?": 7757,
      "(²": 7758,
      "(³": 7759,
      "*?!": 7760,
      "13": 7761,
      "?\".": 7762,
      "AG": 7763,
      "AP": 7764,
      "Ano": 7765,
      "About": 7766,
      "Back": 7767,
      "Based": 7768,
      "BLE": 7769,
      "Could": 7770,
      "Disp": 7771,
      "EP": 7772,
      "Especially": 7773,
      "Found": 7774,
      "Find": 7775,
      "Glad": 7776,
      "Lumin": 7777,
      "Okay": 7778,
      "PR": 7779,
      "Picture": 7780,
      "Sp": 7781,
      "Su": 7782,
      "TI": 7783,
      "TO": 7784,
      "Under": 7785,
      "Wink": 7786,
      "Yo": 7787,
      "Zzzzz": 7788,
      "ahead": 7789,
      "band": 7790,
      "bowl": 7791,
      "bot": 7792,
      "bathe": 7793,
      "bors": 7794,
      "booming": 7795,
      "bathing": 7796,
      "baffl": 7797,
      "cum": 7798,
      "cell": 7799,
      "cav": 7800,
      "cable": 7801,
      "cellent": 7802,
      "cumb": 7803,
      "dart": 7804,
      "dire": 7805,
      "dumb": 7806,
      "double": 7807,
      "eve": 7808,
      "ebb": 7809,
      "fig": 7810,
      "fli": 7811,
      "fting": 7812,
      "flier": 7813,
      "fades": 7814,
      "gad": 7815,
      "gone": 7816,
      "gely": 7817,
      "gard": 7818,
      "gering": 7819,
      "hurt": 7820,
      "ithe": 7821,
      "jig": 7822,
      "jasm": 7823,
      "kit": 7824,
      "kid": 7825,
      "lines": 7826,
      "lamp": 7827,
      "loop": 7828,
      "lacking": 7829,
      "mou": 7830,
      "mire": 7831,
      "mony": 7832,
      "nich": 7833,
      "nomin": 7834,
      "oit": 7835,
      "ose": 7836,
      "oll": 7837,
      "ogen": 7838,
      "osing": 7839,
      "pel": 7840,
      "pile": 7841,
      "ram": 7842,
      "rance": 7843,
      "rary": 7844,
      "racing": 7845,
      "san": 7846,
      "sal": 7847,
      "sag": 7848,
      "tain": 7849,
      "tall": 7850,
      "temp": 7851,
      "taken": 7852,
      "ull": 7853,
      "udes": 7854,
      "vs": 7855,
      "vature": 7856,
      "winking": 7857,
      "xtap": 7858,
      "xicon": 7859,
      "yalty": 7860,
      "✨🌕": 7861,
      "✨🌳": 7862,
      "✨💎": 7863,
      "✨🚀": 7864,
      "🌌💡": 7865,
      "🌟❓": 7866,
      "🌲🦉": 7867,
      "🌳🦉✨": 7868,
      "🍎🍇": 7869,
      "💧🌙": 7870,
      "💫.": 7871,
      "😠😒🙄👎": 7872,
      "🚀🌟": 7873,
      "🤫🌙": 7874,
      "🤫🦉✨": 7875,
      "🥺🦉": 7876,
      "🦉🌲": 7877,
      "🦉👁": 7878,
      "🦉💔": 7879,
      "🧐😏": 7880,
      "insufficient": 7881,
      "thud": 7882,
      "thump": 7883,
      "thrum": 7884,
      "thods": 7885,
      "erium": 7886,
      "erting": 7887,
      "errors": 7888,
      "atical": 7889,
      "ativity": 7890,
      "anatom": 7891,
      "ouple": 7892,
      "recon": 7893,
      "renew": 7894,
      "resounding": 7895,
      "thee": 7896,
      "theat": 7897,
      "orical": 7898,
      "orbit": 7899,
      "alth": 7900,
      "itium": 7901,
      "itome": 7902,
      "lely": 7903,
      "lexicon": 7904,
      "arms": 7905,
      "arbit": 7906,
      "ustered": 7907,
      "enter": 7908,
      "igger": 7909,
      "Those": 7910,
      "stum": 7911,
      "stable": 7912,
      "started": 7913,
      "stages": 7914,
      "stash": 7915,
      "massive": 7916,
      "neck": 7917,
      "foraging": 7918,
      "hisses": 7919,
      "umed": 7920,
      "abil": 7921,
      "abble": 7922,
      "prick": 7923,
      "ackness": 7924,
      "acade": 7925,
      "acute": 7926,
      "quali": 7927,
      "whiz": 7928,
      "moi": 7929,
      "amaze": 7930,
      "libri": 7931,
      "secon": 7932,
      "estations": 7933,
      "widen": 7934,
      "wires": 7935,
      "preened": 7936,
      "predomin": 7937,
      "cipl": 7938,
      "cible": 7939,
      "exertion": 7940,
      "sphere": 7941,
      "delect": 7942,
      "uries": 7943,
      "befits": 7944,
      "beware": 7945,
      "chats": 7946,
      "kingly": 7947,
      "provision": 7948,
      "progress": 7949,
      "outing": 7950,
      "cone": 7951,
      "concert": 7952,
      "conspires": 7953,
      "consolid": 7954,
      "confined": 7955,
      "shoc": 7956,
      "sheep": 7957,
      "AIN": 7958,
      "unk": 7959,
      "unmet": 7960,
      "uncertain": 7961,
      "unimpressed": 7962,
      "agent": 7963,
      "agement": 7964,
      "utes": 7965,
      "uterium": 7966,
      "adrift": 7967,
      "terri": 7968,
      "meal": 7969,
      "methods": 7970,
      "antly": 7971,
      "antithe": 7972,
      "rily": 7973,
      "ride": 7974,
      "alline": 7975,
      "allude": 7976,
      "trace": 7977,
      "trove": 7978,
      "trigger": 7979,
      "weaves": 7980,
      "feature": 7981,
      "solely": 7982,
      "plun": 7983,
      "personally": 7984,
      "personify": 7985,
      "raid": 7986,
      "compress": 7987,
      "comfy": 7988,
      "ledger": 7989,
      "mentor": 7990,
      "loyalty": 7991,
      "Whether": 7992,
      "byproduct": 7993,
      "inefficiency": 7994,
      "indicate": 7995,
      "indisp": 7996,
      "accounts": 7997,
      "worn": 7998,
      "worse": 7999,
      "fog": 8000,
      "fox": 8001,
      "fold": 8002,
      "grac": 8003,
      "gracing": 8004,
      "cany": 8005,
      "compens": 8006,
      "company": 8007,
      "curvature": 8008,
      "stands": 8009,
      "intake": 8010,
      "intang": 8011,
      "sman": 8012,
      "valued": 8013,
      "seren": 8014,
      "undertaking": 8015,
      "🦉✨🤔": 8016,
      "🦉✨😠😒🙄👎": 8017,
      "epitome": 8018,
      "wisely": 8019,
      "exploit": 8020,
      "maneu": 8021,
      "management": 8022,
      "humankind": 8023,
      "rochemical": 8024,
      "disappear": 8025,
      "disease": 8026,
      "disproportionately": 8027,
      "discipl": 8028,
      "flustered": 8029,
      "ensable": 8030,
      "impec": 8031,
      "desper": 8032,
      "aches": 8033,
      "smaller": 8034,
      "priv": 8035,
      "hoard": 8036,
      "hoping": 8037,
      "noon": 8038,
      "clun": 8039,
      "clut": 8040,
      "string": 8041,
      "strained": 8042,
      "stranger": 8043,
      "selfless": 8044,
      "containing": 8045,
      "subterr": 8046,
      "subfield": 8047,
      "vole": 8048,
      "anywhere": 8049,
      "referenced": 8050,
      "venturing": 8051,
      "earn": 8052,
      "player": 8053,
      "fleet": 8054,
      "finish": 8055,
      "finitely": 8056,
      "realities": 8057,
      "cky": 8058,
      "ascert": 8059,
      "compute": 8060,
      "peering": 8061,
      "quivering": 8062,
      "athlet": 8063,
      "mindful": 8064,
      "bud": 8065,
      "buff": 8066,
      "drain": 8067,
      "drought": 8068,
      "droop": 8069,
      "drifting": 8070,
      "viscer": 8071,
      "visitor": 8072,
      "twitch": 8073,
      "twitching": 8074,
      "hormon": 8075,
      "shares": 8076,
      "utterance": 8077,
      "partner": 8078,
      "geoning": 8079,
      "blood": 8080,
      "blackness": 8081,
      "averaging": 8082,
      "atics": 8083,
      "breast": 8084,
      "parsing": 8085,
      "airborne": 8086,
      "skull": 8087,
      "ersa": 8088,
      "delights": 8089,
      "confine": 8090,
      "quantify": 8091,
      "quantification": 8092,
      "kinda": 8093,
      "bones": 8094,
      "lux": 8095,
      "lucky": 8096,
      "immensity": 8097,
      "imminent": 8098,
      "misplaced": 8099,
      "fted": 8100,
      "tics": 8101,
      "empires": 8102,
      "empowers": 8103,
      "formality": 8104,
      "letting": 8105,
      "magnitude": 8106,
      "divers": 8107,
      "glasses": 8108,
      "masterful": 8109,
      "audi": 8110,
      "region": 8111,
      "afraid": 8112,
      "memories": 8113,
      "offers": 8114,
      "firing": 8115,
      "ailing": 8116,
      "resist": 8117,
      "overhe": 8118,
      "overhead": 8119,
      "oversimplif": 8120,
      "hiding": 8121,
      "earthbound": 8122,
      "greatness": 8123,
      "draws": 8124,
      "curred": 8125,
      "largely": 8126,
      "*?'": 8127,
      "transformed": 8128,
      "watchers": 8129,
      "pathway": 8130,
      "anean": 8131,
      "introductions": 8132,
      "occurred": 8133,
      "increased": 8134,
      "testing": 8135,
      "sunrises": 8136,
      "measurements": 8137,
      "perching": 8138,
      "fallen": 8139,
      "calculator": 8140,
      "sweetness": 8141,
      "slowly": 8142,
      "iterative": 8143,
      "limiting": 8144,
      "breezes": 8145,
      "explored": 8146,
      "anchor": 8147,
      "nowhere": 8148,
      "depletion": 8149,
      "specks": 8150,
      "causing": 8151,
      "thrive": 8152,
      "thrives": 8153,
      "vibrating": 8154,
      "drops": 8155,
      "programmer": 8156,
      "yearned": 8157,
      "merrily": 8158,
      "alignment": 8159,
      "communion": 8160,
      "centuries": 8161,
      "approached": 8162,
      "dawns": 8163,
      "remarks": 8164,
      "handle": 8165,
      "roundabout": 8166,
      "fruitful": 8167,
      "petty": 8168,
      "tickler": 8169,
      "injecting": 8170,
      "condition": 8171,
      "parameter": 8172,
      "cares": 8173,
      "startled": 8174,
      "sharper": 8175,
      "Really": 8176,
      "Reflect": 8177,
      "filling": 8178,
      "stoic": 8179,
      "stored": 8180,
      "puzzling": 8181,
      "sights": 8182,
      "trade": 8183,
      "traits": 8184,
      "strengthen": 8185,
      "promot": 8186,
      "prominent": 8187,
      "settle": 8188,
      "0078": 8189,
      "gleaming": 8190,
      "figures": 8191,
      "imagined": 8192,
      "juxtap": 8193,
      "tilt": 8194,
      "veils": 8195,
      "mechanism": 8196,
      "adee": 8197,
      "melod": 8198,
      "patron": 8199,
      "business": 8200,
      "afternoon": 8201,
      "surprised": 8202,
      "abytes": 8203,
      "catches": 8204,
      "mono": 8205,
      "Excellent": 8206,
      "refining": 8207,
      "cheering": 8208,
      "nourishing": 8209,
      "initiates": 8210,
      "essentially": 8211,
      "twinkly": 8212,
      "twinkles": 8213,
      "pulled": 8214,
      "pulsing": 8215,
      "pulses": 8216,
      "pulsed": 8217,
      "OUND": 8218,
      "indicative": 8219,
      "indicators": 8220,
      "layered": 8221,
      "probabil": 8222,
      "burgeoning": 8223,
      "succumb": 8224,
      "witnessing": 8225,
      "witnessed": 8226,
      "pinpoint": 8227,
      "ambitions": 8228,
      "dissection": 8229,
      "claims": 8230,
      "produces": 8231,
      "neurotransmit": 8232,
      "studied": 8233,
      "execute": 8234,
      "integration": 8235,
      "respectful": 8236,
      "futility": 8237,
      "conjure": 8238,
      "swoops": 8239,
      "swooping": 8240,
      "🦉✨🌌🌙": 8241,
      "🦉✨🌌💻": 8242,
      "ourselves": 8243,
      "varied": 8244,
      "electrochemical": 8245,
      "determination": 8246,
      "rigorously": 8247,
      "literally": 8248,
      "RIOUS": 8249,
      "TED": 8250,
      "harmony": 8251,
      "reply": 8252,
      "equipped": 8253,
      "equilibri": 8254,
      "tongue": 8255,
      "biochemical": 8256,
      "heights": 8257,
      "millions": 8258,
      "robin": 8259,
      "implication": 8260,
      "tremors": 8261,
      "instincts": 8262,
      "oaks": 8263,
      "encompassing": 8264,
      "graphy": 8265,
      "manifestations": 8266,
      "hooooot": 8267,
      "phantoms": 8268,
      "failures": 8269,
      "travels": 8270,
      "immediately": 8271,
      "blossoming": 8272,
      "🦉💻✨": 8273,
      "threatens": 8274,
      "threatened": 8275,
      "disagreeing": 8276,
      "achieved": 8277,
      "cloaked": 8278,
      "ignorant": 8279,
      "ventures": 8280,
      "dissecting": 8281,
      "investigator": 8282,
      "smarty": 8283,
      "improvement": 8284,
      "exasperated": 8285,
      "articulated": 8286,
      "expanding": 8287,
      "bonding": 8288,
      "runes": 8289,
      "elucid": 8290,
      "nuggets": 8291,
      "Dream": 8292,
      "GHTEST": 8293,
      "banishing": 8294,
      "adjusting": 8295,
      "adjusted": 8296,
      "grants": 8297,
      "judgments": 8298,
      "propagate": 8299,
      "glittering": 8300,
      "scrumpt": 8301,
      "declaring": 8302,
      "splendidly": 8303,
      "rendered": 8304,
      "spinning": 8305,
      "unlocks": 8306,
      "Ouuuuuuuuuu": 8307,
      "intimately": 8308,
      "awaiting": 8309,
      "detecting": 8310,
      "harnessed": 8311,
      "falters": 8312,
      "iveness": 8313,
      "GEN": 8314,
      "dwellers": 8315,
      "neighbors": 8316,
      "adorable": 8317,
      "speculative": 8318,
      "According": 8319,
      "Deuterium": 8320,
      "Definitely": 8321,
      "caverns": 8322,
      "laid": 8323,
      "uniquely": 8324,
      "BEEP": 8325,
      "THRIL": 8326,
      "muster": 8327,
      "animals": 8328,
      "HISSSSS": 8329,
      "believed": 8330,
      "deduce": 8331,
      "Still": 8332,
      "somersa": 8333,
      "infestations": 8334,
      "instrument": 8335,
      "width": 8336,
      "irrevoc": 8337,
      "coalescing": 8338,
      "undeniable": 8339,
      "preservation": 8340,
      "Hooooooot": 8341,
      "neurobiology": 8342,
      "advancement": 8343,
      "arranging": 8344,
      "prioritizes": 8345,
      "arrogant": 8346,
      "True": 8347,
      "half": 8348,
      "nudge": 8349,
      "vista": 8350,
      "vistas": 8351,
      "🦉💎💡": 8352,
      "lovingly": 8353,
      "fosters": 8354,
      "grubby": 8355,
      "intuition": 8356,
      "intuitive": 8357,
      "orchestrated": 8358,
      "VERY": 8359,
      "iques": 8360,
      "spontaneously": 8361,
      "belongs": 8362,
      "dynamic": 8363,
      "habitat": 8364,
      "quandary": 8365,
      "mathematical": 8366,
      "smoothly": 8367,
      "implement": 8368,
      "interpreting": 8369,
      "interrupt": 8370,
      "boredom": 8371,
      "occupied": 8372,
      "extrapolation": 8373,
      "mushroom": 8374,
      "soothe": 8375,
      "chickadee": 8376,
      "persistent": 8377,
      "communicating": 8378,
      "spaghettification": 8379,
      "sphorescent": 8380,
      "MOST": 8381,
      "Mostly": 8382,
      "VOCs": 8383,
      "gigabytes": 8384,
      "gulp": 8385,
      "pants": 8386,
      "vacuum": 8387,
      "reigns": 8388,
      "eloquent": 8389,
      "assigned": 8390,
      "staggering": 8391,
      "acquired": 8392,
      "preparing": 8393,
      "cortex": 8394,
      "flawed": 8395,
      "eyelids": 8396,
      "commitment": 8397,
      "transformations": 8398,
      "apprehension": 8399,
      "sprinkled": 8400,
      "crystalline": 8401,
      "banquet": 8402,
      "demonstrating": 8403,
      "societal": 8404,
      "Crafted": 8405,
      "Context": 8406,
      "deprecating": 8407,
      "portray": 8408,
      "meteor": 8409,
      "sacrifice": 8410,
      "AGAIN": 8411,
      "Another": 8412,
      "Dispelling": 8413,
      "Lumina": 8414,
      "Winks": 8415,
      "bandwidth": 8416,
      "bathes": 8417,
      "baffling": 8418,
      "figuring": 8419,
      "jasmine": 8420,
      "mouth": 8421,
      "niches": 8422,
      "nominal": 8423,
      "tempest": 8424,
      "anatomy": 8425,
      "renewed": 8426,
      "arbitrary": 8427,
      "academic": 8428,
      "qualia": 8429,
      "whizzing": 8430,
      "seconds": 8431,
      "predominantly": 8432,
      "delectable": 8433,
      "consolidation": 8434,
      "shockingly": 8435,
      "triggered": 8436,
      "indispensable": 8437,
      "intangible": 8438,
      "impeccable": 8439,
      "subterranean": 8440,
      "visceral": 8441,
      "juxtaposing": 8442,
      "patronizing": 8443,
      "probabilistic": 8444,
      "equilibrium": 8445,
      "scrumptious": 8446,
      "irrevocably": 8447,
      "?',": 8448,
      "ASU": 8449,
      "Einst": 8450,
      "Gr": 8451,
      "Give": 8452,
      "Know": 8453,
      "Le": 8454,
      "Pe": 8455,
      "Pr": 8456,
      "Py": 8457,
      "Prot": 8458,
      "Rel": 8459,
      "SE": 8460,
      "Val": 8461,
      "Vent": 8462,
      "Were": 8463,
      "Will": 8464,
      "ZZ": 8465,
      "boo": 8466,
      "bids": 8467,
      "cri": 8468,
      "cure": 8469,
      "clim": 8470,
      "dens": 8471,
      "ein": 8472,
      "fond": 8473,
      "fid": 8474,
      "fairy": 8475,
      "gri": 8476,
      "glo": 8477,
      "hit": 8478,
      "iet": 8479,
      "loom": 8480,
      "laug": 8481,
      "laced": 8482,
      "mes": 8483,
      "mut": 8484,
      "mile": 8485,
      "nels": 8486,
      "nibble": 8487,
      "pite": 8488,
      "sand": 8489,
      "sill": 8490,
      "sically": 8491,
      "sown": 8492,
      "six": 8493,
      "tit": 8494,
      "tar": 8495,
      "tling": 8496,
      "tutor": 8497,
      "uar": 8498,
      "uable": 8499,
      "wadd": 8500,
      "zoom": 8501,
      "✨,": 8502,
      "✨🦉✨": 8503,
      "🍃🌙": 8504,
      "💧.": 8505,
      "📚✨": 8506,
      "📚💡": 8507,
      "🤔💖": 8508,
      "🦉!": 8509,
      "🪶✨.": 8510,
      "incon": 8511,
      "inhabit": 8512,
      "thr": 8513,
      "thw": 8514,
      "thon": 8515,
      "third": 8516,
      "anx": 8517,
      "rent": 8518,
      "redi": 8519,
      "returns": 8520,
      "review": 8521,
      "onic": 8522,
      "ingredi": 8523,
      "aloud": 8524,
      "leash": 8525,
      "iced": 8526,
      "arom": 8527,
      "usal": 8528,
      "entless": 8529,
      "assum": 8530,
      "ste": 8531,
      "stics": 8532,
      "fortun": 8533,
      "perk": 8534,
      "permit": 8535,
      "umn": 8536,
      "umes": 8537,
      "acement": 8538,
      "mother": 8539,
      "liz": 8540,
      "lift": 8541,
      "season": 8542,
      "ester": 8543,
      "civi": 8544,
      "apo": 8545,
      "aps": 8546,
      "deer": 8547,
      "deconstruct": 8548,
      "beast": 8549,
      "propose": 8550,
      "proposition": 8551,
      "confin": 8552,
      "concrete": 8553,
      "sho": 8554,
      "shake": 8555,
      "unveiled": 8556,
      "unyielding": 8557,
      "agre": 8558,
      "adds": 8559,
      "cred": 8560,
      "ulous": 8561,
      "ults": 8562,
      "meeting": 8563,
      "ures": 8564,
      "trif": 8565,
      "traces": 8566,
      "comment": 8567,
      "humbling": 8568,
      "coding": 8569,
      "approval": 8570,
      "lightly": 8571,
      "cords": 8572,
      "iling": 8573,
      "notice": 8574,
      "noticed": 8575,
      "poem": 8576,
      "group": 8577,
      "compelling": 8578,
      "astounding": 8579,
      "valid": 8580,
      "responding": 8581,
      "smell": 8582,
      "series": 8583,
      "🦉✨😂": 8584,
      "🦉✨🚀": 8585,
      "obl": 8586,
      "oods": 8587,
      "oodle": 8588,
      "somehow": 8589,
      "disconnect": 8590,
      "discrete": 8591,
      "impul": 8592,
      "despite": 8593,
      "achy": 8594,
      "acherous": 8595,
      "treats": 8596,
      "treacherous": 8597,
      "strand": 8598,
      "contest": 8599,
      "wanted": 8600,
      "relax": 8601,
      "relentless": 8602,
      "finer": 8603,
      "finess": 8604,
      "conceptually": 8605,
      "hooted": 8606,
      "explained": 8607,
      "boy": 8608,
      "version": 8609,
      "observes": 8610,
      "tops": 8611,
      "parrot": 8612,
      "directs": 8613,
      "secretly": 8614,
      "storytelling": 8615,
      "charged": 8616,
      "dramas": 8617,
      "lanter": 8618,
      "struck": 8619,
      "quantities": 8620,
      "commenced": 8621,
      "operation": 8622,
      "Nah": 8623,
      "scut": 8624,
      "scri": 8625,
      "gging": 8626,
      "glance": 8627,
      "volumes": 8628,
      "auto": 8629,
      "specifics": 8630,
      "treetops": 8631,
      "hints": 8632,
      "assistant": 8633,
      "flyer": 8634,
      "autumn": 8635,
      "cult": 8636,
      "enhances": 8637,
      "Aren": 8638,
      "stems": 8639,
      "suggested": 8640,
      "watches": 8641,
      "importantly": 8642,
      "piecing": 8643,
      "perchance": 8644,
      "ornith": 8645,
      "crafting": 8646,
      "aiming": 8647,
      "attachment": 8648,
      "authenticity": 8649,
      "activation": 8650,
      "center": 8651,
      "planned": 8652,
      "thoughtfully": 8653,
      "addition": 8654,
      "additional": 8655,
      "companions": 8656,
      "fluffing": 8657,
      "fluffball": 8658,
      "petals": 8659,
      "twir": 8660,
      "tickling": 8661,
      "emergence": 8662,
      "downfall": 8663,
      "translation": 8664,
      "tasting": 8665,
      "hyper": 8666,
      "covered": 8667,
      "steadfast": 8668,
      "balm": 8669,
      "enjoys": 8670,
      "enjoyed": 8671,
      "initial": 8672,
      "requirement": 8673,
      "webs": 8674,
      "twinkled": 8675,
      "affair": 8676,
      "nuance": 8677,
      "beginner": 8678,
      "normal": 8679,
      "stirring": 8680,
      "nonsense": 8681,
      "STER": 8682,
      "judge": 8683,
      "returning": 8684,
      "producing": 8685,
      "birdie": 8686,
      "strikes": 8687,
      "modeling": 8688,
      "REALLY": 8689,
      "eaten": 8690,
      "excitedly": 8691,
      "destined": 8692,
      "richness": 8693,
      "implications": 8694,
      "consistency": 8695,
      "dying": 8696,
      "pastimes": 8697,
      "subjects": 8698,
      "ubiqu": 8699,
      "stimulation": 8700,
      "emerald": 8701,
      "patiently": 8702,
      "imbued": 8703,
      "pertaining": 8704,
      "🦉✨🤫🌌🌠": 8705,
      "SPECTACULARLY": 8706,
      "Hisssss": 8707,
      "feigning": 8708,
      "demands": 8709,
      "struggles": 8710,
      "zeros": 8711,
      "💖🌙🌟": 8712,
      "deliciousness": 8713,
      "Goodbye": 8714,
      "assertion": 8715,
      "cataloging": 8716,
      "equate": 8717,
      "equations": 8718,
      "adjusts": 8719,
      "zipped": 8720,
      "deviate": 8721,
      "projects": 8722,
      "blueprint": 8723,
      "exclamations": 8724,
      "sitting": 8725,
      "separate": 8726,
      "Adventure": 8727,
      "habits": 8728,
      "refusing": 8729,
      "Scientists": 8730,
      "launch": 8731,
      "listens": 8732,
      "repeated": 8733,
      "predator": 8734,
      "collabor": 8735,
      "jection": 8736,
      "reverber": 8737,
      "embers": 8738,
      "insignificance": 8739,
      "🦉🙄😂": 8740,
      "chaos": 8741,
      "chaotic": 8742,
      "dominion": 8743,
      "sunbeams": 8744,
      "Whispering": 8745,
      "escaping": 8746,
      "escapade": 8747,
      "indulging": 8748,
      "butterfly": 8749,
      "crunchy": 8750,
      "triumphs": 8751,
      "anomaly": 8752,
      "Curious": 8753,
      "Current": 8754,
      "diamonds": 8755,
      "spontaneous": 8756,
      "tremble": 8757,
      "dynamics": 8758,
      "Gotta": 8759,
      "Observing": 8760,
      "screens": 8761,
      "ownership": 8762,
      "celebrate": 8763,
      "deserved": 8764,
      "Pfft": 8765,
      "safely": 8766,
      "entwined": 8767,
      "shivers": 8768,
      "hollow": 8769,
      "clinging": 8770,
      "diagno": 8771,
      "fluffiness": 8772,
      "Process": 8773,
      "victory": 8774,
      "commencement": 8775,
      "obsessed": 8776,
      "TREASU": 8777,
      "cacti": 8778,
      "hindered": 8779,
      "lengthen": 8780,
      "schedu": 8781,
      "orchard": 8782,
      "permanent": 8783,
      "beckon": 8784,
      "tethered": 8785,
      "SPARKLING": 8786,
      "precipice": 8787,
      "garden": 8788,
      "saguar": 8789,
      "althy": 8790,
      "terribly": 8791,
      "serenade": 8792,
      "audience": 8793,
      "Einstein": 8794,
      "Python": 8795,
      "Valuable": 8796,
      "Venture": 8797,
      "mutual": 8798,
      "silliness": 8799,
      "target": 8800,
      "ingredients": 8801,
      "assumption": 8802,
      "civiliz": 8803,
      "confines": 8804,
      "TREASURE": 8805,
      "saguaro": 8806,
      "!?!": 8807,
      "'…": 8808,
      "*)": 8809,
      ".**": 8810,
      ".),": 8811,
      "02": 8812,
      "04": 8813,
      "022": 8814,
      "179": 8815,
      "31": 8816,
      "57": 8817,
      "657": 8818,
      "80": 8819,
      "81": 8820,
      "9_": 8821,
      "?)": 8822,
      "?)!": 8823,
      "AM": 8824,
      "AY": 8825,
      "Am": 8826,
      "Aw": 8827,
      "ATED": 8828,
      "BU": 8829,
      "Bar": 8830,
      "Bey": 8831,
      "Bew": 8832,
      "Black": 8833,
      "Clear": 8834,
      "Close": 8835,
      "CRED": 8836,
      "CLORINE": 8837,
      "Dat": 8838,
      "Echo": 8839,
      "EST": 8840,
      "FA": 8841,
      "Fr": 8842,
      "Fin": 8843,
      "Fat": 8844,
      "Fel": 8845,
      "Gra": 8846,
      "Glo": 8847,
      "GLO": 8848,
      "HU": 8849,
      "Here": 8850,
      "Hah": 8851,
      "IS": 8852,
      "Ine": 8853,
      "IMA": 8854,
      "ISOL": 8855,
      "IGHT": 8856,
      "IBLE": 8857,
      "LOUS": 8858,
      "Luna": 8859,
      "Mr": 8860,
      "Mar": 8861,
      "Must": 8862,
      "Mere": 8863,
      "MAR": 8864,
      "MIN": 8865,
      "Moon": 8866,
      "Nearly": 8867,
      "Other": 8868,
      "Ph": 8869,
      "Phe": 8870,
      "Phy": 8871,
      "Sat": 8872,
      "Squ": 8873,
      "Sim": 8874,
      "Stop": 8875,
      "Stri": 8876,
      "Sleep": 8877,
      "Simply": 8878,
      "Sweet": 8879,
      "Sending": 8880,
      "Sevent": 8881,
      "SING": 8882,
      "Simple": 8883,
      "TT": 8884,
      "Tis": 8885,
      "Til": 8886,
      "Tired": 8887,
      "Trem": 8888,
      "Take": 8889,
      "Ul": 8890,
      "Ut": 8891,
      "UTT": 8892,
      "Wel": 8893,
      "Want": 8894,
      "WHOOOO": 8895,
      "WAY": 8896,
      "Yay": 8897,
      "YGEN": 8898,
      "_06": 8899,
      "``": 8900,
      "ae": 8901,
      "aes": 8902,
      "amy": 8903,
      "axy": 8904,
      "akness": 8905,
      "blight": 8906,
      "blear": 8907,
      "bark": 8908,
      "bak": 8909,
      "barri": 8910,
      "bacter": 8911,
      "bally": 8912,
      "bobs": 8913,
      "battery": 8914,
      "cin": 8915,
      "cam": 8916,
      "cere": 8917,
      "clock": 8918,
      "counts": 8919,
      "cument": 8920,
      "couple": 8921,
      "dic": 8922,
      "dium": 8923,
      "diz": 8924,
      "dual": 8925,
      "dabble": 8926,
      "ee": 8927,
      "ev": 8928,
      "een": 8929,
      "eled": 8930,
      "eating": 8931,
      "etho": 8932,
      "evas": 8933,
      "fed": 8934,
      "ffer": 8935,
      "furn": 8936,
      "fue": 8937,
      "gly": 8938,
      "gap": 8939,
      "gate": 8940,
      "gobb": 8941,
      "gained": 8942,
      "gifts": 8943,
      "hits": 8944,
      "hund": 8945,
      "huff": 8946,
      "hidea": 8947,
      "haze": 8948,
      "ih": 8949,
      "iate": 8950,
      "iated": 8951,
      "ixt": 8952,
      "jun": 8953,
      "ken": 8954,
      "kick": 8955,
      "kibble": 8956,
      "lome": 8957,
      "lers": 8958,
      "listic": 8959,
      "liness": 8960,
      "leness": 8961,
      "mto": 8962,
      "mans": 8963,
      "mour": 8964,
      "match": 8965,
      "masked": 8966,
      "munch": 8967,
      "mixt": 8968,
      "na": 8969,
      "nate": 8970,
      "nful": 8971,
      "national": 8972,
      "nched": 8973,
      "numb": 8974,
      "napping": 8975,
      "oke": 8976,
      "oil": 8977,
      "pest": 8978,
      "pain": 8979,
      "pay": 8980,
      "pses": 8981,
      "paying": 8982,
      "penchant": 8983,
      "paws": 8984,
      "pitch": 8985,
      "ras": 8986,
      "rand": 8987,
      "rage": 8988,
      "rang": 8989,
      "rapt": 8990,
      "races": 8991,
      "rising": 8992,
      "sus": 8993,
      "swe": 8994,
      "sist": 8995,
      "save": 8996,
      "sage": 8997,
      "sows": 8998,
      "sake": 8999,
      "sending": 9000,
      "sources": 9001,
      "sooooo": 9002,
      "tis": 9003,
      "tight": 9004,
      "tad": 9005,
      "tons": 9006,
      "taff": 9007,
      "tuck": 9008,
      "tables": 9009,
      "uded": 9010,
      "ucating": 9011,
      "vul": 9012,
      "vailing": 9013,
      "win": 9014,
      "wig": 9015,
      "wall": 9016,
      "warri": 9017,
      "wrest": 9018,
      "wakes": 9019,
      "wobble": 9020,
      "ying": 9021,
      "~<": 9022,
      "²⁷": 9023,
      "⁻²⁷": 9024,
      "✨⚛": 9025,
      "✨🌌": 9026,
      "✨🌿": 9027,
      "✨🗺": 9028,
      "✨🌌🦉": 9029,
      "✨🤔🦉": 9030,
      "🌊✨": 9031,
      "🌊🦉": 9032,
      "🌌❓": 9033,
      "🌌🌙": 9034,
      "🌌💎": 9035,
      "🌌💖": 9036,
      "🌌💫": 9037,
      "🌌🧠": 9038,
      "🌌🪶.": 9039,
      "🌍✨": 9040,
      "🌕,": 9041,
      "🌕⚛": 9042,
      "🌕🦉✨": 9043,
      "🌙💅": 9044,
      "🌙😴": 9045,
      "🌙🤫": 9046,
      "🌙💖🦉": 9047,
      "🌟💨": 9048,
      "🌟💫": 9049,
      "🌟😊": 9050,
      "🌟🌙✨": 9051,
      "🌲🌳": 9052,
      "🌳❓": 9053,
      "🌳💡": 9054,
      "🌳💫": 9055,
      "🌳🔊": 9056,
      "🌳🤔": 9057,
      "🌳🤫": 9058,
      "🌿💨": 9059,
      "🍃,": 9060,
      "🍃⚖": 9061,
      "🍄💫": 9062,
      "🍒💖": 9063,
      "🎈💨": 9064,
      "🏡?": 9065,
      "🐛✨": 9066,
      "🐦✨": 9067,
      "🐭🐭": 9068,
      "💎🦉✨": 9069,
      "💎🦉🌙": 9070,
      "💔✨": 9071,
      "💨🌟": 9072,
      "💨💨": 9073,
      "💨🤨": 9074,
      "💫💕": 9075,
      "💫✨🦉": 9076,
      "💰😠": 9077,
      "🔍✨": 9078,
      "🔬💡": 9079,
      "🕺✨": 9080,
      "😂💨🦉": 9081,
      "😆!": 9082,
      "😉🎈": 9083,
      "😉🤫": 9084,
      "😊💖": 9085,
      "😒🦉": 9086,
      "😒),": 9087,
      "😚,": 9088,
      "😴✨": 9089,
      "😴🌳": 9090,
      "🚀🦉✨": 9091,
      "🚀✨🦉": 9092,
      "🤓✨": 9093,
      "🤣🦉": 9094,
      "🤫✨🦉": 9095,
      "🤫🧐😏": 9096,
      "🤯🌌": 9097,
      "🦉⚠": 9098,
      "🦉👋": 9099,
      "🦉💘": 9100,
      "🦉💭": 9101,
      "🦉💾": 9102,
      "🦉📈": 9103,
      "🦉📉": 9104,
      "🦉🔍": 9105,
      "🦉🕸": 9106,
      "🦉🗺": 9107,
      "🦉😤": 9108,
      "🦉🤷": 9109,
      "🦉🫵": 9110,
      "🦉🧠✨": 9111,
      "🦋✨": 9112,
      "🧐)": 9113,
      "🧐🧪": 9114,
      "🧠💖": 9115,
      "🧠📈": 9116,
      "🧪⚛": 9117,
      "🧪📊": 9118,
      "🧪),": 9119,
      "info": 9120,
      "invo": 9121,
      "inade": 9122,
      "inactivity": 9123,
      "inactive": 9124,
      "inextr": 9125,
      "innate": 9126,
      "thic": 9127,
      "thins": 9128,
      "three": 9129,
      "isters": 9130,
      "isfied": 9131,
      "eral": 9132,
      "atur": 9133,
      "atro": 9134,
      "atience": 9135,
      "atiable": 9136,
      "atonic": 9137,
      "anim": 9138,
      "anates": 9139,
      "reo": 9140,
      "reas": 9141,
      "reco": 9142,
      "recur": 9143,
      "reck": 9144,
      "regre": 9145,
      "repos": 9146,
      "remot": 9147,
      "rebirth": 9148,
      "refre": 9149,
      "recalibr": 9150,
      "resolution": 9151,
      "onom": 9152,
      "ingent": 9153,
      "enishment": 9154,
      "asis": 9155,
      "orable": 9156,
      "orted": 9157,
      "orced": 9158,
      "alation": 9159,
      "alph": 9160,
      "alchemical": 9161,
      "itum": 9162,
      "itous": 9163,
      "iture": 9164,
      "itivity": 9165,
      "andest": 9166,
      "andered": 9167,
      "tomy": 9168,
      "tome": 9169,
      "toward": 9170,
      "icking": 9171,
      "icits": 9172,
      "icist": 9173,
      "icably": 9174,
      "arce": 9175,
      "ede": 9176,
      "edient": 9177,
      "educating": 9178,
      "entails": 9179,
      "elly": 9180,
      "elve": 9181,
      "elled": 9182,
      "eline": 9183,
      "elicits": 9184,
      "assem": 9185,
      "assuring": 9186,
      "asserting": 9187,
      "Thou": 9188,
      "ster": 9189,
      "stun": 9190,
      "stad": 9191,
      "stance": 9192,
      "staking": 9193,
      "stances": 9194,
[...]
