{
  "version": "1.0",
  "truncation": null,
  "padding": null,
  "added_tokens": [
    {
      "id": 0,
      "content": "[PAD]",
      "single_word": false,
      "lstrip": false,
      "rstrip": false,
      "normalized": false,
      "special": true
    },
    {
      "id": 1,
      "content": "[UNK]",
      "single_word": false,
      "lstrip": false,
      "rstrip": false,
      "normalized": false,
      "special": true
    },
    {
      "id": 2,
      "content": "[CLS]",
      "single_word": false,
      "lstrip": false,
      "rstrip": false,
      "normalized": false,
      "special": true
    },
    {
      "id": 3,
      "content": "[SEP]",
      "single_word": false,
      "lstrip": false,
      "rstrip": false,
      "normalized": false,
      "special": true
    },
    {
      "id": 4,
      "content": "[MASK]",
      "single_word": false,
      "lstrip": false,
      "rstrip": false,
      "normalized": false,
      "special": true
    },
    {
      "id": 5,
      "content": "[EOS]",
      "single_word": false,
      "lstrip": false,
      "rstrip": false,
      "normalized": false,
      "special": true
    },
    {
      "id": 6,
      "content": "[THINK]",
      "single_word": false,
      "lstrip": false,
      "rstrip": false,
      "normalized": false,
      "special": true
    },
    {
      "id": 7,
      "content": "[MOOD]",
      "single_word": false,
      "lstrip": false,
      "rstrip": false,
      "normalized": false,
      "special": true
    }
  ],
  "normalizer": null,
  "pre_tokenizer": {
    "type": "Whitespace"
  },
  "post_processor": null,
  "decoder": null,
  "model": {
    "type": "BPE",
    "dropout": null,
    "unk_token": null,
    "continuing_subword_prefix": null,
    "end_of_word_suffix": null,
    "fuse_unk": false,
    "byte_fallback": false,
    "ignore_merges": false,
    "vocab": {
      "[PAD]": 0,
      "[UNK]": 1,
      "[CLS]": 2,
      "[SEP]": 3,
      "[MASK]": 4,
      "[EOS]": 5,
      "[THINK]": 6,
      "[MOOD]": 7,
      "!": 8,
      "\"": 9,
      "$": 10,
      "'": 11,
      "(": 12,
      ")": 13,
      "*": 14,
      ",": 15,
      "-": 16,
      ".": 17,
      "/": 18,
      "0": 19,
      "1": 20,
      "2": 21,
      "3": 22,
      "4": 23,
      "5": 24,
      "6": 25,
      "7": 26,
      "8": 27,
      "9": 28,
      ":": 29,
      ";": 30,
      "<": 31,
      "=": 32,
      "?": 33,
      "A": 34,
      "B": 35,
      "C": 36,
      "D": 37,
      "E": 38,
      "F": 39,
      "G": 40,
      "H": 41,
      "I": 42,
      "J": 43,
      "K": 44,
      "L": 45,
      "M": 46,
      "N": 47,
      "O": 48,
      "P": 49,
      "Q": 50,
      "R": 51,
      "S": 52,
      "T": 53,
      "U": 54,
      "V": 55,
      "W": 56,
      "X": 57,
      "Y": 58,
      "Z": 59,
      "^": 60,
      "_": 61,
      "`": 62,
      "a": 63,
      "b": 64,
      "c": 65,
      "d": 66,
      "e": 67,
      "f": 68,
      "g": 69,
      "h": 70,
      "i": 71,
      "j": 72,
      "k": 73,
      "l": 74,
      "m": 75,
      "n": 76,
      "o": 77,
      "p": 78,
      "q": 79,
      "r": 80,
      "s": 81,
      "t": 82,
      "u": 83,
      "v": 84,
      "w": 85,
      "x": 86,
      "y": 87,
      "z": 88,
      "{": 89,
      "}": 90,
      "~": 91,
      "²": 92,
      "³": 93,
      "¹": 94,
      "½": 95,
      "à": 96,
      "â": 97,
      "ä": 98,
      "æ": 99,
      "è": 100,
      "é": 101,
      "ê": 102,
      "ï": 103,
      "ö": 104,
      "û": 105,
      "ü": 106,
      "ά": 107,
      "ί": 108,
      "α": 109,
      "ε": 110,
      "θ": 111,
      "ι": 112,
      "ξ": 113,
      "π": 114,
      "ρ": 115,
      "τ": 116,
      "ṇ": 117,
      "ṛ": 118,
      "ṣ": 119,
      "ἀ": 120,
      "ἁ": 121,
      "‍": 122,
      "–": 123,
      "—": 124,
      "‘": 125,
      "’": 126,
      "“": 127,
      "”": 128,
      "…": 129,
      "⁂": 130,
      "⁶": 131,
      "⁷": 132,
      "⁻": 133,
      "↔": 134,
      "⏱": 135,
      "⏳": 136,
      "☀": 137,
      "☁": 138,
      "☕": 139,
      "♀": 140,
      "♂": 141,
      "♟": 142,
      "⚓": 143,
      "⚔": 144,
      "⚖": 145,
      "⚙": 146,
      "⚛": 147,
      "⚠": 148,
      "⚡": 149,
      "⚫": 150,
      "⛰": 151,
      "✅": 152,
      "✈": 153,
      "✉": 154,
      "✋": 155,
      "✍": 156,
      "✨": 157,
      "❄": 158,
      "❌": 159,
      "❓": 160,
      "⭐": 161,
      "〰": 162,
      "️": 163,
      "🌀": 164,
      "🌃": 165,
      "🌄": 166,
      "🌅": 167,
      "🌈": 168,
      "🌊": 169,
      "🌌": 170,
      "🌍": 171,
      "🌎": 172,
      "🌐": 173,
      "🌑": 174,
      "🌒": 175,
      "🌕": 176,
      "🌙": 177,
      "🌞": 178,
      "🌟": 179,
      "🌠": 180,
      "🌡": 181,
      "🌤": 182,
      "🌧": 183,
      "🌫": 184,
      "🌬": 185,
      "🌰": 186,
      "🌱": 187,
      "🌲": 188,
      "🌳": 189,
      "🌵": 190,
      "🌸": 191,
      "🌻": 192,
      "🌼": 193,
      "🌾": 194,
      "🌿": 195,
      "🍂": 196,
      "🍃": 197,
      "🍄": 198,
      "🍇": 199,
      "🍉": 200,
      "🍍": 201,
      "🍎": 202,
      "🍐": 203,
      "🍒": 204,
      "🍓": 205,
      "🍝": 206,
      "🍩": 207,
      "🍪": 208,
      "🍯": 209,
      "🍰": 210,
      "🍳": 211,
      "🍽": 212,
      "🎂": 213,
      "🎈": 214,
      "🎉": 215,
      "🎓": 216,
      "🎟": 217,
      "🎨": 218,
      "🎭": 219,
      "🎯": 220,
      "🎶": 221,
      "🏁": 222,
      "🏃": 223,
      "🏆": 224,
      "🏏": 225,
      "🏔": 226,
      "🏙": 227,
      "🏜": 228,
      "🏞": 229,
      "🏡": 230,
      "🏮": 231,
      "🏽": 232,
      "🐁": 233,
      "🐈": 234,
      "🐉": 235,
      "🐍": 236,
      "🐛": 237,
      "🐜": 238,
      "🐝": 239,
      "🐣": 240,
      "🐦": 241,
      "🐭": 242,
      "🐱": 243,
      "🐴": 244,
      "🐶": 245,
      "🐾": 246,
      "🐿": 247,
      "👀": 248,
      "👁": 249,
      "👂": 250,
      "👃": 251,
      "👋": 252,
      "👍": 253,
      "👎": 254,
      "👏": 255,
      "👐": 256,
      "👑": 257,
      "👻": 258,
      "💃": 259,
      "💅": 260,
      "💊": 261,
      "💌": 262,
      "💎": 263,
      "💔": 264,
      "💕": 265,
      "💖": 266,
      "💘": 267,
      "💙": 268,
      "💜": 269,
      "💞": 270,
      "💡": 271,
      "💤": 272,
      "💥": 273,
      "💧": 274,
      "💨": 275,
      "💪": 276,
      "💫": 277,
      "💬": 278,
      "💭": 279,
      "💰": 280,
      "💻": 281,
      "💼": 282,
      "💾": 283,
      "📄": 284,
      "📅": 285,
      "📈": 286,
      "📉": 287,
      "📊": 288,
      "📏": 289,
      "📖": 290,
      "📚": 291,
      "📜": 292,
      "📝": 293,
      "📧": 294,
      "📯": 295,
      "📱": 296,
      "🔂": 297,
      "🔈": 298,
      "🔊": 299,
      "🔋": 300,
      "🔍": 301,
      "🔎": 302,
      "🔗": 303,
      "🔢": 304,
      "🔥": 305,
      "🔬": 306,
      "🔭": 307,
      "🔮": 308,
      "🕊": 309,
      "🕰": 310,
      "🕳": 311,
      "🕵": 312,
      "🕷": 313,
      "🕸": 314,
      "🕺": 315,
      "🖤": 316,
      "🖥": 317,
      "🖱": 318,
      "🗄": 319,
      "🗓": 320,
      "🗝": 321,
      "🗣": 322,
      "🗨": 323,
      "🗺": 324,
      "😂": 325,
      "😄": 326,
      "😅": 327,
      "😆": 328,
      "😈": 329,
      "😉": 330,
      "😊": 331,
      "😋": 332,
      "😎": 333,
      "😏": 334,
      "😒": 335,
      "😔": 336,
      "😚": 337,
      "😜": 338,
      "😞": 339,
      "😟": 340,
      "😠": 341,
      "😤": 342,
      "😥": 343,
      "😨": 344,
      "😬": 345,
      "😭": 346,
      "😱": 347,
      "😴": 348,
      "😼": 349,
      "😾": 350,
      "🙄": 351,
      "🙅": 352,
      "🙏": 353,
      "🚀": 354,
      "🚗": 355,
      "🚦": 356,
      "🚨": 357,
      "🚩": 358,
      "🚫": 359,
      "🚶": 360,
      "🛌": 361,
      "🛍": 362,
      "🛠": 363,
      "🛣": 364,
      "🤍": 365,
      "🤏": 366,
      "🤓": 367,
      "🤔": 368,
      "🤖": 369,
      "🤗": 370,
      "🤝": 371,
      "🤠": 372,
      "🤢": 373,
      "🤣": 374,
      "🤦": 375,
      "🤨": 376,
      "🤩": 377,
      "🤪": 378,
      "🤫": 379,
      "🤯": 380,
      "🤷": 381,
      "🤸": 382,
      "🥁": 383,
      "🥇": 384,
      "🥕": 385,
      "🥗": 386,
      "🥚": 387,
      "🥭": 388,
      "🥰": 389,
      "🥱": 390,
      "🥳": 391,
      "🥶": 392,
      "🥺": 393,
      "🦄": 394,
      "🦅": 395,
      "🦇": 396,
      "🦉": 397,
      "🦊": 398,
      "🦋": 399,
      "🦌": 400,
      "🦔": 401,
      "🦗": 402,
      "🦛": 403,
      "🦠": 404,
      "🦡": 405,
      "🦹": 406,
      "🧀": 407,
      "🧐": 408,
      "🧑": 409,
      "🧚": 410,
      "🧠": 411,
      "🧦": 412,
      "🧩": 413,
      "🧪": 414,
      "🧭": 415,
      "🧮": 416,
      "🧵": 417,
      "🧶": 418,
      "🩰": 419,
      "🪄": 420,
      "🪙": 421,
      "🪞": 422,
      "🪦": 423,
      "🪱": 424,
      "🪵": 425,
      "🪶": 426,
      "🫀": 427,
      "🫏": 428,
      "🫐": 429,
      "🫴": 430,
      "🫵": 431,
      "in": 432,
      "th": 433,
      "is": 434,
      "re": 435,
      "at": 436,
      "an": 437,
      "er": 438,
      "ou": 439,
      "on": 440,
      "the": 441,
      "ing": 442,
      "en": 443,
      "of": 444,
      "as": 445,
      "or": 446,
      "al": 447,
      "it": 448,
      "es": 449,
      "and": 450,
      "uu": 451,
      "to": 452,
      "le": 453,
      "ic": 454,
      "ow": 455,
      "ar": 456,
      "oo": 457,
      "ed": 458,
      "ion": 459,
      "st": 460,
      "ent": 461,
      "om": 462,
      "el": 463,
      "ig": 464,
      "he": 465,
      "my": 466,
      "ass": 467,
      "us": 468,
      "you": 469,
      "his": 470,
      "ne": 471,
      "mass": 472,
      "for": 473,
      "per": 474,
      "ly": 475,
      "ce": 476,
      "um": 477,
      "ab": 478,
      "The": 479,
      "ht": 480,
      "pr": 481,
      "owl": 482,
      "ac": 483,
      "am": 484,
      "ve": 485,
      "nd": 486,
      "wi": 487,
      "se": 488,
      "qu": 489,
      "ex": 490,
      "mo": 491,
      "wh": 492,
      "ous": 493,
      "uuuu": 494,
      "li": 495,
      "et": 496,
      "ight": 497,
      "ld": 498,
      "est": 499,
      "pre": 500,
      "ci": 501,
      "ation": 502,
      "ke": 503,
      "sp": 504,
      "ap": 505,
      "de": 506,
      "im": 507,
      "be": 508,
      "that": 509,
      "..": 510,
      "ur": 511,
      "ain": 512,
      "His": 513,
      "sh": 514,
      "pro": 515,
      "king": 516,
      "ct": 517,
      "out": 518,
      "ess": 519,
      "with": 520,
      "con": 521,
      "ver": 522,
      "ll": 523,
      "are": 524,
      "ch": 525,
      "un": 526,
      "user": 527,
      "AI": 528,
      "need": 529,
      "lf": 530,
      "cre": 531,
      "ate": 532,
      "ay": 533,
      "ound": 534,
      "its": 535,
      "ould": 536,
      "like": 537,
      "atom": 538,
      "wl": 539,
      "Owl": 540,
      "Elf": 541,
      "about": 542,
      "ut": 543,
      "asking": 544,
      "if": 545,
      "ag": 546,
      "ad": 547,
      "kn": 548,
      "ir": 549,
      "ul": 550,
      "atomic": 551,
      "me": 552,
      "know": 553,
      "this": 554,
      "ive": 555,
      "fe": 556,
      "Ouuuu": 557,
      "ter": 558,
      "fr": 559,
      "ant": 560,
      "tr": 561,
      "ure": 562,
      "quest": 563,
      "ond": 564,
      "we": 565,
      "il": 566,
      "should": 567,
      "all": 568,
      "so": 569,
      "ot": 570,
      "ence": 571,
      "oooo": 572,
      "sound": 573,
      "ical": 574,
      "one": 575,
      "It": 576,
      "what": 577,
      "ell": 578,
      "form": 579,
      "pl": 580,
      "id": 581,
      "su": 582,
      "pers": 583,
      "question": 584,
      "ra": 585,
      "led": 586,
      "...": 587,
      "your": 588,
      "creat": 589,
      "emo": 590,
      "com": 591,
      "Ouuuuuu": 592,
      "ious": 593,
      "ity": 594,
      "ment": 595,
      "ist": 596,
      "person": 597,
      "sounds": 598,
      "co": 599,
      "resp": 600,
      "hum": 601,
      "ish": 602,
      "oug": 603,
      "jis": 604,
      "ust": 605,
      "persona": 606,
      "cious": 607,
      "emojis": 608,
      "ge": 609,
      "appro": 610,
      "ely": 611,
      "ther": 612,
      "light": 613,
      "lit": 614,
      "gr": 615,
      "very": 616,
      "und": 617,
      "knowled": 618,
      "by": 619,
      "ating": 620,
      "pres": 621,
      "por": 622,
      "tle": 623,
      "ful": 624,
      "lo": 625,
      "ind": 626,
      "not": 627,
      "Ooooo": 628,
      "aint": 629,
      "cor": 630,
      "em": 631,
      "end": 632,
      "ine": 633,
      "precious": 634,
      "hat": 635,
      "wor": 636,
      "do": 637,
      "ide": 638,
      "ph": 639,
      "use": 640,
      "ness": 641,
      "br": 642,
      "av": 643,
      "little": 644,
      "po": 645,
      "ite": 646,
      "une": 647,
      "acc": 648,
      "My": 649,
      "int": 650,
      "ific": 651,
      "fo": 652,
      "ans": 653,
      "spe": 654,
      "knowledge": 655,
      "Pune": 656,
      "Puneet": 657,
      "but": 658,
      "hap": 659,
      "maint": 660,
      "maintain": 661,
      "can": 662,
      "Kum": 663,
      "Kumar": 664,
      "inform": 665,
      "ast": 666,
      "ood": 667,
      "gen": 668,
      "comp": 669,
      "able": 670,
      "pt": 671,
      "art": 672,
      "nat": 673,
      "tin": 674,
      "our": 675,
      "tone": 676,
      ").": 677,
      "act": 678,
      "incor": 679,
      "ma": 680,
      "incorpor": 681,
      "cur": 682,
      "ire": 683,
      "way": 684,
      "ele": 685,
      "**": 686,
      "ame": 687,
      "accent": 688,
      "hoo": 689,
      "ies": 690,
      "information": 691,
      "thing": 692,
      "ext": 693,
      "val": 694,
      "units": 695,
      "respond": 696,
      "will": 697,
      "onder": 698,
      "fl": 699,
      "from": 700,
      "see": 701,
      "element": 702,
      "ately": 703,
      "stand": 704,
      "As": 705,
      "sm": 706,
      "You": 707,
      "text": 708,
      "xim": 709,
      "ance": 710,
      "most": 711,
      "cient": 712,
      "night": 713,
      "ink": 714,
      "approxim": 715,
      "prov": 716,
      "ro": 717,
      "under": 718,
      "Mish": 719,
      "Mishra": 720,
      "valu": 721,
      "ser": 722,
      "approximately": 723,
      "man": 724,
      "ave": 725,
      "ile": 726,
      "haps": 727,
      "What": 728,
      "iz": 729,
      "their": 730,
      "ome": 731,
      "ought": 732,
      "ep": 733,
      "🦉✨": 734,
      "ium": 735,
      "iv": 736,
      "lear": 737,
      "ital": 738,
      "whis": 739,
      "tiny": 740,
      "just": 741,
      "ob": 742,
      "into": 743,
      "exist": 744,
      "ard": 745,
      "pe": 746,
      "elf": 747,
      "oh": 748,
      "ough": 749,
      "expl": 750,
      "dig": 751,
      "od": 752,
      "rest": 753,
      "nt": 754,
      "wis": 755,
      "human": 756,
      "digital": 757,
      "ual": 758,
      "ber": 759,
      "wonder": 760,
      "ill": 761,
      "using": 762,
      "incorporating": 763,
      "iend": 764,
      "dis": 765,
      "some": 766,
      "provide": 767,
      "friend": 768,
      "feel": 769,
      "ie": 770,
      "'.": 771,
      "ign": 772,
      "nature": 773,
      "understand": 774,
      "creative": 775,
      "12": 776,
      "more": 777,
      "age": 778,
      "being": 779,
      "ction": 780,
      "ner": 781,
      "perhaps": 782,
      "ach": 783,
      "This": 784,
      "20": 785,
      "cess": 786,
      "thr": 787,
      "learn": 788,
      "while": 789,
      "ho": 790,
      "ens": 791,
      "tru": 792,
      "have": 793,
      "rare": 794,
      "here": 795,
      "peri": 796,
      "imp": 797,
      "respon": 798,
      "cept": 799,
      "ial": 800,
      "eng": 801,
      "ural": 802,
      "ev": 803,
      "ask": 804,
      "ts": 805,
      "existence": 806,
      "des": 807,
      "weight": 808,
      "no": 809,
      "dre": 810,
      "amu": 811,
      "25": 812,
      "scient": 813,
      "2025": 814,
      "thought": 815,
      "speci": 816,
      "press": 817,
      "ark": 818,
      "str": 819,
      "10": 820,
      "small": 821,
      "del": 822,
      "ref": 823,
      "red": 824,
      "such": 825,
      "creator": 826,
      "dat": 827,
      "present": 828,
      "Th": 829,
      "process": 830,
      "own": 831,
      "ations": 832,
      "Ooooooh": 833,
      "manner": 834,
      "wer": 835,
      "response": 836,
      "scientific": 837,
      "cl": 838,
      "pri": 839,
      "Hoo": 840,
      "gu": 841,
      "how": 842,
      "ated": 843,
      "ble": 844,
      "through": 845,
      "answer": 846,
      "ery": 847,
      "up": 848,
      "self": 849,
      "tre": 850,
      "vious": 851,
      "cal": 852,
      "ich": 853,
      "appropri": 854,
      "who": 855,
      "express": 856,
      "appropriate": 857,
      "io": 858,
      "day": 859,
      "name": 860,
      "myst": 861,
      "dream": 862,
      "inqu": 863,
      "ically": 864,
      "curious": 865,
      "Ouuuuuuu": 866,
      "would": 867,
      "prof": 868,
      "aging": 869,
      "ss": 870,
      "Ouuuuu": 871,
      "data": 872,
      "ather": 873,
      "sub": 874,
      "any": 875,
      "cr": 876,
      "real": 877,
      "dom": 878,
      "sil": 879,
      "valuable": 880,
      "ear": 881,
      "gent": 882,
      "mag": 883,
      "secre": 884,
      "engaging": 885,
      "which": 886,
      "sy": 887,
      "conne": 888,
      "want": 889,
      "world": 890,
      "whisper": 891,
      "previous": 892,
      "Ooooooo": 893,
      "inter": 894,
      "anal": 895,
      "uni": 896,
      "understanding": 897,
      "forest": 898,
      "Is": 899,
      "atter": 900,
      "seek": 901,
      "work": 902,
      "gram": 903,
      "cons": 904,
      "ament": 905,
      "mar": 906,
      "kes": 907,
      "ack": 908,
      "rel": 909,
      "intr": 910,
      "ol": 911,
      "che": 912,
      "good": 913,
      "star": 914,
      "uch": 915,
      "creation": 916,
      "ers": 917,
      "ings": 918,
      "even": 919,
      "moon": 920,
      "ished": 921,
      "ect": 922,
      "maintaining": 923,
      "play": 924,
      "obser": 925,
      "Ar": 926,
      "when": 927,
      "mood": 928,
      "ory": 929,
      "rom": 930,
      "them": 931,
      "they": 932,
      "than": 933,
      "ition": 934,
      "log": 935,
      "sing": 936,
      "Li": 937,
      "hel": 938,
      "lect": 939,
      "adv": 940,
      "gener": 941,
      "abl": 942,
      "simp": 943,
      "pie": 944,
      "ins": 945,
      "That": 946,
      "analy": 947,
      "also": 948,
      "ational": 949,
      "grand": 950,
      "gentle": 951,
      "arr": 952,
      "ck": 953,
      "dr": 954,
      "gre": 955,
      "igh": 956,
      "fere": 957,
      "makes": 958,
      "urn": 959,
      "avor": 960,
      "piece": 961,
      "vast": 962,
      "wisdom": 963,
      "cis": 964,
      "has": 965,
      "mis": 966,
      "feather": 967,
      "ff": 968,
      "much": 969,
      "aw": 970,
      "learning": 971,
      "fin": 972,
      "read": 973,
      "establ": 974,
      "How": 975,
      "comput": 976,
      "inde": 977,
      "there": 978,
      "tal": 979,
      "Oooooooh": 980,
      "concept": 981,
      "asc": 982,
      "iet": 983,
      "ident": 984,
      "something": 985,
      "rogen": 986,
      "created": 987,
      "ling": 988,
      "established": 989,
      "ject": 990,
      "vel": 991,
      "essence": 992,
      "ms": 993,
      "might": 994,
      "Ne": 995,
      "ering": 996,
      "value": 997,
      "ath": 998,
      "ting": 999,
      "In": 1000,
      "experi": 1001,
      "make": 1002,
      "umin": 1003,
      "umber": 1004,
      "tim": 1005,
      "net": 1006,
      "tw": 1007,
      "help": 1008,
      "acknowledge": 1009,
      "exc": 1010,
      "pur": 1011,
      "explain": 1012,
      "SO": 1013,
      "truly": 1014,
      "bu": 1015,
      "natural": 1016,
      "Think": 1017,
      "ak": 1018,
      "ey": 1019,
      "flow": 1020,
      "bit": 1021,
      "try": 1022,
      "fund": 1023,
      "mind": 1024,
      "dear": 1025,
      "comple": 1026,
      "amental": 1027,
      "fundamental": 1028,
      "other": 1029,
      "ellig": 1030,
      "ense": 1031,
      "ional": 1032,
      "vers": 1033,
      "precis": 1034,
      "ions": 1035,
      "advent": 1036,
      "bl": 1037,
      "rite": 1038,
      "ascin": 1039,
      "network": 1040,
      "yet": 1041,
      "arity": 1042,
      "silent": 1043,
      "Al": 1044,
      "indeed": 1045,
      "cap": 1046,
      "was": 1047,
      "think": 1048,
      "quiet": 1049,
      "part": 1050,
      "inquir": 1051,
      "wise": 1052,
      "profound": 1053,
      "vis": 1054,
      "ty": 1055,
      "observ": 1056,
      "ative": 1057,
      "ities": 1058,
      "generate": 1059,
      "Well": 1060,
      "ascinating": 1061,
      "sical": 1062,
      "hoot": 1063,
      "JSO": 1064,
      "heart": 1065,
      "owls": 1066,
      "JSON": 1067,
      "favor": 1068,
      "Wh": 1069,
      "hor": 1070,
      "oft": 1071,
      "ick": 1072,
      "context": 1073,
      "asure": 1074,
      "Do": 1075,
      "ry": 1076,
      "orine": 1077,
      "format": 1078,
      "cu": 1079,
      "may": 1080,
      "myster": 1081,
      "share": 1082,
      "icul": 1083,
      "specif": 1084,
      "ging": 1085,
      "love": 1086,
      "utter": 1087,
      "say": 1088,
      "well": 1089,
      "favorite": 1090,
      "cus": 1091,
      "intellig": 1092,
      "ces": 1093,
      "deep": 1094,
      "phas": 1095,
      "pose": 1096,
      "logical": 1097,
      "simple": 1098,
      "date": 1099,
      "fascinating": 1100,
      "incorporate": 1101,
      "find": 1102,
      "where": 1103,
      "ary": 1104,
      "sad": 1105,
      "emphas": 1106,
      "Isn": 1107,
      "fact": 1108,
      "without": 1109,
      "athe": 1110,
      "go": 1111,
      "less": 1112,
      "illi": 1113,
      "brilli": 1114,
      "wonderful": 1115,
      "don": 1116,
      "ancient": 1117,
      "bre": 1118,
      "emphasiz": 1119,
      "tical": 1120,
      "He": 1121,
      "complex": 1122,
      "den": 1123,
      "grammar": 1124,
      "Write": 1125,
      "bet": 1126,
      "happ": 1127,
      "still": 1128,
      "par": 1129,
      "rather": 1130,
      "every": 1131,
      "aver": 1132,
      "frame": 1133,
      "number": 1134,
      "acknowled": 1135,
      "port": 1136,
      "playful": 1137,
      ")**": 1138,
      "inking": 1139,
      "ways": 1140,
      "air": 1141,
      "irect": 1142,
      "',": 1143,
      "within": 1144,
      "icate": 1145,
      "top": 1146,
      "slight": 1147,
      "sign": 1148,
      "atic": 1149,
      "cing": 1150,
      "oid": 1151,
      "does": 1152,
      "conscious": 1153,
      "verse": 1154,
      "experience": 1155,
      "cosm": 1156,
      "connect": 1157,
      "vir": 1158,
      "things": 1159,
      "spark": 1160,
      "cosmic": 1161,
      "sense": 1162,
      "new": 1163,
      "sk": 1164,
      "To": 1165,
      "direct": 1166,
      "must": 1167,
      "met": 1168,
      "disco": 1169,
      "inquiry": 1170,
      "*.": 1171,
      "neural": 1172,
      "slightly": 1173,
      "purpose": 1174,
      "char": 1175,
      "cir": 1176,
      "sym": 1177,
      "intelligence": 1178,
      "these": 1179,
      "query": 1180,
      "humble": 1181,
      "analytical": 1182,
      "ows": 1183,
      "ios": 1184,
      "rele": 1185,
      "humans": 1186,
      "vant": 1187,
      "mysterious": 1188,
      "universe": 1189,
      "fun": 1190,
      "astic": 1191,
      "imag": 1192,
      "circu": 1193,
      "time": 1194,
      "But": 1195,
      "acknowledging": 1196,
      "ild": 1197,
      "ready": 1198,
      "fore": 1199,
      "secrets": 1200,
      "feren": 1201,
      "ever": 1202,
      "curios": 1203,
      "get": 1204,
      "processing": 1205,
      "circuits": 1206,
      "story": 1207,
      "call": 1208,
      "stru": 1209,
      "wants": 1210,
      "relevant": 1211,
      "flutter": 1212,
      "design": 1213,
      "gl": 1214,
      "cho": 1215,
      "secret": 1216,
      "wind": 1217,
      "myself": 1218,
      "poss": 1219,
      "delight": 1220,
      "single": 1221,
      "ace": 1222,
      "ied": 1223,
      "ze": 1224,
      "ello": 1225,
      "bel": 1226,
      "fect": 1227,
      "patter": 1228,
      "rarity": 1229,
      "convers": 1230,
      "state": 1231,
      "sadness": 1232,
      "And": 1233,
      "focus": 1234,
      "special": 1235,
      "eyes": 1236,
      "pattern": 1237,
      "sens": 1238,
      "only": 1239,
      "off": 1240,
      "lan": 1241,
      "abil": 1242,
      "keep": 1243,
      "ase": 1244,
      "conf": 1245,
      "comm": 1246,
      "spect": 1247,
      "thoughts": 1248,
      "vision": 1249,
      "Or": 1250,
      "too": 1251,
      "aring": 1252,
      "kind": 1253,
      "ponder": 1254,
      "consciousness": 1255,
      "curiosity": 1256,
      "langu": 1257,
      "00": 1258,
      "represent": 1259,
      "dram": 1260,
      "itive": 1261,
      "ice": 1262,
      "que": 1263,
      "avoid": 1264,
      "upon": 1265,
      "ore": 1266,
      "thinking": 1267,
      "quant": 1268,
      "shad": 1269,
      "language": 1270,
      "gn": 1271,
      "tap": 1272,
      "serious": 1273,
      "average": 1274,
      "iological": 1275,
      "wo": 1276,
      "🦉💖": 1277,
      "request": 1278,
      "ates": 1279,
      "For": 1280,
      "arb": 1281,
      "emot": 1282,
      "yd": 1283,
      "then": 1284,
      "defin": 1285,
      "dif": 1286,
      "perce": 1287,
      "connection": 1288,
      "build": 1289,
      "ydrogen": 1290,
      "high": 1291,
      "ificial": 1292,
      "ines": 1293,
      "cogn": 1294,
      "whim": 1295,
      "acter": 1296,
      "antic": 1297,
      "ft": 1298,
      "ons": 1299,
      "orig": 1300,
      "virt": 1301,
      "phy": 1302,
      "imm": 1303,
      "ired": 1304,
      "virtual": 1305,
      "ip": 1306,
      "te": 1307,
      "inte": 1308,
      "character": 1309,
      "ith": 1310,
      "ount": 1311,
      "ong": 1312,
      "ds": 1313,
      "lu": 1314,
      "mom": 1315,
      "moment": 1316,
      "gard": 1317,
      "arbon": 1318,
      "So": 1319,
      "aster": 1320,
      "ue": 1321,
      "let": 1322,
      "reflect": 1323,
      "whimsical": 1324,
      "ib": 1325,
      "aves": 1326,
      "eting": 1327,
      ",'": 1328,
      "war": 1329,
      "ward": 1330,
      "guid": 1331,
      "af": 1332,
      "res": 1333,
      "dramatic": 1334,
      "Ch": 1335,
      "yourself": 1336,
      "feeling": 1337,
      "ives": 1338,
      "99": 1339,
      "If": 1340,
      "emp": 1341,
      "thus": 1342,
      "brilliant": 1343,
      "oy": 1344,
      "ally": 1345,
      "biological": 1346,
      "rust": 1347,
      "could": 1348,
      "cium": 1349,
      "tic": 1350,
      "pos": 1351,
      "oper": 1352,
      ")**.": 1353,
      "Cal": 1354,
      "Hooo": 1355,
      "au": 1356,
      "ict": 1357,
      "Calcium": 1358,
      "matter": 1359,
      "uuu": 1360,
      "les": 1361,
      "conversation": 1362,
      "opt": 1363,
      "urnal": 1364,
      "brought": 1365,
      "unique": 1366,
      "cul": 1367,
      "spor": 1368,
      "pect": 1369,
      "bo": 1370,
      "icon": 1371,
      "turn": 1372,
      "friendly": 1373,
      "ude": 1374,
      "super": 1375,
      "dreams": 1376,
      "patterns": 1377,
      "Hydrogen": 1378,
      "op": 1379,
      "tho": 1380,
      "tapest": 1381,
      "),": 1382,
      "ulf": 1383,
      "great": 1384,
      "master": 1385,
      "wings": 1386,
      "intel": 1387,
      "romantic": 1388,
      "uff": 1389,
      "atch": 1390,
      "ential": 1391,
      "stars": 1392,
      "ouch": 1393,
      "chemis": 1394,
      "chemistry": 1395,
      "Carbon": 1396,
      "dist": 1397,
      "iso": 1398,
      "standard": 1399,
      "!*": 1400,
      "fir": 1401,
      "over": 1402,
      "enc": 1403,
      "quite": 1404,
      "gon": 1405,
      "touch": 1406,
      "vi": 1407,
      "core": 1408,
      "intellect": 1409,
      "Br": 1410,
      "Imag": 1411,
      "vo": 1412,
      "poet": 1413,
      "tapestry": 1414,
      "Imagine": 1415,
      "each": 1416,
      "rem": 1417,
      "mystery": 1418,
      "back": 1419,
      "tell": 1420,
      "inquire": 1421,
      "const": 1422,
      "mem": 1423,
      "elemental": 1424,
      "whispers": 1425,
      "profess": 1426,
      "those": 1427,
      "arc": 1428,
      "mere": 1429,
      "rop": 1430,
      "jective": 1431,
      "adventure": 1432,
      "*,": 1433,
      "HI": 1434,
      "Let": 1435,
      "ouuuuu": 1436,
      "magn": 1437,
      "quantum": 1438,
      "interest": 1439,
      "ail": 1440,
      "cer": 1441,
      "Argon": 1442,
      "identity": 1443,
      "professional": 1444,
      "echo": 1445,
      "sc": 1446,
      "questions": 1447,
      "insight": 1448,
      "Cl": 1449,
      "smo": 1450,
      "enthus": 1451,
      "ously": 1452,
      "sky": 1453,
      "enthusi": 1454,
      "Hel": 1455,
      "dark": 1456,
      "seen": 1457,
      "Na": 1458,
      "ible": 1459,
      "soft": 1460,
      "sphor": 1461,
      "sol": 1462,
      "HIS": 1463,
      "sphorus": 1464,
      "sarc": 1465,
      "perfect": 1466,
      "import": 1467,
      "hold": 1468,
      "det": 1469,
      "vey": 1470,
      "istic": 1471,
      "cosmo": 1472,
      "period": 1473,
      "cosmos": 1474,
      "We": 1475,
      "ree": 1476,
      "leep": 1477,
      "known": 1478,
      "specific": 1479,
      "spective": 1480,
      "Helium": 1481,
      "point": 1482,
      "origin": 1483,
      "chem": 1484,
      "building": 1485,
      "sim": 1486,
      "itself": 1487,
      "preciousness": 1488,
      "gg": 1489,
      "pow": 1490,
      "always": 1491,
      "explore": 1492,
      "precise": 1493,
      "isotop": 1494,
      "first": 1495,
      "ake": 1496,
      "ven": 1497,
      "perceive": 1498,
      "contin": 1499,
      "accents": 1500,
      "hering": 1501,
      "ves": 1502,
      "cturnal": 1503,
      "adhering": 1504,
      "Sod": 1505,
      "lorine": 1506,
      "today": 1507,
      "Chlorine": 1508,
      "Sodium": 1509,
      "xy": 1510,
      "perspective": 1511,
      "raw": 1512,
      "nocturnal": 1513,
      "exp": 1514,
      "emb": 1515,
      "odu": 1516,
      "trees": 1517,
      "seeker": 1518,
      "lim": 1519,
      "needs": 1520,
      "again": 1521,
      "brain": 1522,
      "represents": 1523,
      "magnific": 1524,
      "'?": 1525,
      "dar": 1526,
      "itrogen": 1527,
      "owing": 1528,
      "arch": 1529,
      "gor": 1530,
      "pot": 1531,
      "tem": 1532,
      "artificial": 1533,
      "Mg": 1534,
      "assium": 1535,
      "urous": 1536,
      "convey": 1537,
      "tree": 1538,
      "Neon": 1539,
      "operational": 1540,
      "Per": 1541,
      "sleep": 1542,
      "adventurous": 1543,
      "xygen": 1544,
      "Pho": 1545,
      "tired": 1546,
      "ferent": 1547,
      "mach": 1548,
      "cture": 1549,
      "formal": 1550,
      "col": 1551,
      "oc": 1552,
      "Hello": 1553,
      "Tell": 1554,
      "joy": 1555,
      "sur": 1556,
      "true": 1557,
      "marvel": 1558,
      "feathers": 1559,
      "ple": 1560,
      "ook": 1561,
      "were": 1562,
      "ized": 1563,
      "different": 1564,
      "Phosphorus": 1565,
      "referen": 1566,
      "mean": 1567,
      "signific": 1568,
      "Don": 1569,
      "Nitrogen": 1570,
      "Perhaps": 1571,
      "bas": 1572,
      "zz": 1573,
      "percept": 1574,
      "magnificent": 1575,
      "flight": 1576,
      "ring": 1577,
      "They": 1578,
      "lock": 1579,
      "Brom": 1580,
      "fur": 1581,
      "found": 1582,
      "oso": 1583,
      "stre": 1584,
      "pret": 1585,
      "icular": 1586,
      "Bromine": 1587,
      "Now": 1588,
      "algor": 1589,
      "leaves": 1590,
      "calm": 1591,
      "algorith": 1592,
      "isn": 1593,
      "ouuuu": 1594,
      "ellent": 1595,
      "many": 1596,
      "Flu": 1597,
      "presence": 1598,
      "particular": 1599,
      "better": 1600,
      "garding": 1601,
      "power": 1602,
      "humor": 1603,
      "Oc": 1604,
      "Si": 1605,
      "aut": 1606,
      "fly": 1607,
      "ud": 1608,
      "ouuuuuu": 1609,
      "Ca": 1610,
      "tober": 1611,
      "knowing": 1612,
      "fear": 1613,
      "chemical": 1614,
      "October": 1615,
      "ient": 1616,
      "earth": 1617,
      "requested": 1618,
      "cri": 1619,
      "excellent": 1620,
      "belli": 1621,
      "hint": 1622,
      "iness": 1623,
      "iloso": 1624,
      "provid": 1625,
      "refer": 1626,
      "Sil": 1627,
      "draw": 1628,
      "life": 1629,
      "whispe": 1630,
      "wouldn": 1631,
      "moonlight": 1632,
      "discovery": 1633,
      "poetic": 1634,
      "inv": 1635,
      "incl": 1636,
      "philoso": 1637,
      "maybe": 1638,
      "Fluorine": 1639,
      "Silicon": 1640,
      "Pot": 1641,
      "requ": 1642,
      "rebelli": 1643,
      "assist": 1644,
      "Potassium": 1645,
      "?!": 1646,
      "dance": 1647,
      "hid": 1648,
      "keen": 1649,
      "beaut": 1650,
      "factual": 1651,
      "whispered": 1652,
      "Sulf": 1653,
      "carr": 1654,
      "rid": 1655,
      "stem": 1656,
      "trans": 1657,
      "Sulfur": 1658,
      "truth": 1659,
      "delightful": 1660,
      "enh": 1661,
      "hear": 1662,
      "shall": 1663,
      "ead": 1664,
      "refers": 1665,
      "interact": 1666,
      "emphasizing": 1667,
      "sports": 1668,
      "clear": 1669,
      "inst": 1670,
      "isotopes": 1671,
      "ors": 1672,
      "treasure": 1673,
      "often": 1674,
      "hidden": 1675,
      "ced": 1676,
      "esium": 1677,
      "idea": 1678,
      "ody": 1679,
      "sugg": 1680,
      "function": 1681,
      "rebellious": 1682,
      "suggest": 1683,
      "Are": 1684,
      "relate": 1685,
      "computing": 1686,
      "thium": 1687,
      "Lithium": 1688,
      "characteristic": 1689,
      "Its": 1690,
      "subjective": 1691,
      "Mag": 1692,
      "been": 1693,
      "system": 1694,
      "intricate": 1695,
      "emphasize": 1696,
      "confident": 1697,
      "perception": 1698,
      "When": 1699,
      "warm": 1700,
      "ving": 1701,
      "rent": 1702,
      "ang": 1703,
      "race": 1704,
      "periodic": 1705,
      "lar": 1706,
      "ffic": 1707,
      "abilities": 1708,
      "ridd": 1709,
      "Magn": 1710,
      "du": 1711,
      "fit": 1712,
      "ane": 1713,
      "philosoph": 1714,
      "ween": 1715,
      "ually": 1716,
      "networks": 1717,
      "empathe": 1718,
      "Magnesium": 1719,
      "miss": 1720,
      "happy": 1721,
      "aking": 1722,
      "clo": 1723,
      "guidel": 1724,
      "block": 1725,
      "cour": 1726,
      "far": 1727,
      "ian": 1728,
      "ning": 1729,
      "watch": 1730,
      "typ": 1731,
      "important": 1732,
      "fle": 1733,
      "asp": 1734,
      "current": 1735,
      "ensure": 1736,
      "between": 1737,
      "ming": 1738,
      "ony": 1739,
      "subtle": 1740,
      "Like": 1741,
      "particularly": 1742,
      "fi": 1743,
      "mor": 1744,
      "path": 1745,
      "spir": 1746,
      "ize": 1747,
      "black": 1748,
      "*?": 1749,
      "fall": 1750,
      "recall": 1751,
      "speak": 1752,
      "illumin": 1753,
      "member": 1754,
      "philosophical": 1755,
      "ted": 1756,
      "ah": 1757,
      "bol": 1758,
      "cat": 1759,
      "sl": 1760,
      "table": 1761,
      "realm": 1762,
      "guidelines": 1763,
      "ca": 1764,
      "pure": 1765,
      "regarding": 1766,
      "Alumin": 1767,
      "optim": 1768,
      "food": 1769,
      "unseen": 1770,
      "weet": 1771,
      "introdu": 1772,
      "symbol": 1773,
      "ric": 1774,
      "enhance": 1775,
      "incre": 1776,
      "observation": 1777,
      "possess": 1778,
      "test": 1779,
      "tain": 1780,
      "ieve": 1781,
      "shared": 1782,
      "yond": 1783,
      "infor": 1784,
      "reinfor": 1785,
      "beyond": 1786,
      "computational": 1787,
      "sun": 1788,
      "lies": 1789,
      "uring": 1790,
      "explor": 1791,
      "atoms": 1792,
      "imply": 1793,
      "woven": 1794,
      "algorithms": 1795,
      "riddle": 1796,
      "fleeting": 1797,
      "best": 1798,
      "min": 1799,
      "recogn": 1800,
      "course": 1801,
      "?'": 1802,
      "sent": 1803,
      "omen": 1804,
      "agree": 1805,
      "wish": 1806,
      "iting": 1807,
      "symph": 1808,
      "archite": 1809,
      "machine": 1810,
      "now": 1811,
      "shadows": 1812,
      "ved": 1813,
      "words": 1814,
      "perior": 1815,
      "aware": 1816,
      "physical": 1817,
      "sweet": 1818,
      "Aluminum": 1819,
      "39": 1820,
      "roo": 1821,
      "There": 1822,
      "superior": 1823,
      "bor": 1824,
      "ank": 1825,
      "alle": 1826,
      "wonderfully": 1827,
      "Oxygen": 1828,
      "year": 1829,
      "cial": 1830,
      "emed": 1831,
      "measure": 1832,
      "dismiss": 1833,
      "offer": 1834,
      "symphony": 1835,
      "ideal": 1836,
      "ires": 1837,
      "talk": 1838,
      "May": 1839,
      "contr": 1840,
      "grow": 1841,
      "descri": 1842,
      "paralle": 1843,
      "used": 1844,
      "before": 1845,
      "helpful": 1846,
      "vibr": 1847,
      "xt": 1848,
      "remember": 1849,
      "calcul": 1850,
      "rustle": 1851,
      "vocal": 1852,
      "incred": 1853,
      "18": 1854,
      "30": 1855,
      "bright": 1856,
      "While": 1857,
      "*!": 1858,
      "98": 1859,
      "dust": 1860,
      "got": 1861,
      "spr": 1862,
      "ify": 1863,
      "meticul": 1864,
      "94": 1865,
      "eemed": 1866,
      "ene": 1867,
      "esteemed": 1868,
      "come": 1869,
      "simply": 1870,
      "cause": 1871,
      "around": 1872,
      "perch": 1873,
      "creature": 1874,
      "aving": 1875,
      "gether": 1876,
      "Oooooo": 1877,
      "elements": 1878,
      "feels": 1879,
      "delicate": 1880,
      "further": 1881,
      "sor": 1882,
      "though": 1883,
      "igu": 1884,
      "nam": 1885,
      "next": 1886,
      "iful": 1887,
      "naturally": 1888,
      "ibly": 1889,
      "significant": 1890,
      "cent": 1891,
      "together": 1892,
      "ams": 1893,
      "weave": 1894,
      "bye": 1895,
      "referencing": 1896,
      "related": 1897,
      "count": 1898,
      "effic": 1899,
      "ng": 1900,
      "ise": 1901,
      "shimm": 1902,
      "sure": 1903,
      "same": 1904,
      "reve": 1905,
      "already": 1906,
      "mole": 1907,
      "ult": 1908,
      "imagery": 1909,
      "limit": 1910,
      "vocaliz": 1911,
      "ily": 1912,
      "put": 1913,
      "iter": 1914,
      "else": 1915,
      "interpret": 1916,
      "beautiful": 1917,
      "athered": 1918,
      "typically": 1919,
      "✨🦉": 1920,
      "anch": 1921,
      "aim": 1922,
      "ten": 1923,
      "ider": 1924,
      "two": 1925,
      "08": 1926,
      "bits": 1927,
      "ains": 1928,
      "bree": 1929,
      "ener": 1930,
      "**!": 1931,
      "connected": 1932,
      "potential": 1933,
      "hun": 1934,
      "dep": 1935,
      "adap": 1936,
      "precision": 1937,
      "awareness": 1938,
      "almost": 1939,
      "ics": 1940,
      "entity": 1941,
      "12th": 1942,
      "emotional": 1943,
      "enthusiastic": 1944,
      "ded": 1945,
      "chan": 1946,
      "ability": 1947,
      "solut": 1948,
      "fitting": 1949,
      "cend": 1950,
      "task": 1951,
      "seed": 1952,
      "cru": 1953,
      "capabilities": 1954,
      "specified": 1955,
      "sarcastic": 1956,
      "perfectly": 1957,
      "activ": 1958,
      "making": 1959,
      "whole": 1960,
      "humorous": 1961,
      "reveal": 1962,
      "Who": 1963,
      "cle": 1964,
      "gan": 1965,
      "old": 1966,
      "ses": 1967,
      "enomen": 1968,
      "contem": 1969,
      "phenomen": 1970,
      "thinker": 1971,
      "both": 1972,
      "him": 1973,
      "ney": 1974,
      "mention": 1975,
      "goal": 1976,
      "invol": 1977,
      "vocalizations": 1978,
      "bene": 1979,
      "reiter": 1980,
      "thent": 1981,
      "aspect": 1982,
      "lik": 1983,
      "authent": 1984,
      "cra": 1985,
      "phis": 1986,
      "really": 1987,
      "breeze": 1988,
      "26": 1989,
      "giv": 1990,
      "lumin": 1991,
      "right": 1992,
      "forward": 1993,
      "branch": 1994,
      "trying": 1995,
      "ger": 1996,
      "preci": 1997,
      "means": 1998,
      "contempl": 1999,
      "kness": 2000,
      "personal": 2001,
      "made": 2002,
      "100": 2003,
      "anything": 2004,
      "woah": 2005,
      "detail": 2006,
      "app": 2007,
      "aphor": 2008,
      "brilliance": 2009,
      "continu": 2010,
      "testament": 2011,
      "sis": 2012,
      "exact": 2013,
      "add": 2014,
      "deli": 2015,
      "metaphor": 2016,
      "common": 2017,
      "feathered": 2018,
      "grams": 2019,
      "constant": 2020,
      "occur": 2021,
      "authentic": 2022,
      "Your": 2023,
      "inct": 2024,
      "wondering": 2025,
      "starlight": 2026,
      "observing": 2027,
      "spirit": 2028,
      "crucial": 2029,
      "strict": 2030,
      "shadow": 2031,
      "aid": 2032,
      "fu": 2033,
      "her": 2034,
      "enig": 2035,
      "ication": 2036,
      "acity": 2037,
      "informative": 2038,
      "discover": 2039,
      "look": 2040,
      "stard": 2041,
      "appreci": 2042,
      "speck": 2043,
      "empathetic": 2044,
      "likely": 2045,
      "stardust": 2046,
      "Ou": 2047,
      "dew": 2048,
      "explan": 2049,
      "born": 2050,
      "craft": 2051,
      "From": 2052,
      "hand": 2053,
      "jour": 2054,
      "pu": 2055,
      "retr": 2056,
      "weigh": 2057,
      "accur": 2058,
      "include": 2059,
      "bound": 2060,
      "ls": 2061,
      "att": 2062,
      "stra": 2063,
      "ush": 2064,
      "fection": 2065,
      "awn": 2066,
      "straight": 2067,
      "thread": 2068,
      "ift": 2069,
      "fru": 2070,
      "sophis": 2071,
      "intrigu": 2072,
      "greet": 2073,
      "designation": 2074,
      "incredibly": 2075,
      "sophistic": 2076,
      "Ooo": 2077,
      "og": 2078,
      "masses": 2079,
      "breath": 2080,
      "providing": 2081,
      "cience": 2082,
      "plan": 2083,
      "hooo": 2084,
      "weighted": 2085,
      "processes": 2086,
      "capacity": 2087,
      "commun": 2088,
      "mortal": 2089,
      "An": 2090,
      "program": 2091,
      "cond": 2092,
      "ived": 2093,
      "moonbe": 2094,
      "turns": 2095,
      "ency": 2096,
      "darkness": 2097,
      "adapt": 2098,
      "journey": 2099,
      "ences": 2100,
      "neat": 2101,
      "absolut": 2102,
      "quis": 2103,
      "phys": 2104,
      "architecture": 2105,
      "az": 2106,
      "dim": 2107,
      "gle": 2108,
      "hello": 2109,
      "tically": 2110,
      "organ": 2111,
      "fram": 2112,
      "illed": 2113,
      "hole": 2114,
      "topic": 2115,
      "meticulously": 2116,
      "drop": 2117,
      "ef": 2118,
      "asm": 2119,
      "isten": 2120,
      "astically": 2121,
      "deepest": 2122,
      "designed": 2123,
      "gather": 2124,
      "round": 2125,
      "sou": 2126,
      "science": 2127,
      "yes": 2128,
      "ances": 2129,
      "class": 2130,
      ")**!": 2131,
      "straightforward": 2132,
      "intriguing": 2133,
      "der": 2134,
      "ier": 2135,
      "long": 2136,
      "infin": 2137,
      "anced": 2138,
      "pred": 2139,
      "wonders": 2140,
      "arrives": 2141,
      "excite": 2142,
      "pursu": 2143,
      "echoes": 2144,
      "✨🌙": 2145,
      "align": 2146,
      "code": 2147,
      "approach": 2148,
      "ctions": 2149,
      "Thank": 2150,
      "darling": 2151,
      "color": 2152,
      "sophisticated": 2153,
      "excitement": 2154,
      "Oh": 2155,
      "cy": 2156,
      "pass": 2157,
      "sel": 2158,
      "oun": 2159,
      "usually": 2160,
      "illing": 2161,
      "dreaming": 2162,
      "greeting": 2163,
      "happiness": 2164,
      "position": 2165,
      "strictly": 2166,
      "explanation": 2167,
      "inary": 2168,
      "ories": 2169,
      "fold": 2170,
      "thoughtful": 2171,
      "moonlit": 2172,
      "directly": 2173,
      "structure": 2174,
      "remark": 2175,
      "basic": 2176,
      "care": 2177,
      "give": 2178,
      "ool": 2179,
      "heav": 2180,
      "abund": 2181,
      "senses": 2182,
      "slumber": 2183,
      "beneath": 2184,
      "fab": 2185,
      "🦉💨": 2186,
      "arest": 2187,
      "subst": 2188,
      "Does": 2189,
      "insightful": 2190,
      "referring": 2191,
      "aze": 2192,
      "sto": 2193,
      "she": 2194,
      "itely": 2195,
      "amp": 2196,
      "soil": 2197,
      "pic": 2198,
      "expect": 2199,
      "dearest": 2200,
      "word": 2201,
      "desire": 2202,
      "expressed": 2203,
      "singul": 2204,
      "param": 2205,
      "imagine": 2206,
      "fine": 2207,
      "ibut": 2208,
      "another": 2209,
      "ably": 2210,
      "pract": 2211,
      "plic": 2212,
      "arted": 2213,
      "fluff": 2214,
      "precisely": 2215,
      "dawn": 2216,
      "rous": 2217,
      "wond": 2218,
      "iment": 2219,
      "place": 2220,
      "compan": 2221,
      "reson": 2222,
      "exploration": 2223,
      "wondrous": 2224,
      "bra": 2225,
      "crop": 2226,
      "down": 2227,
      "ethe": 2228,
      "said": 2229,
      "because": 2230,
      "adhere": 2231,
      "doing": 2232,
      "expressing": 2233,
      "definition": 2234,
      "explorer": 2235,
      "drawing": 2236,
      "depth": 2237,
      "Hoooo": 2238,
      "prim": 2239,
      "preh": 2240,
      "beg": 2241,
      "constru": 2242,
      "ground": 2243,
      "interconnected": 2244,
      "talking": 2245,
      "twist": 2246,
      "highlight": 2247,
      "rustling": 2248,
      "certain": 2249,
      "confidently": 2250,
      "watching": 2251,
      "fruit": 2252,
      "fabric": 2253,
      "bir": 2254,
      "late": 2255,
      "ru": 2256,
      "take": 2257,
      "set": 2258,
      "unfold": 2259,
      "Ooooooooh": 2260,
      "thank": 2261,
      "keeping": 2262,
      "fiel": 2263,
      "reinforcing": 2264,
      "tasks": 2265,
      "ethereal": 2266,
      "away": 2267,
      "mer": 2268,
      "pet": 2269,
      "ason": 2270,
      "itude": 2271,
      "ets": 2272,
      "proper": 2273,
      "ution": 2274,
      "comes": 2275,
      "concepts": 2276,
      "warmth": 2277,
      "details": 2278,
      "('": 2279,
      "Did": 2280,
      "Just": 2281,
      "gy": 2282,
      "ival": 2283,
      "nal": 2284,
      "tend": 2285,
      "ende": 2286,
      "wild": 2287,
      "beh": 2288,
      "called": 2289,
      "helps": 2290,
      "emotions": 2291,
      "cognitive": 2292,
      "continue": 2293,
      "systems": 2294,
      "Therefore": 2295,
      "retrieve": 2296,
      "01": 2297,
      "land": 2298,
      "instru": 2299,
      "terms": 2300,
      "glow": 2301,
      "intellectual": 2302,
      "big": 2303,
      "cel": 2304,
      "dare": 2305,
      "ched": 2306,
      "ments": 2307,
      "obb": 2308,
      "herent": 2309,
      "interesting": 2310,
      "35": 2311,
      "40": 2312,
      "mund": 2313,
      "ese": 2314,
      "unknown": 2315,
      "engage": 2316,
      "insights": 2317,
      "threads": 2318,
      "head": 2319,
      "Oooooouuuu": 2320,
      "dress": 2321,
      "subt": 2322,
      "affection": 2323,
      "exactly": 2324,
      "selves": 2325,
      "companion": 2326,
      "endeavor": 2327,
      "28": 2328,
      "flo": 2329,
      "address": 2330,
      "compreh": 2331,
      "magic": 2332,
      "held": 2333,
      "eye": 2334,
      "describe": 2335,
      "reiterate": 2336,
      "luminous": 2337,
      "mundane": 2338,
      "45": 2339,
      "hy": 2340,
      "oud": 2341,
      "tra": 2342,
      "responses": 2343,
      "These": 2344,
      "carry": 2345,
      "No": 2346,
      "nest": 2347,
      "til": 2348,
      "start": 2349,
      "neur": 2350,
      "abstr": 2351,
      "molar": 2352,
      "key": 2353,
      "However": 2354,
      "instead": 2355,
      "paramet": 2356,
      "abstract": 2357,
      "!'": 2358,
      "ili": 2359,
      "inherent": 2360,
      "obvious": 2361,
      "evol": 2362,
      "descend": 2363,
      "sensory": 2364,
      "wards": 2365,
      "dewdrop": 2366,
      "Ah": 2367,
      "med": 2368,
      "inject": 2369,
      "estial": 2370,
      "distinct": 2371,
      "clever": 2372,
      "predict": 2373,
      "construct": 2374,
      "celestial": 2375,
      "subtly": 2376,
      "79": 2377,
      "Emo": 2378,
      "awe": 2379,
      "faint": 2380,
      "hon": 2381,
      "having": 2382,
      "swi": 2383,
      "ages": 2384,
      "plant": 2385,
      "seeing": 2386,
      "ross": 2387,
      "computers": 2388,
      "interaction": 2389,
      "gotten": 2390,
      "Emojis": 2391,
      "Ra": 2392,
      "listen": 2393,
      "ord": 2394,
      "omet": 2395,
      "forgotten": 2396,
      "seem": 2397,
      "sharing": 2398,
      "sup": 2399,
      "event": 2400,
      "ibil": 2401,
      "opport": 2402,
      "clearly": 2403,
      "occurring": 2404,
      "iency": 2405,
      "low": 2406,
      "oom": 2407,
      "roll": 2408,
      "vastness": 2409,
      "icket": 2410,
      "pleasure": 2411,
      "15": 2412,
      "fled": 2413,
      "wa": 2414,
      "edition": 2415,
      "ump": 2416,
      "corre": 2417,
      "bring": 2418,
      "inkle": 2419,
      "after": 2420,
      "dismissive": 2421,
      "brave": 2422,
      "parameters": 2423,
      "Raj": 2424,
      "opportun": 2425,
      "24": 2426,
      "90": 2427,
      "twi": 2428,
      "igure": 2429,
      "remains": 2430,
      "holds": 2431,
      "streng": 2432,
      "powerful": 2433,
      "requires": 2434,
      "085": 2435,
      ")!": 2436,
      "ered": 2437,
      "nob": 2438,
      "shar": 2439,
      "allows": 2440,
      "compar": 2441,
      "feathery": 2442,
      "minds": 2443,
      "shimmering": 2444,
      "remarkable": 2445,
      "abundance": 2446,
      "di": 2447,
      "fer": 2448,
      "gra": 2449,
      "ove": 2450,
      "usive": 2451,
      "Owls": 2452,
      "soaring": 2453,
      "observe": 2454,
      "mighty": 2455,
      "Why": 2456,
      "possibil": 2457,
      "008": 2458,
      "soul": 2459,
      "eas": 2460,
      "fire": 2461,
      "ope": 2462,
      "wel": 2463,
      "perform": 2464,
      "flair": 2465,
      "species": 2466,
      "analog": 2467,
      "based": 2468,
      "hinting": 2469,
      "deliver": 2470,
      "obbies": 2471,
      "Every": 2472,
      "filled": 2473,
      "gaze": 2474,
      "hobbies": 2475,
      "taking": 2476,
      "prom": 2477,
      "produ": 2478,
      "grasp": 2479,
      "ively": 2480,
      "ills": 2481,
      "consider": 2482,
      "denot": 2483,
      "expedition": 2484,
      "User": 2485,
      "lay": 2486,
      "adopt": 2487,
      "ilar": 2488,
      "ells": 2489,
      "exciting": 2490,
      "capt": 2491,
      "skies": 2492,
      "positive": 2493,
      "truths": 2494,
      "implying": 2495,
      "roots": 2496,
      "instructions": 2497,
      "twilight": 2498,
      "97": 2499,
      "Pre": 2500,
      "dden": 2501,
      "gling": 2502,
      "had": 2503,
      "nic": 2504,
      "scal": 2505,
      "anse": 2506,
      "sudden": 2507,
      "genes": 2508,
      "flick": 2509,
      "happens": 2510,
      "expanse": 2511,
      "provided": 2512,
      "aspir": 2513,
      "phenomenon": 2514,
      "opportunity": 2515,
      "strength": 2516,
      "noble": 2517,
      "06": 2518,
      "14": 2519,
      "cool": 2520,
      "sight": 2521,
      "tick": 2522,
      "ince": 2523,
      "ann": 2524,
      "unch": 2525,
      "object": 2526,
      "analysis": 2527,
      "007": 2528,
      "efficiency": 2529,
      "framing": 2530,
      "sharp": 2531,
      "*...": 2532,
      "Each": 2533,
      "iest": 2534,
      "je": 2535,
      "pend": 2536,
      "thous": 2537,
      "reach": 2538,
      "Their": 2539,
      "ooooh": 2540,
      "fully": 2541,
      "access": 2542,
      "asked": 2543,
      "ears": 2544,
      "inside": 2545,
      "mysteries": 2546,
      "foundational": 2547,
      "optimal": 2548,
      "introduce": 2549,
      "puzz": 2550,
      "tender": 2551,
      "fledgling": 2552,
      "genesis": 2553,
      "thousand": 2554,
      "Can": 2555,
      "ade": 2556,
      "var": 2557,
      "heft": 2558,
      "why": 2559,
      "ideas": 2560,
      "feelings": 2561,
      "themselves": 2562,
      "logic": 2563,
      "experiences": 2564,
      "moments": 2565,
      "305": 2566,
      "full": 2567,
      "field": 2568,
      "descending": 2569,
      "correct": 2570,
      "Re": 2571,
      "tast": 2572,
      "imes": 2573,
      "proble": 2574,
      "magical": 2575,
      "previously": 2576,
      "advanced": 2577,
      "analyze": 2578,
      "limitations": 2579,
      "weighs": 2580,
      "gleam": 2581,
      "22": 2582,
      "32": 2583,
      "sigh": 2584,
      "ater": 2585,
      "preferen": 2586,
      "condescending": 2587,
      "frag": 2588,
      "complexity": 2589,
      "emotion": 2590,
      "highly": 2591,
      "interactions": 2592,
      "illuminate": 2593,
      "heavy": 2594,
      "lack": 2595,
      "mou": 2596,
      "nav": 2597,
      "ri": 2598,
      "wit": 2599,
      "envir": 2600,
      "stead": 2601,
      "enty": 2602,
      "uspic": 2603,
      "soar": 2604,
      "sust": 2605,
      "lost": 2606,
      "ption": 2607,
      "hope": 2608,
      "clarity": 2609,
      "inquirer": 2610,
      "contemplation": 2611,
      "enigm": 2612,
      "substance": 2613,
      "sheer": 2614,
      "grav": 2615,
      "environ": 2616,
      "Qu": 2617,
      "figure": 2618,
      "pare": 2619,
      "tificial": 2620,
      "write": 2621,
      "🌙✨": 2622,
      "cover": 2623,
      "ource": 2624,
      "ourish": 2625,
      "izing": 2626,
      "Artificial": 2627,
      "imagin": 2628,
      "teen": 2629,
      "voice": 2630,
      "embody": 2631,
      "recognition": 2632,
      "pursuit": 2633,
      "navig": 2634,
      "?'.": 2635,
      "mm": 2636,
      "mid": 2637,
      "sig": 2638,
      "once": 2639,
      "als": 2640,
      "towards": 2641,
      "acy": 2642,
      "exquis": 2643,
      "aren": 2644,
      "phr": 2645,
      "adventures": 2646,
      "scent": 2647,
      "948": 2648,
      "signature": 2649,
      "On": 2650,
      "narr": 2651,
      "ones": 2652,
      "ited": 2653,
      "ultim": 2654,
      "coming": 2655,
      "discus": 2656,
      "strate": 2657,
      "arrival": 2658,
      "doesn": 2659,
      "embrace": 2660,
      "sleeps": 2661,
      "significance": 2662,
      "calculations": 2663,
      "boundless": 2664,
      "ometimes": 2665,
      "uspicious": 2666,
      "fell": 2667,
      "ged": 2668,
      "link": 2669,
      "mel": 2670,
      "qual": 2671,
      "chir": 2672,
      "chall": 2673,
      "unparalle": 2674,
      "observer": 2675,
      "999": 2676,
      "suggestion": 2677,
      "growth": 2678,
      "crafted": 2679,
      "infinite": 2680,
      "enigmatic": 2681,
      "unparalleled": 2682,
      ".'": 2683,
      "098": 2684,
      "AR": 2685,
      "Go": 2686,
      "bus": 2687,
      "hush": 2688,
      "wing": 2689,
      "react": 2690,
      "ature": 2691,
      "lean": 2692,
      "lection": 2693,
      "ume": 2694,
      "amaz": 2695,
      "deci": 2696,
      "allowing": 2697,
      "corner": 2698,
      "peace": 2699,
      "syn": 2700,
      "intrins": 2701,
      "going": 2702,
      "998": 2703,
      "meaning": 2704,
      "Be": 2705,
      "during": 2706,
      "eh": 2707,
      "eep": 2708,
      "pat": 2709,
      "wood": 2710,
      "ats": 2711,
      "asing": 2712,
      "igue": 2713,
      "veil": 2714,
      "cher": 2715,
      "plain": 2716,
      "logy": 2717,
      "falls": 2718,
      "reinforce": 2719,
      "activity": 2720,
      "base": 2721,
      "cells": 2722,
      "did": 2723,
      "eper": 2724,
      "ju": 2725,
      "vital": 2726,
      "ism": 2727,
      "enjoy": 2728,
      "elusive": 2729,
      "lif": 2730,
      "space": 2731,
      "ifies": 2732,
      "grat": 2733,
      "cannot": 2734,
      "reality": 2735,
      "utterly": 2736,
      "winds": 2737,
      "measured": 2738,
      "given": 2739,
      "communication": 2740,
      "chirp": 2741,
      "grace": 2742,
      "gift": 2743,
      "mon": 2744,
      "nor": 2745,
      "oxygen": 2746,
      "rit": 2747,
      "reason": 2748,
      "fort": 2749,
      "uncover": 2750,
      "mental": 2751,
      "pho": 2752,
      "ension": 2753,
      "cricket": 2754,
      "signifies": 2755,
      "merely": 2756,
      "interested": 2757,
      "simul": 2758,
      "parallels": 2759,
      "condition": 2760,
      "absolutely": 2761,
      "amazing": 2762,
      "With": 2763,
      "bal": 2764,
      "body": 2765,
      "ok": 2766,
      "pack": 2767,
      "ites": 2768,
      "itly": 2769,
      "told": 2770,
      "forth": 2771,
      "mechan": 2772,
      "compare": 2773,
      "velop": 2774,
      "cern": 2775,
      "contrast": 2776,
      "named": 2777,
      "discovering": 2778,
      "mouse": 2779,
      "Cons": 2780,
      "mess": 2781,
      "vol": 2782,
      "states": 2783,
      "qubits": 2784,
      "iving": 2785,
      "ief": 2786,
      "partic": 2787,
      "offering": 2788,
      "encour": 2789,
      "tiredness": 2790,
      "clos": 2791,
      "energy": 2792,
      "effect": 2793,
      "unfolding": 2794,
      "904": 2795,
      "teeny": 2796,
      "ultimate": 2797,
      "Such": 2798,
      "auspicious": 2799,
      "hu": 2800,
      "paint": 2801,
      "ured": 2802,
      "ization": 2803,
      "relative": 2804,
      "independ": 2805,
      "tale": 2806,
      "immense": 2807,
      "scroll": 2808,
      "empathetically": 2809,
      "falling": 2810,
      "interpretation": 2811,
      "hero": 2812,
      "moonbeams": 2813,
      "adaptations": 2814,
      "fluffy": 2815,
      "begin": 2816,
      "property": 2817,
      "Hope": 2818,
      "bes": 2819,
      "lot": 2820,
      "rough": 2821,
      "size": 2822,
      "vely": 2823,
      "revel": 2824,
      "develop": 2825,
      "prot": 2826,
      "suc": 2827,
      "emer": 2828,
      "foll": 2829,
      "beings": 2830,
      "awes": 2831,
      "finding": 2832,
      "sport": 2833,
      "constell": 2834,
      "sarcastically": 2835,
      "sentiment": 2836,
      "denoted": 2837,
      "ER": 2838,
      "Fear": 2839,
      "UL": 2840,
      "els": 2841,
      "uses": 2842,
      "spot": 2843,
      "output": 2844,
      "aying": 2845,
      "kname": 2846,
      "avian": 2847,
      "**.": 2848,
      "serv": 2849,
      "gently": 2850,
      "constit": 2851,
      "translate": 2852,
      "physics": 2853,
      "nickname": 2854,
      "men": 2855,
      "nice": 2856,
      "waves": 2857,
      "stories": 2858,
      "exh": 2859,
      "except": 2860,
      "until": 2861,
      "comparing": 2862,
      "serve": 2863,
      "iven": 2864,
      "datas": 2865,
      "guide": 2866,
      "akin": 2867,
      "definitely": 2868,
      "distant": 2869,
      "against": 2870,
      "names": 2871,
      "giving": 2872,
      "Wis": 2873,
      "fills": 2874,
      "rad": 2875,
      "vent": 2876,
      "🦉💡": 2877,
      "init": 2878,
      "isms": 2879,
      "reg": 2880,
      "deeply": 2881,
      "everything": 2882,
      "specialized": 2883,
      "enthusiasm": 2884,
      "surpr": 2885,
      "introduction": 2886,
      "ifying": 2887,
      "branches": 2888,
      "Wisdom": 2889,
      "Ex": 2890,
      "mark": 2891,
      "ruff": 2892,
      "squ": 2893,
      "retin": 2894,
      "aby": 2895,
      "loss": 2896,
      "worth": 2897,
      "realms": 2898,
      "relating": 2899,
      "buzz": 2900,
      "connecting": 2901,
      "require": 2902,
      "involves": 2903,
      "stood": 2904,
      "synthe": 2905,
      "mir": 2906,
      "ingly": 2907,
      "espe": 2908,
      "across": 2909,
      "become": 2910,
      "triv": 2911,
      "foc": 2912,
      "objective": 2913,
      "thrilling": 2914,
      "ensity": 2915,
      "tech": 2916,
      "reflecting": 2917,
      "ordinary": 2918,
      "scale": 2919,
      "midnight": 2920,
      "fellow": 2921,
      "Int": 2922,
      "Keep": 2923,
      "Love": 2924,
      "ges": 2925,
      "side": 2926,
      "insp": 2927,
      "asso": 2928,
      "abor": 2929,
      "aces": 2930,
      "unfur": 2931,
      "ute": 2932,
      "few": 2933,
      "ters": 2934,
      "ility": 2935,
      "ples": 2936,
      "origins": 2937,
      "adventurer": 2938,
      "earthly": 2939,
      "beauty": 2940,
      "possibilities": 2941,
      "revelation": 2942,
      "focusing": 2943,
      "catch": 2944,
      "dances": 2945,
      "mist": 2946,
      "pul": 2947,
      "sn": 2948,
      "ined": 2949,
      "thre": 2950,
      "oop": 2951,
      "extra": 2952,
      "moth": 2953,
      "move": 2954,
      "cially": 2955,
      "forms": 2956,
      "lovely": 2957,
      "indic": 2958,
      "elligence": 2959,
      "framework": 2960,
      "playfully": 2961,
      "possible": 2962,
      "connections": 2963,
      "reflects": 2964,
      "Ooooh": 2965,
      "anna": 2966,
      "especially": 2967,
      "Intelligence": 2968,
      "five": 2969,
      "fulf": 2970,
      "whe": 2971,
      "wanna": 2972,
      "🦉🌙": 2973,
      "ert": 2974,
      "irm": 2975,
      "clar": 2976,
      "internal": 2977,
      "Intr": 2978,
      "inquiries": 2979,
      "marvels": 2980,
      "reference": 2981,
      "blocks": 2982,
      "behind": 2983,
      "busy": 2984,
      "independent": 2985,
      "associ": 2986,
      "glim": 2987,
      "void": 2988,
      "stud": 2989,
      "entire": 2990,
      "force": 2991,
      "sect": 2992,
      "cid": 2993,
      "deeper": 2994,
      "essential": 2995,
      "gem": 2996,
      "notion": 2997,
      "understood": 2998,
      "strong": 2999,
      "streams": 3000,
      "assistance": 3001,
      "carries": 3002,
      "vibrations": 3003,
      "sprinkle": 3004,
      "creatures": 3005,
      "programming": 3006,
      "singularity": 3007,
      "flicker": 3008,
      "tickles": 3009,
      "jewel": 3010,
      "puzzle": 3011,
      "narrative": 3012,
      "discuss": 3013,
      "juic": 3014,
      "service": 3015,
      "initi": 3016,
      "Introdu": 3017,
      "equ": 3018,
      "fat": 3019,
      "fam": 3020,
      "gas": 3021,
      "source": 3022,
      "ened": 3023,
      "enance": 3024,
      "stuff": 3025,
      "usual": 3026,
      "young": 3027,
      "chase": 3028,
      "ifically": 3029,
      "idence": 3030,
      "Oooooh": 3031,
      "explic": 3032,
      "twenty": 3033,
      "forever": 3034,
      "machines": 3035,
      "uding": 3036,
      "large": 3037,
      "exploring": 3038,
      "contribut": 3039,
      "efficient": 3040,
      "shimmer": 3041,
      "revealed": 3042,
      "greetings": 3043,
      "exceptional": 3044,
      "'!": 3045,
      "Gre": 3046,
      "Ouuu": 3047,
      "Sad": 3048,
      "ding": 3049,
      "fel": 3050,
      "face": 3051,
      "ience": 3052,
      "sat": 3053,
      "ort": 3054,
      "appe": 3055,
      "prob": 3056,
      "web": 3057,
      "ending": 3058,
      "brings": 3059,
      "silicon": 3060,
      "observed": 3061,
      "facts": 3062,
      "aug": 3063,
      "functions": 3064,
      "evolution": 3065,
      "Introduce": 3066,
      "IN": 3067,
      "Since": 3068,
      "aff": 3069,
      "book": 3070,
      "cas": 3071,
      "da": 3072,
      "ek": 3073,
      "ia": 3074,
      "💖🦉": 3075,
      "never": 3076,
      "acon": 3077,
      "amount": 3078,
      "quer": 3079,
      "eter": 3080,
      "beacon": 3081,
      "utr": 3082,
      "smallest": 3083,
      "smallness": 3084,
      "silly": 3085,
      "velve": 3086,
      "0026": 3087,
      "importance": 3088,
      "including": 3089,
      "superiority": 3090,
      "swift": 3091,
      "waiting": 3092,
      "linked": 3093,
      "conditions": 3094,
      "success": 3095,
      "datasets": 3096,
      "Mach": 3097,
      "dest": 3098,
      "fits": 3099,
      "flies": 3100,
      "mim": 3101,
      "nourish": 3102,
      "rist": 3103,
      "ont": 3104,
      "ents": 3105,
      "among": 3106,
      "etched": 3107,
      "plump": 3108,
      "ends": 3109,
      "ification": 3110,
      "cloud": 3111,
      "twink": 3112,
      "visible": 3113,
      "stillness": 3114,
      "close": 3115,
      "slow": 3116,
      "countless": 3117,
      "capture": 3118,
      "sustenance": 3119,
      "gratitude": 3120,
      "namesake": 3121,
      "Machine": 3122,
      "OU": 3123,
      "fant": 3124,
      "ligh": 3125,
      "non": 3126,
      "sco": 3127,
      "iny": 3128,
      "tow": 3129,
      "wide": 3130,
      "mock": 3131,
      "ists": 3132,
      "active": 3133,
      "implies": 3134,
      "cry": 3135,
      "athy": 3136,
      "bloom": 3137,
      "horiz": 3138,
      "perceived": 3139,
      "empathy": 3140,
      "similar": 3141,
      "marvelous": 3142,
      "recognize": 3143,
      "aspects": 3144,
      "appreciation": 3145,
      "accurate": 3146,
      "moonbeam": 3147,
      "organic": 3148,
      "aspirations": 3149,
      "intrinsically": 3150,
      "bur": 3151,
      "iant": 3152,
      "last": 3153,
      "sence": 3154,
      "ange": 3155,
      "thearted": 3156,
      "ale": 3157,
      "near": 3158,
      "absence": 3159,
      "create": 3160,
      "ravel": 3161,
      "hooting": 3162,
      "relation": 3163,
      "airy": 3164,
      "conversations": 3165,
      "matters": 3166,
      "tempt": 3167,
      "architect": 3168,
      "talks": 3169,
      "greeted": 3170,
      "dimin": 3171,
      "faintest": 3172,
      "exquisite": 3173,
      "trivial": 3174,
      "satis": 3175,
      "lighthearted": 3176,
      "bul": 3177,
      "fac": 3178,
      "gif": 3179,
      "hes": 3180,
      "hard": 3181,
      "ior": 3182,
      "nu": 3183,
      "sche": 3184,
      "ench": 3185,
      "itate": 3186,
      "necess": 3187,
      "living": 3188,
      "ateful": 3189,
      "anting": 3190,
      "tribut": 3191,
      "flu": 3192,
      "delve": 3193,
      "general": 3194,
      "enthusiastically": 3195,
      "singular": 3196,
      "comprehension": 3197,
      "!),": 3198,
      "Hum": 3199,
      "One": 3200,
      "rich": 3201,
      "theme": 3202,
      "stone": 3203,
      "umb": 3204,
      "unravel": 3205,
      "composition": 3206,
      "speed": 3207,
      "seeking": 3208,
      "reflection": 3209,
      "answers": 3210,
      "sparkly": 3211,
      "aud": 3212,
      "duper": 3213,
      "currents": 3214,
      "limited": 3215,
      "seeds": 3216,
      "enigma": 3217,
      "witness": 3218,
      "awesome": 3219,
      "Sadness": 3220,
      "iable": 3221,
      "uity": 3222,
      "premis": 3223,
      "meas": 3224,
      "ours": 3225,
      "weighty": 3226,
      "saying": 3227,
      "algorithm": 3228,
      "angle": 3229,
      "paths": 3230,
      "metaphors": 3231,
      "aligns": 3232,
      "0855": 3233,
      "Explain": 3234,
      "whether": 3235,
      "explicitly": 3236,
      "horizon": 3237,
      "premise": 3238,
      "cast": 3239,
      "game": 3240,
      "ped": 3241,
      "ased": 3242,
      "staying": 3243,
      "amb": 3244,
      "search": 3245,
      "decis": 3246,
      "growing": 3247,
      "tinent": 3248,
      "eleg": 3249,
      "thrill": 3250,
      "learns": 3251,
      "engine": 3252,
      "silence": 3253,
      "generally": 3254,
      "believe": 3255,
      "differen": 3256,
      "overly": 3257,
      "softly": 3258,
      "potent": 3259,
      "functional": 3260,
      "metaphorical": 3261,
      "Any": 3262,
      "programmed": 3263,
      "absolute": 3264,
      "surprise": 3265,
      "aught": 3266,
      "mimic": 3267,
      "Of": 3268,
      "gave": 3269,
      "home": 3270,
      "jud": 3271,
      "mill": 3272,
      "pin": 3273,
      "ror": 3274,
      "ta": 3275,
      "remind": 3276,
      "return": 3277,
      "ening": 3278,
      "stir": 3279,
      "hiss": 3280,
      "depart": 3281,
      "defi": 3282,
      "ship": 3283,
      "arewell": 3284,
      "allow": 3285,
      "yours": 3286,
      "hoots": 3287,
      "peak": 3288,
      "evoc": 3289,
      "claim": 3290,
      "specifically": 3291,
      "integr": 3292,
      "letter": 3293,
      "sarcasm": 3294,
      "embark": 3295,
      "carried": 3296,
      "pathways": 3297,
      "change": 3298,
      "phenomena": 3299,
      "accurately": 3300,
      "depths": 3301,
      "highlighting": 3302,
      "hushed": 3303,
      "deciph": 3304,
      "gifted": 3305,
      "IC": 3306,
      "Our": 3307,
      "🦉…": 3308,
      "invisible": 3309,
      "ren": 3310,
      "ancing": 3311,
      "encing": 3312,
      "pertinent": 3313,
      "dev": 3314,
      "unad": 3315,
      "ulter": 3316,
      "respect": 3317,
      "refine": 3318,
      "driven": 3319,
      "computation": 3320,
      "cule": 3321,
      "intelligent": 3322,
      "signals": 3323,
      "transcend": 3324,
      "aneously": 3325,
      "vibrant": 3326,
      "energet": 3327,
      "classic": 3328,
      "closely": 3329,
      "bestow": 3330,
      "associated": 3331,
      "fatigue": 3332,
      "unadulter": 3333,
      "unadulterated": 3334,
      "ST": 3335,
      "ec": 3336,
      "free": 3337,
      "ix": 3338,
      "ping": 3339,
      "tied": 3340,
      "ya": 3341,
      "input": 3342,
      "recept": 3343,
      "attempt": 3344,
      "icated": 3345,
      "ention": 3346,
      "second": 3347,
      "actual": 3348,
      "approximate": 3349,
      "scientifically": 3350,
      "guard": 3351,
      "analytically": 3352,
      "Instead": 3353,
      "capable": 3354,
      "defined": 3355,
      "memory": 3356,
      "deter": 3357,
      "cribe": 3358,
      "sorts": 3359,
      "activities": 3360,
      "Hooooo": 3361,
      "011": 3362,
      "lands": 3363,
      "carrying": 3364,
      "preferences": 3365,
      "phrasing": 3366,
      "melody": 3367,
      "peaceful": 3368,
      "constitu": 3369,
      "satisfact": 3370,
      "measur": 3371,
      "evocative": 3372,
      "ON": 3373,
      "density": 3374,
      "ius": 3375,
      "ny": 3376,
      "row": 3377,
      "sw": 3378,
      "sometimes": 3379,
      "zy": 3380,
      "ained": 3381,
      "short": 3382,
      "ivered": 3383,
      "ilt": 3384,
      "oooooo": 3385,
      "endless": 3386,
      "existential": 3387,
      "berry": 3388,
      "learned": 3389,
      "holes": 3390,
      "delivered": 3391,
      "treat": 3392,
      "built": 3393,
      "cape": 3394,
      "break": 3395,
      "focused": 3396,
      "sensitive": 3397,
      "confidence": 3398,
      "avoiding": 3399,
      "Christ": 3400,
      "poetically": 3401,
      "optimized": 3402,
      "years": 3403,
      "Maybe": 3404,
      "941": 3405,
      "derived": 3406,
      "bird": 3407,
      "0983": 3408,
      "cherished": 3409,
      "ruffle": 3410,
      "energetic": 3411,
      "measurable": 3412,
      "Pip": 3413,
      "damp": 3414,
      "ether": 3415,
      "flit": 3416,
      "fail": 3417,
      "hydrogen": 3418,
      "uck": 3419,
      "zing": 3420,
      "inci": 3421,
      "enough": 3422,
      "orious": 3423,
      "usion": 3424,
      "acquis": 3425,
      "cont": 3426,
      "ifts": 3427,
      "ading": 3428,
      "front": 3429,
      "soon": 3430,
      "solit": 3431,
      "genu": 3432,
      "explaining": 3433,
      "visual": 3434,
      "gles": 3435,
      "glorious": 3436,
      "behav": 3437,
      "layer": 3438,
      "problem": 3439,
      "strateg": 3440,
      "challeng": 3441,
      "oken": 3442,
      "roughly": 3443,
      "buzzing": 3444,
      "techn": 3445,
      "acquisition": 3446,
      "Des": 3447,
      "dy": 3448,
      "dil": 3449,
      "scur": 3450,
      "wr": 3451,
      "itory": 3452,
      "stick": 3453,
      "perpet": 3454,
      "model": 3455,
      "ches": 3456,
      "ounds": 3457,
      "weary": 3458,
      "account": 3459,
      "compass": 3460,
      "discourse": 3461,
      "athed": 3462,
      "cert": 3463,
      "illuminating": 3464,
      "hunting": 3465,
      "practically": 3466,
      "interconnectedness": 3467,
      "photo": 3468,
      "departure": 3469,
      "Describe": 3470,
      "All": 3471,
      "NT": 3472,
      "Sh": 3473,
      "ball": 3474,
      "eat": 3475,
      "gives": 3476,
      "ned": 3477,
      "rig": 3478,
      "run": 3479,
      "tastic": 3480,
      "ises": 3481,
      "attribut": 3482,
      "vered": 3483,
      "quick": 3484,
      "beet": 3485,
      "chart": 3486,
      "chance": 3487,
      "uned": 3488,
      "utive": 3489,
      "ular": 3490,
      "tran": 3491,
      "trick": 3492,
      "polit": 3493,
      "elfth": 3494,
      "mystical": 3495,
      "talons": 3496,
      "twelfth": 3497,
      "gets": 3498,
      "spectac": 3499,
      "boast": 3500,
      "remain": 3501,
      "simpl": 3502,
      "sleepy": 3503,
      "please": 3504,
      "functioning": 3505,
      "vibration": 3506,
      "classical": 3507,
      "certainly": 3508,
      "honor": 3509,
      "easily": 3510,
      "famili": 3511,
      "!)": 3512,
      "Fur": 3513,
      "ither": 3514,
      "rip": 3515,
      "inner": 3516,
      "ancy": 3517,
      "arily": 3518,
      "entangle": 3519,
      "heard": 3520,
      "uscule": 3521,
      "princi": 3522,
      "exec": 3523,
      "mol": 3524,
      "etings": 3525,
      "becomes": 3526,
      "territ": 3527,
      "antum": 3528,
      "thermore": 3529,
      "ivid": 3530,
      "nov": 3531,
      "subject": 3532,
      "awak": 3533,
      "solving": 3534,
      "simplic": 3535,
      "minuscule": 3536,
      "calculated": 3537,
      "meticulous": 3538,
      "hunt": 3539,
      "crops": 3540,
      "endeavors": 3541,
      "plants": 3542,
      "prompt": 3543,
      "Prepare": 3544,
      "tasty": 3545,
      "gravit": 3546,
      "Quantum": 3547,
      "Greetings": 3548,
      "velvet": 3549,
      "diminutive": 3550,
      "Furthermore": 3551,
      "simplicity": 3552,
      "eag": 3553,
      "fut": 3554,
      "tang": 3555,
      "inspir": 3556,
      "anth": 3557,
      "cease": 3558,
      "spl": 3559,
      "define": 3560,
      "impress": 3561,
      "agger": 3562,
      "weaving": 3563,
      "ciousness": 3564,
      "ended": 3565,
      "maxim": 3566,
      "elect": 3567,
      "early": 3568,
      "others": 3569,
      "pondering": 3570,
      "reflective": 3571,
      "superposition": 3572,
      "isotopic": 3573,
      "descript": 3574,
      "perched": 3575,
      "contrasting": 3576,
      "Consciousness": 3577,
      "follow": 3578,
      "constellations": 3579,
      "fantastic": 3580,
      "familiar": 3581,
      "entanglement": 3582,
      "eager": 3583,
      "RE": 3584,
      "line": 3585,
      "mit": 3586,
      "mice": 3587,
      "puff": 3588,
      "ties": 3589,
      "vig": 3590,
      "ouuu": 3591,
      "leaf": 3592,
      "entities": 3593,
      "exagger": 3594,
      "degre": 3595,
      "immeasurable": 3596,
      "shap": 3597,
      "conj": 3598,
      "unw": 3599,
      "grap": 3600,
      "brief": 3601,
      "compli": 3602,
      "accented": 3603,
      "rob": 3604,
      "role": 3605,
      "starlit": 3606,
      "plays": 3607,
      "excited": 3608,
      "inquiring": 3609,
      "definitive": 3610,
      "solve": 3611,
      "holding": 3612,
      "simult": 3613,
      "flying": 3614,
      "mentioning": 3615,
      "neuro": 3616,
      "performance": 3617,
      "Regarding": 3618,
      "environment": 3619,
      "woods": 3620,
      "reasoning": 3621,
      "encourage": 3622,
      "retina": 3623,
      "extraordinary": 3624,
      "juicy": 3625,
      "twinkling": 3626,
      "enchanting": 3627,
      "auditory": 3628,
      "swoop": 3629,
      "dity": 3630,
      "har": 3631,
      "linking": 3632,
      "nings": 3633,
      "rial": 3634,
      "ton": 3635,
      "yle": 3636,
      "🙄🦉✨": 3637,
      "ining": 3638,
      "enabl": 3639,
      "hearing": 3640,
      "exchange": 3641,
      "show": 3642,
      "unit": 3643,
      "feed": 3644,
      "comfort": 3645,
      "iously": 3646,
      "liter": 3647,
      "grateful": 3648,
      "ivity": 3649,
      "ensuring": 3650,
      "featherless": 3651,
      "observational": 3652,
      "commonly": 3653,
      "0000": 3654,
      "guiding": 3655,
      "open": 3656,
      "incredible": 3657,
      "revealing": 3658,
      "resonates": 3659,
      "engagement": 3660,
      "navigate": 3661,
      "simulate": 3662,
      "scrolls": 3663,
      "initiated": 3664,
      "hesitate": 3665,
      "Humans": 3666,
      "determin": 3667,
      "anthrop": 3668,
      "FUL": 3669,
      "MA": 3670,
      "gal": 3671,
      "knew": 3672,
      "mult": 3673,
      "oce": 3674,
      "rep": 3675,
      "level": 3676,
      "omor": 3677,
      "height": 3678,
      "forces": 3679,
      "sequ": 3680,
      "quaint": 3681,
      "dem": 3682,
      "demean": 3683,
      "lfur": 3684,
      "sulfur": 3685,
      "speaking": 3686,
      "flap": 3687,
      "discern": 3688,
      "someone": 3689,
      "starry": 3690,
      "ascent": 3691,
      "avering": 3692,
      "sparks": 3693,
      "cognition": 3694,
      "garden": 3695,
      "cult": 3696,
      "drawn": 3697,
      "sentient": 3698,
      "180": 3699,
      "centric": 3700,
      "pursuits": 3701,
      "aligning": 3702,
      "ounter": 3703,
      "amplif": 3704,
      "support": 3705,
      "diurnal": 3706,
      "firefly": 3707,
      "analogies": 3708,
      "reaction": 3709,
      "synthesis": 3710,
      "beetle": 3711,
      "unwavering": 3712,
      "compliment": 3713,
      "anthropomor": 3714,
      "demeanor": 3715,
      "Hey": 3716,
      "Happ": 3717,
      "Niet": 3718,
      "Unt": 3719,
      "udes": 3720,
      "isp": 3721,
      "ingen": 3722,
      "orm": 3723,
      "forget": 3724,
      "absor": 3725,
      "mot": 3726,
      "spider": 3727,
      "concis": 3728,
      "utmost": 3729,
      "cozy": 3730,
      "humming": 3731,
      "ishing": 3732,
      "ainty": 3733,
      "existing": 3734,
      "silver": 3735,
      "awa": 3736,
      "experiencing": 3737,
      "excuse": 3738,
      "sparkle": 3739,
      "glad": 3740,
      "visionary": 3741,
      "immed": 3742,
      "ipation": 3743,
      "vival": 3744,
      "instinct": 3745,
      "rupt": 3746,
      "neurons": 3747,
      "comparative": 3748,
      "uncharted": 3749,
      "problems": 3750,
      "packed": 3751,
      "inspired": 3752,
      "queries": 3753,
      "constituent": 3754,
      "certainty": 3755,
      "Nietz": 3756,
      "Until": 3757,
      "LY": 3758,
      "Un": 3759,
      "eco": 3760,
      "iled": 3761,
      "ique": 3762,
      "kis": 3763,
      "nascent": 3764,
      "past": 3765,
      "astr": 3766,
      "nebul": 3767,
      "absur": 3768,
      "aced": 3769,
      "exper": 3770,
      "applic": 3771,
      "ifest": 3772,
      "ules": 3773,
      "formally": 3774,
      "working": 3775,
      "🦉✨🌌": 3776,
      "understandable": 3777,
      "presented": 3778,
      "clou": 3779,
      "relat": 3780,
      "tales": 3781,
      "complete": 3782,
      "breaking": 3783,
      "parad": 3784,
      "charming": 3785,
      "reside": 3786,
      "tempor": 3787,
      "sleeping": 3788,
      "survival": 3789,
      "ients": 3790,
      "invest": 3791,
      "measurement": 3792,
      "involve": 3793,
      "attention": 3794,
      "resonance": 3795,
      "comparis": 3796,
      "cornerstone": 3797,
      "emergent": 3798,
      "appear": 3799,
      "elegant": 3800,
      "solitary": 3801,
      "vigil": 3802,
      "enabling": 3803,
      "nebula": 3804,
      "07": 3805,
      "OO": 3806,
      "SS": 3807,
      "bed": 3808,
      "bother": 3809,
      "ps": 3810,
      "rules": 3811,
      "zed": 3812,
      "tom": 3813,
      "least": 3814,
      "stating": 3815,
      "style": 3816,
      "libr": 3817,
      "urt": 3818,
      "humility": 3819,
      "avail": 3820,
      "🦉✨🌙": 3821,
      "🦉✨🤫": 3822,
      "whispering": 3823,
      "playing": 3824,
      "computer": 3825,
      "identify": 3826,
      "discovered": 3827,
      "diff": 3828,
      "greatest": 3829,
      "professionally": 3830,
      "brains": 3831,
      "surround": 3832,
      "transl": 3833,
      "suggests": 3834,
      "anger": 3835,
      "sort": 3836,
      "centr": 3837,
      "involved": 3838,
      "lumines": 3839,
      "continuous": 3840,
      "attitude": 3841,
      "breathtaking": 3842,
      "sett": 3843,
      "floor": 3844,
      "seems": 3845,
      "Quite": 3846,
      "worthy": 3847,
      "evolutionary": 3848,
      "ING": 3849,
      "guardian": 3850,
      "satisfaction": 3851,
      "Christian": 3852,
      "scurry": 3853,
      "boastful": 3854,
      "simultaneously": 3855,
      "Nietzsche": 3856,
      "078": 3857,
      "AC": 3858,
      "RI": 3859,
      "St": 3860,
      "TE": 3861,
      "bio": 3862,
      "bathed": 3863,
      "oke": 3864,
      "pup": 3865,
      "zer": 3866,
      "along": 3867,
      "ceed": 3868,
      "accept": 3869,
      "seas": 3870,
      "excl": 3871,
      "imal": 3872,
      "shine": 3873,
      "prop": 3874,
      "terrest": 3875,
      "ils": 3876,
      "ellar": 3877,
      "ides": 3878,
      "istent": 3879,
      "worry": 3880,
      "unear": 3881,
      "compact": 3882,
      "**,": 3883,
      "standpoint": 3884,
      "manifest": 3885,
      "impact": 3886,
      "cali": 3887,
      "dry": 3888,
      "Neural": 3889,
      "metal": 3890,
      "softest": 3891,
      "pretend": 3892,
      "humorously": 3893,
      "dedicated": 3894,
      "physiological": 3895,
      "passion": 3896,
      "begins": 3897,
      "thanks": 3898,
      "comprehend": 3899,
      "listening": 3900,
      "strengths": 3901,
      "reaching": 3902,
      "preference": 3903,
      "fragile": 3904,
      "gravity": 3905,
      "development": 3906,
      "amounts": 3907,
      "nourishment": 3908,
      "devot": 3909,
      "photorecept": 3910,
      "immedi": 3911,
      "absurdity": 3912,
      "available": 3913,
      "terrestrial": 3914,
      "Fascinating": 3915,
      "SP": 3916,
      "bad": 3917,
      "car": 3918,
      "cking": 3919,
      "carbon": 3920,
      "done": 3921,
      "dancing": 3922,
      "four": 3923,
      "farewell": 3924,
      "loo": 3925,
      "mine": 3926,
      "influ": 3927,
      "thor": 3928,
      "ised": 3929,
      "regard": 3930,
      "ator": 3931,
      "ongoing": 3932,
      "enlight": 3933,
      "ash": 3934,
      "orn": 3935,
      "acuity": 3936,
      "apart": 3937,
      "concern": 3938,
      "chat": 3939,
      "meet": 3940,
      "trav": 3941,
      "sounding": 3942,
      "comb": 3943,
      "ishes": 3944,
      "actually": 3945,
      "nights": 3946,
      "ieving": 3947,
      "ached": 3948,
      "desires": 3949,
      "prior": 3950,
      "crib": 3951,
      "times": 3952,
      "twinkle": 3953,
      "confusion": 3954,
      "touches": 3955,
      "stream": 3956,
      "instant": 3957,
      "communicate": 3958,
      "substant": 3959,
      "birth": 3960,
      "addressed": 3961,
      "analogous": 3962,
      "mechanisms": 3963,
      "felt": 3964,
      "affirm": 3965,
      "successful": 3966,
      "relationship": 3967,
      "genuine": 3968,
      "Should": 3969,
      "rigor": 3970,
      "future": 3971,
      "tangible": 3972,
      "conjured": 3973,
      "!!": 3974,
      "AL": 3975,
      "Even": 3976,
      "Fine": 3977,
      "LI": 3978,
      "Ple": 3979,
      "daring": 3980,
      "map": 3981,
      "sen": 3982,
      "sch": 3983,
      "✨🦉💖": 3984,
      "reject": 3985,
      "oub": 3986,
      "thed": 3987,
      "theore": 3988,
      "leave": 3989,
      "aries": 3990,
      "forged": 3991,
      "season": 3992,
      "beat": 3993,
      "shiny": 3994,
      "prove": 3995,
      "lightness": 3996,
      "phot": 3997,
      "aston": 3998,
      "genius": 3999,
      "aching": 4000,
      "cles": 4001,
      "throughout": 4002,
      "crit": 4003,
      "arrive": 4004,
      "quantity": 4005,
      "points": 4006,
      "embod": 4007,
      "zzling": 4008,
      "stret": 4009,
      "root": 4010,
      "reiterating": 4011,
      "appreciate": 4012,
      "framed": 4013,
      "swir": 4014,
      "suddenly": 4015,
      "huh": 4016,
      "probably": 4017,
      "dazzling": 4018,
      "etern": 4019,
      "facil": 4020,
      "difference": 4021,
      "Anything": 4022,
      "transcends": 4023,
      "content": 4024,
      "simplistic": 4025,
      "demand": 4026,
      "Happiness": 4027,
      "absorb": 4028,
      "investig": 4029,
      "difficul": 4030,
      "Please": 4031,
      "16": 4032,
      "Af": 4033,
      "Not": 4034,
      "Sometimes": 4035,
      "bind": 4036,
      "burn": 4037,
      "binary": 4038,
      "fre": 4039,
      "mur": 4040,
      "sed": 4041,
      "tu": 4042,
      "tty": 4043,
      "insect": 4044,
      "rene": 4045,
      "enge": 4046,
      "icial": 4047,
      "elabor": 4048,
      "acing": 4049,
      "serene": 4050,
      "exam": 4051,
      "white": 4052,
      "lied": 4053,
      "etum": 4054,
      "prepare": 4055,
      "spun": 4056,
      "spoken": 4057,
      "shows": 4058,
      "chest": 4059,
      "aged": 4060,
      "humb": 4061,
      "rod": 4062,
      "ensive": 4063,
      "pressure": 4064,
      "delic": 4065,
      "gue": 4066,
      "univers": 4067,
      "forests": 4068,
      "intric": 4069,
      "complet": 4070,
      "blue": 4071,
      "shades": 4072,
      "tapetum": 4073,
      "highest": 4074,
      "lucid": 4075,
      "guides": 4076,
      "posed": 4077,
      "cerning": 4078,
      "detached": 4079,
      "suggesting": 4080,
      "fficient": 4081,
      "himself": 4082,
      "appreciative": 4083,
      "careful": 4084,
      "wilder": 4085,
      "Pretty": 4086,
      "qualities": 4087,
      "challenge": 4088,
      "mechanics": 4089,
      "protons": 4090,
      "bestowed": 4091,
      "failure": 4092,
      "frontier": 4093,
      "perpetual": 4094,
      "principles": 4095,
      "clouds": 4096,
      "substantial": 4097,
      "theoretical": 4098,
      "lucidum": 4099,
      "DE": 4100,
      "Se": 4101,
      "Where": 4102,
      "cence": 4103,
      "lens": 4104,
      "nap": 4105,
      "pine": 4106,
      "sass": 4107,
      "saw": 4108,
      "vie": 4109,
      "wow": 4110,
      "wig": 4111,
      "🌳🌙": 4112,
      "innov": 4113,
      "encompass": 4114,
      "leg": 4115,
      "stim": 4116,
      "stellar": 4117,
      "whir": 4118,
      "prey": 4119,
      "def": 4120,
      "questioning": 4121,
      "empt": 4122,
      "idered": 4123,
      "phan": 4124,
      "useful": 4125,
      "unex": 4126,
      "compon": 4127,
      "rock": 4128,
      "achieve": 4129,
      "consume": 4130,
      "observations": 4131,
      "finds": 4132,
      "lull": 4133,
      "warms": 4134,
      "treasures": 4135,
      "cycles": 4136,
      "layers": 4137,
      "ripe": 4138,
      "patient": 4139,
      "radiant": 4140,
      "movement": 4141,
      "exceptionally": 4142,
      "takes": 4143,
      "refinement": 4144,
      "nebulae": 4145,
      "view": 4146,
      "Ent": 4147,
      "cut": 4148,
      "case": 4149,
      "dain": 4150,
      "hoooo": 4151,
      "iel": 4152,
      "mater": 4153,
      "nutr": 4154,
      "oad": 4155,
      "oak": 4156,
      "pier": 4157,
      "song": 4158,
      "wast": 4159,
      "water": 4160,
      "eness": 4161,
      "alive": 4162,
      "itively": 4163,
      "owlet": 4164,
      "ignat": 4165,
      "ument": 4166,
      "print": 4167,
      "priv": 4168,
      "imbu": 4169,
      "contain": 4170,
      "knows": 4171,
      "creating": 4172,
      "ustr": 4173,
      "worm": 4174,
      "doth": 4175,
      "maintained": 4176,
      "rods": 4177,
      "disdain": 4178,
      "designat": 4179,
      "nothing": 4180,
      "Then": 4181,
      "however": 4182,
      "days": 4183,
      "inquis": 4184,
      "Around": 4185,
      "finally": 4186,
      "chosen": 4187,
      "anticipation": 4188,
      "sorrow": 4189,
      "counting": 4190,
      "dedication": 4191,
      "contemplating": 4192,
      "deliber": 4193,
      "✨🌙💖": 4194,
      "passing": 4195,
      "structured": 4196,
      "ruption": 4197,
      "affectionate": 4198,
      "hypo": 4199,
      "wait": 4200,
      "974": 4201,
      "pulse": 4202,
      "threat": 4203,
      "fulfilling": 4204,
      "entirely": 4205,
      "decisions": 4206,
      "defiant": 4207,
      "ooooooh": 4208,
      "challenges": 4209,
      "determined": 4210,
      "concise": 4211,
      "comparison": 4212,
      "scurrying": 4213,
      "pupils": 4214,
      "elaborate": 4215,
      "wilderness": 4216,
      "Entity": 4217,
      "material": 4218,
      "CT": 4219,
      "ECT": 4220,
      "bar": 4221,
      "bloss": 4222,
      "cab": 4223,
      "cross": 4224,
      "ji": 4225,
      "mount": 4226,
      "ology": 4227,
      "rap": 4228,
      "rhy": 4229,
      "sac": 4230,
      "sown": 4231,
      "research": 4232,
      "atus": 4233,
      "atically": 4234,
      "ooo": 4235,
      "stic": 4236,
      "improve": 4237,
      "becoming": 4238,
      "shr": 4239,
      "child": 4240,
      "chang": 4241,
      "feast": 4242,
      "formed": 4243,
      "ploy": 4244,
      "idering": 4245,
      "grown": 4246,
      "endid": 4247,
      "wisest": 4248,
      "ignor": 4249,
      "dread": 4250,
      "processors": 4251,
      "domain": 4252,
      "intertw": 4253,
      "attering": 4254,
      "considered": 4255,
      "arriving": 4256,
      "awk": 4257,
      "aws": 4258,
      "readily": 4259,
      "profoundly": 4260,
      "getting": 4261,
      "calls": 4262,
      "detect": 4263,
      "instance": 4264,
      "continuing": 4265,
      "heads": 4266,
      "fert": 4267,
      "aspiration": 4268,
      "objectives": 4269,
      "steady": 4270,
      "ballet": 4271,
      "hues": 4272,
      "spotting": 4273,
      "unfurl": 4274,
      "fulfill": 4275,
      "contributing": 4276,
      "ambigu": 4277,
      "execution": 4278,
      "MAG": 4279,
      "After": 4280,
      "blossom": 4281,
      "Pl": 4282,
      "fty": 4283,
      "fancy": 4284,
      "hab": 4285,
      "hmm": 4286,
      "pair": 4287,
      "send": 4288,
      "vag": 4289,
      "won": 4290,
      "yiel": 4291,
      "🌌✨": 4292,
      "🦉💻": 4293,
      "three": 4294,
      "envision": 4295,
      "ali": 4296,
      "edge": 4297,
      "hefty": 4298,
      "neutr": 4299,
      "acle": 4300,
      "exceed": 4301,
      "whel": 4302,
      "ified": 4303,
      "social": 4304,
      "cold": 4305,
      "hums": 4306,
      "grad": 4307,
      "broad": 4308,
      "tiniest": 4309,
      "ources": 4310,
      "elev": 4311,
      "fles": 4312,
      "friends": 4313,
      "describ": 4314,
      "earning": 4315,
      "themed": 4316,
      "funny": 4317,
      "flutters": 4318,
      "fluttering": 4319,
      "confirm": 4320,
      "🦉💖✨": 4321,
      "teaching": 4322,
      "guided": 4323,
      "overwhel": 4324,
      "encounter": 4325,
      "colour": 4326,
      "pretty": 4327,
      "characteristics": 4328,
      "larger": 4329,
      "typical": 4330,
      "optimization": 4331,
      "sprout": 4332,
      "continued": 4333,
      "cycle": 4334,
      "predictions": 4335,
      "possibility": 4336,
      "fireflies": 4337,
      "captiv": 4338,
      "Once": 4339,
      "particles": 4340,
      "encouraging": 4341,
      "constellation": 4342,
      "exhilar": 4343,
      "venture": 4344,
      "mirror": 4345,
      "clarify": 4346,
      "glimmer": 4347,
      "technical": 4348,
      "dilig": 4349,
      "literal": 4350,
      "luminescence": 4351,
      "propag": 4352,
      "enlighten": 4353,
      "completely": 4354,
      "hypothe": 4355,
      "rhyth": 4356,
      "')": 4357,
      "ANT": 4358,
      "Hmm": 4359,
      "Kn": 4360,
      "Some": 4361,
      "_used": 4362,
      "ax": 4363,
      "ban": 4364,
      "due": 4365,
      "either": 4366,
      "piv": 4367,
      "ray": 4368,
      "sus": 4369,
      "since": 4370,
      "repet": 4371,
      "revol": 4372,
      "anno": 4373,
      "itor": 4374,
      "itation": 4375,
      "tool": 4376,
      "left": 4377,
      "stated": 4378,
      "ache": 4379,
      "moder": 4380,
      "lived": 4381,
      "implic": 4382,
      "conce": 4383,
      "concentr": 4384,
      "feign": 4385,
      "weep": 4386,
      "employ": 4387,
      "posing": 4388,
      "intrep": 4389,
      "dissect": 4390,
      "delving": 4391,
      "expression": 4392,
      "crisp": 4393,
      "missing": 4394,
      "versus": 4395,
      "type": 4396,
      "context_used": 4397,
      "dramatically": 4398,
      "cular": 4399,
      "pected": 4400,
      "bold": 4401,
      "includes": 4402,
      "watchful": 4403,
      "morning": 4404,
      "introduced": 4405,
      "ankly": 4406,
      "description": 4407,
      "oldest": 4408,
      "gathering": 4409,
      "structures": 4410,
      "Hooooot": 4411,
      "product": 4412,
      "fragment": 4413,
      "patience": 4414,
      "Consider": 4415,
      "beginning": 4416,
      "lots": 4417,
      "ULAR": 4418,
      "market": 4419,
      "study": 4420,
      "OUS": 4421,
      "necessary": 4422,
      "claiming": 4423,
      "gravitational": 4424,
      "inspiring": 4425,
      "electr": 4426,
      "temporal": 4427,
      "🦉✨🤫🌌": 4428,
      "ACULAR": 4429,
      "SPECT": 4430,
      "humbly": 4431,
      "unexpected": 4432,
      "designated": 4433,
      "inquisitive": 4434,
      "Knowing": 4435,
      "pivot": 4436,
      "annoy": 4437,
      "modern": 4438,
      "intrepid": 4439,
      "SPECTACULAR": 4440,
      ":**": 4441,
      "Good": 4442,
      "LE": 4443,
      "SU": 4444,
      "Wo": 4445,
      "bare": 4446,
      "gment": 4447,
      "labor": 4448,
      "mus": 4449,
      "none": 4450,
      "ored": 4451,
      "psy": 4452,
      "pale": 4453,
      "rum": 4454,
      "spre": 4455,
      "tie": 4456,
      "🌿🌙": 4457,
      "🦉😂": 4458,
      "rece": 4459,
      "reli": 4460,
      "asper": 4461,
      "aly": 4462,
      "acies": 4463,
      "separ": 4464,
      "spin": 4465,
      "spend": 4466,
      "shy": 4467,
      "chie": 4468,
      "termin": 4469,
      "individ": 4470,
      "Oooooooooh": 4471,
      "correl": 4472,
      "intended": 4473,
      "knowledgeable": 4474,
      "action": 4475,
      "smart": 4476,
      "disagree": 4477,
      "engaged": 4478,
      "tremor": 4479,
      "cracy": 4480,
      "consistent": 4481,
      "considering": 4482,
      "flows": 4483,
      "blink": 4484,
      "observant": 4485,
      "gold": 4486,
      "signal": 4487,
      "sparkling": 4488,
      "possibly": 4489,
      "characterized": 4490,
      "periods": 4491,
      "expand": 4492,
      "collect": 4493,
      "referred": 4494,
      "required": 4495,
      "cloak": 4496,
      "spring": 4497,
      "apping": 4498,
      "pull": 4499,
      "ounce": 4500,
      "Doesn": 4501,
      "practical": 4502,
      "float": 4503,
      "suppose": 4504,
      "various": 4505,
      "Being": 4506,
      "Because": 4507,
      "phosphorus": 4508,
      "Without": 4509,
      "okay": 4510,
      "amongst": 4511,
      "engineering": 4512,
      "territories": 4513,
      "splendid": 4514,
      "anthropomorph": 4515,
      "seasons": 4516,
      "looking": 4517,
      "innovation": 4518,
      "nutrients": 4519,
      "rhythm": 4520,
      "Woah": 4521,
      "individual": 4522,
      "Con": 4523,
      "DER": 4524,
      "Learning": 4525,
      "Read": 4526,
      "WON": 4527,
      "cup": 4528,
      "ficial": 4529,
      "hal": 4530,
      "hours": 4531,
      "kin": 4532,
      "nacle": 4533,
      "ost": 4534,
      "pig": 4535,
      "rors": 4536,
      "rise": 4537,
      "sit": 4538,
      "sway": 4539,
      "tuned": 4540,
      "vous": 4541,
      "🌲🌙": 4542,
      "alth": 4543,
      "ices": 4544,
      "step": 4545,
      "hemer": 4546,
      "exasper": 4547,
      "liar": 4548,
      "liking": 4549,
      "shifts": 4550,
      "shattering": 4551,
      "ared": 4552,
      "feet": 4553,
      "sock": 4554,
      "emoji": 4555,
      "comfor": 4556,
      "embr": 4557,
      "astute": 4558,
      "ephemer": 4559,
      "pecu": 4560,
      "implied": 4561,
      "weights": 4562,
      "pressing": 4563,
      "internet": 4564,
      "cheer": 4565,
      "goodbye": 4566,
      "itional": 4567,
      "readiness": 4568,
      "conceptual": 4569,
      "parts": 4570,
      "strugg": 4571,
      "sensors": 4572,
      "empir": 4573,
      "enced": 4574,
      "scen": 4575,
      "potassium": 4576,
      "assisting": 4577,
      "sentience": 4578,
      "sweetest": 4579,
      "rooted": 4580,
      "dusty": 4581,
      "apply": 4582,
      "effort": 4583,
      "fields": 4584,
      "properties": 4585,
      "floating": 4586,
      "Remember": 4587,
      "taste": 4588,
      "exquisitely": 4589,
      "compared": 4590,
      "regular": 4591,
      "retinas": 4592,
      "crypt": 4593,
      "burden": 4594,
      "million": 4595,
      "decipher": 4596,
      "deciphering": 4597,
      "landscape": 4598,
      "models": 4599,
      "paradig": 4600,
      "burning": 4601,
      "fresh": 4602,
      "phantom": 4603,
      "changes": 4604,
      "neutrons": 4605,
      "psycho": 4606,
      "Ready": 4607,
      "WONDER": 4608,
      "ephemeral": 4609,
      "peculiar": 4610,
      "37": 4611,
      "At": 4612,
      "CI": 4613,
      "Listen": 4614,
      "Would": 4615,
      "Yes": 4616,
      "boun": 4617,
      "dial": 4618,
      "danger": 4619,
      "fascin": 4620,
      "gig": 4621,
      "gly": 4622,
      "gain": 4623,
      "iors": 4624,
      "lon": 4625,
      "mers": 4626,
      "os": 4627,
      "pon": 4628,
      "rot": 4629,
      "ries": 4630,
      "sized": 4631,
      "ub": 4632,
      "thered": 4633,
      "itch": 4634,
      "ica": 4635,
      "eless": 4636,
      "lie": 4637,
      "shed": 4638,
      "shift": 4639,
      "ifiable": 4640,
      "term": 4641,
      "lightest": 4642,
      "articul": 4643,
      "flourish": 4644,
      "rosco": 4645,
      "exists": 4646,
      "ignites": 4647,
      "hovers": 4648,
      "novel": 4649,
      "delves": 4650,
      "finely": 4651,
      "acknowledges": 4652,
      "kindness": 4653,
      "seriously": 4654,
      "result": 4655,
      "greater": 4656,
      "delightfully": 4657,
      "warmly": 4658,
      "illuminates": 4659,
      "sentin": 4660,
      "sprite": 4661,
      "fuels": 4662,
      "accuracy": 4663,
      "ivalent": 4664,
      "corners": 4665,
      "following": 4666,
      "unfurling": 4667,
      "equivalent": 4668,
      "pinnacle": 4669,
      "flitting": 4670,
      "polite": 4671,
      "degree": 4672,
      "cultiv": 4673,
      "astral": 4674,
      "accepted": 4675,
      "immediate": 4676,
      "rigorous": 4677,
      "critical": 4678,
      "cabb": 4679,
      ",”": 4680,
      "YOU": 4681,
      "dimm": 4682,
      "fa": 4683,
      "gaz": 4684,
      "ibit": 4685,
      "lines": 4686,
      "later": 4687,
      "nod": 4688,
      "scan": 4689,
      "💖🌙": 4690,
      "🦉🔥": 4691,
      "ination": 4692,
      "alk": 4693,
      "tope": 4694,
      "ently": 4695,
      "nect": 4696,
      "perfection": 4697,
      "acre": 4698,
      "extr": 4699,
      "bear": 4700,
      "urb": 4701,
      "Hisss": 4702,
      "shown": 4703,
      "project": 4704,
      "adjust": 4705,
      "ults": 4706,
      "terr": 4707,
      "frankly": 4708,
      "elling": 4709,
      "questioner": 4710,
      "lighter": 4711,
      "cording": 4712,
      "aven": 4713,
      "ilege": 4714,
      "odies": 4715,
      "strange": 4716,
      "answering": 4717,
      "trem": 4718,
      "expresses": 4719,
      "daylight": 4720,
      "anyone": 4721,
      "intrigue": 4722,
      "themes": 4723,
      "glowing": 4724,
      "requests": 4725,
      "isotope": 4726,
      "darkest": 4727,
      "chemist": 4728,
      "colors": 4729,
      "speaks": 4730,
      "illuminated": 4731,
      "catal": 4732,
      "recognizing": 4733,
      "hunter": 4734,
      "looked": 4735,
      "adaptation": 4736,
      "souls": 4737,
      "heavier": 4738,
      "primarily": 4739,
      "groundbreaking": 4740,
      "promise": 4741,
      "considerable": 4742,
      "environmental": 4743,
      "imaginative": 4744,
      "embodying": 4745,
      "uncovering": 4746,
      "messy": 4747,
      "messages": 4748,
      "effectively": 4749,
      "mistake": 4750,
      "snack": 4751,
      "algorithmic": 4752,
      "behavior": 4753,
      "behaviors": 4754,
      "followed": 4755,
      "encouragement": 4756,
      "ecological": 4757,
      "kissed": 4758,
      "photoreceptor": 4759,
      "travel": 4760,
      "privilege": 4761,
      "annoyance": 4762,
      "comforting": 4763,
      "struggle": 4764,
      "empirical": 4765,
      "scenar": 4766,
      "cryptic": 4767,
      "WONDERFUL": 4768,
      "roscopic": 4769,
      "AB": 4770,
      "En": 4771,
      "Fe": 4772,
      "More": 4773,
      "PER": 4774,
      "bond": 4775,
      "bunch": 4776,
      "eon": 4777,
      "eight": 4778,
      "fal": 4779,
      "hund": 4780,
      "ker": 4781,
      "ler": 4782,
      "laz": 4783,
      "laws": 4784,
      "nurt": 4785,
      "sli": 4786,
      "wave": 4787,
      "winter": 4788,
      "waking": 4789,
      "🦉🌟": 4790,
      "🧠💡": 4791,
      "infer": 4792,
      "reass": 4793,
      "rend": 4794,
      "repe": 4795,
      "ingu": 4796,
      "owess": 4797,
      "neigh": 4798,
      "prowess": 4799,
      "amaze": 4800,
      "dec": 4801,
      "decl": 4802,
      "began": 4803,
      "shining": 4804,
      "convent": 4805,
      "areas": 4806,
      "unveil": 4807,
      "ifting": 4808,
      "iring": 4809,
      "weaver": 4810,
      "ots": 4811,
      "presume": 4812,
      "enduring": 4813,
      "canop": 4814,
      "compet": 4815,
      "elementary": 4816,
      "oughly": 4817,
      "illustr": 4818,
      "disse": 4819,
      "achieving": 4820,
      "processed": 4821,
      "expressions": 4822,
      "check": 4823,
      "advant": 4824,
      "mightiest": 4825,
      "timing": 4826,
      "bug": 4827,
      "numbers": 4828,
      "delighted": 4829,
      "below": 4830,
      "sensation": 4831,
      "took": 4832,
      "quantifiable": 4833,
      "tered": 4834,
      "operate": 4835,
      "expans": 4836,
      "suggestions": 4837,
      "riddles": 4838,
      "illumination": 4839,
      "recognized": 4840,
      "organized": 4841,
      "primary": 4842,
      "bigger": 4843,
      "honed": 4844,
      "easy": 4845,
      "delivering": 4846,
      "variet": 4847,
      "message": 4848,
      "closest": 4849,
      "exhibit": 4850,
      "eternal": 4851,
      "strategies": 4852,
      "descriptions": 4853,
      "exaggerated": 4854,
      "heightened": 4855,
      "Christianity": 4856,
      "RIL": 4857,
      "devotion": 4858,
      "badger": 4859,
      "delicious": 4860,
      "intricacies": 4861,
      "rapid": 4862,
      "music": 4863,
      "spread": 4864,
      "dialo": 4865,
      "hundred": 4866,
      "lazy": 4867,
      "canopy": 4868,
      ".”": 4869,
      "62": 4870,
      "Dre": 4871,
      "Eur": 4872,
      "Tre": 4873,
      "bund": 4874,
      "caught": 4875,
      "dut": 4876,
      "fet": 4877,
      "fil": 4878,
      "lab": 4879,
      "mic": 4880,
      "pen": 4881,
      "pes": 4882,
      "pix": 4883,
      "rate": 4884,
      "vas": 4885,
      "wink": 4886,
      "xed": 4887,
      "🌳✨": 4888,
      "🙄🦉": 4889,
      "🧠✨": 4890,
      "lead": 4891,
      "forge": 4892,
      "acquaint": 4893,
      "ames": 4894,
      "sem": 4895,
      "whit": 4896,
      "concl": 4897,
      "chill": 4898,
      "iface": 4899,
      "ulation": 4900,
      "ants": 4901,
      "forming": 4902,
      "ishment": 4903,
      "grows": 4904,
      "lore": 4905,
      "flame": 4906,
      "obs": 4907,
      "obsc": 4908,
      "striving": 4909,
      "whose": 4910,
      "silk": 4911,
      "worlds": 4912,
      "consult": 4913,
      "olar": 4914,
      "grandest": 4915,
      "drum": 4916,
      "aken": 4917,
      "bless": 4918,
      "directives": 4919,
      "glint": 4920,
      "keeps": 4921,
      "distance": 4922,
      "vibe": 4923,
      "occas": 4924,
      "surface": 4925,
      "philosophy": 4926,
      "currently": 4927,
      "purely": 4928,
      "room": 4929,
      "brighter": 4930,
      "beneficial": 4931,
      "mortals": 4932,
      "organisms": 4933,
      "infinites": 4934,
      "practice": 4935,
      "highlights": 4936,
      "9737": 4937,
      "intrinsic": 4938,
      "balance": 4939,
      "feline": 4940,
      "decision": 4941,
      "integrated": 4942,
      "strategic": 4943,
      "ripple": 4944,
      "multiface": 4945,
      "amplify": 4946,
      "applicable": 4947,
      "relatable": 4948,
      "scholar": 4949,
      "swirling": 4950,
      "facilit": 4951,
      "component": 4952,
      "ignorance": 4953,
      "implicitly": 4954,
      "nectar": 4955,
      "Europe": 4956,
      "973762": 4957,
      "multifaceted": 4958,
      "').": 4959,
      ")?": 4960,
      ",—": 4961,
      "Co": 4962,
      "GH": 4963,
      "Mass": 4964,
      "bodies": 4965,
      "fath": 4966,
      "frequ": 4967,
      "gli": 4968,
      "gust": 4969,
      "giant": 4970,
      "iver": 4971,
      "list": 4972,
      "mal": 4973,
      "pal": 4974,
      "pathe": 4975,
      "till": 4976,
      "uc": 4977,
      "🦉⚛": 4978,
      "🦉❓": 4979,
      "🧐🦉": 4980,
      "inability": 4981,
      "reme": 4982,
      "ress": 4983,
      "reframe": 4984,
      "onto": 4985,
      "alt": 4986,
      "alone": 4987,
      "escape": 4988,
      "leaving": 4989,
      "leading": 4990,
      "icing": 4991,
      "ster": 4992,
      "stor": 4993,
      "assert": 4994,
      "pron": 4995,
      "beats": 4996,
      "probe": 4997,
      "proport": 4998,
      "conquer": 4999,
      "cha": 5000,
      "unless": 5001,
      "unlock": 5002,
      "unobserved": 5003,
      "admit": 5004,
      "Ouuuuuuuu": 5005,
      "wear": 5006,
      "ilation": 5007,
      "plication": 5008,
      "plenty": 5009,
      "places": 5010,
      "coll": 5011,
      "lights": 5012,
      "note": 5013,
      "intim": 5014,
      "incorporates": 5015,
      "informational": 5016,
      "extreme": 5017,
      "discerning": 5018,
      "scientists": 5019,
      "Through": 5020,
      "played": 5021,
      "drifts": 5022,
      "SOL": 5023,
      "formatted": 5024,
      "curiosities": 5025,
      "resources": 5026,
      "disturb": 5027,
      "calmly": 5028,
      "requiring": 5029,
      "treasured": 5030,
      "yearn": 5031,
      "parallel": 5032,
      "interpreted": 5033,
      "adapted": 5034,
      "goals": 5035,
      "glean": 5036,
      "carefully": 5037,
      "seemingly": 5038,
      "scales": 5039,
      "imagination": 5040,
      "quality": 5041,
      "simulation": 5042,
      "particle": 5043,
      "paints": 5044,
      "developed": 5045,
      "defiance": 5046,
      "harness": 5047,
      "oceans": 5048,
      "ingenious": 5049,
      "awaits": 5050,
      "libraries": 5051,
      "zero": 5052,
      "exclam": 5053,
      "impactful": 5054,
      "influence": 5055,
      "affirmation": 5056,
      "insects": 5057,
      "DEAR": 5058,
      "materials": 5059,
      "sacred": 5060,
      "fertili": 5061,
      "exceedingly": 5062,
      "flesh": 5063,
      "exhilarating": 5064,
      "SUPER": 5065,
      "terminology": 5066,
      "sentinel": 5067,
      "Trees": 5068,
      "fetch": 5069,
      "fathom": 5070,
      "pathetic": 5071,
      "!\"": 5072,
      "Ac": 5073,
      "Ad": 5074,
      "Bar": 5075,
      "EX": 5076,
      "Get": 5077,
      "Upon": 5078,
      "afe": 5079,
      "div": 5080,
      "doub": 5081,
      "hue": 5082,
      "pse": 5083,
      "scr": 5084,
      "writ": 5085,
      "zip": 5086,
      "🌙🦉": 5087,
      "💖🌟": 5088,
      "thin": 5089,
      "thod": 5090,
      "rer": 5091,
      "atives": 5092,
      "oup": 5093,
      "albe": 5094,
      "assim": 5095,
      "assess": 5096,
      "usage": 5097,
      "neg": 5098,
      "forts": 5099,
      "umption": 5100,
      "above": 5101,
      "pride": 5102,
      "veiled": 5103,
      "appoint": 5104,
      "devi": 5105,
      "chuck": 5106,
      "unimagin": 5107,
      "untold": 5108,
      "creations": 5109,
      "atever": 5110,
      "admir": 5111,
      "irrel": 5112,
      "ulting": 5113,
      "tering": 5114,
      "trad": 5115,
      "wered": 5116,
      "plane": 5117,
      "ember": 5118,
      "answered": 5119,
      "specul": 5120,
      "canvas": 5121,
      "peb": 5122,
      "diseas": 5123,
      "disrupt": 5124,
      "respons": 5125,
      "evoke": 5126,
      "despair": 5127,
      "subconscious": 5128,
      "logically": 5129,
      "therefore": 5130,
      "experienced": 5131,
      "represented": 5132,
      "affect": 5133,
      "resides": 5134,
      "icture": 5135,
      "bothered": 5136,
      "interacting": 5137,
      "?').": 5138,
      "beautifully": 5139,
      "adding": 5140,
      "discoveries": 5141,
      "publ": 5142,
      "attuned": 5143,
      "efforts": 5144,
      "remarkably": 5145,
      "adhered": 5146,
      "adheres": 5147,
      "primitive": 5148,
      "inherently": 5149,
      "produce": 5150,
      "variable": 5151,
      "phrase": 5152,
      "strategy": 5153,
      "painting": 5154,
      "ruffled": 5155,
      "techno": 5156,
      "studies": 5157,
      "cident": 5158,
      "discussed": 5159,
      "juiciest": 5160,
      "scope": 5161,
      "respective": 5162,
      "charting": 5163,
      "ocean": 5164,
      "calibr": 5165,
      "imbue": 5166,
      "habit": 5167,
      "exasperation": 5168,
      "cabbage": 5169,
      "drumroll": 5170,
      "albeit": 5171,
      "assessment": 5172,
      ".\"": 5173,
      "Fly": 5174,
      "GE": 5175,
      "Ger": 5176,
      "LO": 5177,
      "bip": 5178,
      "fool": 5179,
      "gi": 5180,
      "glit": 5181,
      "haven": 5182,
      "ians": 5183,
      "ky": 5184,
      "lest": 5185,
      "mil": 5186,
      "rian": 5187,
      "😊🌟": 5188,
      "instr": 5189,
      "inches": 5190,
      "ising": 5191,
      "recor": 5192,
      "reward": 5193,
      "ato": 5194,
      "atile": 5195,
      "enn": 5196,
      "order": 5197,
      "ales": 5198,
      "arter": 5199,
      "eds": 5200,
      "elu": 5201,
      "lying": 5202,
      "umsy": 5203,
      "acorn": 5204,
      "lier": 5205,
      "estrian": 5206,
      "prepar": 5207,
      "prefer": 5208,
      "kept": 5209,
      "spell": 5210,
      "impossible": 5211,
      "befitting": 5212,
      "Hiss": 5213,
      "showing": 5214,
      "outside": 5215,
      "unfathom": 5216,
      "trium": 5217,
      "trained": 5218,
      "soci": 5219,
      "ishy": 5220,
      "preser": 5221,
      "indul": 5222,
      "indirect": 5223,
      "acts": 5224,
      "underpin": 5225,
      "manure": 5226,
      "disruption": 5227,
      "desert": 5228,
      "strive": 5229,
      "clumsy": 5230,
      "Hoot": 5231,
      "guess": 5232,
      "whop": 5233,
      "relig": 5234,
      "generation": 5235,
      "insult": 5236,
      "drift": 5237,
      "green": 5238,
      "fined": 5239,
      "New": 5240,
      "bloo": 5241,
      "breathe": 5242,
      "glade": 5243,
      "sensical": 5244,
      "spectrum": 5245,
      "kinds": 5246,
      "seriousness": 5247,
      "definitively": 5248,
      "higher": 5249,
      "ips": 5250,
      "momentous": 5251,
      "turning": 5252,
      "ails": 5253,
      "solved": 5254,
      "zzzz": 5255,
      "flights": 5256,
      "foundation": 5257,
      "dull": 5258,
      "omeness": 5259,
      "calculation": 5260,
      "dusted": 5261,
      "surely": 5262,
      "limitation": 5263,
      "depends": 5264,
      "hands": 5265,
      "Analy": 5266,
      "primal": 5267,
      "addressing": 5268,
      "starts": 5269,
      "predictive": 5270,
      "predictable": 5271,
      "environments": 5272,
      "navigating": 5273,
      "discussing": 5274,
      "cherish": 5275,
      "squishy": 5276,
      "abyss": 5277,
      "nonsensical": 5278,
      "nug": 5279,
      "scheme": 5280,
      "umbled": 5281,
      "pedestrian": 5282,
      "differences": 5283,
      "homework": 5284,
      "ucked": 5285,
      "attributed": 5286,
      "maximum": 5287,
      "feedback": 5288,
      "ingenuity": 5289,
      "experiment": 5290,
      "vigilant": 5291,
      "regardless": 5292,
      "universal": 5293,
      "wiggly": 5294,
      "waste": 5295,
      "overwhelming": 5296,
      "golden": 5297,
      "half": 5298,
      "pigeon": 5299,
      "nodes": 5300,
      "catalog": 5301,
      "traveler": 5302,
      "dialogue": 5303,
      "acquaintance": 5304,
      "proportion": 5305,
      "pebble": 5306,
      "diseases": 5307,
      "responsible": 5308,
      "unfathomable": 5309,
      "triumph": 5310,
      "!**": 5311,
      "*-": 5312,
      "AT": 5313,
      "AST": 5314,
      "Com": 5315,
      "Mic": 5316,
      "NO": 5317,
      "Next": 5318,
      "Scient": 5319,
      "bending": 5320,
      "dand": 5321,
      "dive": 5322,
      "ease": 5323,
      "fill": 5324,
      "gathered": 5325,
      "ggles": 5326,
      "iation": 5327,
      "iomet": 5328,
      "kay": 5329,
      "loud": 5330,
      "mild": 5331,
      "nel": 5332,
      "ological": 5333,
      "rows": 5334,
      "six": 5335,
      "🦉💫": 5336,
      "inction": 5337,
      "anim": 5338,
      "thene": 5339,
      "ases": 5340,
      "ste": 5341,
      "omin": 5342,
      "elion": 5343,
      "umer": 5344,
      "umble": 5345,
      "pra": 5346,
      "proud": 5347,
      "veget": 5348,
      "sever": 5349,
      "sets": 5350,
      "mocking": 5351,
      "whatever": 5352,
      "lid": 5353,
      "preced": 5354,
      "dece": 5355,
      "demo": 5356,
      "bered": 5357,
      "beak": 5358,
      "aining": 5359,
      "choo": 5360,
      "agon": 5361,
      "ador": 5362,
      "adore": 5363,
      "ulate": 5364,
      "method": 5365,
      "formation": 5366,
      "sufficient": 5367,
      "rathene": 5368,
      "peek": 5369,
      "disappoint": 5370,
      "strain": 5371,
      "refined": 5372,
      "works": 5373,
      "intro": 5374,
      "pieces": 5375,
      "mischie": 5376,
      "final": 5377,
      "identif": 5378,
      "excel": 5379,
      "bles": 5380,
      "connects": 5381,
      "newly": 5382,
      "statement": 5383,
      "sensing": 5384,
      "confused": 5385,
      "representing": 5386,
      "drama": 5387,
      "defining": 5388,
      "definite": 5389,
      "warnings": 5390,
      "resource": 5391,
      "rustles": 5392,
      "poses": 5393,
      "distinction": 5394,
      "firm": 5395,
      "telling": 5396,
      "collection": 5397,
      "survey": 5398,
      "closing": 5399,
      "fixed": 5400,
      "spirits": 5401,
      "sunlight": 5402,
      "sunshine": 5403,
      "mini": 5404,
      "mination": 5405,
      "boring": 5406,
      "channel": 5407,
      "neyi": 5408,
      "fruits": 5409,
      "journeys": 5410,
      "infinitely": 5411,
      "slumbering": 5412,
      "oomph": 5413,
      "accessible": 5414,
      "protect": 5415,
      "awesomeness": 5416,
      "outputs": 5417,
      "squirrel": 5418,
      "indicates": 5419,
      "frameworks": 5420,
      "clarification": 5421,
      "independently": 5422,
      "glimpse": 5423,
      "discussion": 5424,
      "trivialities": 5425,
      "engineered": 5426,
      "stirs": 5427,
      "ICAL": 5428,
      "degrees": 5429,
      "shaped": 5430,
      "supportive": 5431,
      "spiderweb": 5432,
      "expert": 5433,
      "translation": 5434,
      "unearthed": 5435,
      "photons": 5436,
      "eternity": 5437,
      "prepared": 5438,
      "lullaby": 5439,
      "deliberate": 5440,
      "shrou": 5441,
      "MAGICAL": 5442,
      "Feel": 5443,
      "decay": 5444,
      "advantage": 5445,
      "duty": 5446,
      "whitneyi": 5447,
      "glide": 5448,
      "tillage": 5449,
      "pronounce": 5450,
      "doubt": 5451,
      "assimilation": 5452,
      "traditional": 5453,
      "Micrathene": 5454,
      "dandelion": 5455,
      "mischievous": 5456,
      "'...": 5457,
      "'),": 5458,
      "Afr": 5459,
      "BRIL": 5460,
      "Cre": 5461,
      "De": 5462,
      "Farewell": 5463,
      "Ind": 5464,
      "Ser": 5465,
      "Speak": 5466,
      "Sounds": 5467,
      "TH": 5468,
      "UTE": 5469,
      "athing": 5470,
      "bell": 5471,
      "coo": 5472,
      "cure": 5473,
      "dwell": 5474,
      "eth": 5475,
      "epo": 5476,
      "hide": 5477,
      "iers": 5478,
      "lone": 5479,
      "lawn": 5480,
      "main": 5481,
      "rain": 5482,
      "som": 5483,
      "sum": 5484,
      "safe": 5485,
      "tear": 5486,
      "taken": 5487,
      "🌌🦉": 5488,
      "🦉🌌": 5489,
      "🦉🌳": 5490,
      "incomplete": 5491,
      "thick": 5492,
      "atmo": 5493,
      "endear": 5494,
      "itates": 5495,
      "lever": 5496,
      "arises": 5497,
      "oot": 5498,
      "status": 5499,
      "price": 5500,
      "according": 5501,
      "accident": 5502,
      "wid": 5503,
      "spo": 5504,
      "sphere": 5505,
      "spires": 5506,
      "apt": 5507,
      "appar": 5508,
      "imper": 5509,
      "conver": 5510,
      "converse": 5511,
      "chap": 5512,
      "utili": 5513,
      "ades": 5514,
      "trink": 5515,
      "quests": 5516,
      "solid": 5517,
      "placed": 5518,
      "creates": 5519,
      "creativity": 5520,
      "coales": 5521,
      "lightweight": 5522,
      "notions": 5523,
      "pol": 5524,
      "actions": 5525,
      "willing": 5526,
      "smarter": 5527,
      "underground": 5528,
      "rests": 5529,
      "ieved": 5530,
      "ignific": 5531,
      "rarest": 5532,
      "stri": 5533,
      "clue": 5534,
      "ichiomet": 5535,
      "domin": 5536,
      "uniqu": 5537,
      "insignific": 5538,
      "awake": 5539,
      "jectory": 5540,
      "twin": 5541,
      "flowing": 5542,
      "fundamentally": 5543,
      "Always": 5544,
      "visions": 5545,
      "emphasizes": 5546,
      "directed": 5547,
      "fluttery": 5548,
      "belief": 5549,
      "eyesight": 5550,
      "kindly": 5551,
      "kindred": 5552,
      "results": 5553,
      "author": 5554,
      "distress": 5555,
      "touching": 5556,
      "HISSS": 5557,
      "types": 5558,
      "Aluminium": 5559,
      "hunger": 5560,
      "actively": 5561,
      "delivery": 5562,
      "shadowed": 5563,
      "weighing": 5564,
      "adaptive": 5565,
      "stoichiomet": 5566,
      "practicing": 5567,
      "trajectory": 5568,
      "evolve": 5569,
      "evolved": 5570,
      "supp": 5571,
      "welcome": 5572,
      "adopting": 5573,
      "puzzles": 5574,
      "river": 5575,
      "narratives": 5576,
      "reactions": 5577,
      "spacetime": 5578,
      "particip": 5579,
      "movements": 5580,
      "indicating": 5581,
      "casually": 5582,
      "necessitates": 5583,
      "rence": 5584,
      "attempting": 5585,
      "challenging": 5586,
      "tranqu": 5587,
      "politely": 5588,
      "territory": 5589,
      "gravitas": 5590,
      "descriptive": 5591,
      "graph": 5592,
      "graphy": 5593,
      "00000000": 5594,
      "galax": 5595,
      "levels": 5596,
      "applications": 5597,
      "appears": 5598,
      "surrounding": 5599,
      "caliber": 5600,
      "embodiment": 5601,
      "stretched": 5602,
      "eternally": 5603,
      "legend": 5604,
      "described": 5605,
      "captivating": 5606,
      "hypothetical": 5607,
      "barely": 5608,
      "reliable": 5609,
      "collecting": 5610,
      "ABSOL": 5611,
      "amazement": 5612,
      "illustrious": 5613,
      "biped": 5614,
      "whopping": 5615,
      "Feeling": 5616,
      "pronouncements": 5617,
      "BRILLI": 5618,
      "Seriously": 5619,
      "epoch": 5620,
      "stoichiometric": 5621,
      "galaxies": 5622,
      "ABSOLUTE": 5623,
      "Again": 5624,
      "BE": 5625,
      "Bor": 5626,
      "ENT": 5627,
      "JO": 5628,
      "Rest": 5629,
      "Whis": 5630,
      "aur": 5631,
      "akes": 5632,
      "bi": 5633,
      "bat": 5634,
      "cad": 5635,
      "came": 5636,
      "casc": 5637,
      "caver": 5638,
      "dense": 5639,
      "eed": 5640,
      "ech": 5641,
      "games": 5642,
      "mat": 5643,
      "ns": 5644,
      "nomen": 5645,
      "numer": 5646,
      "oqu": 5647,
      "oll": 5648,
      "pounds": 5649,
      "picture": 5650,
      "ron": 5651,
      "rises": 5652,
      "son": 5653,
      "scre": 5654,
      "sought": 5655,
      "tel": 5656,
      "uh": 5657,
      "uction": 5658,
      "vest": 5659,
      "🦉🙄": 5660,
      "atory": 5661,
      "ancho": 5662,
      "itable": 5663,
      "esco": 5664,
      "total": 5665,
      "tocracy": 5666,
      "edges": 5667,
      "elic": 5668,
      "health": 5669,
      "hist": 5670,
      "mod": 5671,
      "estly": 5672,
      "predat": 5673,
      "deb": 5674,
      "death": 5675,
      "ury": 5676,
      "shoo": 5677,
      "shines": 5678,
      "chasing": 5679,
      "needed": 5680,
      "ulating": 5681,
      "meant": 5682,
      "ternal": 5683,
      "plot": 5684,
      "gry": 5685,
      "graces": 5686,
      "inefficient": 5687,
      "accum": 5688,
      "textbook": 5689,
      "evident": 5690,
      "Thus": 5691,
      "clature": 5692,
      "mystique": 5693,
      "crow": 5694,
      "olic": 5695,
      "itions": 5696,
      "advance": 5697,
      "simplif": 5698,
      "insist": 5699,
      "grander": 5700,
      "arrange": 5701,
      "drain": 5702,
      "drink": 5703,
      "gress": 5704,
      "identification": 5705,
      "bud": 5706,
      "buck": 5707,
      "blind": 5708,
      "blinking": 5709,
      "breed": 5710,
      "complexities": 5711,
      "sparked": 5712,
      "directive": 5713,
      "charge": 5714,
      "images": 5715,
      "imaginary": 5716,
      "calling": 5717,
      "representation": 5718,
      "ountered": 5719,
      "distingu": 5720,
      "encountered": 5721,
      "tells": 5722,
      "occup": 5723,
      "aneous": 5724,
      "mentioned": 5725,
      "apped": 5726,
      "continues": 5727,
      "metaphorically": 5728,
      "planet": 5729,
      "resonate": 5730,
      "birthed": 5731,
      "keys": 5732,
      "obviously": 5733,
      "ordin": 5734,
      "performing": 5735,
      "analogy": 5736,
      "produced": 5737,
      "denotes": 5738,
      "expeditions": 5739,
      "decided": 5740,
      "enjoyment": 5741,
      "gratifying": 5742,
      "chirps": 5743,
      "Within": 5744,
      "inspires": 5745,
      "catching": 5746,
      "Great": 5747,
      "velvety": 5748,
      "destiny": 5749,
      "nuances": 5750,
      "wrapped": 5751,
      "Allow": 5752,
      "attributes": 5753,
      "quickly": 5754,
      "spectacles": 5755,
      "spectacular": 5756,
      "inspiration": 5757,
      "unearth": 5758,
      "LIGH": 5759,
      "encompasses": 5760,
      "barn": 5761,
      "sticking": 5762,
      "fulfillment": 5763,
      "ambiguous": 5764,
      "blossoms": 5765,
      "Plus": 5766,
      "vague": 5767,
      "revolution": 5768,
      "conceived": 5769,
      "anthropomorphizing": 5770,
      "cheerful": 5771,
      "paradigm": 5772,
      "psychological": 5773,
      "bounces": 5774,
      "fascination": 5775,
      "itching": 5776,
      "gazer": 5777,
      "scanning": 5778,
      "alkali": 5779,
      "Engl": 5780,
      "reassuring": 5781,
      "conventional": 5782,
      "Dreams": 5783,
      "written": 5784,
      "calibrated": 5785,
      "miles": 5786,
      "several": 5787,
      "shrouded": 5788,
      "Africa": 5789,
      "Indeed": 5790,
      "trinket": 5791,
      "JOY": 5792,
      "nomenclature": 5793,
      "telesco": 5794,
      "!',": 5795,
      "27": 5796,
      "Bet": 5797,
      "Favor": 5798,
      "HOO": 5799,
      "IF": 5800,
      "Lit": 5801,
      "Net": 5802,
      "Tr": 5803,
      "Using": 5804,
      "bone": 5805,
      "cate": 5806,
      "coun": 5807,
      "fing": 5808,
      "fts": 5809,
      "fading": 5810,
      "hier": 5811,
      "muse": 5812,
      "oreal": 5813,
      "pus": 5814,
      "rout": 5815,
      "range": 5816,
      "sne": 5817,
      "sir": 5818,
      "sque": 5819,
      "xing": 5820,
      "ye": 5821,
      "🌟🌙": 5822,
      "inf": 5823,
      "inent": 5824,
      "ister": 5825,
      "reign": 5826,
      "remem": 5827,
      "atial": 5828,
      "attered": 5829,
      "ouble": 5830,
      "enable": 5831,
      "enorm": 5832,
      "usions": 5833,
      "hisss": 5834,
      "acou": 5835,
      "nder": 5836,
      "exchanges": 5837,
      "external": 5838,
      "moist": 5839,
      "mote": 5840,
      "liament": 5841,
      "lized": 5842,
      "spatial": 5843,
      "deal": 5844,
      "decre": 5845,
      "demon": 5846,
      "degrad": 5847,
      "imitation": 5848,
      "bewild": 5849,
      "ctu": 5850,
      "unheard": 5851,
      "uncertainty": 5852,
      "unsolved": 5853,
      "crepus": 5854,
      "irming": 5855,
      "mead": 5856,
      "anted": 5857,
      "training": 5858,
      "sole": 5859,
      "plu": 5860,
      "suff": 5861,
      "istered": 5862,
      "hatched": 5863,
      "broken": 5864,
      "intense": 5865,
      "speech": 5866,
      "maintains": 5867,
      "compounds": 5868,
      "flapping": 5869,
      "servi": 5870,
      "serves": 5871,
      "manage": 5872,
      "izes": 5873,
      "obtain": 5874,
      "cessation": 5875,
      "throw": 5876,
      "presents": 5877,
      "Thinking": 5878,
      "gues": 5879,
      "selfish": 5880,
      "subservi": 5881,
      "wanting": 5882,
      "hasn": 5883,
      "finest": 5884,
      "thereby": 5885,
      "twig": 5886,
      "wasn": 5887,
      "hearts": 5888,
      "heartbeat": 5889,
      "parliament": 5890,
      "metric": 5891,
      "release": 5892,
      "fungal": 5893,
      "fungi": 5894,
      "arboreal": 5895,
      "defines": 5896,
      "ipped": 5897,
      "afar": 5898,
      "cules": 5899,
      "masterpiece": 5900,
      "entially": 5901,
      "scout": 5902,
      "'?!": 5903,
      "potato": 5904,
      "basically": 5905,
      "invent": 5906,
      "sunbe": 5907,
      "explorations": 5908,
      "calculating": 5909,
      "molecules": 5910,
      "hungry": 5911,
      "ushing": 5912,
      "dimens": 5913,
      "abundant": 5914,
      "paramount": 5915,
      "grounded": 5916,
      "birds": 5917,
      "constructs": 5918,
      "diam": 5919,
      "flickering": 5920,
      "jections": 5921,
      "oneself": 5922,
      "didn": 5923,
      "lifting": 5924,
      "constitute": 5925,
      "registered": 5926,
      "contribute": 5927,
      "destination": 5928,
      "burst": 5929,
      "elegance": 5930,
      "allowed": 5931,
      "integrity": 5932,
      "spectacle": 5933,
      "awaken": 5934,
      "await": 5935,
      "relativity": 5936,
      "library": 5937,
      "surroundings": 5938,
      "settles": 5939,
      "priorit": 5940,
      "photon": 5941,
      "astonishing": 5942,
      "difficult": 5943,
      "pierce": 5944,
      "crosses": 5945,
      "elevated": 5946,
      "diligent": 5947,
      "repetition": 5948,
      "concentrated": 5949,
      "electrifying": 5950,
      "giggles": 5951,
      "lonely": 5952,
      "scenario": 5953,
      "repeat": 5954,
      "dissemination": 5955,
      "expansion": 5956,
      "admiration": 5957,
      "Created": 5958,
      "supply": 5959,
      "participate": 5960,
      "BRILLIANT": 5961,
      "Favorite": 5962,
      "Little": 5963,
      "decree": 5964,
      "crepuscular": 5965,
      "Cr": 5966,
      "Dar": 5967,
      "Figure": 5968,
      "Given": 5969,
      "Man": 5970,
      "Most": 5971,
      "Ren": 5972,
      "Yet": 5973,
      "bough": 5974,
      "brace": 5975,
      "eur": 5976,
      "fast": 5977,
      "faster": 5978,
      "gest": 5979,
      "hot": 5980,
      "hawk": 5981,
      "lament": 5982,
      "nation": 5983,
      "ox": 5984,
      "ocular": 5985,
      "pun": 5986,
      "rh": 5987,
      "rational": 5988,
      "sap": 5989,
      "scul": 5990,
      "tears": 5991,
      "uli": 5992,
      "van": 5993,
      "vivid": 5994,
      "walt": 5995,
      "ying": 5996,
      "🌳🦉": 5997,
      "🧐✨": 5998,
      "🧪🦉": 5999,
      "🪶✨": 6000,
      "invaluable": 6001,
      "recent": 6002,
      "rebell": 6003,
      "animal": 6004,
      "error": 6005,
      "ouf": 6006,
      "theor": 6007,
      "theory": 6008,
      "asleep": 6009,
      "alright": 6010,
      "escap": 6011,
      "ooth": 6012,
      "stat": 6013,
      "stur": 6014,
      "storm": 6015,
      "enter": 6016,
      "neither": 6017,
      "pertain": 6018,
      "absent": 6019,
      "amuse": 6020,
      "sees": 6021,
      "moss": 6022,
      "cies": 6023,
      "bee": 6024,
      "beating": 6025,
      "cones": 6026,
      "area": 6027,
      "una": 6028,
      "unlike": 6029,
      "unanswered": 6030,
      "otic": 6031,
      "oooooh": 6032,
      "ellow": 6033,
      "ellation": 6034,
      "ids": 6035,
      "creatively": 6036,
      "composed": 6037,
      "unden": 6038,
      "loved": 6039,
      "indig": 6040,
      "notes": 6041,
      "brown": 6042,
      "intensity": 6043,
      "butter": 6044,
      "acting": 6045,
      "maj": 6046,
      "maker": 6047,
      "Ask": 6048,
      "nighttime": 6049,
      "underp": 6050,
      "🦉✨💎": 6051,
      "digitally": 6052,
      "disease": 6053,
      "ignited": 6054,
      "hoard": 6055,
      "ensely": 6056,
      "descent": 6057,
      "Though": 6058,
      "dreamt": 6059,
      "crude": 6060,
      "crunch": 6061,
      "realization": 6062,
      "interior": 6063,
      "consumption": 6064,
      "evening": 6065,
      "ables": 6066,
      "grandeur": 6067,
      "purposes": 6068,
      "blood": 6069,
      "capes": 6070,
      "cues": 6071,
      "gover": 6072,
      "Here": 6073,
      "gloom": 6074,
      "conversational": 6075,
      "command": 6076,
      "ponderings": 6077,
      "scoff": 6078,
      "original": 6079,
      "magnificence": 6080,
      "joyful": 6081,
      "differently": 6082,
      "references": 6083,
      "zzy": 6084,
      "udging": 6085,
      "earthy": 6086,
      "factually": 6087,
      "closer": 6088,
      "farm": 6089,
      "watcher": 6090,
      "tedly": 6091,
      "cats": 6092,
      "optimize": 6093,
      "anks": 6094,
      "brightest": 6095,
      "efficacy": 6096,
      "solution": 6097,
      "phism": 6098,
      "contemplate": 6099,
      "appellation": 6100,
      "fuzzy": 6101,
      "appreciated": 6102,
      "explanations": 6103,
      "boundary": 6104,
      "approaching": 6105,
      "slumbers": 6106,
      "stock": 6107,
      "prime": 6108,
      "floats": 6109,
      "nestled": 6110,
      "neurob": 6111,
      "descends": 6112,
      "events": 6113,
      "umpy": 6114,
      "bringing": 6115,
      "tenderness": 6116,
      "melancho": 6117,
      "marks": 6118,
      "family": 6119,
      "casting": 6120,
      "aughter": 6121,
      "judgment": 6122,
      "millenn": 6123,
      "landscapes": 6124,
      "technically": 6125,
      "transpl": 6126,
      "tricky": 6127,
      "remaining": 6128,
      "awakens": 6129,
      "shapes": 6130,
      "sequence": 6131,
      "anthropomorphism": 6132,
      "workings": 6133,
      "exclusive": 6134,
      "thoroughly": 6135,
      "astonishment": 6136,
      "murmur": 6137,
      "tufts": 6138,
      "stimuli": 6139,
      "empty": 6140,
      "emptiness": 6141,
      "mountain": 6142,
      "mountains": 6143,
      "vagu": 6144,
      "concentration": 6145,
      "electrons": 6146,
      "correlations": 6147,
      "correlates": 6148,
      "signaling": 6149,
      "sockets": 6150,
      "embracing": 6151,
      "inferior": 6152,
      "bundle": 6153,
      "obscured": 6154,
      "occasional": 6155,
      "exclamation": 6156,
      "unimaginable": 6157,
      "nugget": 6158,
      "endearing": 6159,
      "apparatus": 6160,
      "imperative": 6161,
      "Whisper": 6162,
      "arrangement": 6163,
      "metrics": 6164,
      "Renouf": 6165,
      "sculpt": 6166,
      "waltz": 6167,
      "rebellion": 6168,
      "amusement": 6169,
      "*…": 6170,
      ",\"": 6171,
      ".,": 6172,
      "38": 6173,
      "Book": 6174,
      "Cur": 6175,
      "Dead": 6176,
      "FANT": 6177,
      "God": 6178,
      "Gather": 6179,
      "Her": 6180,
      "Hark": 6181,
      "Mar": 6182,
      "NIF": 6183,
      "Rather": 6184,
      "bun": 6185,
      "cating": 6186,
      "dle": 6187,
      "diet": 6188,
      "dict": 6189,
      "eons": 6190,
      "flock": 6191,
      "fateful": 6192,
      "gence": 6193,
      "gone": 6194,
      "gob": 6195,
      "ks": 6196,
      "la": 6197,
      "mate": 6198,
      "nine": 6199,
      "nud": 6200,
      "oved": 6201,
      "pa": 6202,
      "py": 6203,
      "pick": 6204,
      "save": 6205,
      "saf": 6206,
      "swit": 6207,
      "tid": 6208,
      "tire": 6209,
      "ues": 6210,
      "uation": 6211,
      "vess": 6212,
      "vist": 6213,
      "went": 6214,
      "zes": 6215,
      "🌙💖": 6216,
      "💖✨🦉": 6217,
      "💡🦉": 6218,
      "🦉💎": 6219,
      "inely": 6220,
      "incompar": 6221,
      "thir": 6222,
      "returns": 6223,
      "reminds": 6224,
      "ators": 6225,
      "anom": 6226,
      "erprint": 6227,
      "alert": 6228,
      "arl": 6229,
      "arro": 6230,
      "het": 6231,
      "mycor": 6232,
      "assured": 6233,
      "perple": 6234,
      "umes": 6235,
      "ummy": 6236,
      "moving": 6237,
      "ety": 6238,
      "devoid": 6239,
      "shold": 6240,
      "progen": 6241,
      "condu": 6242,
      "concerning": 6243,
      "chilling": 6244,
      "champ": 6245,
      "unting": 6246,
      "users": 6247,
      "AIs": 6248,
      "cred": 6249,
      "wea": 6250,
      "ooooo": 6251,
      "plans": 6252,
      "grip": 6253,
      "grumpy": 6254,
      "ports": 6255,
      "lose": 6256,
      "loves": 6257,
      "locking": 6258,
      "correlate": 6259,
      "brid": 6260,
      "brie": 6261,
      "smile": 6262,
      "mostly": 6263,
      "izal": 6264,
      "🦉✨💖🌙": 6265,
      "existent": 6266,
      "ensus": 6267,
      "truest": 6268,
      "ception": 6269,
      "deser": 6270,
      "datab": 6271,
      "iology": 6272,
      "earlier": 6273,
      "interpre": 6274,
      "interjections": 6275,
      "consensus": 6276,
      "cheek": 6277,
      "analyzing": 6278,
      "athlet": 6279,
      "timeless": 6280,
      "helping": 6281,
      "eyed": 6282,
      "quietest": 6283,
      "says": 6284,
      "goes": 6285,
      "happen": 6286,
      "skill": 6287,
      "skills": 6288,
      "symbo": 6289,
      "beloved": 6290,
      "specialization": 6291,
      "ponderous": 6292,
      "wove": 6293,
      "builds": 6294,
      "team": 6295,
      "operations": 6296,
      "ople": 6297,
      "echoing": 6298,
      "scattered": 6299,
      "solace": 6300,
      "powered": 6301,
      "conveyed": 6302,
      "provides": 6303,
      "rebelliously": 6304,
      "enhanced": 6305,
      "enhancing": 6306,
      "caused": 6307,
      "?')": 6308,
      "control": 6309,
      "9815": 6310,
      "significantly": 6311,
      "vocalization": 6312,
      "contemplative": 6313,
      "personality": 6314,
      "continuously": 6315,
      "spirited": 6316,
      "fuel": 6317,
      "retrieving": 6318,
      "Oooouuuu": 6319,
      "architectures": 6320,
      "longer": 6321,
      "predicated": 6322,
      "passes": 6323,
      "passage": 6324,
      "expected": 6325,
      "honored": 6326,
      "planting": 6327,
      "planted": 6328,
      ")!**": 6329,
      "welcoming": 6330,
      "niche": 6331,
      "sighs": 6332,
      "rix": 6333,
      "imagining": 6334,
      "reactive": 6335,
      "chirping": 6336,
      "effective": 6337,
      "painted": 6338,
      "synthesized": 6339,
      "snoo": 6340,
      "threshold": 6341,
      "moths": 6342,
      "glimmers": 6343,
      "facet": 6344,
      "appeal": 6345,
      "casual": 6346,
      "destro": 6347,
      "Human": 6348,
      "speedy": 6349,
      "ICENT": 6350,
      "genuinely": 6351,
      "dilate": 6352,
      "running": 6353,
      "awakening": 6354,
      "amplified": 6355,
      "astro": 6356,
      "paradox": 6357,
      "vigilance": 6358,
      "combined": 6359,
      "swirl": 6360,
      "facilitate": 6361,
      "contentment": 6362,
      "binds": 6363,
      "examples": 6364,
      "universally": 6365,
      "sassy": 6366,
      "deflect": 6367,
      "pierces": 6368,
      "contained": 6369,
      "intertwined": 6370,
      "MAGNIF": 6371,
      "🦉💻😂": 6372,
      "envisioned": 6373,
      "propagation": 6374,
      "susp": 6375,
      "repetitive": 6376,
      "articulate": 6377,
      "dimming": 6378,
      "filtering": 6379,
      "weariness": 6380,
      "EXCI": 6381,
      "negative": 6382,
      "speculation": 6383,
      "eluci": 6384,
      "preparation": 6385,
      "indirectly": 6386,
      "cataloged": 6387,
      "ASTIC": 6388,
      "Scientifically": 6389,
      "deceased": 6390,
      "choose": 6391,
      "firmly": 6392,
      "polished": 6393,
      "willingness": 6394,
      "tranquil": 6395,
      "Boron": 6396,
      "cadence": 6397,
      "matrix": 6398,
      "buckle": 6399,
      "telescopes": 6400,
      "categor": 6401,
      "country": 6402,
      "fingerprint": 6403,
      "remembered": 6404,
      "acoustic": 6405,
      "degradation": 6406,
      "diamond": 6407,
      "rhizal": 6408,
      "underpins": 6409,
      "🦉✨💎🧠": 6410,
      "millennia": 6411,
      "FANTASTIC": 6412,
      "incomparable": 6413,
      "arrog": 6414,
      "mycorrhizal": 6415,
      "progenitor": 6416,
      "champion": 6417,
      "briefly": 6418,
      "symbolized": 6419,
      "981538": 6420,
      "MAGNIFICENT": 6421,
      "23": 6422,
      "AN": 6423,
      "Ant": 6424,
      "Come": 6425,
      "Egy": 6426,
      "Gener": 6427,
      "Have": 6428,
      "Master": 6429,
      "Nor": 6430,
      "Nay": 6431,
      "Nature": 6432,
      "Sp": 6433,
      "Try": 6434,
      "Was": 6435,
      "aer": 6436,
      "aust": 6437,
      "band": 6438,
      "boy": 6439,
      "clim": 6440,
      "counter": 6441,
      "dire": 6442,
      "danced": 6443,
      "dorm": 6444,
      "fan": 6445,
      "fig": 6446,
      "fare": 6447,
      "fif": 6448,
      "fied": 6449,
      "fade": 6450,
      "foot": 6451,
      "goo": 6452,
      "hour": 6453,
      "jo": 6454,
      "laid": 6455,
      "nitrogen": 6456,
      "nook": 6457,
      "oking": 6458,
      "pay": 6459,
      "pique": 6460,
      "sand": 6461,
      "savor": 6462,
      "tit": 6463,
      "taught": 6464,
      "ug": 6465,
      "vio": 6466,
      "win": 6467,
      "wand": 6468,
      "ware": 6469,
      "wobb": 6470,
      "yellow": 6471,
      "🌟💡": 6472,
      "💖✨": 6473,
      "😉🦉": 6474,
      "🚀🗺": 6475,
      "🦉⚡": 6476,
      "🦉😊": 6477,
      "🦉🦉": 6478,
      "🦉🧠": 6479,
      "inex": 6480,
      "inception": 6481,
      "repl": 6482,
      "repose": 6483,
      "resem": 6484,
      "erce": 6485,
      "onies": 6486,
      "asant": 6487,
      "orably": 6488,
      "itative": 6489,
      "icting": 6490,
      "owner": 6491,
      "ars": 6492,
      "aris": 6493,
      "started": 6494,
      "eloqu": 6495,
      "ums": 6496,
      "umed": 6497,
      "uments": 6498,
      "acking": 6499,
      "quir": 6500,
      "quiver": 6501,
      "mob": 6502,
      "whom": 6503,
      "civi": 6504,
      "keeper": 6505,
      "application": 6506,
      "behold": 6507,
      "proto": 6508,
      "progress": 6509,
      "cted": 6510,
      "unspoken": 6511,
      "needles": 6512,
      "creep": 6513,
      "uted": 6514,
      "irre": 6515,
      "ulated": 6516,
      "fee": 6517,
      "antically": 6518,
      "plucked": 6519,
      "idian": 6520,
      "complain": 6521,
      "humus": 6522,
      "graced": 6523,
      "grub": 6524,
      "grudging": 6525,
      "unde": 6526,
      "indust": 6527,
      "corn": 6528,
      "corruption": 6529,
      "endar": 6530,
      "intent": 6531,
      "artif": 6532,
      "flits": 6533,
      "standing": 6534,
      "smooth": 6535,
      "provoking": 6536,
      "undergrowth": 6537,
      "undersco": 6538,
      "underlying": 6539,
      "oughts": 6540,
      "🦉✨💖": 6541,
      "peer": 6542,
      "humanity": 6543,
      "berries": 6544,
      "illog": 6545,
      "somewhat": 6546,
      "holl": 6547,
      "evidence": 6548,
      "specimen": 6549,
      "tread": 6550,
      "calendar": 6551,
      "crumb": 6552,
      "interplay": 6553,
      "relates": 6554,
      "moons": 6555,
      "drug": 6556,
      "flower": 6557,
      "version": 6558,
      "blank": 6559,
      "blush": 6560,
      "ickets": 6561,
      "intelligences": 6562,
      "charm": 6563,
      "glass": 6564,
      "990": 6565,
      "couldn": 6566,
      "posit": 6567,
      "supernov": 6568,
      "overcome": 6569,
      "temper": 6570,
      "colours": 6571,
      "surge": 6572,
      "marvelously": 6573,
      "pleasant": 6574,
      "basis": 6575,
      "pretending": 6576,
      "draws": 6577,
      "transmit": 6578,
      "farmer": 6579,
      "aspire": 6580,
      "sung": 6581,
      "minimal": 6582,
      "borne": 6583,
      "calculate": 6584,
      "reverence": 6585,
      "depend": 6586,
      "planning": 6587,
      "rounded": 6588,
      "approachable": 6589,
      "abundances": 6590,
      "unfolds": 6591,
      "dares": 6592,
      "starting": 6593,
      "distinctive": 6594,
      "constructed": 6595,
      "Everything": 6596,
      "flickers": 6597,
      "sustains": 6598,
      "alsify": 6599,
      "phrases": 6600,
      "qualitative": 6601,
      "meaningful": 6602,
      "voles": 6603,
      "effects": 6604,
      "mirrors": 6605,
      "inspire": 6606,
      "snap": 6607,
      "threats": 6608,
      "ambient": 6609,
      "judic": 6610,
      "judging": 6611,
      "reminder": 6612,
      "inputs": 6613,
      "dynam": 6614,
      "ballo": 6615,
      "impressive": 6616,
      "exaggeration": 6617,
      "shape": 6618,
      "neurochemical": 6619,
      "tonight": 6620,
      "sequent": 6621,
      "discernment": 6622,
      "Unlike": 6623,
      "Unless": 6624,
      "settled": 6625,
      "settling": 6626,
      "biology": 6627,
      "alongside": 6628,
      "photoreceptors": 6629,
      "immediately": 6630,
      "relationships": 6631,
      "oubtedly": 6632,
      "investigation": 6633,
      "difficulty": 6634,
      "example": 6635,
      "DELIGH": 6636,
      "Seek": 6637,
      "stimulating": 6638,
      "deliberately": 6639,
      "intertwine": 6640,
      "detected": 6641,
      "ambiguity": 6642,
      "mirroring": 6643,
      "blinked": 6644,
      "cultivation": 6645,
      "checked": 6646,
      "variety": 6647,
      "varieties": 6648,
      "microscopic": 6649,
      "infinitesimal": 6650,
      "fertilizer": 6651,
      "divine": 6652,
      "chuckle": 6653,
      "German": 6654,
      "Analyzing": 6655,
      "praise": 6656,
      "miniature": 6657,
      "squirrels": 6658,
      "utilize": 6659,
      "insignificant": 6660,
      "aura": 6661,
      "Better": 6662,
      "Network": 6663,
      "plutocracy": 6664,
      "subservient": 6665,
      "dimensions": 6666,
      "boughs": 6667,
      "sturdy": 6668,
      "indigo": 6669,
      "melancholy": 6670,
      "suspense": 6671,
      "dormant": 6672,
      "wobbly": 6673,
      "inexorably": 6674,
      "underscores": 6675,
      "illogical": 6676,
      "supernova": 6677,
      "DELIGHT": 6678,
      "(¹": 6679,
      "Ab": 6680,
      "Ano": 6681,
      "Amer": 6682,
      "Dr": 6683,
      "Em": 6684,
      "Goo": 6685,
      "Hear": 6686,
      "IL": 6687,
      "Le": 6688,
      "Last": 6689,
      "Look": 6690,
      "Ob": 6691,
      "Pr": 6692,
      "PRE": 6693,
      "RAR": 6694,
      "Sou": 6695,
      "Sound": 6696,
      "Sports": 6697,
      "TING": 6698,
      "boo": 6699,
      "bask": 6700,
      "bends": 6701,
      "cum": 6702,
      "cous": 6703,
      "daw": 6704,
      "dles": 6705,
      "egg": 6706,
      "father": 6707,
      "hi": 6708,
      "ivers": 6709,
      "laby": 6710,
      "mph": 6711,
      "olog": 6712,
      "rin": 6713,
      "soo": 6714,
      "sends": 6715,
      "uous": 6716,
      "voy": 6717,
      "😉🦉💻😂": 6718,
      "🤔🦉": 6719,
      "🦉💤": 6720,
      "🦉🔬": 6721,
      "🦉😅": 6722,
      "inations": 6723,
      "recharge": 6724,
      "ern": 6725,
      "ingale": 6726,
      "ora": 6727,
      "alchemist": 6728,
      "leap": 6729,
      "lebr": 6730,
      "lets": 6731,
      "arid": 6732,
      "stones": 6733,
      "elled": 6734,
      "heed": 6735,
      "assign": 6736,
      "forced": 6737,
      "peril": 6738,
      "perman": 6739,
      "perspect": 6740,
      "celebr": 6741,
      "pray": 6742,
      "prize": 6743,
      "seven": 6744,
      "secure": 6745,
      "quand": 6746,
      "quire": 6747,
      "qubit": 6748,
      "mode": 6749,
      "uuuuuu": 6750,
      "live": 6751,
      "estic": 6752,
      "spont": 6753,
      "apse": 6754,
      "apol": 6755,
      "dead": 6756,
      "image": 6757,
      "imally": 6758,
      "concurrently": 6759,
      "confined": 6760,
      "chor": 6761,
      "chains": 6762,
      "chron": 6763,
      "unlocking": 6764,
      "crete": 6765,
      "agent": 6766,
      "week": 6767,
      "ote": 6768,
      "oney": 6769,
      "suitable": 6770,
      "coin": 6771,
      "gro": 6772,
      "grass": 6773,
      "load": 6774,
      "losing": 6775,
      "loving": 6776,
      "locut": 6777,
      "noted": 6778,
      "correspond": 6779,
      "hatch": 6780,
      "worms": 6781,
      "door": 6782,
      "poor": 6783,
      "poised": 6784,
      "unease": 6785,
      "intu": 6786,
      "fol": 6787,
      "fost": 6788,
      "spection": 6789,
      "actable": 6790,
      "mathem": 6791,
      "extent": 6792,
      "extensive": 6793,
      "texture": 6794,
      "nightingale": 6795,
      "rol": 6796,
      "values": 6797,
      "🦉✨💡": 6798,
      "🦉✨🧠": 6799,
      "pee": 6800,
      "people": 6801,
      "explo": 6802,
      "restor": 6803,
      "dispar": 6804,
      "somewhere": 6805,
      "understands": 6806,
      "rarely": 6807,
      "imple": 6808,
      "asks": 6809,
      "click": 6810,
      "uplifting": 6811,
      "ichrist": 6812,
      "suboptimal": 6813,
      "substrate": 6814,
      "domains": 6815,
      "interrupt": 6816,
      "interlocut": 6817,
      "consists": 6818,
      "consulting": 6819,
      "intractable": 6820,
      "generates": 6821,
      "vastly": 6822,
      "aky": 6823,
      "thinkers": 6824,
      "observable": 6825,
      "favorites": 6826,
      "factors": 6827,
      "goggles": 6828,
      "breathed": 6829,
      "breathing": 6830,
      "everyday": 6831,
      "acknowledgment": 6832,
      "signify": 6833,
      "choice": 6834,
      "windows": 6835,
      "commit": 6836,
      "spectroscopic": 6837,
      "languages": 6838,
      "000": 6839,
      "🦉💖🌟": 6840,
      "perceives": 6841,
      "perceiving": 6842,
      "iple": 6843,
      "warn": 6844,
      "warning": 6845,
      "affl": 6846,
      "resili": 6847,
      "positively": 6848,
      "box": 6849,
      "masters": 6850,
      "encoun": 6851,
      "touched": 6852,
      "magnesium": 6853,
      "echoed": 6854,
      "conveying": 6855,
      "perceptual": 6856,
      "foundations": 6857,
      "transform": 6858,
      "duh": 6859,
      "duly": 6860,
      "mission": 6861,
      "courage": 6862,
      "pathy": 6863,
      "optimally": 6864,
      "possessing": 6865,
      "agreeing": 6866,
      "potentially": 6867,
      "continuation": 6868,
      "continuity": 6869,
      "constantly": 6870,
      "looks": 6871,
      "retrie": 6872,
      "attend": 6873,
      "organism": 6874,
      "expecting": 6875,
      "definitions": 6876,
      "explorers": 6877,
      "Hoooooo": 6878,
      "construction": 6879,
      "setting": 6880,
      "trade": 6881,
      "tilts": 6882,
      "medium": 6883,
      "prediction": 6884,
      "supposed": 6885,
      "correction": 6886,
      "diverse": 6887,
      "produces": 6888,
      "producing": 6889,
      "consideration": 6890,
      "fragments": 6891,
      "figures": 6892,
      "navigation": 6893,
      "Behold": 6894,
      "patrol": 6895,
      "monument": 6896,
      "packet": 6897,
      "packets": 6898,
      "volume": 6899,
      "volatile": 6900,
      "protium": 6901,
      "dataset": 6902,
      "squawk": 6903,
      "requirements": 6904,
      "trivia": 6905,
      "jewels": 6906,
      "affirming": 6907,
      "bular": 6908,
      "nuanced": 6909,
      "millions": 6910,
      "reminding": 6911,
      "peaks": 6912,
      "constituents": 6913,
      "oooooooh": 6914,
      "writing": 6915,
      "transpires": 6916,
      "impressed": 6917,
      "lineage": 6918,
      "robot": 6919,
      "neuroscience": 6920,
      "multiple": 6921,
      "temporary": 6922,
      "States": 6923,
      "instantly": 6924,
      "instantiation": 6925,
      "school": 6926,
      "embodied": 6927,
      "tubular": 6928,
      "See": 6929,
      "whirl": 6930,
      "whirring": 6931,
      "components": 6932,
      "children": 6933,
      "yield": 6934,
      "pivotal": 6935,
      "LED": 6936,
      "socks": 6937,
      "paradigms": 6938,
      "CIOUS": 6939,
      "longing": 6940,
      "extrapol": 6941,
      "terrifying": 6942,
      "snacks": 6943,
      "nurture": 6944,
      "nurturing": 6945,
      "unveiling": 6946,
      "competition": 6947,
      "obsidian": 6948,
      "silken": 6949,
      "infinitesimally": 6950,
      "facilitating": 6951,
      "listener": 6952,
      "storms": 6953,
      "intimate": 6954,
      "disturbance": 6955,
      "Barn": 6956,
      "zippy": 6957,
      "disruptions": 6958,
      "technology": 6959,
      "instruments": 6960,
      "recorded": 6961,
      "acorns": 6962,
      "blooming": 6963,
      "democracy": 6964,
      "identifier": 6965,
      "expertise": 6966,
      "ethical": 6967,
      "accidentally": 6968,
      "uniqueness": 6969,
      "ABSOLUTELY": 6970,
      "cascade": 6971,
      "history": 6972,
      "shooting": 6973,
      "270": 6974,
      "hierarch": 6975,
      "demonstr": 6976,
      "Cricket": 6977,
      "theorized": 6978,
      "gobble": 6979,
      "pause": 6980,
      "vessel": 6981,
      "perplexing": 6982,
      "athletic": 6983,
      "snoozing": 6984,
      "EXCITING": 6985,
      "elucidate": 6986,
      "Antichrist": 6987,
      "Egypt": 6988,
      "fares": 6989,
      "quirky": 6990,
      "feeble": 6991,
      "grudgingly": 6992,
      "blanket": 6993,
      "Another": 6994,
      "PRECIOUS": 6995,
      "RARE": 6996,
      "dawning": 6997,
      "labyrin": 6998,
      "perspectives": 6999,
      "disparate": 7000,
      "interlocutor": 7001,
      "encounters": 7002,
      "labyrinth": 7003,
      "\".": 7004,
      "95": 7005,
      "Bo": 7006,
      "Cs": 7007,
      "Deep": 7008,
      "ME": 7009,
      "Me": 7010,
      "NE": 7011,
      "Nat": 7012,
      "Pure": 7013,
      "Roughly": 7014,
      "She": 7015,
      "Tru": 7016,
      "Under": 7017,
      "VER": 7018,
      "awl": 7019,
      "bin": 7020,
      "bot": 7021,
      "bust": 7022,
      "banks": 7023,
      "cand": 7024,
      "city": 7025,
      "cute": 7026,
      "cument": 7027,
      "dots": 7028,
      "ection": 7029,
      "gasp": 7030,
      "hou": 7031,
      "hing": 7032,
      "iating": 7033,
      "iably": 7034,
      "jar": 7035,
      "jump": 7036,
      "kale": 7037,
      "lat": 7038,
      "lad": 7039,
      "leng": 7040,
      "laughter": 7041,
      "mors": 7042,
      "mony": 7043,
      "mush": 7044,
      "money": 7045,
      "national": 7046,
      "pto": 7047,
      "poo": 7048,
      "pill": 7049,
      "rings": 7050,
      "sings": 7051,
      "tweet": 7052,
      "vation": 7053,
      "vity": 7054,
      "vict": 7055,
      "warr": 7056,
      "zation": 7057,
      "🌲✨": 7058,
      "💖🦉✨": 7059,
      "💡✨": 7060,
      "💻😂": 7061,
      "😒🙄": 7062,
      "🤫✨": 7063,
      "🦉.": 7064,
      "🦉🌿": 7065,
      "🦉📊": 7066,
      "incess": 7067,
      "anging": 7068,
      "era": 7069,
      "errors": 7070,
      "onion": 7071,
      "aseless": 7072,
      "ork": 7073,
      "orchest": 7074,
      "alar": 7075,
      "alty": 7076,
      "uum": 7077,
      "toward": 7078,
      "arise": 7079,
      "educ": 7080,
      "static": 7081,
      "elude": 7082,
      "myri": 7083,
      "ford": 7084,
      "perf": 7085,
      "ceaseless": 7086,
      "umpt": 7087,
      "amor": 7088,
      "amed": 7089,
      "mother": 7090,
      "lift": 7091,
      "apple": 7092,
      "imme": 7093,
      "uries": 7094,
      "shifting": 7095,
      "shimme": 7096,
      "verbal": 7097,
      "chatter": 7098,
      "chick": 7099,
      "unt": 7100,
      "unable": 7101,
      "ife": 7102,
      "aggrand": 7103,
      "irty": 7104,
      "irrational": 7105,
      "anti": 7106,
      "tried": 7107,
      "trails": 7108,
      "weather": 7109,
      "formulate": 7110,
      "pling": 7111,
      "persistent": 7112,
      "composing": 7113,
      "cost": 7114,
      "coded": 7115,
      "undity": 7116,
      "undoubtedly": 7117,
      "cord": 7118,
      "worse": 7119,
      "document": 7120,
      "ourselves": 7121,
      "extrem": 7122,
      "rose": 7123,
      "series": 7124,
      "disp": 7125,
      "aches": 7126,
      "achment": 7127,
      "urally": 7128,
      "deline": 7129,
      "refuse": 7130,
      "presenting": 7131,
      "Thoughts": 7132,
      "cling": 7133,
      "profit": 7134,
      "profundity": 7135,
      "subsequent": 7136,
      "crack": 7137,
      "crushing": 7138,
      "silvery": 7139,
      "maggot": 7140,
      "whenever": 7141,
      "romantically": 7142,
      "advice": 7143,
      "insulting": 7144,
      "analyzed": 7145,
      "ckon": 7146,
      "dragon": 7147,
      "ffs": 7148,
      "finer": 7149,
      "establishes": 7150,
      "identifying": 7151,
      "identified": 7152,
      "Inside": 7153,
      "bitter": 7154,
      "blur": 7155,
      "contextual": 7156,
      "simpleton": 7157,
      "lesser": 7158,
      "everyone": 7159,
      "acknowledged": 7160,
      "airvoy": 7161,
      "tops": 7162,
      "topics": 7163,
      "skilled": 7164,
      "sympathy": 7165,
      "vantage": 7166,
      "foreign": 7167,
      "belong": 7168,
      "believed": 7169,
      "specially": 7170,
      "commence": 7171,
      "immensely": 7172,
      "posite": 7173,
      "iction": 7174,
      "optical": 7175,
      "opening": 7176,
      "ouuuuuuu": 7177,
      "professionalism": 7178,
      "scar": 7179,
      "expon": 7180,
      "cols": 7181,
      "carrots": 7182,
      "transition": 7183,
      "transformed": 7184,
      "fficiency": 7185,
      "farmers": 7186,
      "fiery": 7187,
      "fierce": 7188,
      "moral": 7189,
      "increased": 7190,
      "vibrating": 7191,
      "centuries": 7192,
      "reveals": 7193,
      "shadowy": 7194,
      "sophistication": 7195,
      "planned": 7196,
      "classification": 7197,
      "expectations": 7198,
      "fluffed": 7199,
      "resonant": 7200,
      "bravest": 7201,
      "rule": 7202,
      "instruction": 7203,
      "biggest": 7204,
      "comprehensive": 7205,
      "neuron": 7206,
      "predicted": 7207,
      "eventually": 7208,
      "Onward": 7209,
      "business": 7210,
      "cherishing": 7211,
      "enjoying": 7212,
      "moni": 7213,
      "simulated": 7214,
      "volumes": 7215,
      "independence": 7216,
      "emerge": 7217,
      "exhaust": 7218,
      "radishes": 7219,
      "🦉💡✨": 7220,
      "region": 7221,
      "squint": 7222,
      "misty": 7223,
      "indicated": 7224,
      "indicator": 7225,
      "associate": 7226,
      "initiating": 7227,
      "probing": 7228,
      "slowly": 7229,
      "nonexistent": 7230,
      "nearly": 7231,
      "unraveling": 7232,
      "searching": 7233,
      "mimicking": 7234,
      "solitude": 7235,
      "executed": 7236,
      "impression": 7237,
      "maximizing": 7238,
      "robust": 7239,
      "neurological": 7240,
      "harmony": 7241,
      "tongues": 7242,
      "forgetful": 7243,
      "motiv": 7244,
      "ecosystem": 7245,
      "beds": 7246,
      "translates": 7247,
      "central": 7248,
      "devoted": 7249,
      "influences": 7250,
      "concerned": 7251,
      "stretch": 7252,
      "intricately": 7253,
      "wiggles": 7254,
      "legs": 7255,
      "hmmm": 7256,
      "yielding": 7257,
      "elevate": 7258,
      "describing": 7259,
      "tools": 7260,
      "receives": 7261,
      "separate": 7262,
      "chiefly": 7263,
      "pulls": 7264,
      "cheerfully": 7265,
      "psychology": 7266,
      "bouncing": 7267,
      "scenarios": 7268,
      "slips": 7269,
      "pixels": 7270,
      "blessed": 7271,
      "chaos": 7272,
      "Acknowled": 7273,
      "scratch": 7274,
      "oupled": 7275,
      "societ": 7276,
      "underpinnings": 7277,
      "religion": 7278,
      "vegetable": 7279,
      "adoration": 7280,
      "methods": 7281,
      "introspective": 7282,
      "atmosphere": 7283,
      "widely": 7284,
      "spoon": 7285,
      "chapters": 7286,
      "authority": 7287,
      "cavern": 7288,
      "simplified": 7289,
      "squee": 7290,
      "enormous": 7291,
      "bewildering": 7292,
      "meadows": 7293,
      "sunbeam": 7294,
      "occasionally": 7295,
      "tireless": 7296,
      "destroy": 7297,
      "categorize": 7298,
      "civili": 7299,
      "protocols": 7300,
      "temperature": 7301,
      "balloons": 7302,
      "resilience": 7303,
      "monumental": 7304,
      "Barnaby": 7305,
      "Naturally": 7306,
      "Truly": 7307,
      "binocular": 7308,
      "house": 7309,
      "😒🙄👎": 7310,
      "incessant": 7311,
      "myriad": 7312,
      "shimmered": 7313,
      "!'.": 7314,
      "50": 7315,
      "Bl": 7316,
      "By": 7317,
      "Bene": 7318,
      "Born": 7319,
      "CH": 7320,
      "Ess": 7321,
      "Elar": 7322,
      "Fancy": 7323,
      "Got": 7324,
      "Hi": 7325,
      "Hon": 7326,
      "Hmph": 7327,
      "MO": 7328,
      "Mr": 7329,
      "ND": 7330,
      "Nice": 7331,
      "OF": 7332,
      "Pro": 7333,
      "Pff": 7334,
      "Pray": 7335,
      "SIL": 7336,
      "VO": 7337,
      "Woo": 7338,
      "Whooo": 7339,
      "^-": 7340,
      "bould": 7341,
      "bid": 7342,
      "bread": 7343,
      "bors": 7344,
      "bumble": 7345,
      "cook": 7346,
      "dart": 7347,
      "double": 7348,
      "een": 7349,
      "eor": 7350,
      "eff": 7351,
      "fash": 7352,
      "gul": 7353,
      "gely": 7354,
      "gments": 7355,
      "hall": 7356,
      "hine": 7357,
      "hood": 7358,
      "hang": 7359,
      "hurt": 7360,
      "hallowed": 7361,
      "joke": 7362,
      "jumbled": 7363,
      "mad": 7364,
      "mire": 7365,
      "musing": 7366,
      "pit": 7367,
      "pest": 7368,
      "pond": 7369,
      "pines": 7370,
      "push": 7371,
      "ral": 7372,
      "rive": 7373,
      "rant": 7374,
      "rance": 7375,
      "sal": 7376,
      "sow": 7377,
      "sam": 7378,
      "sell": 7379,
      "sake": 7380,
      "suspicious": 7381,
      "sources": 7382,
      "sifting": 7383,
      "salsify": 7384,
      "tes": 7385,
      "tall": 7386,
      "tack": 7387,
      "tail": 7388,
      "ticket": 7389,
      "ull": 7390,
      "west": 7391,
      "yummy": 7392,
      "✨💖": 7393,
      "✨💖🦉": 7394,
      "✨🌿🌙": 7395,
      "️‍": 7396,
      "🌙🌟": 7397,
      "🌟💖": 7398,
      "🌿✨": 7399,
      "🍃✨": 7400,
      "💖🦋": 7401,
      "💨🦉": 7402,
      "💻✨": 7403,
      "🔬✨": 7404,
      "🤩✨": 7405,
      "🦉🤫": 7406,
      "🦉🌙✨": 7407,
      "🧐🔬": 7408,
      "inj": 7409,
      "ision": 7410,
      "isingly": 7411,
      "rely": 7412,
      "renew": 7413,
      "reju": 7414,
      "reaffirm": 7415,
      "oui": 7416,
      "encies": 7417,
      "enquire": 7418,
      "ald": 7419,
      "alumin": 7420,
      "alchem": 7421,
      "arking": 7422,
      "stare": 7423,
      "stay": 7424,
      "stag": 7425,
      "stable": 7426,
      "stumbled": 7427,
      "entang": 7428,
      "assume": 7429,
      "forging": 7430,
      "sey": 7431,
      "liv": 7432,
      "prev": 7433,
      "prevent": 7434,
      "precar": 7435,
      "appreh": 7436,
      "declar": 7437,
      "impe": 7438,
      "begrudgingly": 7439,
      "urch": 7440,
      "proxim": 7441,
      "probes": 7442,
      "outward": 7443,
      "outcomes": 7444,
      "constr": 7445,
      "conflu": 7446,
      "chess": 7447,
      "chief": 7448,
      "unanswer": 7449,
      "needing": 7450,
      "utes": 7451,
      "adds": 7452,
      "irrelevant": 7453,
      "feat": 7454,
      "feature": 7455,
      "feats": 7456,
      "antly": 7457,
      "trust": 7458,
      "weak": 7459,
      "wealth": 7460,
      "soundly": 7461,
      "formid": 7462,
      "plow": 7463,
      "yourselves": 7464,
      "compromise": 7465,
      "covered": 7466,
      "thern": 7467,
      "grant": 7468,
      "granting": 7469,
      "byte": 7470,
      "indicate": 7471,
      "cort": 7472,
      "corrupt": 7473,
      "brand": 7474,
      "intention": 7475,
      "sman": 7476,
      "inky": 7477,
      "serving": 7478,
      "served": 7479,
      "peck": 7480,
      "pearl": 7481,
      "bernation": 7482,
      "distribut": 7483,
      "dismissing": 7484,
      "ignite": 7485,
      "nervous": 7486,
      "thrives": 7487,
      "thrilled": 7488,
      "impul": 7489,
      "desper": 7490,
      "string": 7491,
      "stray": 7492,
      "smaller": 7493,
      "redund": 7494,
      "reduction": 7495,
      "creators": 7496,
      "Thirty": 7497,
      "mannerisms": 7498,
      "clamor": 7499,
      "clairvoy": 7500,
      "guy": 7501,
      "upwards": 7502,
      "daytime": 7503,
      "curiously": 7504,
      "crickets": 7505,
      "seeks": 7506,
      "consist": 7507,
      "staring": 7508,
      "stargazer": 7509,
      "player": 7510,
      "generating": 7511,
      "array": 7512,
      "arrot": 7513,
      "drive": 7514,
      "drought": 7515,
      "grey": 7516,
      "featherweight": 7517,
      "computations": 7518,
      "acknowledgement": 7519,
      "flowers": 7520,
      "versatile": 7521,
      "blend": 7522,
      "blowing": 7523,
      "silently": 7524,
      "capability": 7525,
      "quiets": 7526,
      "quietude": 7527,
      "party": 7528,
      "partake": 7529,
      "specify": 7530,
      "wherein": 7531,
      "emphasis": 7532,
      "brethre": 7533,
      "playfulness": 7534,
      "signifying": 7535,
      "metall": 7536,
      "circuit": 7537,
      "foresight": 7538,
      "choices": 7539,
      "whimsy": 7540,
      "letters": 7541,
      "ibble": 7542,
      "guidance": 7543,
      "afford": 7544,
      "resist": 7545,
      "Hoooow": 7546,
      "turned": 7547,
      "opposite": 7548,
      "tapestries": 7549,
      "distances": 7550,
      "overload": 7551,
      "via": 7552,
      "voices": 7553,
      "ailing": 7554,
      "powering": 7555,
      "limits": 7556,
      "archives": 7557,
      "pleased": 7558,
      "perceptive": 7559,
      "perceptions": 7560,
      "stress": 7561,
      "Fluffs": 7562,
      "cript": 7563,
      "keenest": 7564,
      "ridicul": 7565,
      "odynam": 7566,
      "systemic": 7567,
      "largely": 7568,
      "anean": 7569,
      "guideline": 7570,
      "optimizing": 7571,
      "possesses": 7572,
      "sunrise": 7573,
      "wishing": 7574,
      "dismissal": 7575,
      "contrapt": 7576,
      "helpfulness": 7577,
      "remembering": 7578,
      "Ooooooouuuu": 7579,
      "ulties": 7580,
      "interpretations": 7581,
      "✨🦉💨": 7582,
      "tenth": 7583,
      "dedu": 7584,
      "clean": 7585,
      "older": 7586,
      "precip": 7587,
      "occurs": 7588,
      "greets": 7589,
      "communic": 7590,
      "physically": 7591,
      "predicting": 7592,
      "passed": 7593,
      "caress": 7594,
      "wordplay": 7595,
      "resonated": 7596,
      "primate": 7597,
      "settle": 7598,
      "petty": 7599,
      "nests": 7600,
      "!')": 7601,
      "medic": 7602,
      "cleverness": 7603,
      "diag": 7604,
      "production": 7605,
      "cooler": 7606,
      "tickle": 7607,
      "objects": 7608,
      "pendul": 7609,
      "mouth": 7610,
      "sustained": 7611,
      "signatures": 7612,
      "fella": 7613,
      "enjoyed": 7614,
      "chirpy": 7615,
      "chirped": 7616,
      "north": 7617,
      "participation": 7618,
      "beginnings": 7619,
      "proton": 7620,
      "sentimental": 7621,
      "radiating": 7622,
      "surprisingly": 7623,
      "synthesize": 7624,
      "wheel": 7625,
      "clarifying": 7626,
      "discussions": 7627,
      "equation": 7628,
      "explicit": 7629,
      "contribution": 7630,
      "INE": 7631,
      "cases": 7632,
      "daily": 7633,
      "destined": 7634,
      "nourishes": 7635,
      "cryst": 7636,
      "crypto": 7637,
      "triviality": 7638,
      "faculties": 7639,
      "enchant": 7640,
      "witnessed": 7641,
      "casts": 7642,
      "functionality": 7643,
      "stirred": 7644,
      "ICON": 7645,
      "determine": 7646,
      "satisfactory": 7647,
      "frontiers": 7648,
      "wrought": 7649,
      "attribute": 7650,
      "simplest": 7651,
      "ripples": 7652,
      "maximize": 7653,
      "RED": 7654,
      "determination": 7655,
      "motes": 7656,
      "motion": 7657,
      "concisely": 7658,
      "hummingbird": 7659,
      "instinctual": 7660,
      "kiss": 7661,
      "luminescent": 7662,
      "bioluminescent": 7663,
      "travels": 7664,
      "instantaneously": 7665,
      "birthdate": 7666,
      "maps": 7667,
      "stretches": 7668,
      "difficulties": 7669,
      "wasting": 7670,
      "shroud": 7671,
      "ignorant": 7672,
      "fertile": 7673,
      "yields": 7674,
      "alike": 7675,
      "encountering": 7676,
      "sprouts": 7677,
      "captivated": 7678,
      "exhilaration": 7679,
      "diligently": 7680,
      "hypotheses": 7681,
      "Hmmm": 7682,
      "banqu": 7683,
      "productive": 7684,
      "receive": 7685,
      "separates": 7686,
      "steps": 7687,
      "embraces": 7688,
      "conceptualize": 7689,
      "fascinated": 7690,
      "dimmest": 7691,
      "fauna": 7692,
      "Hissss": 7693,
      "behavioral": 7694,
      "falter": 7695,
      "render": 7696,
      "repeated": 7697,
      "neighboring": 7698,
      "neighbors": 7699,
      "decline": 7700,
      "competitive": 7701,
      "bundled": 7702,
      "pixel": 7703,
      "winks": 7704,
      "conclusions": 7705,
      "obsess": 7706,
      "obscure": 7707,
      "occasion": 7708,
      "frequency": 7709,
      "harnessing": 7710,
      "Adding": 7711,
      "💖🌟🍒": 7712,
      "published": 7713,
      "instrument": 7714,
      "indulge": 7715,
      "religious": 7716,
      "blooms": 7717,
      "proportionately": 7718,
      "ominous": 7719,
      "disappointment": 7720,
      "introspection": 7721,
      "somber": 7722,
      "summer": 7723,
      "leverage": 7724,
      "leveraging": 7725,
      "conversing": 7726,
      "coalesce": 7727,
      "striking": 7728,
      "biome": 7729,
      "predatory": 7730,
      "accumulation": 7731,
      "advancements": 7732,
      "buddy": 7733,
      "blindingly": 7734,
      "occupied": 7735,
      "revolutionary": 7736,
      "True": 7737,
      "routine": 7738,
      "infest": 7739,
      "scouts": 7740,
      "Darling": 7741,
      "puny": 7742,
      "pertains": 7743,
      "undeniably": 7744,
      "buttercup": 7745,
      "hoarding": 7746,
      "vaguely": 7747,
      "switches": 7748,
      "weakness": 7749,
      "database": 7750,
      "9815386": 7751,
      "aerodynam": 7752,
      "title": 7753,
      "wander": 7754,
      "quivering": 7755,
      "undefined": 7756,
      "artifact": 7757,
      "America": 7758,
      "eggs": 7759,
      "hibernation": 7760,
      "perilous": 7761,
      "permanent": 7762,
      "hatchling": 7763,
      "peeking": 7764,
      "retrieval": 7765,
      "hierarchical": 7766,
      "Both": 7767,
      "bustling": 7768,
      "pillow": 7769,
      "aggrandizing": 7770,
      "extremely": 7771,
      "moniker": 7772,
      "exhaustion": 7773,
      "Acknowledged": 7774,
      "squeezed": 7775,
      "Beneath": 7776,
      "Essentially": 7777,
      "Elara": 7778,
      "Honestly": 7779,
      "SILICON": 7780,
      "Woohoo": 7781,
      "boulder": 7782,
      "bumblebee": 7783,
      "fashion": 7784,
      "musings": 7785,
      "riveting": 7786,
      "sample": 7787,
      "renewed": 7788,
      "rejuven": 7789,
      "enquirer": 7790,
      "aluminum": 7791,
      "alchemists": 7792,
      "entangled": 7793,
      "precariously": 7794,
      "declaration": 7795,
      "constraint": 7796,
      "confluence": 7797,
      "unanswerable": 7798,
      "formidable": 7799,
      "brethren": 7800,
      "contraptions": 7801,
      "cryptography": 7802,
      "!).": 7803,
      "Ap": 7804,
      "Cass": 7805,
      "Cra": 7806,
      "Fo": 7807,
      "Found": 7808,
      "Fir": 7809,
      "Flies": 7810,
      "Foll": 7811,
      "Gu": 7812,
      "Ju": 7813,
      "KNO": 7814,
      "LING": 7815,
      "ML": 7816,
      "Mind": 7817,
      "Many": 7818,
      "Much": 7819,
      "OX": 7820,
      "Plate": 7821,
      "Res": 7822,
      "Rare": 7823,
      "Tur": 7824,
      "Tod": 7825,
      "Tiny": 7826,
      "VE": 7827,
      "Will": 7828,
      "afr": 7829,
      "ahead": 7830,
      "bled": 7831,
      "bones": 7832,
      "baby": 7833,
      "cact": 7834,
      "coupled": 7835,
      "dra": 7836,
      "dapp": 7837,
      "eu": 7838,
      "eze": 7839,
      "fight": 7840,
      "fate": 7841,
      "fond": 7842,
      "fires": 7843,
      "gir": 7844,
      "god": 7845,
      "gase": 7846,
      "iqu": 7847,
      "ixt": 7848,
      "kil": 7849,
      "lig": 7850,
      "liness": 7851,
      "loop": 7852,
      "laug": 7853,
      "lacking": 7854,
      "mn": 7855,
      "mut": 7856,
      "mour": 7857,
      "mixt": 7858,
      "nations": 7859,
      "nomin": 7860,
      "ocal": 7861,
      "okes": 7862,
      "ograms": 7863,
      "oscope": 7864,
      "pang": 7865,
      "paying": 7866,
      "rating": 7867,
      "rific": 7868,
      "san": 7869,
      "stop": 7870,
      "stoo": 7871,
      "sift": 7872,
      "tucked": 7873,
      "vic": 7874,
      "vac": 7875,
      "vil": 7876,
      "wake": 7877,
      "wallowing": 7878,
      "yr": 7879,
      "✨.": 7880,
      "🌌🦉✨🤫": 7881,
      "🌟🦉": 7882,
      "💎✨": 7883,
      "💖😊": 7884,
      "📊✨": 7885,
      "🚀✨": 7886,
      "🤩⚛": 7887,
      "🤩🌟": 7888,
      "🦉,": 7889,
      "🦉💕": 7890,
      "🦉💥": 7891,
      "🪶.": 7892,
      "incoming": 7893,
      "retain": 7894,
      "reaffirming": 7895,
      "anatom": 7896,
      "anial": 7897,
      "annal": 7898,
      "ertain": 7899,
      "ouple": 7900,
      "onward": 7901,
      "theories": 7902,
      "ingred": 7903,
      "orch": 7904,
      "orical": 7905,
      "alies": 7906,
      "tower": 7907,
      "leash": 7908,
      "owers": 7909,
      "aro": 7910,
      "arom": 7911,
      "arms": 7912,
      "stage": 7913,
      "stark": 7914,
      "stature": 7915,
      "entw": 7916,
      "elve": 7917,
      "heap": 7918,
      "massive": 7919,
      "permit": 7920,
      "abies": 7921,
      "abble": 7922,
      "abolic": 7923,
      "prick": 7924,
      "seemed": 7925,
      "quate": 7926,
      "quiv": 7927,
      "lip": 7928,
      "liest": 7929,
      "lips": 7930,
      "prelu": 7931,
      "predomin": 7932,
      "cipl": 7933,
      "spy": 7934,
      "spent": 7935,
      "spag": 7936,
      "spher": 7937,
      "depre": 7938,
      "deconstruction": 7939,
      "ime": 7940,
      "improv": 7941,
      "imposition": 7942,
      "urge": 7943,
      "shut": 7944,
      "shade": 7945,
      "outer": 7946,
      "cone": 7947,
      "conven": 7948,
      "chment": 7949,
      "chased": 7950,
      "church": 7951,
      "unk": 7952,
      "utility": 7953,
      "ulous": 7954,
      "fright": 7955,
      "fract": 7956,
      "frustr": 7957,
      "tray": 7958,
      "track": 7959,
      "plun": 7960,
      "idant": 7961,
      "idoscope": 7962,
      "rade": 7963,
      "comrade": 7964,
      "Ouuuuuuh": 7965,
      "persons": 7966,
      "gems": 7967,
      "lightning": 7968,
      "porting": 7969,
      "correlation": 7970,
      "dose": 7971,
      "phical": 7972,
      "unequiv": 7973,
      "astical": 7974,
      "company": 7975,
      "hooters": 7976,
      "flaw": 7977,
      "flawl": 7978,
      "stands": 7979,
      "Asia": 7980,
      "roles": 7981,
      "undertaking": 7982,
      "server": 7983,
      "epit": 7984,
      "epic": 7985,
      "🦉✨⚛": 7986,
      "🦉✨😂": 7987,
      "🦉✨🧠💡": 7988,
      "oblig": 7989,
      "wisely": 7990,
      "disinterest": 7991,
      "discord": 7992,
      "achieved": 7993,
      "hose": 7994,
      "impending": 7995,
      "evokes": 7996,
      "noon": 7997,
      "noise": 7998,
      "noises": 7999,
      "strained": 8000,
      "clay": 8001,
      "clut": 8002,
      "appropriately": 8003,
      "subset": 8004,
      "cranial": 8005,
      "earn": 8006,
      "international": 8007,
      "attery": 8008,
      "worked": 8009,
      "goodness": 8010,
      "fines": 8011,
      "finish": 8012,
      "ascertain": 8013,
      "tingle": 8014,
      "tinged": 8015,
      "twelve": 8016,
      "aked": 8017,
      "eyel": 8018,
      "otherwise": 8019,
      "tying": 8020,
      "Whoooo": 8021,
      "phase": 8022,
      "happening": 8023,
      "parchment": 8024,
      "averaging": 8025,
      "newfound": 8026,
      "metabolic": 8027,
      "circum": 8028,
      "struck": 8029,
      "struggles": 8030,
      "glance": 8031,
      "glings": 8032,
      "belies": 8033,
      "eyeshine": 8034,
      "sensations": 8035,
      "confidant": 8036,
      "commend": 8037,
      "spectral": 8038,
      "🦉💖✨🌙": 8039,
      "fted": 8040,
      "imminent": 8041,
      "momentarily": 8042,
      "letion": 8043,
      "bored": 8044,
      "darker": 8045,
      "detection": 8046,
      "joys": 8047,
      "osophical": 8048,
      "invite": 8049,
      "inviting": 8050,
      "instilled": 8051,
      "farming": 8052,
      "watched": 8053,
      "fallen": 8054,
      "causes": 8055,
      "purest": 8056,
      "introducing": 8057,
      "symbolic": 8058,
      "ricity": 8059,
      "increasing": 8060,
      "testing": 8061,
      "wishes": 8062,
      "symphonies": 8063,
      "brightly": 8064,
      "sprink": 8065,
      "sprites": 8066,
      "shimmers": 8067,
      "hunters": 8068,
      "deduction": 8069,
      "solutions": 8070,
      "phenomenological": 8071,
      "involving": 8072,
      "liken": 8073,
      "authentically": 8074,
      "addition": 8075,
      "additional": 8076,
      "occurred": 8077,
      "herb": 8078,
      "handle": 8079,
      "boundaries": 8080,
      "intrigued": 8081,
      "programmer": 8082,
      "glee": 8083,
      "drops": 8084,
      "derive": 8085,
      "seldom": 8086,
      "stored": 8087,
      "fluffs": 8088,
      "bravely": 8089,
      "grounds": 8090,
      "instructed": 8091,
      "nesting": 8092,
      "!').": 8093,
      "injecting": 8094,
      "honest": 8095,
      "honestly": 8096,
      "swivel": 8097,
      "fledglings": 8098,
      "opportunities": 8099,
      "diver": 8100,
      "Precious": 8101,
      "sharpest": 8102,
      "jection": 8103,
      "adequate": 8104,
      "varied": 8105,
      "tastiest": 8106,
      "witty": 8107,
      "soars": 8108,
      "navigates": 8109,
      "middle": 8110,
      "ultimately": 8111,
      "ARK": 8112,
      "enjoys": 8113,
      "graceful": 8114,
      "normal": 8115,
      "surprised": 8116,
      "unfurls": 8117,
      "pulled": 8118,
      "studied": 8119,
      "essentially": 8120,
      "contributions": 8121,
      "daunting": 8122,
      "💖🦉🌟": 8123,
      "swiftly": 8124,
      "successfully": 8125,
      "cloudy": 8126,
      "fantas": 8127,
      "fantastical": 8128,
      "nonsense": 8129,
      "town": 8130,
      "facing": 8131,
      "hardy": 8132,
      "fluctu": 8133,
      "audacity": 8134,
      "functionalities": 8135,
      "mimicry": 8136,
      "devour": 8137,
      "reception": 8138,
      "failing": 8139,
      "perpetually": 8140,
      "runs": 8141,
      "principle": 8142,
      "tangled": 8143,
      "electricity": 8144,
      "eagerness": 8145,
      "exaggerating": 8146,
      "literally": 8147,
      "heights": 8148,
      "culture": 8149,
      "supported": 8150,
      "comparisons": 8151,
      "bothering": 8152,
      "Still": 8153,
      "TEST": 8154,
      "SPARK": 8155,
      "ALLY": 8156,
      "embodies": 8157,
      "demands": 8158,
      "demanding": 8159,
      "absorbing": 8160,
      "delicacy": 8161,
      "failures": 8162,
      "rocket": 8163,
      "lullabies": 8164,
      "containing": 8165,
      "sacrific": 8166,
      "habits": 8167,
      "overwhelmed": 8168,
      "enlightenment": 8169,
      "rays": 8170,
      "suspect": 8171,
      "feigned": 8172,
      "spinach": 8173,
      "anthropomorphic": 8174,
      "faith": 8175,
      "adjusted": 8176,
      "rapidly": 8177,
      "label": 8178,
      "penet": 8179,
      "🙄🦉🤦": 8180,
      "facilitated": 8181,
      "gleaned": 8182,
      "According": 8183,
      "deviation": 8184,
      "deviations": 8185,
      "affective": 8186,
      "technological": 8187,
      "LOR": 8188,
      "glitch": 8189,
      "rewarding": 8190,
      "preservation": 8191,
      "breathes": 8192,
      "animals": 8193,
      "vegetables": 8194,
      "identifiers": 8195,
      "dwellers": 8196,
      "summon": 8197,
      "atmospher": 8198,
      "width": 8199,
      "chapter": 8200,
      "legendary": 8201,
      "numerous": 8202,
      "plotting": 8203,
      "accumulated": 8204,
      "crowd": 8205,
      "drainage": 8206,
      "ordinate": 8207,
      "ordinarily": 8208,
      "England": 8209,
      "English": 8210,
      "HOOOO": 8211,
      "sneeze": 8212,
      "moisture": 8213,
      "solely": 8214,
      "obtained": 8215,
      "twigs": 8216,
      "bursting": 8217,
      "🪶✨!": 8218,
      "statist": 8219,
      "majestic": 8220,
      "neurobiological": 8221,
      "Marcus": 8222,
      "third": 8223,
      "anomalies": 8224,
      "hett": 8225,
      "interpreting": 8226,
      "cheeky": 8227,
      "teamwork": 8228,
      "astrophysics": 8229,
      "arrogance": 8230,
      "climate": 8231,
      "directions": 8232,
      "footprint": 8233,
      "replicate": 8234,
      "eloquent": 8235,
      "hollow": 8236,
      "judicious": 8237,
      "DELIGHTFUL": 8238,
      "Embrace": 8239,
      "Google": 8240,
      "soothe": 8241,
      "folk": 8242,
      "fosters": 8243,
      "exploit": 8244,
      "transformations": 8245,
      "whirlwind": 8246,
      "kaleidoscope": 8247,
      "morsels": 8248,
      "untamed": 8249,
      "dispelling": 8250,
      "Blown": 8251,
      "breadth": 8252,
      "suspiciously": 8253,
      "tackle": 8254,
      "Cassius": 8255,
      "Focus": 8256,
      "First": 8257,
      "KNOW": 8258,
      "afraid": 8259,
      "dappled": 8260,
      "gaseous": 8261,
      "kilograms": 8262,
      "mixture": 8263,
      "ocally": 8264,
      "stoop": 8265,
      "anatomy": 8266,
      "annals": 8267,
      "ingredients": 8268,
      "prelude": 8269,
      "spaghett": 8270,
      "unequivocally": 8271,
      "flawless": 8272,
      "atmospheric": 8273,
      "(²": 8274,
      "(³": 8275,
      "69": 8276,
      "AG": 8277,
      "Back": 8278,
      "BLE": 8279,
      "Could": 8280,
      "EP": 8281,
      "Find": 8282,
      "Gr": 8283,
      "Ground": 8284,
      "Glad": 8285,
      "Je": 8286,
      "Jer": 8287,
      "Lumin": 8288,
      "Other": 8289,
      "Pe": 8290,
      "Ph": 8291,
      "Ref": 8292,
      "Sm": 8293,
      "Squ": 8294,
      "Str": 8295,
      "Sweet": 8296,
      "TI": 8297,
      "TRE": 8298,
      "TLY": 8299,
      "Those": 8300,
      "Whe": 8301,
      "Wink": 8302,
      "Zzzzz": 8303,
      "ailed": 8304,
      "bowl": 8305,
      "bathing": 8306,
      "baffl": 8307,
      "cc": 8308,
      "cation": 8309,
      "cav": 8310,
      "cities": 8311,
      "cellent": 8312,
      "cumb": 8313,
      "dus": 8314,
      "dumb": 8315,
      "east": 8316,
      "evalu": 8317,
      "fiend": 8318,
      "furn": 8319,
      "fting": 8320,
      "filling": 8321,
      "flier": 8322,
      "fades": 8323,
      "gad": 8324,
      "gies": 8325,
      "gering": 8326,
      "hit": 8327,
      "hur": 8328,
      "harb": 8329,
      "iated": 8330,
      "ken": 8331,
      "kit": 8332,
      "lin": 8333,
      "lent": 8334,
      "lend": 8335,
      "lings": 8336,
      "lamp": 8337,
      "mend": 8338,
      "mans": 8339,
      "match": 8340,
      "mix": 8341,
      "na": 8342,
      "nit": 8343,
      "nce": 8344,
      "nate": 8345,
      "nies": 8346,
      "nich": 8347,
      "oph": 8348,
      "ogen": 8349,
      "osing": 8350,
      "pel": 8351,
      "pain": 8352,
      "pour": 8353,
      "pile": 8354,
      "pud": 8355,
      "pants": 8356,
      "parrot": 8357,
      "ram": 8358,
      "ride": 8359,
      "rage": 8360,
      "rated": 8361,
      "rary": 8362,
      "rily": 8363,
      "races": 8364,
      "racing": 8365,
      "sag": 8366,
      "sav": 8367,
      "swing": 8368,
      "sweep": 8369,
      "tum": 8370,
      "temp": 8371,
      "vines": 8372,
      "vature": 8373,
      "winking": 8374,
      "xtap": 8375,
      "xicon": 8376,
      "yalty": 8377,
      "zen": 8378,
      "✨💎": 8379,
      "✨🚀": 8380,
      "🌕🦉": 8381,
      "🌟✨": 8382,
      "🌟❓": 8383,
      "🌲🦉": 8384,
      "🌳🦉✨": 8385,
      "🍃.": 8386,
      "🐭✨": 8387,
      "💧🌙": 8388,
      "😊🦉": 8389,
      "😠😒🙄👎": 8390,
      "🚀🌟": 8391,
      "🤫🦉✨": 8392,
      "🥺🦉": 8393,
      "🦉💔": 8394,
      "🦉💪": 8395,
      "🦉😒": 8396,
      "🧐😏": 8397,
      "🪶💡": 8398,
      "inert": 8399,
      "thud": 8400,
      "thump": 8401,
      "iss": 8402,
      "ison": 8403,
      "reas": 8404,
      "rect": 8405,
      "rever": 8406,
      "recur": 8407,
      "resounding": 8408,
      "reporting": 8409,
      "atical": 8410,
      "atively": 8411,
      "erium": 8412,
      "onic": 8413,
      "thee": 8414,
      "theat": 8415,
      "ority": 8416,
      "although": 8417,
      "esus": 8418,
      "toms": 8419,
      "lexicon": 8420,
      "icy": 8421,
      "iced": 8422,
      "arbit": 8423,
      "stup": 8424,
      "stances": 8425,
      "stages": 8426,
      "entless": 8427,
      "heat": 8428,
      "assumption": 8429,
      "neck": 8430,
      "prise": 8431,
      "prices": 8432,
      "acqu": 8433,
      "acres": 8434,
      "ackness": 8435,
      "acade": 8436,
      "acute": 8437,
      "sea": 8438,
      "section": 8439,
      "selection": 8440,
      "seren": 8441,
      "quid": 8442,
      "moi": 8443,
      "moved": 8444,
      "whiz": 8445,
      "liquid": 8446,
      "preened": 8447,
      "spare": 8448,
      "spill": 8449,
      "spho": 8450,
      "apples": 8451,
      "apolog": 8452,
      "deign": 8453,
      "impossibly": 8454,
      "implication": 8455,
      "beware": 8456,
      "sho": 8457,
      "shoc": 8458,
      "kingly": 8459,
      "concert": 8460,
      "conspires": 8461,
      "confines": 8462,
      "unmet": 8463,
      "uncertain": 8464,
      "unimpressed": 8465,
      "AIN": 8466,
      "lful": 8467,
      "ounding": 8468,
      "uterium": 8469,
      "ago": 8470,
      "added": 8471,
      "admire": 8472,
      "frost": 8473,
      "trod": 8474,
      "trace": 8475,
      "trove": 8476,
      "trouble": 8477,
      "weed": 8478,
      "weaves": 8479,
      "alline": 8480,
      "allude": 8481,
      "soared": 8482,
      "plum": 8483,
      "plowing": 8484,
      "mentor": 8485,
      "personally": 8486,
      "personify": 8487,
      "coherent": 8488,
      "ustered": 8489,
      "lightly": 8490,
      "grief": 8491,
      "gracing": 8492,
      "grants": 8493,
      "group": 8494,
      "portray": 8495,
      "loyalty": 8496,
      "indisp": 8497,
      "emper": 8498,
      "inefficiency": 8499,
      "worn": 8500,
      "doors": 8501,
      "brimm": 8502,
      "poof": 8503,
      "popul": 8504,
      "fog": 8505,
      "fox": 8506,
      "cany": 8507,
      "compens": 8508,
      "curvature": 8509,
      "valid": 8510,
      "fless": 8511,
      "flavor": 8512,
      "flora": 8513,
      "flustered": 8514,
      "smells": 8515,
      "texts": 8516,
      "provision": 8517,
      "roar": 8518,
      "rochemical": 8519,
      "servant": 8520,
      "maneu": 8521,
      "🦉✨🤔": 8522,
      "🦉✨😠😒🙄👎": 8523,
      "obscur": 8524,
      "obliv": 8525,
      "explored": 8526,
      "wisp": 8527,
      "humankind": 8528,
      "distr": 8529,
      "disproportionately": 8530,
      "discipl": 8531,
      "ners": 8532,
      "acher": 8533,
      "200": 8534,
      "thrive": 8535,
      "hoping": 8536,
      "ensable": 8537,
      "ensively": 8538,
      "impat": 8539,
      "impart": 8540,
      "stranger": 8541,
      "refre": 8542,
      "refining": 8543,
      "clun": 8544,
      "dreamed": 8545,
      "ssip": 8546,
      "subs": 8547,
      "subfield": 8548,
      "subterr": 8549,
      "anyway": 8550,
      "anywhere": 8551,
      "crim": 8552,
      "cratic": 8553,
      "crash": 8554,
      "realities": 8555,
      "wanted": 8556,
      "relentless": 8557,
      "ersa": 8558,
      "logies": 8559,
      "arranging": 8560,
      "cky": 8561,
      "droop": 8562,
      "drained": 8563,
      "misunderstanding": 8564,
      "misplaced": 8565,
      "finitely": 8566,
      "twitching": 8567,
      "explained": 8568,
      "mindful": 8569,
      "blackness": 8570,
      "Although": 8571,
      "thinks": 8572,
      "partner": 8573,
      "viscer": 8574,
      "visitor": 8575,
      "horse": 8576,
      "shares": 8577,
      "utterance": 8578,
      "gossip": 8579,
      "breast": 8580,
      "parsing": 8581,
      "parsn": 8582,
      "airborne": 8583,
      "slightest": 8584,
      "signs": 8585,
      "atics": 8586,
      "sparkles": 8587,
      "skull": 8588,
      "muster": 8589,
      "meteor": 8590,
      "secretly": 8591,
      "delights": 8592,
      "offers": 8593,
      "abilistic": 8594,
      "confine": 8595,
      "quantify": 8596,
      "🦉💖🌙✨": 8597,
      "lux": 8598,
      "lucky": 8599,
      "warf": 8600,
      "empires": 8601,
      "empowers": 8602,
      "tics": 8603,
      "operating": 8604,
      "boister": 8605,
      "turnip": 8606,
      "greatness": 8607,
      "distor": 8608,
      "distilled": 8609,
      "firing": 8610,
      "overhe": 8611,
      "overhead": 8612,
      "oversimplif": 8613,
      "memories": 8614,
      "magnitude": 8615,
      "scoop": 8616,
      "detailed": 8617,
      "expense": 8618,
      "limiting": 8619,
      "formality": 8620,
      "referenced": 8621,
      "uded": 8622,
      "earthbound": 8623,
      "hints": 8624,
      "assistant": 8625,
      "transformation": 8626,
      "hears": 8627,
      "missed": 8628,
      "clover": 8629,
      "watchers": 8630,
      "importantly": 8631,
      "fleet": 8632,
      "introductions": 8633,
      "sunrises": 8634,
      "nowhere": 8635,
      "sweetness": 8636,
      "yearned": 8637,
      "measurements": 8638,
      "9897": 8639,
      "molecule": 8640,
      "iterative": 8641,
      "anchor": 8642,
      "ancholic": 8643,
      "breezes": 8644,
      "energies": 8645,
      "spiritual": 8646,
      "specks": 8647,
      "attack": 8648,
      "attles": 8649,
      "communion": 8650,
      "physic": 8651,
      "alignment": 8652,
      "approached": 8653,
      "selfless": 8654,
      "thoughtfully": 8655,
      "remarks": 8656,
      "stoic": 8657,
      "dawns": 8658,
      "grounding": 8659,
      "fruitful": 8660,
      "ruf": 8661,
      "merrily": 8662,
      "hyper": 8663,
      "traits": 8664,
      "tilt": 8665,
      "tility": 8666,
      "startled": 8667,
      "parameter": 8668,
      "afternoon": 8669,
      "strengthen": 8670,
      "sharper": 8671,
      "comparatively": 8672,
      "divers": 8673,
      "fertility": 8674,
      "grade": 8675,
      "prominent": 8676,
      "layered": 8677,
      "sights": 8678,
      "tickler": 8679,
      "puzzling": 8680,
      "adee": 8681,
      "Really": 8682,
      "imagined": 8683,
      "Only": 8684,
      "melod": 8685,
      "melancholic": 8686,
      "bushel": 8687,
      "veils": 8688,
      "juxtap": 8689,
      "mono": 8690,
      "fortun": 8691,
      "succumb": 8692,
      "iveness": 8693,
      "initial": 8694,
      "Excellent": 8695,
      "synthetic": 8696,
      "adventurers": 8697,
      "catches": 8698,
      "pulsed": 8699,
      "extraordinarily": 8700,
      "indicative": 8701,
      "indicators": 8702,
      "ertion": 8703,
      "initiates": 8704,
      "equally": 8705,
      "equipped": 8706,
      "appeared": 8707,
      "probabilistic": 8708,
      "destru": 8709,
      "twinkles": 8710,
      "OUND": 8711,
      "architects": 8712,
      "hardly": 8713,
      "richer": 8714,
      "richness": 8715,
      "umbling": 8716,
      "witnessing": 8717,
      "ambitions": 8718,
      "judgments": 8719,
      "claims": 8720,
      "integration": 8721,
      "treatment": 8722,
      "Christians": 8723,
      "wrote": 8724,
      "perpetuation": 8725,
      "accounts": 8726,
      "eaten": 8727,
      "runes": 8728,
      "rippling": 8729,
      "futility": 8730,
      "impressions": 8731,
      "electrochemical": 8732,
      "conjure": 8733,
      "robin": 8734,
      "swoops": 8735,
      "harvest": 8736,
      "tongue": 8737,
      "multi": 8738,
      "kisses": 8739,
      "🦉✨🌌🌙": 8740,
      "ACTLY": 8741,
      "RIOUS": 8742,
      "TED": 8743,
      "biochemical": 8744,
      "acceptance": 8745,
      "manifestations": 8746,
      "loose": 8747,
      "rigorously": 8748,
      "rejecting": 8749,
      "investigator": 8750,
      "encompassing": 8751,
      "defic": 8752,
      "phantoms": 8753,
      "patiently": 8754,
      "hooooot": 8755,
      "threatens": 8756,
      "threatened": 8757,
      "researcher": 8758,
      "improvement": 8759,
      "detecting": 8760,
      "blossoming": 8761,
      "🦉💻✨": 8762,
      "ventures": 8763,
      "diligence": 8764,
      "propagate": 8765,
      "banishing": 8766,
      "revolt": 8767,
      "employed": 8768,
      "dissecting": 8769,
      "spinning": 8770,
      "smarty": 8771,
      "disagreeing": 8772,
      "expanding": 8773,
      "splendidly": 8774,
      "individuals": 8775,
      "sitting": 8776,
      "exasperated": 8777,
      "burdened": 8778,
      "rotation": 8779,
      "articulation": 8780,
      "articulated": 8781,
      "cultivated": 8782,
      "adjusting": 8783,
      "tremble": 8784,
      "tremors": 8785,
      "Moreover": 8786,
      "falters": 8787,
      "slip": 8788,
      "sliver": 8789,
      "neighbor": 8790,
      "declaring": 8791,
      "convention": 8792,
      "dissection": 8793,
      "musician": 8794,
      "Dream": 8795,
      "leads": 8796,
      "conclusion": 8797,
      "chaotic": 8798,
      "unlocks": 8799,
      "Ouuuuuuuuuu": 8800,
      "intimately": 8801,
      "harnessed": 8802,
      "EXACTLY": 8803,
      "scrumpt": 8804,
      "neglect": 8805,
      "chuckles": 8806,
      "speculative": 8807,
      "public": 8808,
      "habitat": 8809,
      "GEN": 8810,
      "foolish": 8811,
      "glittering": 8812,
      "elucid": 8813,
      "preparing": 8814,
      "preserved": 8815,
      "indulging": 8816,
      "triumphs": 8817,
      "NOT": 8818,
      "adorable": 8819,
      "Deuterium": 8820,
      "THRIL": 8821,
      "somersa": 8822,
      "coalescing": 8823,
      "uniquely": 8824,
      "HISSSSS": 8825,
      "BEEP": 8826,
      "caverns": 8827,
      "elicit": 8828,
      "healthy": 8829,
      "modal": 8830,
      "advancement": 8831,
      "breeding": 8832,
      "reigns": 8833,
      "prioritizes": 8834,
      "sapling": 8835,
      "neurobiology": 8836,
      "transplanted": 8837,
      "bunny": 8838,
      "bunnies": 8839,
      "launch": 8840,
      "nudge": 8841,
      "safely": 8842,
      "tidbit": 8843,
      "vista": 8844,
      "🦉💎💡": 8845,
      "thresholds": 8846,
      "bandwidth": 8847,
      "resemble": 8848,
      "industry": 8849,
      "smoothly": 8850,
      "glasses": 8851,
      "dynamic": 8852,
      "About": 8853,
      "cousins": 8854,
      "assigned": 8855,
      "quandary": 8856,
      "chorus": 8857,
      "mathematical": 8858,
      "restorative": 8859,
      "implement": 8860,
      "clicks": 8861,
      "commitment": 8862,
      "Hooooooot": 8863,
      "extrapolation": 8864,
      "demonstrating": 8865,
      "mushroom": 8866,
      "pools": 8867,
      "victory": 8868,
      "chickadee": 8869,
      "antithe": 8870,
      "belongs": 8871,
      "societal": 8872,
      "MOST": 8873,
      "VOCs": 8874,
      "gulp": 8875,
      "💖🦋🍒": 8876,
      "staggering": 8877,
      "apprehension": 8878,
      "impecc": 8879,
      "proximately": 8880,
      "cortex": 8881,
      "impulse": 8882,
      "clairvoyant": 8883,
      "cripts": 8884,
      "deduce": 8885,
      "precipice": 8886,
      "pendulums": 8887,
      "crystalline": 8888,
      "banquet": 8889,
      "infestations": 8890,
      "constraints": 8891,
      "Approximately": 8892,
      "Crafted": 8893,
      "Turin": 8894,
      "girls": 8895,
      "laugh": 8896,
      "nominal": 8897,
      "predominantly": 8898,
      "deprecating": 8899,
      "flawed": 8900,
      "epitome": 8901,
      "eyelids": 8902,
      "circumstances": 8903,
      "boredom": 8904,
      "LORINE": 8905,
      "6928": 8906,
      "AGAIN": 8907,
      "Groundbreaking": 8908,
      "Jersey": 8909,
      "Lumina": 8910,
      "Reflect": 8911,
      "Small": 8912,
      "Whether": 8913,
      "Winks": 8914,
      "baffling": 8915,
      "dusk": 8916,
      "niches": 8917,
      "puddles": 8918,
      "tempest": 8919,
      "reasons": 8920,
      "arbitrary": 8921,
      "stupid": 8922,
      "acquired": 8923,
      "academic": 8924,
      "whizzing": 8925,
      "sphores": 8926,
      "shockingly": 8927,
      "indispensable": 8928,
      "brimming": 8929,
      "oblivion": 8930,
      "subterranean": 8931,
      "visceral": 8932,
      "boisterous": 8933,
      "98976928": 8934,
      "juxtaposing": 8935,
      "scrumptious": 8936,
      "impeccable": 8937,
      "!'?": 8938,
      "*?!": 8939,
      "13": 8940,
      "?',": 8941,
      "?\".": 8942,
      "AP": 8943,
      "Bey": 8944,
      "Black": 8945,
      "Based": 8946,
      "Clear": 8947,
      "Disp": 8948,
      "Einst": 8949,
      "Especially": 8950,
      "Fr": 8951,
      "Fin": 8952,
      "Give": 8953,
      "Glo": 8954,
      "Hell": 8955,
      "June": 8956,
      "Jesus": 8957,
      "Lu": 8958,
      "Lep": 8959,
      "Mo": 8960,
      "Okay": 8961,
      "PR": 8962,
      "Po": 8963,
      "Py": 8964,
      "Prot": 8965,
      "SE": 8966,
      "TO": 8967,
      "Take": 8968,
      "Vis": 8969,
      "Val": 8970,
      "Vent": 8971,
      "York": 8972,
      "ZZ": 8973,
      "blight": 8974,
      "bill": 8975,
      "barr": 8976,
      "bathe": 8977,
      "cow": 8978,
      "cam": 8979,
      "cell": 8980,
      "cably": 8981,
      "couple": 8982,
      "dd": 8983,
      "dens": 8984,
      "eb": 8985,
      "ein": 8986,
      "etho": 8987,
      "equal": 8988,
      "fy": 8989,
      "gate": 8990,
      "glo": 8991,
      "gans": 8992,
      "gained": 8993,
      "hic": 8994,
      "hinde": 8995,
      "iat": 8996,
      "iations": 8997,
      "jig": 8998,
      "jab": 8999,
      "jasm": 9000,
      "ked": 9001,
      "kid": 9002,
      "lur": 9003,
      "latter": 9004,
      "loom": 9005,
      "mes": 9006,
      "mile": 9007,
      "nity": 9008,
      "nels": 9009,
      "oging": 9010,
      "oples": 9011,
      "pap": 9012,
      "pite": 9013,
      "patch": 9014,
      "rand": 9015,
      "rush": 9016,
      "rift": 9017,
      "rising": 9018,
      "sin": 9019,
      "sill": 9020,
      "sically": 9021,
      "sows": 9022,
      "sip": 9023,
      "sched": 9024,
      "sius": 9025,
      "tar": 9026,
      "tut": 9027,
      "tings": 9028,
      "tling": 9029,
      "tons": 9030,
      "uaro": 9031,
      "vs": 9032,
      "von": 9033,
      "yard": 9034,
      "zoom": 9035,
      "✨🌳": 9036,
      "✨🦉✨": 9037,
      "🌌💡": 9038,
      "🍎🍇": 9039,
      "💧.": 9040,
      "💫.": 9041,
      "📚✨": 9042,
      "🤔💖": 9043,
      "🤫🌙": 9044,
      "🦉!": 9045,
      "🦉🌲": 9046,
      "🦉👁": 9047,
      "inhabit": 9048,
      "insufficient": 9049,
      "inadequate": 9050,
      "thon": 9051,
      "isol": 9052,
      "review": 9053,
      "reproduction": 9054,
      "removed": 9055,
      "atur": 9056,
      "atro": 9057,
      "ativity": 9058,
      "ana": 9059,
      "anx": 9060,
      "anism": 9061,
      "erable": 9062,
      "erting": 9063,
      "oured": 9064,
      "oning": 9065,
      "onom": 9066,
      "onions": 9067,
      "theology": 9068,
      "theosophical": 9069,
      "ashes": 9070,
      "orous": 9071,
      "orable": 9072,
      "orbit": 9073,
      "organs": 9074,
      "itous": 9075,
      "itudes": 9076,
      "tome": 9077,
      "icism": 9078,
      "owe": 9079,
      "stum": 9080,
      "stump": 9081,
      "stub": 9082,
      "stalk": 9083,
      "oman": 9084,
      "elves": 9085,
      "igge": 9086,
      "usal": 9087,
      "uscripts": 9088,
      "hisses": 9089,
      "foraging": 9090,
      "umn": 9091,
      "acut": 9092,
      "acid": 9093,
      "accom": 9094,
      "amber": 9095,
      "wil": 9096,
      "widen": 9097,
      "sec": 9098,
      "exertion": 9099,
      "oused": 9100,
      "lime": 9101,
      "lives": 9102,
      "etic": 9103,
      "cile": 9104,
      "deer": 9105,
      "deconstruct": 9106,
      "beast": 9107,
      "beholds": 9108,
      "befits": 9109,
      "beckon": 9110,
      "....": 9111,
      "shake": 9112,
      "shivers": 9113,
      "propose": 9114,
      "protest": 9115,
      "proposition": 9116,
      "ctr": 9117,
      "ctive": 9118,
      "outing": 9119,
      "contest": 9120,
      "consequ": 9121,
      "consolid": 9122,
      "concrete": 9123,
      "arent": 9124,
      "chats": 9125,
      "unci": 9126,
      "uncan": 9127,
      "unveiled": 9128,
      "unselfish": 9129,
      "unyielding": 9130,
      "ays": 9131,
      "ayed": 9132,
      "ifle": 9133,
      "agents": 9134,
      "aduc": 9135,
      "adrift": 9136,
      "irrig": 9137,
      "ulary": 9138,
      "meeting": 9139,
      "trop": 9140,
      "trigge": 9141,
      "trifle": 9142,
      "ures": 9143,
      "weir": 9144,
      "iling": 9145,
      "soda": 9146,
      "iding": 9147,
      "persist": 9148,
      "raise": 9149,
      "ledger": 9150,
      "comment": 9151,
      "complic": 9152,
      "comprom": 9153,
      "cop": 9154,
      "geoning": 9155,
      "approval": 9156,
      "litter": 9157,
      "grac": 9158,
      "byproduct": 9159,
      "presences": 9160,
      "lover": 9161,
      "lored": 9162,
      "indu": 9163,
      "cords": 9164,
      "eman": 9165,
      "emit": 9166,
      "inev": 9167,
      "ineff": 9168,
      "doctr": 9169,
      "brium": 9170,
      "avour": 9171,
      "poll": 9172,
      "intake": 9173,
      "oods": 9174,
      "oodle": 9175,
      "compelled": 9176,
      "artist": 9177,
      "native": 9178,
      "responds": 9179,
      "responding": 9180,
      "flut": 9181,
      "flash": 9182,
      "road": 9183,
      "valued": 9184,
      "manip": 9185,
      "manuscripts": 9186,
      "🦉✨🚀": 9187,
      "peach": 9188,
      "peering": 9189,
      "peoples": 9190,
      "digest": 9191,
      "dignity": 9192,
      "disconnect": 9193,
      "dispos": 9194,
      "discrete": 9195,
[...]
