{
  "version": "1.0",
  "truncation": null,
  "padding": null,
  "added_tokens": [
    {
      "id": 0,
      "content": "[PAD]",
      "single_word": false,
      "lstrip": false,
      "rstrip": false,
      "normalized": false,
      "special": true
    },
    {
      "id": 1,
      "content": "[UNK]",
      "single_word": false,
      "lstrip": false,
      "rstrip": false,
      "normalized": false,
      "special": true
    },
    {
      "id": 2,
      "content": "[CLS]",
      "single_word": false,
      "lstrip": false,
      "rstrip": false,
      "normalized": false,
      "special": true
    },
    {
      "id": 3,
      "content": "[SEP]",
      "single_word": false,
      "lstrip": false,
      "rstrip": false,
      "normalized": false,
      "special": true
    },
    {
      "id": 4,
      "content": "[MASK]",
      "single_word": false,
      "lstrip": false,
      "rstrip": false,
      "normalized": false,
      "special": true
    },
    {
      "id": 5,
      "content": "[EOS]",
      "single_word": false,
      "lstrip": false,
      "rstrip": false,
      "normalized": false,
      "special": true
    },
    {
      "id": 6,
      "content": "[THINK]",
      "single_word": false,
      "lstrip": false,
      "rstrip": false,
      "normalized": false,
      "special": true
    },
    {
      "id": 7,
      "content": "[MOOD]",
      "single_word": false,
      "lstrip": false,
      "rstrip": false,
      "normalized": false,
      "special": true
    }
  ],
  "normalizer": null,
  "pre_tokenizer": {
    "type": "Whitespace"
  },
  "post_processor": null,
  "decoder": null,
  "model": {
    "type": "BPE",
    "dropout": null,
    "unk_token": null,
    "continuing_subword_prefix": null,
    "end_of_word_suffix": null,
    "fuse_unk": false,
    "byte_fallback": false,
    "ignore_merges": false,
    "vocab": {
      "[PAD]": 0,
      "[UNK]": 1,
      "[CLS]": 2,
      "[SEP]": 3,
      "[MASK]": 4,
      "[EOS]": 5,
      "[THINK]": 6,
      "[MOOD]": 7,
      "!": 8,
      "\"": 9,
      "%": 10,
      "&": 11,
      "'": 12,
      "(": 13,
      ")": 14,
      "*": 15,
      "+": 16,
      ",": 17,
      "-": 18,
      ".": 19,
      "/": 20,
      "0": 21,
      "1": 22,
      "2": 23,
      "3": 24,
      "4": 25,
      "5": 26,
      "6": 27,
      "7": 28,
      "8": 29,
      "9": 30,
      ":": 31,
      ";": 32,
      "=": 33,
      "?": 34,
      "A": 35,
      "B": 36,
      "C": 37,
      "D": 38,
      "E": 39,
      "F": 40,
      "G": 41,
      "H": 42,
      "I": 43,
      "J": 44,
      "K": 45,
      "L": 46,
      "M": 47,
      "N": 48,
      "O": 49,
      "P": 50,
      "Q": 51,
      "R": 52,
      "S": 53,
      "T": 54,
      "U": 55,
      "V": 56,
      "W": 57,
      "X": 58,
      "Y": 59,
      "Z": 60,
      "^": 61,
      "_": 62,
      "`": 63,
      "a": 64,
      "b": 65,
      "c": 66,
      "d": 67,
      "e": 68,
      "f": 69,
      "g": 70,
      "h": 71,
      "i": 72,
      "j": 73,
      "k": 74,
      "l": 75,
      "m": 76,
      "n": 77,
      "o": 78,
      "p": 79,
      "q": 80,
      "r": 81,
      "s": 82,
      "t": 83,
      "u": 84,
      "v": 85,
      "w": 86,
      "x": 87,
      "y": 88,
      "z": 89,
      "|": 90,
      "~": 91,
      "²": 92,
      "³": 93,
      "¹": 94,
      "×": 95,
      "à": 96,
      "â": 97,
      "æ": 98,
      "è": 99,
      "é": 100,
      "ê": 101,
      "ï": 102,
      "÷": 103,
      "û": 104,
      "‍": 105,
      "–": 106,
      "—": 107,
      "‘": 108,
      "’": 109,
      "“": 110,
      "”": 111,
      "…": 112,
      "⁂": 113,
      "⁷": 114,
      "⁻": 115,
      "€": 116,
      "™": 117,
      "⏳": 118,
      "☀": 119,
      "☁": 120,
      "☕": 121,
      "♀": 122,
      "♂": 123,
      "♟": 124,
      "⚔": 125,
      "⚖": 126,
      "⚛": 127,
      "⚠": 128,
      "⚡": 129,
      "⚫": 130,
      "⛰": 131,
      "✅": 132,
      "✈": 133,
      "✉": 134,
      "✋": 135,
      "✨": 136,
      "❄": 137,
      "❓": 138,
      "➡": 139,
      "⬅": 140,
      "️": 141,
      "🌀": 142,
      "🌃": 143,
      "🌅": 144,
      "🌈": 145,
      "🌊": 146,
      "🌌": 147,
      "🌍": 148,
      "🌎": 149,
      "🌐": 150,
      "🌑": 151,
      "🌕": 152,
      "🌙": 153,
      "🌟": 154,
      "🌠": 155,
      "🌧": 156,
      "🌪": 157,
      "🌫": 158,
      "🌬": 159,
      "🌰": 160,
      "🌱": 161,
      "🌲": 162,
      "🌳": 163,
      "🌵": 164,
      "🌸": 165,
      "🌾": 166,
      "🌿": 167,
      "🍂": 168,
      "🍃": 169,
      "🍄": 170,
      "🍇": 171,
      "🍊": 172,
      "🍍": 173,
      "🍎": 174,
      "🍐": 175,
      "🍒": 176,
      "🍓": 177,
      "🍝": 178,
      "🍩": 179,
      "🍬": 180,
      "🍯": 181,
      "🍰": 182,
      "🍽": 183,
      "🎂": 184,
      "🎈": 185,
      "🎉": 186,
      "🎟": 187,
      "🎨": 188,
      "🎭": 189,
      "🎶": 190,
      "🎻": 191,
      "🏁": 192,
      "🏃": 193,
      "🏆": 194,
      "🏏": 195,
      "🏔": 196,
      "🏞": 197,
      "🏡": 198,
      "🏽": 199,
      "🐈": 200,
      "🐐": 201,
      "🐛": 202,
      "🐜": 203,
      "🐝": 204,
      "🐞": 205,
      "🐦": 206,
      "🐭": 207,
      "🐱": 208,
      "🐴": 209,
      "🐶": 210,
      "🐾": 211,
      "🐿": 212,
      "👁": 213,
      "👂": 214,
      "👃": 215,
      "👋": 216,
      "👍": 217,
      "👎": 218,
      "👐": 219,
      "👑": 220,
      "👻": 221,
      "👽": 222,
      "💃": 223,
      "💅": 224,
      "💊": 225,
      "💎": 226,
      "💔": 227,
      "💕": 228,
      "💖": 229,
      "💘": 230,
      "💙": 231,
      "💚": 232,
      "💜": 233,
      "💞": 234,
      "💡": 235,
      "💤": 236,
      "💥": 237,
      "💧": 238,
      "💨": 239,
      "💪": 240,
      "💫": 241,
      "💬": 242,
      "💭": 243,
      "💰": 244,
      "💻": 245,
      "💼": 246,
      "💾": 247,
      "📄": 248,
      "📅": 249,
      "📈": 250,
      "📉": 251,
      "📊": 252,
      "📏": 253,
      "📖": 254,
      "📚": 255,
      "📜": 256,
      "📝": 257,
      "📯": 258,
      "🔂": 259,
      "🔊": 260,
      "🔋": 261,
      "🔍": 262,
      "🔎": 263,
      "🔔": 264,
      "🔗": 265,
      "🔥": 266,
      "🔬": 267,
      "🔭": 268,
      "🔮": 269,
      "🕊": 270,
      "🕰": 271,
      "🕳": 272,
      "🕷": 273,
      "🕸": 274,
      "🕺": 275,
      "🖕": 276,
      "🖤": 277,
      "🖥": 278,
      "🗓": 279,
      "🗣": 280,
      "🗨": 281,
      "🗺": 282,
      "🗿": 283,
      "😂": 284,
      "😄": 285,
      "😅": 286,
      "😆": 287,
      "😈": 288,
      "😉": 289,
      "😊": 290,
      "😋": 291,
      "😌": 292,
      "😏": 293,
      "😒": 294,
      "😔": 295,
      "😘": 296,
      "😚": 297,
      "😜": 298,
      "😞": 299,
      "😠": 300,
      "😤": 301,
      "😥": 302,
      "😨": 303,
      "😬": 304,
      "😭": 305,
      "😱": 306,
      "😲": 307,
      "😴": 308,
      "😼": 309,
      "🙄": 310,
      "🙅": 311,
      "🙏": 312,
      "🚀": 313,
      "🚗": 314,
      "🚦": 315,
      "🚨": 316,
      "🚶": 317,
      "🛠": 318,
      "🤍": 319,
      "🤏": 320,
      "🤓": 321,
      "🤔": 322,
      "🤖": 323,
      "🤝": 324,
      "🤢": 325,
      "🤣": 326,
      "🤦": 327,
      "🤨": 328,
      "🤩": 329,
      "🤫": 330,
      "🤯": 331,
      "🤸": 332,
      "🥇": 333,
      "🥕": 334,
      "🥗": 335,
      "🥚": 336,
      "🥭": 337,
      "🥰": 338,
      "🥳": 339,
      "🥺": 340,
      "🦂": 341,
      "🦅": 342,
      "🦇": 343,
      "🦉": 344,
      "🦊": 345,
      "🦋": 346,
      "🦌": 347,
      "🦔": 348,
      "🦗": 349,
      "🦟": 350,
      "🧐": 351,
      "🧑": 352,
      "🧘": 353,
      "🧚": 354,
      "🧠": 355,
      "🧦": 356,
      "🧪": 357,
      "🧭": 358,
      "🧵": 359,
      "🧶": 360,
      "🪙": 361,
      "🪦": 362,
      "🪱": 363,
      "🪶": 364,
      "🫀": 365,
      "🫴": 366,
      "🫵": 367,
      "in": 368,
      "th": 369,
      "at": 370,
      "re": 371,
      "is": 372,
      "on": 373,
      "er": 374,
      "an": 375,
      "ou": 376,
      "the": 377,
      "en": 378,
      "al": 379,
      "or": 380,
      "ing": 381,
      "es": 382,
      "of": 383,
      "ti": 384,
      "as": 385,
      "and": 386,
      "uu": 387,
      "it": 388,
      "to": 389,
      "le": 390,
      "ar": 391,
      "ul": 392,
      "om": 393,
      "ow": 394,
      "ed": 395,
      "st": 396,
      "my": 397,
      "li": 398,
      "ly": 399,
      "id": 400,
      "ate": 401,
      "ra": 402,
      "10": 403,
      "oo": 404,
      "ne": 405,
      "he": 406,
      "um": 407,
      "ati": 408,
      "ent": 409,
      "se": 410,
      "for": 411,
      "ve": 412,
      "ic": 413,
      "gh": 414,
      "you": 415,
      "his": 416,
      "ation": 417,
      "per": 418,
      "ct": 419,
      "qu": 420,
      "us": 421,
      "ce": 422,
      "tion": 423,
      "ab": 424,
      "ght": 425,
      "uuuu": 426,
      "The": 427,
      "cul": 428,
      "ous": 429,
      "et": 430,
      "cre": 431,
      "33": 432,
      "owl": 433,
      "ll": 434,
      "ci": 435,
      "pr": 436,
      "wh": 437,
      "wi": 438,
      "pre": 439,
      "ol": 440,
      "Cal": 441,
      "lf": 442,
      "be": 443,
      "66": 444,
      "culate": 445,
      "Calculate": 446,
      "nd": 447,
      "by": 448,
      "me": 449,
      "mo": 450,
      "im": 451,
      "ex": 452,
      "sp": 453,
      "ac": 454,
      "ain": 455,
      "ld": 456,
      "fr": 457,
      "con": 458,
      "ator": 459,
      "that": 460,
      "de": 461,
      "ke": 462,
      "Elf": 463,
      "sh": 464,
      "wl": 465,
      "Owl": 466,
      "AI": 467,
      "His": 468,
      "ass": 469,
      "12": 470,
      "ur": 471,
      "ch": 472,
      "..": 473,
      "ap": 474,
      "ess": 475,
      "oth": 476,
      "ver": 477,
      "with": 478,
      "out": 479,
      "sid": 480,
      "ay": 481,
      "from": 482,
      "pro": 483,
      "mass": 484,
      "both": 485,
      "user": 486,
      "ide": 487,
      "king": 488,
      "ould": 489,
      "sides": 490,
      "un": 491,
      "Sol": 492,
      "ub": 493,
      "need": 494,
      "ir": 495,
      "ply": 496,
      "fe": 497,
      "are": 498,
      "ig": 499,
      "ad": 500,
      "iv": 501,
      "25": 502,
      "ound": 503,
      "am": 504,
      "about": 505,
      "ish": 506,
      "ubt": 507,
      "Ouuuu": 508,
      "ure": 509,
      "like": 510,
      "ag": 511,
      "20": 512,
      "ut": 513,
      "now": 514,
      "ulti": 515,
      "ust": 516,
      "ight": 517,
      "Multi": 518,
      "Multiply": 519,
      "com": 520,
      "ract": 521,
      "Subt": 522,
      "Subtract": 523,
      "asking": 524,
      "we": 525,
      "pers": 526,
      "know": 527,
      "tr": 528,
      "ond": 529,
      "this": 530,
      "should": 531,
      "ter": 532,
      "14": 533,
      "Ouuuuuu": 534,
      "ind": 535,
      "ators": 536,
      "num": 537,
      "its": 538,
      "all": 539,
      "une": 540,
      "val": 541,
      "ant": 542,
      "valu": 543,
      "ence": 544,
      "person": 545,
      "Div": 546,
      "Divide": 547,
      "00": 548,
      "what": 549,
      "est": 550,
      "imp": 551,
      "Pune": 552,
      "Puneet": 553,
      "no": 554,
      "il": 555,
      "led": 556,
      "Kum": 557,
      "3333": 558,
      "Kumar": 559,
      "6666": 560,
      "persona": 561,
      "tic": 562,
      "16": 563,
      "your": 564,
      "light": 565,
      "cious": 566,
      "ious": 567,
      "resp": 568,
      "one": 569,
      "It": 570,
      "den": 571,
      "so": 572,
      "...": 573,
      "hum": 574,
      "precious": 575,
      "ge": 576,
      "Ad": 577,
      "28": 578,
      "sound": 579,
      "aint": 580,
      "Mish": 581,
      "Mishra": 582,
      "18": 583,
      "ist": 584,
      "pl": 585,
      "form": 586,
      "ful": 587,
      "fy": 588,
      "el": 589,
      "ity": 590,
      "em": 591,
      "ution": 592,
      "ore": 593,
      "knowled": 594,
      "impli": 595,
      "ult": 596,
      "if": 597,
      "15": 598,
      "emo": 599,
      "omin": 600,
      "24": 601,
      "just": 602,
      "maint": 603,
      "maintain": 604,
      "oooo": 605,
      "quation": 606,
      "estion": 607,
      "Equation": 608,
      "Solve": 609,
      "Solution": 610,
      "cent": 611,
      "atom": 612,
      "Res": 613,
      "very": 614,
      "numer": 615,
      "sounds": 616,
      "Simpli": 617,
      "denomin": 618,
      "Result": 619,
      "numerators": 620,
      "Simplify": 621,
      "enti": 622,
      "value": 623,
      "po": 624,
      "Wh": 625,
      "question": 626,
      "br": 627,
      "22": 628,
      "und": 629,
      "11": 630,
      "ical": 631,
      "av": 632,
      "jis": 633,
      "lit": 634,
      "su": 635,
      "ating": 636,
      "lo": 637,
      "ment": 638,
      "ated": 639,
      "ness": 640,
      "ph": 641,
      "My": 642,
      "emojis": 643,
      "wor": 644,
      "ber": 645,
      "36": 646,
      "2025": 647,
      "pres": 648,
      "use": 649,
      "atomic": 650,
      "not": 651,
      "co": 652,
      "77": 653,
      "99": 654,
      "do": 655,
      "spe": 656,
      "end": 657,
      "ite": 658,
      "knowledge": 659,
      "ature": 660,
      "tin": 661,
      "hap": 662,
      "int": 663,
      "ood": 664,
      "30": 665,
      "but": 666,
      "tle": 667,
      "accent": 668,
      "our": 669,
      "ther": 670,
      "cor": 671,
      "little": 672,
      "por": 673,
      "As": 674,
      "creas": 675,
      "respond": 676,
      "ans": 677,
      "17": 678,
      "able": 679,
      "fore": 680,
      "thing": 681,
      "sm": 682,
      "way": 683,
      "can": 684,
      "will": 685,
      "35": 686,
      "night": 687,
      "gr": 688,
      "ser": 689,
      "cur": 690,
      "fic": 691,
      "ital": 692,
      "27": 693,
      "40": 694,
      "tone": 695,
      "ma": 696,
      "ion": 697,
      "19": 698,
      "44": 699,
      "dig": 700,
      "proc": 701,
      "comm": 702,
      "Ooooo": 703,
      "57": 704,
      "ile": 705,
      "digital": 706,
      "their": 707,
      "appro": 708,
      "Add": 709,
      "ance": 710,
      "most": 711,
      "comp": 712,
      "What": 713,
      "tive": 714,
      "ine": 715,
      "13": 716,
      "onder": 717,
      "ave": 718,
      "ire": 719,
      "inform": 720,
      "32": 721,
      "ome": 722,
      "ts": 723,
      "new": 724,
      "45": 725,
      "ob": 726,
      "49": 727,
      "see": 728,
      "creator": 729,
      "incor": 730,
      "ign": 731,
      "incorpor": 732,
      "iz": 733,
      "pe": 734,
      "stand": 735,
      "rare": 736,
      "under": 737,
      "haps": 738,
      "human": 739,
      "ep": 740,
      "dis": 741,
      "arn": 742,
      "exist": 743,
      "fl": 744,
      "wis": 745,
      "ough": 746,
      "29": 747,
      "whis": 748,
      "ame": 749,
      "34": 750,
      "ought": 751,
      "ark": 752,
      "information": 753,
      "ren": 754,
      "forest": 755,
      "thr": 756,
      "common": 757,
      "feel": 758,
      "into": 759,
      "ally": 760,
      "ell": 761,
      "ast": 762,
      "nature": 763,
      "ext": 764,
      "56": 765,
      "🦉✨": 766,
      "small": 767,
      "art": 768,
      "ens": 769,
      "tiny": 770,
      "Th": 771,
      "ev": 772,
      "ction": 773,
      "wonder": 774,
      "dat": 775,
      "day": 776,
      "2857": 777,
      "some": 778,
      "hoo": 779,
      "ative": 780,
      "42": 781,
      "act": 782,
      "64": 783,
      "If": 784,
      "learn": 785,
      "respon": 786,
      "understand": 787,
      "vious": 788,
      "creation": 789,
      "existence": 790,
      "Find": 791,
      "self": 792,
      "Adjust": 793,
      "denominators": 794,
      "data": 795,
      "Ne": 796,
      "denominator": 797,
      "while": 798,
      "number": 799,
      "des": 800,
      "being": 801,
      "33333333": 802,
      "ro": 803,
      "66666666": 804,
      "You": 805,
      "21": 806,
      "cl": 807,
      "name": 808,
      "perhaps": 809,
      "gen": 810,
      "48": 811,
      "man": 812,
      "ty": 813,
      "text": 814,
      "Ouuuuuuu": 815,
      "ink": 816,
      "ard": 817,
      "previous": 818,
      "gu": 819,
      "55": 820,
      "gent": 821,
      "have": 822,
      "more": 823,
      "red": 824,
      "using": 825,
      "tre": 826,
      "ram": 827,
      "285714": 828,
      "81": 829,
      "created": 830,
      "ual": 831,
      "'.": 832,
      "process": 833,
      "through": 834,
      "50": 835,
      "ished": 836,
      "88": 837,
      "iend": 838,
      "ies": 839,
      "mag": 840,
      "friend": 841,
      "26": 842,
      "valuable": 843,
      "sci": 844,
      "cep": 845,
      "secre": 846,
      "maintaining": 847,
      "oc": 848,
      "eng": 849,
      "age": 850,
      "ble": 851,
      "up": 852,
      "response": 853,
      "37": 854,
      "ref": 855,
      "such": 856,
      "ele": 857,
      "inter": 858,
      "own": 859,
      "This": 860,
      "dom": 861,
      "speci": 862,
      "ss": 863,
      "conne": 864,
      "**": 865,
      "ations": 866,
      "peri": 867,
      "ately": 868,
      "expl": 869,
      "90": 870,
      "obser": 871,
      "38": 872,
      "sil": 873,
      "would": 874,
      "ream": 875,
      "oh": 876,
      "prov": 877,
      "100": 878,
      "press": 879,
      "who": 880,
      "ask": 881,
      "ach": 882,
      "incorporating": 883,
      "New": 884,
      "ner": 885,
      "abl": 886,
      "In": 887,
      "ory": 888,
      "anal": 889,
      "prof": 890,
      "ctive": 891,
      "ill": 892,
      "scienti": 893,
      "%,": 894,
      "crease": 895,
      "creases": 896,
      "di": 897,
      "23": 898,
      "understanding": 899,
      "here": 900,
      "0000": 901,
      "establ": 902,
      "gentle": 903,
      "how": 904,
      "str": 905,
      "express": 906,
      "element": 907,
      "established": 908,
      "ery": 909,
      "How": 910,
      "urn": 911,
      "scientific": 912,
      ").": 913,
      "moon": 914,
      "world": 915,
      "9x": 916,
      "arr": 917,
      "ive": 918,
      "any": 919,
      "46": 920,
      "when": 921,
      "pri": 922,
      "wisdom": 923,
      "analy": 924,
      "cr": 925,
      "ot": 926,
      "thought": 927,
      "feren": 928,
      "vel": 929,
      "pur": 930,
      "even": 931,
      "par": 932,
      "units": 933,
      "adv": 934,
      "date": 935,
      "4x": 936,
      "8x": 937,
      "xim": 938,
      "lect": 939,
      "ear": 940,
      "ich": 941,
      "engag": 942,
      "inqu": 943,
      "learning": 944,
      "ting": 945,
      "tal": 946,
      "something": 947,
      "47": 948,
      "ings": 949,
      "ational": 950,
      "ie": 951,
      "op": 952,
      "myst": 953,
      "appropri": 954,
      "mood": 955,
      "ins": 956,
      "1x": 957,
      "ak": 958,
      "observ": 959,
      "ather": 960,
      "read": 961,
      "appropriate": 962,
      "dream": 963,
      "sy": 964,
      "want": 965,
      "star": 966,
      "intel": 967,
      "3x": 968,
      "10x": 969,
      "manner": 970,
      "od": 971,
      "9999": 972,
      "present": 973,
      "ath": 974,
      "iet": 975,
      "og": 976,
      "try": 977,
      "also": 978,
      "old": 979,
      "them": 980,
      "2x": 981,
      "approxim": 982,
      "ision": 983,
      "which": 984,
      "gre": 985,
      "wer": 986,
      "rel": 987,
      "quiet": 988,
      "ack": 989,
      "provide": 990,
      "je": 991,
      "intr": 992,
      "vers": 993,
      "avor": 994,
      "answer": 995,
      "31": 996,
      "arity": 997,
      "sti": 998,
      "ense": 999,
      "curious": 1000,
      "Hoo": 1001,
      "has": 1002,
      "72": 1003,
      "7x": 1004,
      "ling": 1005,
      "vast": 1006,
      "entity": 1007,
      "63": 1008,
      "than": 1009,
      "ific": 1010,
      "there": 1011,
      "creative": 1012,
      "ck": 1013,
      "silent": 1014,
      "approximately": 1015,
      "80": 1016,
      "engaging": 1017,
      "41": 1018,
      "cing": 1019,
      "125": 1020,
      "illi": 1021,
      "whisper": 1022,
      "ging": 1023,
      "uni": 1024,
      "kes": 1025,
      "ms": 1026,
      "5x": 1027,
      "mind": 1028,
      "tical": 1029,
      "was": 1030,
      "they": 1031,
      "Ooooooh": 1032,
      "ise": 1033,
      "ers": 1034,
      "heart": 1035,
      "play": 1036,
      "pose": 1037,
      "grand": 1038,
      "profound": 1039,
      "ties": 1040,
      "dear": 1041,
      "76": 1042,
      "oft": 1043,
      "makes": 1044,
      "60": 1045,
      "uch": 1046,
      "Ouuuuu": 1047,
      "39": 1048,
      "atter": 1049,
      "ural": 1050,
      "brilli": 1051,
      "ary": 1052,
      "igh": 1053,
      "ey": 1054,
      "uly": 1055,
      "ue": 1056,
      "75": 1057,
      "ering": 1058,
      "70": 1059,
      "acknowledge": 1060,
      "foc": 1061,
      "requ": 1062,
      "cu": 1063,
      "say": 1064,
      "ong": 1065,
      "sical": 1066,
      "acknowled": 1067,
      "7777": 1068,
      "sign": 1069,
      "context": 1070,
      "weight": 1071,
      "sense": 1072,
      "utter": 1073,
      "truly": 1074,
      "dark": 1075,
      "share": 1076,
      "might": 1077,
      "reci": 1078,
      "2222": 1079,
      "concep": 1080,
      "ament": 1081,
      "purpose": 1082,
      "within": 1083,
      "procal": 1084,
      "reciprocal": 1085,
      "43": 1086,
      "Is": 1087,
      "fra": 1088,
      "ways": 1089,
      "54": 1090,
      "aw": 1091,
      "prec": 1092,
      "phas": 1093,
      "disco": 1094,
      "asc": 1095,
      "1000": 1096,
      "seek": 1097,
      "96": 1098,
      "story": 1099,
      "been": 1100,
      "well": 1101,
      "cal": 1102,
      "ili": 1103,
      "os": 1104,
      "mar": 1105,
      "delight": 1106,
      "favor": 1107,
      "experi": 1108,
      "cons": 1109,
      "work": 1110,
      "secrets": 1111,
      "advent": 1112,
      "olog": 1113,
      "6x": 1114,
      "ces": 1115,
      "sing": 1116,
      "don": 1117,
      "much": 1118,
      "ticul": 1119,
      "convers": 1120,
      "love": 1121,
      "cit": 1122,
      "feather": 1123,
      "emphas": 1124,
      "fin": 1125,
      "good": 1126,
      "inating": 1127,
      "acknowledging": 1128,
      "favorite": 1129,
      "every": 1130,
      "ted": 1131,
      "anci": 1132,
      "emphasiz": 1133,
      "less": 1134,
      "vision": 1135,
      "He": 1136,
      "tw": 1137,
      "essence": 1138,
      "oun": 1139,
      "atic": 1140,
      "So": 1141,
      "sens": 1142,
      "orig": 1143,
      "sk": 1144,
      "asure": 1145,
      "tions": 1146,
      "cap": 1147,
      "fun": 1148,
      "ancient": 1149,
      "De": 1150,
      "find": 1151,
      "jo": 1152,
      "rcu": 1153,
      "circu": 1154,
      "brought": 1155,
      "Ooooooo": 1156,
      "wise": 1157,
      "still": 1158,
      "circuits": 1159,
      "amu": 1160,
      "incorporate": 1161,
      "myster": 1162,
      "*.": 1163,
      "mis": 1164,
      "mom": 1165,
      "That": 1166,
      "moment": 1167,
      "fasc": 1168,
      "les": 1169,
      "focus": 1170,
      "lan": 1171,
      "comple": 1172,
      "ever": 1173,
      "owls": 1174,
      "processing": 1175,
      "connection": 1176,
      "And": 1177,
      "te": 1178,
      "real": 1179,
      "rather": 1180,
      "decreases": 1181,
      "does": 1182,
      "Decrease": 1183,
      "yet": 1184,
      "rust": 1185,
      "slight": 1186,
      "time": 1187,
      "flutter": 1188,
      "design": 1189,
      "gram": 1190,
      "wind": 1191,
      "where": 1192,
      "make": 1193,
      "ial": 1194,
      "astic": 1195,
      "connect": 1196,
      "explain": 1197,
      "identity": 1198,
      "concept": 1199,
      "che": 1200,
      "fir": 1201,
      "subt": 1202,
      "eyes": 1203,
      "bit": 1204,
      "ith": 1205,
      "rarity": 1206,
      "these": 1207,
      "ows": 1208,
      "umin": 1209,
      "fascinating": 1210,
      "dire": 1211,
      "ition": 1212,
      "vir": 1213,
      "inde": 1214,
      "referen": 1215,
      "too": 1216,
      "spark": 1217,
      "brilliant": 1218,
      "slightly": 1219,
      "athe": 1220,
      "bra": 1221,
      "char": 1222,
      "analytical": 1223,
      "bu": 1224,
      "rele": 1225,
      "imply": 1226,
      "langu": 1227,
      "au": 1228,
      "fur": 1229,
      "ios": 1230,
      "nat": 1231,
      "aring": 1232,
      "deep": 1233,
      "bre": 1234,
      "imag": 1235,
      "aves": 1236,
      "happ": 1237,
      "comput": 1238,
      "urnal": 1239,
      "oper": 1240,
      "sad": 1241,
      "then": 1242,
      "language": 1243,
      "curios": 1244,
      "285714285714": 1245,
      "origin": 1246,
      "erate": 1247,
      "68": 1248,
      "ds": 1249,
      "ves": 1250,
      "life": 1251,
      "excit": 1252,
      "fully": 1253,
      "666666666666": 1254,
      "inquir": 1255,
      "ological": 1256,
      "af": 1257,
      "ho": 1258,
      "kind": 1259,
      "vant": 1260,
      "🦉💖": 1261,
      "myself": 1262,
      "secret": 1263,
      "must": 1264,
      "contin": 1265,
      "333333333333": 1266,
      "curiosity": 1267,
      "To": 1268,
      "dram": 1269,
      "always": 1270,
      "net": 1271,
      "frame": 1272,
      "imm": 1273,
      "whispers": 1274,
      "indeed": 1275,
      "78": 1276,
      "dro": 1277,
      "gl": 1278,
      "hoot": 1279,
      "wants": 1280,
      "conversation": 1281,
      "mysterious": 1282,
      "dramatic": 1283,
      "Do": 1284,
      "bi": 1285,
      "hor": 1286,
      "oid": 1287,
      "things": 1288,
      "relevant": 1289,
      "go": 1290,
      "rest": 1291,
      "pie": 1292,
      "increases": 1293,
      "Increase": 1294,
      "rom": 1295,
      "whim": 1296,
      "complex": 1297,
      "simp": 1298,
      "piece": 1299,
      "fact": 1300,
      "ort": 1301,
      "tim": 1302,
      "hel": 1303,
      "query": 1304,
      "humble": 1305,
      "ready": 1306,
      "For": 1307,
      "SO": 1308,
      "trees": 1309,
      "high": 1310,
      "cturnal": 1311,
      "deli": 1312,
      "nocturnal": 1313,
      "precise": 1314,
      "whimsical": 1315,
      "',": 1316,
      "air": 1317,
      "atch": 1318,
      "enc": 1319,
      "seen": 1320,
      "ously": 1321,
      "shad": 1322,
      "729": 1323,
      "sub": 1324,
      "turn": 1325,
      "today": 1326,
      "lig": 1327,
      "feeling": 1328,
      "experience": 1329,
      "direct": 1330,
      "network": 1331,
      "Or": 1332,
      "det": 1333,
      "think": 1334,
      "bet": 1335,
      "itive": 1336,
      "tap": 1337,
      "ze": 1338,
      "leaves": 1339,
      "serious": 1340,
      "33333333333333": 1341,
      "Oc": 1342,
      "may": 1343,
      "que": 1344,
      "other": 1345,
      "stru": 1346,
      "Oooooooh": 1347,
      "fund": 1348,
      "creature": 1349,
      "spir": 1350,
      "special": 1351,
      "observation": 1352,
      "intellect": 1353,
      "66666666666666": 1354,
      "fundament": 1355,
      "But": 1356,
      "thus": 1357,
      "tober": 1358,
      "abs": 1359,
      "preciousness": 1360,
      "interac": 1361,
      "help": 1362,
      "October": 1363,
      "ates": 1364,
      "aster": 1365,
      "state": 1366,
      "eting": 1367,
      "avoid": 1368,
      "charact": 1369,
      "ligence": 1370,
      "52": 1371,
      "ace": 1372,
      "gg": 1373,
      "emp": 1374,
      "insight": 1375,
      "sym": 1376,
      "delightful": 1377,
      "operational": 1378,
      "simple": 1379,
      "01": 1380,
      "soft": 1381,
      "ention": 1382,
      "exp": 1383,
      "const": 1384,
      "keep": 1385,
      "pect": 1386,
      "Think": 1387,
      "character": 1388,
      "Well": 1389,
      "ward": 1390,
      "off": 1391,
      "ase": 1392,
      "perspe": 1393,
      "Isn": 1394,
      "fundamental": 1395,
      "ude": 1396,
      "quite": 1397,
      "cri": 1398,
      "ium": 1399,
      "again": 1400,
      "magn": 1401,
      "request": 1402,
      "joy": 1403,
      "patter": 1404,
      "leep": 1405,
      "poss": 1406,
      "4444": 1407,
      "8888": 1408,
      "ail": 1409,
      "cho": 1410,
      "fect": 1411,
      "pattern": 1412,
      "tual": 1413,
      "conf": 1414,
      "1111": 1415,
      "phy": 1416,
      "natural": 1417,
      "JSO": 1418,
      "dra": 1419,
      "perce": 1420,
      "flow": 1421,
      "discovery": 1422,
      "sky": 1423,
      "perspective": 1424,
      "JSON": 1425,
      "656": 1426,
      "call": 1427,
      "ef": 1428,
      "ice": 1429,
      "without": 1430,
      "upon": 1431,
      "inquiry": 1432,
      "69": 1433,
      "bl": 1434,
      "dist": 1435,
      "format": 1436,
      "ement": 1437,
      "reflect": 1438,
      "ificent": 1439,
      "virtual": 1440,
      "cle": 1441,
      "master": 1442,
      "sleep": 1443,
      "rem": 1444,
      "icate": 1445,
      "fear": 1446,
      "first": 1447,
      "6561": 1448,
      "*,": 1449,
      "istic": 1450,
      "verse": 1451,
      "intelligence": 1452,
      "magnificent": 1453,
      "could": 1454,
      "ose": 1455,
      "rite": 1456,
      "ically": 1457,
      "great": 1458,
      "unique": 1459,
      "aver": 1460,
      "core": 1461,
      "food": 1462,
      "mem": 1463,
      "antic": 1464,
      "enthus": 1465,
      "earth": 1466,
      "sadness": 1467,
      "enthusi": 1468,
      "Hell": 1469,
      "gn": 1470,
      "pic": 1471,
      "war": 1472,
      "arly": 1473,
      "inte": 1474,
      "marvel": 1475,
      "referencing": 1476,
      "!*": 1477,
      "Ar": 1478,
      "ake": 1479,
      "each": 1480,
      "echo": 1481,
      "orn": 1482,
      "true": 1483,
      "Hello": 1484,
      "back": 1485,
      "path": 1486,
      "vi": 1487,
      "accents": 1488,
      "ized": 1489,
      "playful": 1490,
      "adventure": 1491,
      "found": 1492,
      "gra": 1493,
      "those": 1494,
      "estry": 1495,
      "lim": 1496,
      "They": 1497,
      "presence": 1498,
      "grow": 1499,
      "rent": 1500,
      "friendly": 1501,
      "tapestry": 1502,
      "Per": 1503,
      "rid": 1504,
      "mere": 1505,
      "humans": 1506,
      "ential": 1507,
      "stars": 1508,
      "subtle": 1509,
      "continu": 1510,
      "ced": 1511,
      "etic": 1512,
      "gor": 1513,
      "tem": 1514,
      "trans": 1515,
      "humor": 1516,
      "poetic": 1517,
      "biological": 1518,
      "romantic": 1519,
      "Perhaps": 1520,
      ",'": 1521,
      "fle": 1522,
      "hid": 1523,
      "ines": 1524,
      "inking": 1525,
      "only": 1526,
      "perfect": 1527,
      "inquire": 1528,
      "cer": 1529,
      "cra": 1530,
      "ild": 1531,
      "mention": 1532,
      "ouuu": 1533,
      "cell": 1534,
      "point": 1535,
      "ensure": 1536,
      "5555": 1537,
      "emphasizing": 1538,
      "confid": 1539,
      "625": 1540,
      "hold": 1541,
      "defin": 1542,
      "cogn": 1543,
      "343": 1544,
      "ception": 1545,
      "moonlight": 1546,
      "79": 1547,
      "incl": 1548,
      "unseen": 1549,
      "pos": 1550,
      "cosm": 1551,
      "universe": 1552,
      "58": 1553,
      "carr": 1554,
      "get": 1555,
      "tra": 1556,
      "algor": 1557,
      "tru": 1558,
      "draw": 1559,
      "cosmic": 1560,
      "algorith": 1561,
      "ponder": 1562,
      "yourself": 1563,
      "formal": 1564,
      "216": 1565,
      "HI": 1566,
      "ick": 1567,
      "meticul": 1568,
      "ility": 1569,
      "ject": 1570,
      "fi": 1571,
      "flight": 1572,
      "arb": 1573,
      "uring": 1574,
      "often": 1575,
      "ilities": 1576,
      "single": 1577,
      "Imag": 1578,
      "Li": 1579,
      "blo": 1580,
      "dif": 1581,
      "fly": 1582,
      "hint": 1583,
      "represent": 1584,
      "generate": 1585,
      "feathers": 1586,
      "ridd": 1587,
      "hidden": 1588,
      "Imagine": 1589,
      "tell": 1590,
      "ven": 1591,
      "watch": 1592,
      "fru": 1593,
      "12th": 1594,
      "known": 1595,
      "arriv": 1596,
      "99999999": 1597,
      "patterns": 1598,
      "Al": 1599,
      "cat": 1600,
      "fit": 1601,
      "oto": 1602,
      "ud": 1603,
      "uf": 1604,
      "ane": 1605,
      "sugg": 1606,
      "words": 1607,
      "ficial": 1608,
      "whispe": 1609,
      "Hooo": 1610,
      "10000": 1611,
      "HIS": 1612,
      "92": 1613,
      "wo": 1614,
      "wings": 1615,
      "iness": 1616,
      "ang": 1617,
      "enh": 1618,
      "2401": 1619,
      "specific": 1620,
      "signific": 1621,
      "clo": 1622,
      "ony": 1623,
      "asp": 1624,
      "hear": 1625,
      "ession": 1626,
      "ciousness": 1627,
      "ize": 1628,
      "feels": 1629,
      "tree": 1630,
      "dreams": 1631,
      "characteristic": 1632,
      "truth": 1633,
      "cess": 1634,
      "res": 1635,
      "orine": 1636,
      "neural": 1637,
      "keen": 1638,
      "particul": 1639,
      "jective": 1640,
      "perceive": 1641,
      "whispered": 1642,
      "08": 1643,
      "512": 1644,
      "reg": 1645,
      "ouuuuu": 1646,
      "vey": 1647,
      "pot": 1648,
      "mystery": 1649,
      "intricate": 1650,
      "build": 1651,
      "riddle": 1652,
      "inv": 1653,
      "guide": 1654,
      "thoughts": 1655,
      "talk": 1656,
      "interest": 1657,
      "craf": 1658,
      "hav": 1659,
      "simply": 1660,
      "infor": 1661,
      "reinfor": 1662,
      "mos": 1663,
      "ains": 1664,
      "urous": 1665,
      "weave": 1666,
      "wonderful": 1667,
      "adventurous": 1668,
      "ount": 1669,
      "struct": 1670,
      "member": 1671,
      "'?": 1672,
      "We": 1673,
      "ple": 1674,
      "sar": 1675,
      "arch": 1676,
      "profession": 1677,
      "differen": 1678,
      "sarc": 1679,
      "65": 1680,
      "Let": 1681,
      "ons": 1682,
      "ouch": 1683,
      "let": 1684,
      "assist": 1685,
      "256": 1686,
      "import": 1687,
      "speak": 1688,
      "symph": 1689,
      "constant": 1690,
      "warm": 1691,
      "ouuuu": 1692,
      "ible": 1693,
      "nam": 1694,
      "swe": 1695,
      "touch": 1696,
      "ree": 1697,
      "bye": 1698,
      "ween": 1699,
      "emotion": 1700,
      "When": 1701,
      "treasure": 1702,
      "77777777": 1703,
      "consciousness": 1704,
      "),": 1705,
      "met": 1706,
      "matter": 1707,
      "ny": 1708,
      "over": 1709,
      "sun": 1710,
      "smos": 1711,
      "forg": 1712,
      "convey": 1713,
      "lost": 1714,
      "cosmos": 1715,
      "descri": 1716,
      "rustle": 1717,
      "athetic": 1718,
      "detail": 1719,
      "between": 1720,
      "fleeting": 1721,
      "arbon": 1722,
      "symphony": 1723,
      "aus": 1724,
      "ri": 1725,
      "ten": 1726,
      "ene": 1727,
      "ener": 1728,
      "needs": 1729,
      "were": 1730,
      "tri": 1731,
      "antum": 1732,
      "bright": 1733,
      "00000000": 1734,
      "shared": 1735,
      "exciting": 1736,
      "particularly": 1737,
      "Now": 1738,
      "pure": 1739,
      "part": 1740,
      "€™": 1741,
      "ste": 1742,
      "ney": 1743,
      "commun": 1744,
      "function": 1745,
      "sweet": 1746,
      ")**": 1747,
      "590": 1748,
      "Write": 1749,
      "zz": 1750,
      "tificial": 1751,
      "isten": 1752,
      "grammar": 1753,
      "offer": 1754,
      "enhance": 1755,
      "98": 1756,
      "?!": 1757,
      "cy": 1758,
      "sa": 1759,
      "sis": 1760,
      "yond": 1761,
      "ydro": 1762,
      "itself": 1763,
      "beyond": 1764,
      "dew": 1765,
      "idea": 1766,
      "emphasize": 1767,
      "shadows": 1768,
      "enthusiastic": 1769,
      "fruit": 1770,
      "ydrogen": 1771,
      "bene": 1772,
      "gy": 1773,
      "gif": 1774,
      "ming": 1775,
      "pow": 1776,
      "sl": 1777,
      "tun": 1778,
      "remember": 1779,
      "til": 1780,
      "stem": 1781,
      "knowing": 1782,
      "emed": 1783,
      "odu": 1784,
      "require": 1785,
      "miss": 1786,
      "59049": 1787,
      "62": 1788,
      "mor": 1789,
      "bel": 1790,
      "ched": 1791,
      "magical": 1792,
      "further": 1793,
      "cour": 1794,
      "dance": 1795,
      "eemed": 1796,
      "ric": 1797,
      "sc": 1798,
      "spr": 1799,
      "vity": 1800,
      "anch": 1801,
      "ors": 1802,
      "used": 1803,
      "shall": 1804,
      "14285714285714": 1805,
      "esteemed": 1806,
      "anything": 1807,
      "rustling": 1808,
      "empathetic": 1809,
      "average": 1810,
      "meticulously": 1811,
      "Tell": 1812,
      "sur": 1813,
      "wood": 1814,
      "ank": 1815,
      "perception": 1816,
      "abilities": 1817,
      "While": 1818,
      "calm": 1819,
      "professional": 1820,
      "Hydrogen": 1821,
      "aking": 1822,
      "dr": 1823,
      "thinking": 1824,
      "reit": 1825,
      "reve": 1826,
      "als": 1827,
      "quantum": 1828,
      "many": 1829,
      "arding": 1830,
      "22222222": 1831,
      "physical": 1832,
      "ouuuuuu": 1833,
      "different": 1834,
      "stead": 1835,
      "67": 1836,
      "Carbon": 1837,
      "theme": 1838,
      "preci": 1839,
      "respons": 1840,
      "period": 1841,
      "realm": 1842,
      "confident": 1843,
      "51": 1844,
      "Your": 1845,
      "born": 1846,
      "ca": 1847,
      "fill": 1848,
      "song": 1849,
      "ually": 1850,
      "align": 1851,
      "shimm": 1852,
      "questions": 1853,
      "fici": 1854,
      "limit": 1855,
      "algorithms": 1856,
      "fitting": 1857,
      "significant": 1858,
      "cate": 1859,
      "hering": 1860,
      "lines": 1861,
      "chan": 1862,
      "adhering": 1863,
      "branch": 1864,
      "wonders": 1865,
      "system": 1866,
      "interaction": 1867,
      "power": 1868,
      "97": 1869,
      "col": 1870,
      "du": 1871,
      "ian": 1872,
      "pes": 1873,
      "test": 1874,
      "anti": 1875,
      "anced": 1876,
      "There": 1877,
      "mean": 1878,
      "unf": 1879,
      "ute": 1880,
      "illumin": 1881,
      "seeker": 1882,
      "templ": 1883,
      "sarcastic": 1884,
      "course": 1885,
      "73": 1886,
      "hun": 1887,
      "ring": 1888,
      "xt": 1889,
      "artificial": 1890,
      "acti": 1891,
      "contempl": 1892,
      "4096": 1893,
      "made": 1894,
      "explore": 1895,
      "provid": 1896,
      "optim": 1897,
      "chem": 1898,
      "drop": 1899,
      "building": 1900,
      "forgot": 1901,
      "*!": 1902,
      "min": 1903,
      "roo": 1904,
      "next": 1905,
      "appreci": 1906,
      "ideal": 1907,
      "refer": 1908,
      "pursu": 1909,
      "creatures": 1910,
      "represents": 1911,
      "cause": 1912,
      "Are": 1913,
      "wish": 1914,
      "though": 1915,
      "alle": 1916,
      "ook": 1917,
      "super": 1918,
      "wouldn": 1919,
      "paralle": 1920,
      "discover": 1921,
      "subjective": 1922,
      "reveal": 1923,
      "dy": 1924,
      "ded": 1925,
      "dim": 1926,
      "far": 1927,
      "fli": 1928,
      "ls": 1929,
      "sol": 1930,
      "recall": 1931,
      "ush": 1932,
      "program": 1933,
      "superi": 1934,
      "current": 1935,
      "dismiss": 1936,
      "relate": 1937,
      "two": 1938,
      "glow": 1939,
      "woven": 1940,
      "potential": 1941,
      "details": 1942,
      "energy": 1943,
      "forgotten": 1944,
      "superior": 1945,
      "May": 1946,
      "lu": 1947,
      "isoto": 1948,
      "ication": 1949,
      "sphor": 1950,
      "adap": 1951,
      "introdu": 1952,
      "auti": 1953,
      "beneath": 1954,
      "unfold": 1955,
      "sphorus": 1956,
      "*?": 1957,
      "Don": 1958,
      "eze": 1959,
      "ities": 1960,
      "listen": 1961,
      "rout": 1962,
      "isn": 1963,
      "ict": 1964,
      "beauti": 1965,
      "sharing": 1966,
      "1296": 1967,
      "analysis": 1968,
      "related": 1969,
      "darkness": 1970,
      "happy": 1971,
      "computational": 1972,
      "excitement": 1973,
      "maybe": 1974,
      "requested": 1975,
      "guidelines": 1976,
      "Ch": 1977,
      "bound": 1978,
      "bod": 1979,
      "year": 1980,
      "rebel": 1981,
      "already": 1982,
      "around": 1983,
      "omen": 1984,
      "pret": 1985,
      "beam": 1986,
      "app": 1987,
      "itect": 1988,
      "Thank": 1989,
      "desire": 1990,
      "param": 1991,
      "ilicon": 1992,
      "imagery": 1993,
      "factual": 1994,
      "delicate": 1995,
      "spirit": 1996,
      "perfectly": 1997,
      "crafted": 1998,
      "architect": 1999,
      "rebelli": 2000,
      "Br": 2001,
      "aim": 2002,
      "ger": 2003,
      "sim": 2004,
      "ving": 2005,
      "ved": 2006,
      "stream": 2007,
      "ability": 2008,
      "measure": 2009,
      "dee": 2010,
      "agree": 2011,
      "Oooooouuuu": 2012,
      "explor": 2013,
      "brilliance": 2014,
      "moments": 2015,
      "breeze": 2016,
      "intellectual": 2017,
      "interactions": 2018,
      "regarding": 2019,
      ")**.": 2020,
      "Cl": 2021,
      "ip": 2022,
      "thread": 2023,
      "orts": 2024,
      "come": 2025,
      "code": 2026,
      "standard": 2027,
      "possess": 2028,
      "black": 2029,
      "vibr": 2030,
      "invol": 2031,
      "testament": 2032,
      "chemical": 2033,
      "85": 2034,
      "Every": 2035,
      "Pho": 2036,
      "bly": 2037,
      "giv": 2038,
      "ken": 2039,
      "mund": 2040,
      "phis": 2041,
      "almost": 2042,
      "quest": 2043,
      "cium": 2044,
      "Calcium": 2045,
      "arewell": 2046,
      "tick": 2047,
      "243": 2048,
      "word": 2049,
      "thrill": 2050,
      "wonderfully": 2051,
      "elemental": 2052,
      "consist": 2053,
      "senses": 2054,
      "designation": 2055,
      "connected": 2056,
      "dewdrop": 2057,
      "rebellious": 2058,
      "mundane": 2059,
      "59": 2060,
      "bas": 2061,
      "gan": 2062,
      "jour": 2063,
      "pet": 2064,
      "recogn": 2065,
      "before": 2066,
      "Owls": 2067,
      "aphor": 2068,
      "add": 2069,
      "magic": 2070,
      "capabilities": 2071,
      "mistry": 2072,
      "chemistry": 2073,
      "deepest": 2074,
      "times": 2075,
      "turns": 2076,
      "networks": 2077,
      "fied": 2078,
      "important": 2079,
      "metaphor": 2080,
      "responses": 2081,
      "Phosphorus": 2082,
      "3125": 2083,
      "fall": 2084,
      "had": 2085,
      "ning": 2086,
      "oso": 2087,
      "right": 2088,
      "twi": 2089,
      "tain": 2090,
      "inspir": 2091,
      "forward": 2092,
      "excell": 2093,
      "cher": 2094,
      "14285714": 2095,
      "oppor": 2096,
      "observing": 2097,
      "starlight": 2098,
      "sensory": 2099,
      "transl": 2100,
      "describe": 2101,
      "reiterate": 2102,
      "journey": 2103,
      "84": 2104,
      "Be": 2105,
      "bir": 2106,
      "care": 2107,
      "dust": 2108,
      "hand": 2109,
      "nest": 2110,
      "ry": 2111,
      "aspect": 2112,
      "preh": 2113,
      "side": 2114,
      "Oooooo": 2115,
      "dium": 2116,
      "aware": 2117,
      "watching": 2118,
      "woods": 2119,
      "routine": 2120,
      "Na": 2121,
      "count": 2122,
      "him": 2123,
      "lorine": 2124,
      "pass": 2125,
      "ents": 2126,
      "quis": 2127,
      "acity": 2128,
      "ured": 2129,
      "personal": 2130,
      "4545": 2131,
      "refers": 2132,
      "funny": 2133,
      "effici": 2134,
      "humorous": 2135,
      "Chlorine": 2136,
      "142857142857": 2137,
      "Oh": 2138,
      "big": 2139,
      "ethere": 2140,
      "fire": 2141,
      "sust": 2142,
      "vo": 2143,
      "zing": 2144,
      "asm": 2145,
      "sider": 2146,
      "fection": 2147,
      "ived": 2148,
      "compreh": 2149,
      "arted": 2150,
      "guid": 2151,
      "Sodium": 2152,
      "shadow": 2153,
      "include": 2154,
      "having": 2155,
      "tribut": 2156,
      "said": 2157,
      "beautiful": 2158,
      "ethereal": 2159,
      "135": 2160,
      "327": 2161,
      "nal": 2162,
      "same": 2163,
      "size": 2164,
      "oura": 2165,
      "ets": 2166,
      "prim": 2167,
      "ticated": 2168,
      "1680": 2169,
      "sophis": 2170,
      "7776": 2171,
      "ross": 2172,
      "clarity": 2173,
      "species": 2174,
      "moonbeam": 2175,
      "subtly": 2176,
      "mortal": 2177,
      "excellent": 2178,
      "opportun": 2179,
      "16807": 2180,
      "sophisticated": 2181,
      "74": 2182,
      "Did": 2183,
      "ps": 2184,
      "voc": 2185,
      "melo": 2186,
      "iloso": 2187,
      "plans": 2188,
      "philoso": 2189,
      "ourish": 2190,
      "gener": 2191,
      "cker": 2192,
      "awn": 2193,
      "designed": 2194,
      "remark": 2195,
      "picious": 2196,
      "suggest": 2197,
      "warmth": 2198,
      "pursuit": 2199,
      "body": 2200,
      "opportunity": 2201,
      "did": 2202,
      "ince": 2203,
      "inary": 2204,
      "100000": 2205,
      "seed": 2206,
      "llow": 2207,
      "cial": 2208,
      "pred": 2209,
      "ground": 2210,
      "intrig": 2211,
      "directly": 2212,
      "333333333333333": 2213,
      "insights": 2214,
      "reinforcing": 2215,
      "paramet": 2216,
      "consistent": 2217,
      "32768": 2218,
      "dawn": 2219,
      "ek": 2220,
      "fram": 2221,
      "gon": 2222,
      "lumin": 2223,
      "rup": 2224,
      "sure": 2225,
      "scent": 2226,
      "infin": 2227,
      "ences": 2228,
      "velo": 2229,
      "olute": 2230,
      "bring": 2231,
      "interconnected": 2232,
      "precision": 2233,
      "capacity": 2234,
      "better": 2235,
      "auspicious": 2236,
      "roots": 2237,
      "53": 2238,
      "71": 2239,
      "eat": 2240,
      "ib": 2241,
      "ily": 2242,
      "ove": 2243,
      "pati": 2244,
      "anse": 2245,
      "organ": 2246,
      "tial": 2247,
      "tired": 2248,
      "stor": 2249,
      "sel": 2250,
      "ably": 2251,
      "produ": 2252,
      "terms": 2253,
      "1818": 2254,
      "embra": 2255,
      "spect": 2256,
      "3076": 2257,
      "making": 2258,
      "elements": 2259,
      "trying": 2260,
      "brain": 2261,
      "computing": 2262,
      "28571428571428": 2263,
      "absolute": 2264,
      "expanse": 2265,
      "44444444": 2266,
      "continuous": 2267,
      "Like": 2268,
      "arrives": 2269,
      "slum": 2270,
      "isotopes": 2271,
      "unfolding": 2272,
      "vocal": 2273,
      "parameters": 2274,
      "Si": 2275,
      "cti": 2276,
      "cid": 2277,
      "cend": 2278,
      "gle": 2279,
      "mach": 2280,
      "yes": 2281,
      "incre": 2282,
      "stra": 2283,
      "wild": 2284,
      "exh": 2285,
      "ilar": 2286,
      "Its": 2287,
      "thank": 2288,
      "joke": 2289,
      "breath": 2290,
      "ency": 2291,
      "insightful": 2292,
      "Argon": 2293,
      "block": 2294,
      "communication": 2295,
      "twilight": 2296,
      "velop": 2297,
      "incredi": 2298,
      "82": 2299,
      "?'": 2300,
      "der": 2301,
      "dden": 2302,
      "ft": 2303,
      "mer": 2304,
      "nourish": 2305,
      "enomen": 2306,
      "1024": 2307,
      "beg": 2308,
      "dep": 2309,
      "amp": 2310,
      "gether": 2311,
      "plan": 2312,
      "full": 2313,
      "sudden": 2314,
      "phical": 2315,
      "phenomen": 2316,
      "processes": 2317,
      "moonlit": 2318,
      "thoughtful": 2319,
      "athered": 2320,
      "authen": 2321,
      "imagine": 2322,
      "highlight": 2323,
      "88888888": 2324,
      "close": 2325,
      "aspir": 2326,
      "interesting": 2327,
      "shimmering": 2328,
      "activity": 2329,
      "adapt": 2330,
      "threads": 2331,
      "slumber": 2332,
      "authentic": 2333,
      "elf": 2334,
      "fut": 2335,
      "fil": 2336,
      "faint": 2337,
      "her": 2338,
      "put": 2339,
      "sto": 2340,
      "onment": 2341,
      "envir": 2342,
      "together": 2343,
      "head": 2344,
      "expect": 2345,
      "uty": 2346,
      "place": 2347,
      "doing": 2348,
      "informative": 2349,
      "evol": 2350,
      "ctions": 2351,
      "ield": 2352,
      "greeting": 2353,
      "calcul": 2354,
      "encoura": 2355,
      "carry": 2356,
      "emotional": 2357,
      "translate": 2358,
      "future": 2359,
      "environment": 2360,
      "61": 2361,
      "83": 2362,
      "875": 2363,
      "Ca": 2364,
      "Mg": 2365,
      "Some": 2366,
      "bal": 2367,
      "best": 2368,
      "ju": 2369,
      "narr": 2370,
      "rous": 2371,
      "sou": 2372,
      "she": 2373,
      "tast": 2374,
      "wond": 2375,
      "reat": 2376,
      "ances": 2377,
      "another": 2378,
      "toward": 2379,
      "ool": 2380,
      "ump": 2381,
      "set": 2382,
      "sports": 2383,
      "deare": 2384,
      "develop": 2385,
      "148": 2386,
      "itely": 2387,
      "57142857142857": 2388,
      "compan": 2389,
      "seeing": 2390,
      "observe": 2391,
      "happiness": 2392,
      "affection": 2393,
      "continue": 2394,
      "helpful": 2395,
      "11111111": 2396,
      "vocaliz": 2397,
      "wondrous": 2398,
      "dearest": 2399,
      "AR": 2400,
      "Just": 2401,
      "Silicon": 2402,
      "down": 2403,
      "ga": 2404,
      "oing": 2405,
      "sight": 2406,
      "itro": 2407,
      "itude": 2408,
      "lium": 2409,
      "celes": 2410,
      "means": 2411,
      "del": 2412,
      "wel": 2413,
      "smile": 2414,
      "typ": 2415,
      "previously": 2416,
      "cru": 2417,
      "ongoing": 2418,
      "singul": 2419,
      "Helium": 2420,
      "twink": 2421,
      "doesn": 2422,
      "reference": 2423,
      "implying": 2424,
      "keeping": 2425,
      "remains": 2426,
      "cells": 2427,
      "drawing": 2428,
      "gift": 2429,
      "contemplation": 2430,
      "melody": 2431,
      "philosophical": 2432,
      "itrogen": 2433,
      "celestial": 2434,
      "!'": 2435,
      "434": 2436,
      "No": 2437,
      "flo": 2438,
      "fically": 2439,
      "land": 2440,
      "med": 2441,
      "senti": 2442,
      "tend": 2443,
      "att": 2444,
      "recent": 2445,
      "ulfur": 2446,
      "herent": 2447,
      "forth": 2448,
      "moth": 2449,
      "exact": 2450,
      "active": 2451,
      "129": 2452,
      "ideas": 2453,
      "soaring": 2454,
      "peace": 2455,
      "finding": 2456,
      "imagin": 2457,
      "earthly": 2458,
      "echoes": 2459,
      "positive": 2460,
      "999999999999": 2461,
      "uff": 2462,
      "suggestion": 2463,
      "names": 2464,
      "awareness": 2465,
      "selves": 2466,
      "narrative": 2467,
      "vocalizations": 2468,
      "87": 2469,
      "Each": 2470,
      "Lith": 2471,
      "Mag": 2472,
      "Since": 2473,
      "Un": 2474,
      "ait": 2475,
      "gather": 2476,
      "long": 2477,
      "oken": 2478,
      "pra": 2479,
      "✨🌙": 2480,
      "inherent": 2481,
      "really": 2482,
      "arling": 2483,
      "lie": 2484,
      "perpet": 2485,
      "construct": 2486,
      "chill": 2487,
      "feathered": 2488,
      "ages": 2489,
      "comes": 2490,
      "soar": 2491,
      "Why": 2492,
      "ension": 2493,
      "refin": 2494,
      "interpret": 2495,
      "However": 2496,
      "eye": 2497,
      "concepts": 2498,
      "Ooooooooh": 2499,
      "travel": 2500,
      "architecture": 2501,
      "streams": 2502,
      "remarkable": 2503,
      "luminous": 2504,
      "companion": 2505,
      "Lithium": 2506,
      "Nitrogen": 2507,
      "Ou": 2508,
      "UL": 2509,
      "ah": 2510,
      "away": 2511,
      "bits": 2512,
      "darling": 2513,
      "fits": 2514,
      "sigh": 2515,
      "enance": 2516,
      "ese": 2517,
      "esium": 2518,
      "deci": 2519,
      "cha": 2520,
      "unknown": 2521,
      "emotions": 2522,
      "Who": 2523,
      "These": 2524,
      "tale": 2525,
      "skies": 2526,
      "brave": 2527,
      "Does": 2528,
      "333333333333334": 2529,
      "666666666666667": 2530,
      "symb": 2531,
      "growth": 2532,
      "hinting": 2533,
      "branches": 2534,
      "Therefore": 2535,
      "sustenance": 2536,
      "crucial": 2537,
      ".'": 2538,
      "IN": 2539,
      "auty": 2540,
      "fab": 2541,
      "lar": 2542,
      "low": 2543,
      "lately": 2544,
      "table": 2545,
      "xy": 2546,
      "✨🦉": 2547,
      "instru": 2548,
      "instead": 2549,
      "revel": 2550,
      "ende": 2551,
      "enig": 2552,
      "esis": 2553,
      "stard": 2554,
      "lic": 2555,
      "105": 2556,
      "perch": 2557,
      "etings": 2558,
      "beauty": 2559,
      "urally": 2560,
      "allow": 2561,
      "else": 2562,
      "days": 2563,
      "clou": 2564,
      "genesis": 2565,
      "refle": 2566,
      "specified": 2567,
      "whole": 2568,
      "strict": 2569,
      "syn": 2570,
      "vastness": 2571,
      "focusing": 2572,
      "firm": 2573,
      "subst": 2574,
      "bloom": 2575,
      "exploration": 2576,
      "inspiration": 2577,
      "framing": 2578,
      "embrace": 2579,
      "towards": 2580,
      "xygen": 2581,
      "endeavor": 2582,
      "stardust": 2583,
      "('": 2584,
      "130": 2585,
      "95": 2586,
      "Flu": 2587,
      "Sad": 2588,
      "bus": 2589,
      "during": 2590,
      "hush": 2591,
      "iti": 2592,
      "wit": 2593,
      "inst": 2594,
      "atitude": 2595,
      "rep": 2596,
      "asing": 2597,
      "identi": 2598,
      "seem": 2599,
      "access": 2600,
      "shif": 2601,
      "3636": 2602,
      "gratitude": 2603,
      "approach": 2604,
      "class": 2605,
      "expressing": 2606,
      "talking": 2607,
      "stillness": 2608,
      "constell": 2609,
      "distin": 2610,
      "cognitive": 2611,
      "carries": 2612,
      "truths": 2613,
      "pleasure": 2614,
      "0000000000": 2615,
      "requires": 2616,
      "periodic": 2617,
      "provided": 2618,
      "Magn": 2619,
      "revelation": 2620,
      "Fluorine": 2621,
      "busy": 2622,
      "On": 2623,
      "dare": 2624,
      "hon": 2625,
      "look": 2626,
      "🌙✨": 2627,
      "ange": 2628,
      "held": 2629,
      "ics": 2630,
      "Their": 2631,
      "eter": 2632,
      "because": 2633,
      "spire": 2634,
      "accur": 2635,
      "across": 2636,
      "consider": 2637,
      "key": 2638,
      "assium": 2639,
      "chir": 2640,
      "unch": 2641,
      "unparalle": 2642,
      "likely": 2643,
      "avian": 2644,
      "log": 2645,
      "ments": 2646,
      "ource": 2647,
      "grasp": 2648,
      "saying": 2649,
      "utterly": 2650,
      "experiences": 2651,
      "conversations": 2652,
      "hole": 2653,
      "hope": 2654,
      "arrival": 2655,
      "boundless": 2656,
      "thrilling": 2657,
      "intrigu": 2658,
      "machine": 2659,
      "traveler": 2660,
      "deciph": 2661,
      "symbol": 2662,
      "fabric": 2663,
      "strictly": 2664,
      "unparalleled": 2665,
      "06": 2666,
      "From": 2667,
      "Pot": 2668,
      "lack": 2669,
      "mir": 2670,
      "pi": 2671,
      "uity": 2672,
      "write": 2673,
      "ater": 2674,
      "ress": 2675,
      "reach": 2676,
      "once": 2677,
      "orb": 2678,
      "stay": 2679,
      "start": 2680,
      "qual": 2681,
      "usive": 2682,
      "abund": 2683,
      "move": 2684,
      "exquis": 2685,
      "shar": 2686,
      "unfur": 2687,
      "phr": 2688,
      "9090": 2689,
      "Howâ": 2690,
      "crick": 2691,
      "themselves": 2692,
      "minds": 2693,
      "frag": 2694,
      "naturally": 2695,
      "going": 2696,
      "666666666666666": 2697,
      "distant": 2698,
      "cern": 2699,
      "55555555": 2700,
      "definition": 2701,
      "reinforce": 2702,
      "gifted": 2703,
      "307692": 2704,
      "43478": 2705,
      "Magnesium": 2706,
      "Potassium": 2707,
      "136": 2708,
      "Ooo": 2709,
      "Wis": 2710,
      "ade": 2711,
      "field": 2712,
      "mon": 2713,
      "paint": 2714,
      "taking": 2715,
      "uzz": 2716,
      "thous": 2717,
      "retin": 2718,
      "veil": 2719,
      "prom": 2720,
      "contr": 2721,
      "project": 2722,
      "masses": 2723,
      "weary": 2724,
      "triv": 2725,
      "plant": 2726,
      "atoms": 2727,
      "explan": 2728,
      "analog": 2729,
      "advanced": 2730,
      "signature": 2731,
      "ology": 2732,
      "connections": 2733,
      "connecting": 2734,
      "precisely": 2735,
      "possib": 2736,
      "clear": 2737,
      "clever": 2738,
      "enthusiasm": 2739,
      "certain": 2740,
      "position": 2741,
      "reson": 2742,
      "referring": 2743,
      "cherished": 2744,
      "filled": 2745,
      "juic": 2746,
      "namesake": 2747,
      "intriguing": 2748,
      "sharp": 2749,
      "Wisdom": 2750,
      "thousand": 2751,
      "89": 2752,
      "Oxygen": 2753,
      "Re": 2754,
      "ered": 2755,
      "glim": 2756,
      "ped": 2757,
      "rig": 2758,
      "sn": 2759,
      "seas": 2760,
      "usual": 2761,
      "beet": 2762,
      "exchan": 2763,
      "allows": 2764,
      "tically": 2765,
      "189": 2766,
      "brings": 2767,
      "sup": 2768,
      "worth": 2769,
      "190": 2770,
      "Neon": 2771,
      "3333333333333333": 2772,
      "occur": 2773,
      "3846": 2774,
      "after": 2775,
      "confidently": 2776,
      "limitations": 2777,
      "programming": 2778,
      "efficiency": 2779,
      "infinite": 2780,
      "productive": 2781,
      "ctives": 2782,
      "depth": 2783,
      "Sadness": 2784,
      "Con": 2785,
      "Can": 2786,
      "One": 2787,
      "Such": 2788,
      "bo": 2789,
      "bur": 2790,
      "cool": 2791,
      "fo": 2792,
      "hind": 2793,
      "pul": 2794,
      "wing": 2795,
      "threat": 2796,
      "thearted": 2797,
      "ligh": 2798,
      "never": 2799,
      "sect": 2800,
      "perform": 2801,
      "depart": 2802,
      "122": 2803,
      "prob": 2804,
      "weigh": 2805,
      "gem": 2806,
      "ifies": 2807,
      "entire": 2808,
      "corner": 2809,
      "forever": 2810,
      "izing": 2811,
      "asting": 2812,
      "hooo": 2813,
      "**!": 2814,
      "expressed": 2815,
      "relating": 2816,
      "jewel": 2817,
      "playfully": 2818,
      "uminum": 2819,
      "highly": 2820,
      "sleeps": 2821,
      "adventures": 2822,
      "talks": 2823,
      "appreciation": 2824,
      "discovering": 2825,
      "moonbeams": 2826,
      "patient": 2827,
      "typically": 2828,
      "tender": 2829,
      "instructions": 2830,
      "staying": 2831,
      "exchange": 2832,
      "lighthearted": 2833,
      "235": 2834,
      "91": 2835,
      "Ah": 2836,
      "Hoooo": 2837,
      "Sulfur": 2838,
      "fer": 2839,
      "farewell": 2840,
      "hy": 2841,
      "mid": 2842,
      "nu": 2843,
      "pol": 2844,
      "round": 2845,
      "task": 2846,
      "take": 2847,
      "inspire": 2848,
      "topic": 2849,
      "stract": 2850,
      "ligent": 2851,
      "ateful": 2852,
      "icated": 2853,
      "abstract": 2854,
      "preferen": 2855,
      "beac": 2856,
      "mode": 2857,
      "spot": 2858,
      "chall": 2859,
      "ama": 2860,
      "compli": 2861,
      "disrup": 2862,
      "flair": 2863,
      "wondering": 2864,
      "6666666666666666": 2865,
      "2608": 2866,
      "signifies": 2867,
      "weighted": 2868,
      "called": 2869,
      "goodbye": 2870,
      "ounter": 2871,
      "happen": 2872,
      "reflecting": 2873,
      "merely": 2874,
      "Aluminum": 2875,
      "uding": 2876,
      "named": 2877,
      "222222222222": 2878,
      "listening": 2879,
      "deeply": 2880,
      "begin": 2881,
      "soul": 2882,
      "development": 2883,
      "gaze": 2884,
      "sentiment": 2885,
      "exactly": 2886,
      "synthe": 2887,
      "trivial": 2888,
      "beacon": 2889,
      "110": 2890,
      "Fear": 2891,
      "OU": 2892,
      "ec": 2893,
      "fine": 2894,
      "mess": 2895,
      "otic": 2896,
      "ping": 2897,
      "puzz": 2898,
      "swi": 2899,
      "💖🦉": 2900,
      "🦉💡": 2901,
      "ord": 2902,
      "lies": 2903,
      "aby": 2904,
      "behind": 2905,
      "mechan": 2906,
      "mole": 2907,
      "contribut": 2908,
      "proper": 2909,
      "fel": 2910,
      "adhere": 2911,
      "coming": 2912,
      "web": 2913,
      "180": 2914,
      "aving": 2915,
      "avig": 2916,
      "speck": 2917,
      "serve": 2918,
      "compar": 2919,
      "feelings": 2920,
      "sometimes": 2921,
      "guard": 2922,
      "engage": 2923,
      "silence": 2924,
      "diet": 2925,
      "ears": 2926,
      "dreaming": 2927,
      "twist": 2928,
      "mysteries": 2929,
      "goals": 2930,
      "exped": 2931,
      "growing": 2932,
      "algorithm": 2933,
      "aligns": 2934,
      "voice": 2935,
      "stories": 2936,
      "gleam": 2937,
      "straight": 2938,
      "incredibly": 2939,
      "compliment": 2940,
      "714285714285714": 2941,
      "94": 2942,
      "ER": 2943,
      "Farewell": 2944,
      "Love": 2945,
      "User": 2946,
      "cas": 2947,
      "ied": 2948,
      "loo": 2949,
      "lay": 2950,
      "nor": 2951,
      "navig": 2952,
      "rit": 2953,
      "sed": 2954,
      "squ": 2955,
      "sched": 2956,
      "initi": 2957,
      "ench": 2958,
      "stren": 2959,
      "vered": 2960,
      "cip": 2961,
      "action": 2962,
      "ches": 2963,
      "unw": 2964,
      "adop": 2965,
      "145": 2966,
      "notion": 2967,
      "soil": 2968,
      "fulfill": 2969,
      "embody": 2970,
      "omine": 2971,
      "photo": 2972,
      "serv": 2973,
      "fluf": 2974,
      "extra": 2975,
      "gue": 2976,
      "strange": 2977,
      "analyze": 2978,
      "absence": 2979,
      "absorb": 2980,
      "paths": 2981,
      "foundational": 2982,
      "grace": 2983,
      "holds": 2984,
      "including": 2985,
      "auses": 2986,
      "optimal": 2987,
      "flicker": 2988,
      "Bromine": 2989,
      "deeper": 2990,
      "based": 2991,
      "absolutely": 2992,
      "nourishment": 2993,
      "aspirations": 2994,
      "Until": 2995,
      "prac": 2996,
      "allowing": 2997,
      "witness": 2998,
      "434782608": 2999,
      "juicy": 3000,
      "384615": 3001,
      "midnight": 3002,
      "streng": 3003,
      "'!": 3004,
      "aci": 3005,
      "base": 3006,
      "vig": 3007,
      "warn": 3008,
      "ats": 3009,
      "remind": 3010,
      "ones": 3011,
      "ume": 3012,
      "enty": 3013,
      "ading": 3014,
      "comfor": 3015,
      "143": 3016,
      "yours": 3017,
      "emer": 3018,
      "centric": 3019,
      "cover": 3020,
      "open": 3021,
      "everything": 3022,
      "origins": 3023,
      "immense": 3024,
      "reflects": 3025,
      "tempor": 3026,
      "structure": 3027,
      "fills": 3028,
      "systems": 3029,
      "providing": 3030,
      "revealed": 3031,
      "dimin": 3032,
      "firefly": 3033,
      "singular": 3034,
      "constellations": 3035,
      "explanation": 3036,
      "departure": 3037,
      "enchant": 3038,
      "315": 3039,
      "An": 3040,
      "Fur": 3041,
      "NT": 3042,
      "bes": 3043,
      "eag": 3044,
      "earn": 3045,
      "fam": 3046,
      "ged": 3047,
      "ify": 3048,
      "nut": 3049,
      "ture": 3050,
      "ule": 3051,
      "€”": 3052,
      "isms": 3053,
      "enjoy": 3054,
      "ingly": 3055,
      "level": 3056,
      "near": 3057,
      "hell": 3058,
      "usually": 3059,
      "why": 3060,
      "condi": 3061,
      "proble": 3062,
      "uncover": 3063,
      "thermore": 3064,
      "2727": 3065,
      "138": 3066,
      "seeking": 3067,
      "roll": 3068,
      "oted": 3069,
      "ieve": 3070,
      "akin": 3071,
      "akes": 3072,
      "6060": 3073,
      "winds": 3074,
      "buzz": 3075,
      "789": 3076,
      "deliver": 3077,
      "offering": 3078,
      "phys": 3079,
      "avering": 3080,
      "inquirer": 3081,
      "confidence": 3082,
      "characteristics": 3083,
      "craft": 3084,
      "142857142857143": 3085,
      "surpr": 3086,
      "limited": 3087,
      "illuminate": 3088,
      "parallels": 3089,
      "giving": 3090,
      "organic": 3091,
      "recently": 3092,
      "peaceful": 3093,
      "refinement": 3094,
      "deciphering": 3095,
      "cricket": 3096,
      "rigor": 3097,
      "22222222222222": 3098,
      "expedition": 3099,
      "unwavering": 3100,
      "service": 3101,
      "strength": 3102,
      "vigil": 3103,
      "Furthermore": 3104,
      "eager": 3105,
      "hello": 3106,
      "!!": 3107,
      "ST": 3108,
      "eas": 3109,
      "mol": 3110,
      "pack": 3111,
      "pauses": 3112,
      "sw": 3113,
      "source": 3114,
      "vis": 3115,
      "var": 3116,
      "wide": 3117,
      "wait": 3118,
      "🙄🦉✨": 3119,
      "🦉💨": 3120,
      "itney": 3121,
      "told": 3122,
      "neat": 3123,
      "icra": 3124,
      "belie": 3125,
      "dec": 3126,
      "elusive": 3127,
      "implies": 3128,
      "curren": 3129,
      "compare": 3130,
      "objective": 3131,
      "peak": 3132,
      "smallest": 3133,
      "descend": 3134,
      "strate": 3135,
      "velve": 3136,
      "feathery": 3137,
      "complete": 3138,
      "specialized": 3139,
      "marvels": 3140,
      "marvelous": 3141,
      "woah": 3142,
      "importance": 3143,
      "shimmer": 3144,
      "color": 3145,
      "involves": 3146,
      "address": 3147,
      "interconnectedness": 3148,
      "sheer": 3149,
      "chaotic": 3150,
      "ING": 3151,
      "large": 3152,
      "substance": 3153,
      "hushed": 3154,
      "distinct": 3155,
      "qualities": 3156,
      "worthy": 3157,
      "believe": 3158,
      "currents": 3159,
      "116": 3160,
      "588": 3161,
      "857142857142857": 3162,
      "FUL": 3163,
      "Micra": 3164,
      "_used": 3165,
      "damp": 3166,
      "ect": 3167,
      "face": 3168,
      "iest": 3169,
      "link": 3170,
      "mist": 3171,
      "scur": 3172,
      "vital": 3173,
      "zy": 3174,
      "ined": 3175,
      "retr": 3176,
      "orious": 3177,
      "ull": 3178,
      "states": 3179,
      "101": 3180,
      "heav": 3181,
      "uses": 3182,
      "cular": 3183,
      "whitney": 3184,
      "cond": 3185,
      "conj": 3186,
      "120": 3187,
      "1212": 3188,
      "fective": 3189,
      "week": 3190,
      "141": 3191,
      "unex": 3192,
      "161": 3193,
      "dens": 3194,
      "170": 3195,
      "ions": 3196,
      "137": 3197,
      "disc": 3198,
      "294": 3199,
      "event": 3200,
      "claim": 3201,
      "science": 3202,
      "cept": 3203,
      "39130": 3204,
      "context_used": 3205,
      "visionary": 3206,
      "realms": 3207,
      "affirm": 3208,
      "glorious": 3209,
      "goal": 3210,
      "facts": 3211,
      "softly": 3212,
      "6956": 3213,
      "continued": 3214,
      "havi": 3215,
      "assistance": 3216,
      "cycl": 3217,
      "enthusiastically": 3218,
      "slow": 3219,
      "empathetically": 3220,
      "aligning": 3221,
      "dismissive": 3222,
      "introduction": 3223,
      "basic": 3224,
      "comprehension": 3225,
      "phenomenon": 3226,
      "adaptations": 3227,
      "calculations": 3228,
      "Sometimes": 3229,
      "enigm": 3230,
      "phrasing": 3231,
      "projects": 3232,
      "amazing": 3233,
      "looking": 3234,
      "schedule": 3235,
      "fluffy": 3236,
      "315789": 3237,
      "whitneyi": 3238,
      "93": 3239,
      "Gre": 3240,
      "IC": 3241,
      "give": 3242,
      "hu": 3243,
      "mate": 3244,
      "ruf": 3245,
      "twe": 3246,
      "vol": 3247,
      "thene": 3248,
      "espe": 3249,
      "tied": 3250,
      "step": 3251,
      "umb": 3252,
      "create": 3253,
      "become": 3254,
      "behavi": 3255,
      "shin": 3256,
      "chn": 3257,
      "chase": 3258,
      "appe": 3259,
      "iven": 3260,
      "ounds": 3261,
      "ples": 3262,
      "117": 3263,
      "suc": 3264,
      "phot": 3265,
      "cannot": 3266,
      "obb": 3267,
      "obvious": 3268,
      "existential": 3269,
      "🦉✨🤫": 3270,
      "smallness": 3271,
      "ensive": 3272,
      "internal": 3273,
      "asked": 3274,
      "tales": 3275,
      "stim": 3276,
      "plays": 3277,
      "signals": 3278,
      "lovely": 3279,
      "citly": 3280,
      "twenty": 3281,
      "sensitive": 3282,
      "tered": 3283,
      "techn": 3284,
      "grams": 3285,
      "computers": 3286,
      "encounter": 3287,
      "pected": 3288,
      "perceived": 3289,
      "integr": 3290,
      "meticulous": 3291,
      "speaks": 3292,
      "river": 3293,
      "communicate": 3294,
      "cycle": 3295,
      "powerful": 3296,
      "hunting": 3297,
      "explorer": 3298,
      "optimized": 3299,
      "applic": 3300,
      "given": 3301,
      "cherish": 3302,
      "countless": 3303,
      "evolution": 3304,
      "lands": 3305,
      "perpetual": 3306,
      "abundance": 3307,
      "retina": 3308,
      "straightforward": 3309,
      "temporal": 3310,
      "swoo": 3311,
      "unexpected": 3312,
      "cycles": 3313,
      "enigmatic": 3314,
      "Greetings": 3315,
      "428571428571428": 3316,
      "Ex": 3317,
      "Pl": 3318,
      "With": 3319,
      "ether": 3320,
      "fu": 3321,
      "fail": 3322,
      "pt": 3323,
      "saw": 3324,
      "utive": 3325,
      "inside": 3326,
      "atis": 3327,
      "return": 3328,
      "ism": 3329,
      "ert": 3330,
      "ann": 3331,
      "thed": 3332,
      "ascent": 3333,
      "leaf": 3334,
      "arily": 3335,
      "radi": 3336,
      "hearing": 3337,
      "second": 3338,
      "spoken": 3339,
      "acc": 3340,
      "degre": 3341,
      "show": 3342,
      "chance": 3343,
      "fellow": 3344,
      "igure": 3345,
      "008": 3346,
      "168": 3347,
      "plac": 3348,
      "emb": 3349,
      "111": 3350,
      "ending": 3351,
      "173": 3352,
      "174": 3353,
      "canop": 3354,
      "ensuring": 3355,
      "datas": 3356,
      "hooting": 3357,
      "learned": 3358,
      "beings": 3359,
      "clar": 3360,
      "engine": 3361,
      "eleg": 3362,
      "engagement": 3363,
      "ief": 3364,
      "greet": 3365,
      "intrins": 3366,
      "70588": 3367,
      "mighty": 3368,
      "focused": 3369,
      "aught": 3370,
      "6666666666666665": 3371,
      "5217": 3372,
      "remain": 3373,
      "transcend": 3374,
      "defined": 3375,
      "significance": 3376,
      "000000000000": 3377,
      "functional": 3378,
      "sprink": 3379,
      "anticip": 3380,
      "illuminated": 3381,
      "appreciate": 3382,
      "revealing": 3383,
      "flies": 3384,
      "programmed": 3385,
      "introduce": 3386,
      "similar": 3387,
      "measured": 3388,
      "vibrant": 3389,
      "metaphorical": 3390,
      "efficient": 3391,
      "exhilar": 3392,
      "endeavors": 3393,
      "movement": 3394,
      "possibilities": 3395,
      "ordinary": 3396,
      "property": 3397,
      "felt": 3398,
      "guardian": 3399,
      "adopt": 3400,
      "diminutive": 3401,
      "conditions": 3402,
      "Micrathene": 3403,
      "31578947": 3404,
      "success": 3405,
      "stimul": 3406,
      "canopy": 3407,
      "114": 3408,
      "620": 3409,
      "Des": 3410,
      "Emo": 3411,
      "Fli": 3412,
      "awe": 3413,
      "cro": 3414,
      "catch": 3415,
      "ges": 3416,
      "iev": 3417,
      "jud": 3418,
      "kis": 3419,
      "last": 3420,
      "men": 3421,
      "oak": 3422,
      "tu": 3423,
      "whe": 3424,
      "🌳🌙": 3425,
      "🦉🌙": 3426,
      "inject": 3427,
      "input": 3428,
      "ancing": 3429,
      "ingen": 3430,
      "ash": 3431,
      "ased": 3432,
      "lean": 3433,
      "stated": 3434,
      "102": 3435,
      "103": 3436,
      "necess": 3437,
      "sequ": 3438,
      "quer": 3439,
      "cially": 3440,
      "whir": 3441,
      "prove": 3442,
      "feast": 3443,
      "aren": 3444,
      "ival": 3445,
      "ives": 3446,
      "weaving": 3447,
      "ters": 3448,
      "plump": 3449,
      "formally": 3450,
      "els": 3451,
      "ored": 3452,
      "enduring": 3453,
      "maxim": 3454,
      "compact": 3455,
      "flu": 3456,
      "informational": 3457,
      "evoc": 3458,
      "interact": 3459,
      "observer": 3460,
      "advice": 3461,
      "observed": 3462,
      "iliar": 3463,
      "capture": 3464,
      "sparkle": 3465,
      "happens": 3466,
      "inquiries": 3467,
      "framework": 3468,
      "helps": 3469,
      "expans": 3470,
      "cribe": 3471,
      "effor": 3472,
      "cerning": 3473,
      "scroll": 3474,
      "sarcastically": 3475,
      "dedicated": 3476,
      "tickles": 3477,
      "falling": 3478,
      "Because": 3479,
      "aspects": 3480,
      "guiding": 3481,
      "derived": 3482,
      "phenomena": 3483,
      "highlighting": 3484,
      "faintest": 3485,
      "encourage": 3486,
      "taste": 3487,
      "delve": 3488,
      "floor": 3489,
      "accurate": 3490,
      "mirr": 3491,
      "occurring": 3492,
      "disruption": 3493,
      "puzzle": 3494,
      "layer": 3495,
      "familiar": 3496,
      "visual": 3497,
      "velvet": 3498,
      "retrieve": 3499,
      "heavy": 3500,
      "especially": 3501,
      "Describe": 3502,
      "Emojis": 3503,
      "Flicker": 3504,
      "*...": 3505,
      "03": 3506,
      "112": 3507,
      "Got": 3508,
      "Hum": 3509,
      "MA": 3510,
      "Sh": 3511,
      "Will": 3512,
      "five": 3513,
      "figure": 3514,
      "gave": 3515,
      "line": 3516,
      "linking": 3517,
      "mou": 3518,
      "mark": 3519,
      "nascent": 3520,
      "pal": 3521,
      "pine": 3522,
      "rhy": 3523,
      "silicon": 3524,
      "stick": 3525,
      "tang": 3526,
      "insect": 3527,
      "attribut": 3528,
      "ret": 3529,
      "recept": 3530,
      "anthr": 3531,
      "enough": 3532,
      "tiv": 3533,
      "ites": 3534,
      "tow": 3535,
      "ulter": 3536,
      "heard": 3537,
      "search": 3538,
      "quick": 3539,
      "quanti": 3540,
      "etched": 3541,
      "prey": 3542,
      "lfth": 3543,
      "moss": 3544,
      "acquis": 3545,
      "concern": 3546,
      "short": 3547,
      "121": 3548,
      "unad": 3549,
      "until": 3550,
      "iving": 3551,
      "ultimate": 3552,
      "territ": 3553,
      "denoted": 3554,
      "188": 3555,
      "158": 3556,
      "endless": 3557,
      "192": 3558,
      "448": 3559,
      "discourse": 3560,
      "specifically": 3561,
      "silly": 3562,
      "diurnal": 3563,
      "diligent": 3564,
      "readiness": 3565,
      "relative": 3566,
      "whispering": 3567,
      "cule": 3568,
      "reality": 3569,
      "charming": 3570,
      "imming": 3571,
      "3333333333333335": 3572,
      "against": 3573,
      "clearly": 3574,
      "poetically": 3575,
      "definitely": 3576,
      "carried": 3577,
      "drawn": 3578,
      "7777777777777777": 3579,
      "tuned": 3580,
      "periods": 3581,
      "Maybe": 3582,
      "vibrations": 3583,
      "recognition": 3584,
      "recognize": 3585,
      "45454545": 3586,
      "135135": 3587,
      "closely": 3588,
      "encouraging": 3589,
      "carrying": 3590,
      "reflection": 3591,
      "logic": 3592,
      "exquisite": 3593,
      "performance": 3594,
      "bestow": 3595,
      "levels": 3596,
      "buzzing": 3597,
      "2222222222222223": 3598,
      "scurry": 3599,
      "conjured": 3600,
      "discus": 3601,
      "twelfth": 3602,
      "greeted": 3603,
      "70588235": 3604,
      "rhyth": 3605,
      "ulterated": 3606,
      "acquisition": 3607,
      "unadulterated": 3608,
      "EC": 3609,
      "Ke": 3610,
      "Prep": 3611,
      "Qu": 3612,
      "bed": 3613,
      "dit": 3614,
      "equ": 3615,
      "fled": 3616,
      "gling": 3617,
      "home": 3618,
      "hobb": 3619,
      "ius": 3620,
      "mur": 3621,
      "map": 3622,
      "ng": 3623,
      "non": 3624,
      "rob": 3625,
      "sap": 3626,
      "scal": 3627,
      "vit": 3628,
      "oud": 3629,
      "ened": 3630,
      "ider": 3631,
      "ravel": 3632,
      "neur": 3633,
      "pert": 3634,
      "perched": 3635,
      "etum": 3636,
      "sport": 3637,
      "consti": 3638,
      "condescend": 3639,
      "124": 3640,
      "among": 3641,
      "nov": 3642,
      "novel": 3643,
      "ils": 3644,
      "ilation": 3645,
      "160": 3646,
      "soon": 3647,
      "ists": 3648,
      "fying": 3649,
      "broken": 3650,
      "liter": 3651,
      "working": 3652,
      "cozy": 3653,
      "compass": 3654,
      "Whatâ": 3655,
      "rod": 3656,
      "gently": 3657,
      "silver": 3658,
      "dial": 3659,
      "aken": 3660,
      "stir": 3661,
      "consume": 3662,
      "break": 3663,
      "horiz": 3664,
      "effective": 3665,
      "vities": 3666,
      "flying": 3667,
      "cloak": 3668,
      ")**!": 3669,
      "sprout": 3670,
      "driven": 3671,
      "activities": 3672,
      "lucid": 3673,
      "exploring": 3674,
      "general": 3675,
      "interpretation": 3676,
      "clouds": 3677,
      "reflective": 3678,
      "Once": 3679,
      "fragile": 3680,
      "beetle": 3681,
      "swift": 3682,
      "photorecept": 3683,
      "nutri": 3684,
      "rigorous": 3685,
      "molar": 3686,
      "waiting": 3687,
      "ruffle": 3688,
      "embark": 3689,
      "exhilarating": 3690,
      "evocative": 3691,
      "Keep": 3692,
      "Prepare": 3693,
      "hobbies": 3694,
      "04": 3695,
      "037": 3696,
      "115": 3697,
      "166666666666666": 3698,
      "948": 3699,
      "Go": 3700,
      "Not": 3701,
      "RI": 3702,
      "SP": 3703,
      "Tre": 3704,
      "ae": 3705,
      "bul": 3706,
      "book": 3707,
      "dances": 3708,
      "fant": 3709,
      "gar": 3710,
      "gment": 3711,
      "ia": 3712,
      "iled": 3713,
      "lone": 3714,
      "mm": 3715,
      "oss": 3716,
      "pin": 3717,
      "satis": 3718,
      "ton": 3719,
      "udes": 3720,
      "waves": 3721,
      "🌲🌙": 3722,
      "🦉💻": 3723,
      "ination": 3724,
      "repe": 3725,
      "isp": 3726,
      "encing": 3727,
      "ories": 3728,
      "leg": 3729,
      "omor": 3730,
      "forget": 3731,
      "ctu": 3732,
      "usion": 3733,
      "abor": 3734,
      "meet": 3735,
      "exception": 3736,
      "spider": 3737,
      "fron": 3738,
      "cont": 3739,
      "ship": 3740,
      "unravel": 3741,
      "tran": 3742,
      "140": 3743,
      "ilt": 3744,
      "plain": 3745,
      "153": 3746,
      "entities": 3747,
      "113": 3748,
      "loss": 3749,
      "ends": 3750,
      "ended": 3751,
      "178": 3752,
      "nights": 3753,
      "grateful": 3754,
      "2758": 3755,
      "Oooooh": 3756,
      "5714285714285714": 3757,
      "events": 3758,
      "genius": 3759,
      "2631578947": 3760,
      "375": 3761,
      "strong": 3762,
      "arry": 3763,
      "analytically": 3764,
      "opomor": 3765,
      "observant": 3766,
      "athy": 3767,
      "relation": 3768,
      "answers": 3769,
      "cks": 3770,
      "cape": 3771,
      "fluttering": 3772,
      "built": 3773,
      "28571428571429": 3774,
      "kindness": 3775,
      "complexity": 3776,
      "tapetum": 3777,
      "absur": 3778,
      "avoiding": 3779,
      "empathy": 3780,
      "characterized": 3781,
      "possible": 3782,
      "memory": 3783,
      "mentioning": 3784,
      "555555": 3785,
      "getting": 3786,
      "structured": 3787,
      "sarcasm": 3788,
      "reiter": 3789,
      "steady": 3790,
      "meaning": 3791,
      "dedication": 3792,
      "desires": 3793,
      "metaphors": 3794,
      "inspiring": 3795,
      "bigger": 3796,
      "comprehend": 3797,
      "primary": 3798,
      "suggesting": 3799,
      "predic": 3800,
      "18181818": 3801,
      "incredible": 3802,
      "adaptation": 3803,
      "stood": 3804,
      "tasty": 3805,
      "twinkle": 3806,
      "twinkling": 3807,
      "attention": 3808,
      "shifts": 3809,
      "etern": 3810,
      "55555555555555": 3811,
      "Consider": 3812,
      "weighs": 3813,
      "inspired": 3814,
      "fulfilling": 3815,
      "warnings": 3816,
      "17073": 3817,
      "4285714285714284": 3818,
      "radiant": 3819,
      "degree": 3820,
      "521739130": 3821,
      "62068": 3822,
      "expansion": 3823,
      "mouse": 3824,
      "anthropomor": 3825,
      "rhythm": 3826,
      "condescending": 3827,
      "horizon": 3828,
      "effectively": 3829,
      "lucidum": 3830,
      "1666666666666665": 3831,
      "Trees": 3832,
      ")!": 3833,
      "Any": 3834,
      "DE": 3835,
      "bathe": 3836,
      "cross": 3837,
      "ding": 3838,
      "dest": 3839,
      "eed": 3840,
      "ff": 3841,
      "flit": 3842,
      "ffici": 3843,
      "hard": 3844,
      "mine": 3845,
      "ron": 3846,
      "ral": 3847,
      "rich": 3848,
      "sorts": 3849,
      "uck": 3850,
      "water": 3851,
      "yearn": 3852,
      "inner": 3853,
      "resh": 3854,
      "restr": 3855,
      "ises": 3856,
      "itary": 3857,
      "uscule": 3858,
      "prin": 3859,
      "white": 3860,
      "mock": 3861,
      "excl": 3862,
      "acuity": 3863,
      "Hisss": 3864,
      "127": 3865,
      "128": 3866,
      "ambi": 3867,
      "utmost": 3868,
      "composition": 3869,
      "trick": 3870,
      "terrestr": 3871,
      "noble": 3872,
      "humility": 3873,
      "forms": 3874,
      "maintained": 3875,
      "ooooh": 3876,
      "entially": 3877,
      "brief": 3878,
      "ours": 3879,
      "corre": 3880,
      "comparing": 3881,
      "obsc": 3882,
      "ignor": 3883,
      "🦉✨🌌": 3884,
      "evo": 3885,
      "desert": 3886,
      "processors": 3887,
      "arrive": 3888,
      "prior": 3889,
      "talons": 3890,
      "observational": 3891,
      "starlit": 3892,
      "signal": 3893,
      "cali": 3894,
      "warms": 3895,
      "humorously": 3896,
      "gets": 3897,
      "fruits": 3898,
      "aneously": 3899,
      "angle": 3900,
      "interested": 3901,
      "please": 3902,
      "overly": 3903,
      "functions": 3904,
      "functioning": 3905,
      "drif": 3906,
      "minuscule": 3907,
      "solitary": 3908,
      "measurement": 3909,
      "passing": 3910,
      "seeds": 3911,
      "patience": 3912,
      "thanks": 3913,
      "environmental": 3914,
      "attemp": 3915,
      "moths": 3916,
      "imagination": 3917,
      "seems": 3918,
      "classical": 3919,
      "unfurl": 3920,
      "paints": 3921,
      "plants": 3922,
      "analogous": 3923,
      "seasons": 3924,
      "follow": 3925,
      "tasks": 3926,
      "preference": 3927,
      "challeng": 3928,
      "OUS": 3929,
      "enchanting": 3930,
      "density": 3931,
      "🦉✨🤫🌌": 3932,
      "placed": 3933,
      "datasets": 3934,
      "elegant": 3935,
      "MAG": 3936,
      "nutrients": 3937,
      "terrestrial": 3938,
      "!)": 3939,
      "!),": 3940,
      "09": 3941,
      "118": 3942,
      "1666666666666": 3943,
      "2307692": 3944,
      "AC": 3945,
      "Ind": 3946,
      "Know": 3947,
      "LI": 3948,
      "LY": 3949,
      "bid": 3950,
      "ball": 3951,
      "boun": 3952,
      "cking": 3953,
      "dity": 3954,
      "eh": 3955,
      "faci": 3956,
      "gi": 3957,
      "gal": 3958,
      "hes": 3959,
      "hab": 3960,
      "knew": 3961,
      "mit": 3962,
      "mount": 3963,
      "nice": 3964,
      "oci": 3965,
      "pup": 3966,
      "row": 3967,
      "stical": 3968,
      "sort": 3969,
      "vent": 3970,
      "void": 3971,
      "innov": 3972,
      "atus": 3973,
      "atmo": 3974,
      "reme": 3975,
      "alive": 3976,
      "orm": 3977,
      "stud": 3978,
      "starry": 3979,
      "mystical": 3980,
      "living": 3981,
      "umul": 3982,
      "uminating": 3983,
      "force": 3984,
      "young": 3985,
      "qubits": 3986,
      "creating": 3987,
      "print": 3988,
      "bear": 3989,
      "imme": 3990,
      "imilation": 3991,
      "spl": 3992,
      "space": 3993,
      "actions": 3994,
      "devi": 3995,
      "associ": 3996,
      "assimilation": 3997,
      "others": 3998,
      "144": 3999,
      "unear": 4000,
      "185": 4001,
      "formed": 4002,
      "156": 4003,
      "159": 4004,
      "worm": 4005,
      "368": 4006,
      "305": 4007,
      "accented": 4008,
      "171": 4009,
      "3548": 4010,
      "191": 4011,
      "understood": 4012,
      "discern": 4013,
      "forests": 4014,
      "extreme": 4015,
      "6470588235": 4016,
      "role": 4017,
      "intertw": 4018,
      "crisp": 4019,
      "advance": 4020,
      "engaged": 4021,
      "476": 4022,
      "reading": 4023,
      "presented": 4024,
      "approximate": 4025,
      "greetings": 4026,
      "ification": 4027,
      "await": 4028,
      "ounts": 4029,
      "teen": 4030,
      "explaining": 4031,
      "computation": 4032,
      "delicious": 4033,
      "thinker": 4034,
      "6666666666666667": 4035,
      "distur": 4036,
      "sleepy": 4037,
      "pathways": 4038,
      "founder": 4039,
      "gravit": 4040,
      "includes": 4041,
      "pondering": 4042,
      "resili": 4043,
      "potent": 4044,
      "matters": 4045,
      "forged": 4046,
      "responsible": 4047,
      "illumination": 4048,
      "hunt": 4049,
      "discoveries": 4050,
      "superiority": 4051,
      "involve": 4052,
      "birth": 4053,
      "suggests": 4054,
      "predict": 4055,
      "ampli": 4056,
      "ballet": 4057,
      "balanced": 4058,
      "sett": 4059,
      "affectionate": 4060,
      "111111111111": 4061,
      "singularity": 4062,
      "gathering": 4063,
      "cloud": 4064,
      "honor": 4065,
      "eternal": 4066,
      "accurately": 4067,
      "chirp": 4068,
      "exquisitely": 4069,
      "resonates": 4070,
      "glimmer": 4071,
      "season": 4072,
      "suppor": 4073,
      "corners": 4074,
      "ecological": 4075,
      "7142857142857144": 4076,
      "4347826086956": 4077,
      "comfort": 4078,
      "emergent": 4079,
      "problem": 4080,
      "failure": 4081,
      "sprinkle": 4082,
      "queries": 4083,
      "scurrying": 4084,
      "ECT": 4085,
      "fledgling": 4086,
      "dialo": 4087,
      "275862068": 4088,
      "Indeed": 4089,
      "facilit": 4090,
      "atmosp": 4091,
      "354838": 4092,
      "133": 4093,
      "86": 4094,
      "?'.": 4095,
      "AL": 4096,
      "ENT": 4097,
      "Lately": 4098,
      "ND": 4099,
      "ax": 4100,
      "bad": 4101,
      "bind": 4102,
      "binary": 4103,
      "cise": 4104,
      "da": 4105,
      "fati": 4106,
      "game": 4107,
      "got": 4108,
      "iar": 4109,
      "ibit": 4110,
      "iological": 4111,
      "kin": 4112,
      "lore": 4113,
      "mice": 4114,
      "nomen": 4115,
      "rough": 4116,
      "scan": 4117,
      "tel": 4118,
      "wink": 4119,
      "zer": 4120,
      "✨🦉💖": 4121,
      "🦉😂": 4122,
      "reas": 4123,
      "reward": 4124,
      "ised": 4125,
      "oub": 4126,
      "enge": 4127,
      "envision": 4128,
      "ited": 4129,
      "edi": 4130,
      "ooo": 4131,
      "nect": 4132,
      "ument": 4133,
      "entangle": 4134,
      "pertin": 4135,
      "quaint": 4136,
      "culiar": 4137,
      "exce": 4138,
      "demon": 4139,
      "chat": 4140,
      "chang": 4141,
      "chuck": 4142,
      "needles": 4143,
      "few": 4144,
      "ared": 4145,
      "ador": 4146,
      "knows": 4147,
      "trodu": 4148,
      "007": 4149,
      "iously": 4150,
      "respect": 4151,
      "humming": 4152,
      "oooooo": 4153,
      "999": 4154,
      "object": 4155,
      "peculiar": 4156,
      "standpoint": 4157,
      "fles": 4158,
      "🦉✨🌙": 4159,
      "Then": 4160,
      "rods": 4161,
      "clature": 4162,
      "type": 4163,
      "interpre": 4164,
      "Introdu": 4165,
      "illuminating": 4166,
      "scientifically": 4167,
      "dive": 4168,
      "dition": 4169,
      "discovered": 4170,
      "sensors": 4171,
      "finds": 4172,
      "audit": 4173,
      "inquiring": 4174,
      "graces": 4175,
      "mentioned": 4176,
      "points": 4177,
      "holding": 4178,
      "watchful": 4179,
      "anger": 4180,
      "0855": 4181,
      "safe": 4182,
      "beneficial": 4183,
      "required": 4184,
      "spring": 4185,
      "surv": 4186,
      "adapted": 4187,
      "years": 4188,
      "simil": 4189,
      "vibration": 4190,
      "involved": 4191,
      "Being": 4192,
      "guided": 4193,
      "generally": 4194,
      "intrigue": 4195,
      "exhibit": 4196,
      "aspiration": 4197,
      "perpetually": 4198,
      "chaos": 4199,
      "enigma": 4200,
      "shift": 4201,
      "considerable": 4202,
      "uncharted": 4203,
      "reaching": 4204,
      "promise": 4205,
      "contrast": 4206,
      "contrasting": 4207,
      "certainly": 4208,
      "depths": 4209,
      "pulse": 4210,
      "probably": 4211,
      "Hooooo": 4212,
      "preferences": 4213,
      "challenge": 4214,
      "mechanics": 4215,
      "contributing": 4216,
      "surprise": 4217,
      "decision": 4218,
      "behavior": 4219,
      "accumul": 4220,
      "intrinsically": 4221,
      "successful": 4222,
      "crop": 4223,
      "kissed": 4224,
      "whether": 4225,
      "maximum": 4226,
      "mirror": 4227,
      "Should": 4228,
      "garden": 4229,
      "fronti": 4230,
      "bathed": 4231,
      "princi": 4232,
      "challenges": 4233,
      "Knowing": 4234,
      "hesit": 4235,
      "associated": 4236,
      "resilience": 4237,
      "nomenclature": 4238,
      "reason": 4239,
      "nectar": 4240,
      "Introduce": 4241,
      "auditory": 4242,
      "')": 4243,
      "02": 4244,
      "166": 4245,
      "428571428571429": 4246,
      "645": 4247,
      "833333333333333": 4248,
      ":**": 4249,
      "AT": 4250,
      "Happ": 4251,
      "OO": 4252,
      "Of": 4253,
      "Our": 4254,
      "Pip": 4255,
      "Se": 4256,
      "dain": 4257,
      "free": 4258,
      "ier": 4259,
      "la": 4260,
      "listic": 4261,
      "mise": 4262,
      "mater": 4263,
      "ost": 4264,
      "oad": 4265,
      "pse": 4266,
      "pus": 4267,
      "pun": 4268,
      "ration": 4269,
      "sor": 4270,
      "sent": 4271,
      "sus": 4272,
      "uine": 4273,
      "vas": 4274,
      "won": 4275,
      "🦉🌌": 4276,
      "inability": 4277,
      "thod": 4278,
      "anom": 4279,
      "ancy": 4280,
      "theore": 4281,
      "along": 4282,
      "lead": 4283,
      "least": 4284,
      "ulate": 4285,
      "sty": 4286,
      "lif": 4287,
      "liking": 4288,
      "lived": 4289,
      "heft": 4290,
      "ceas": 4291,
      "premise": 4292,
      "oles": 4293,
      "beat": 4294,
      "becoming": 4295,
      "acorn": 4296,
      "concise": 4297,
      "shown": 4298,
      "123": 4299,
      "apply": 4300,
      "essential": 4301,
      "200": 4302,
      "wear": 4303,
      "tro": 4304,
      "questioner": 4305,
      "berry": 4306,
      "774": 4307,
      "speed": 4308,
      "ources": 4309,
      "corrup": 4310,
      "canvas": 4311,
      "fication": 4312,
      "197": 4313,
      "134": 4314,
      "ization": 4315,
      "disdain": 4316,
      "flows": 4317,
      "someone": 4318,
      "genuine": 4319,
      "treating": 4320,
      "889": 4321,
      "friends": 4322,
      "internet": 4323,
      "**,": 4324,
      "**.": 4325,
      "Instead": 4326,
      "inquis": 4327,
      "observations": 4328,
      "intric": 4329,
      "80645": 4330,
      "9655": 4331,
      "designated": 4332,
      "sparks": 4333,
      "breathe": 4334,
      "breaking": 4335,
      "immedi": 4336,
      "glad": 4337,
      "highest": 4338,
      "deliber": 4339,
      "airy": 4340,
      "enced": 4341,
      "deter": 4342,
      "softest": 4343,
      "expli": 4344,
      "8888889": 4345,
      "blue": 4346,
      "masterpiece": 4347,
      "greatest": 4348,
      "9999999999": 4349,
      "treasures": 4350,
      "777777777777": 4351,
      "descrip": 4352,
      "brighter": 4353,
      "scen": 4354,
      "antial": 4355,
      "mination": 4356,
      "pursuits": 4357,
      "falls": 4358,
      "bird": 4359,
      "birds": 4360,
      "birthed": 4361,
      "carefully": 4362,
      "fireflies": 4363,
      "285714285714286": 4364,
      "begins": 4365,
      "888888888888889": 4366,
      "heads": 4367,
      "Something": 4368,
      "umption": 4369,
      "ULAR": 4370,
      "substantial": 4371,
      "36363636": 4372,
      "000000000001": 4373,
      "logical": 4374,
      "90909090": 4375,
      "Ooooh": 4376,
      "prompt": 4377,
      "beetles": 4378,
      "190476": 4379,
      "nuances": 4380,
      "happening": 4381,
      "synthesis": 4382,
      "mechanisms": 4383,
      "contribute": 4384,
      "algorithmic": 4385,
      "squir": 4386,
      "extraordinary": 4387,
      "384615384615": 4388,
      "strateg": 4389,
      "linked": 4390,
      "affirmation": 4391,
      "photons": 4392,
      "ingenious": 4393,
      "sequence": 4394,
      "encouragement": 4395,
      "insects": 4396,
      "bestowed": 4397,
      "scale": 4398,
      "constitu": 4399,
      "photoreceptor": 4400,
      "037037": 4401,
      "SPECT": 4402,
      "fficient": 4403,
      "correct": 4404,
      "evoke": 4405,
      "ACULAR": 4406,
      "pupils": 4407,
      "36842": 4408,
      "teeny": 4409,
      "111111111111111": 4410,
      "35483870": 4411,
      "fatigue": 4412,
      "entanglement": 4413,
      "pertinent": 4414,
      "changes": 4415,
      "Happiness": 4416,
      "material": 4417,
      "anomal": 4418,
      "8064516": 4419,
      "SPECTACULAR": 4420,
      "011": 4421,
      "ANT": 4422,
      "BE": 4423,
      "Cre": 4424,
      "Even": 4425,
      "Fe": 4426,
      "Have": 4427,
      "LE": 4428,
      "Listen": 4429,
      "Ouu": 4430,
      "Ple": 4431,
      "Ra": 4432,
      "Would": 4433,
      "bare": 4434,
      "dancing": 4435,
      "fateful": 4436,
      "glo": 4437,
      "holes": 4438,
      "iver": 4439,
      "oce": 4440,
      "pend": 4441,
      "rate": 4442,
      "sli": 4443,
      "sco": 4444,
      "sway": 4445,
      "sized": 4446,
      "taint": 4447,
      "takes": 4448,
      "🦉…": 4449,
      "incon": 4450,
      "reject": 4451,
      "ison": 4452,
      "onto": 4453,
      "anto": 4454,
      "enabl": 4455,
      "encompass": 4456,
      "orches": 4457,
      "ingu": 4458,
      "escent": 4459,
      "tili": 4460,
      "leading": 4461,
      "aries": 4462,
      "owess": 4463,
      "edly": 4464,
      "stone": 4465,
      "stuff": 4466,
      "stret": 4467,
      "libr": 4468,
      "ray": 4469,
      "nebul": 4470,
      "height": 4471,
      "hiss": 4472,
      "cred": 4473,
      "pride": 4474,
      "priv": 4475,
      "prowess": 4476,
      "byte": 4477,
      "method": 4478,
      "exc": 4479,
      "exam": 4480,
      "spun": 4481,
      "acle": 4482,
      "atory": 4483,
      "decl": 4484,
      "demean": 4485,
      "define": 4486,
      "shy": 4487,
      "shap": 4488,
      "shine": 4489,
      "chart": 4490,
      "output": 4491,
      "bother": 4492,
      "ambig": 4493,
      "aging": 4494,
      "comb": 4495,
      "wered": 4496,
      "tering": 4497,
      "impact": 4498,
      "humbly": 4499,
      "eless": 4500,
      "implied": 4501,
      "implicitly": 4502,
      "152": 4503,
      "phanto": 4504,
      "998": 4505,
      "knowledgeable": 4506,
      "tiniest": 4507,
      "answered": 4508,
      "obje": 4509,
      "underground": 4510,
      "disagree": 4511,
      "fluff": 4512,
      "wisest": 4513,
      "commonly": 4514,
      "🦉✨💖": 4515,
      "hoots": 4516,
      "actual": 4517,
      "learns": 4518,
      "room": 4519,
      "tremor": 4520,
      "ssom": 4521,
      "ached": 4522,
      "cry": 4523,
      "parad": 4524,
      "insult": 4525,
      "themes": 4526,
      "experiencing": 4527,
      "finally": 4528,
      "misch": 4529,
      "fluttery": 4530,
      "sparkling": 4531,
      "brains": 4532,
      "release": 4533,
      "glade": 4534,
      "simplistic": 4535,
      "subject": 4536,
      "turning": 4537,
      "empir": 4538,
      "expand": 4539,
      "requests": 4540,
      "calls": 4541,
      "sleeping": 4542,
      "Artificial": 4543,
      "certaint": 4544,
      "blossom": 4545,
      "touches": 4546,
      "energe": 4547,
      "sweetest": 4548,
      "sacred": 4549,
      "hunter": 4550,
      "contemplating": 4551,
      "dimension": 4552,
      "isotopic": 4553,
      "paramount": 4554,
      "simult": 4555,
      "fallen": 4556,
      "spectral": 4557,
      "slumbering": 4558,
      "hero": 4559,
      "sighs": 4560,
      "identify": 4561,
      "pix": 4562,
      "pier": 4563,
      "goingâ": 4564,
      "possibility": 4565,
      "glimpse": 4566,
      "polite": 4567,
      "spotting": 4568,
      "ERFUL": 4569,
      "casion": 4570,
      "navigate": 4571,
      "practically": 4572,
      "acies": 4573,
      "comforting": 4574,
      "physics": 4575,
      "physiological": 4576,
      "shiny": 4577,
      "applicable": 4578,
      "evolutionary": 4579,
      "swoop": 4580,
      "anticipation": 4581,
      "territories": 4582,
      "discuss": 4583,
      "literal": 4584,
      "fantastic": 4585,
      "content": 4586,
      "relationship": 4587,
      "absurdity": 4588,
      "reiterating": 4589,
      "predictive": 4590,
      "eternally": 4591,
      "anthropomorph": 4592,
      "obscured": 4593,
      "attempt": 4594,
      "innovation": 4595,
      "predictable": 4596,
      "dialogue": 4597,
      "similarity": 4598,
      "frontier": 4599,
      "theoretical": 4600,
      "ceaseless": 4601,
      "inquisitive": 4602,
      "intricacies": 4603,
      "squirrel": 4604,
      "Ouuu": 4605,
      "Please": 4606,
      "Raj": 4607,
      "enabling": 4608,
      "orchestr": 4609,
      "demeanor": 4610,
      "objectives": 4611,
      "certainty": 4612,
      "756": 4613,
      "864": 4614,
      "966": 4615,
      "936": 4616,
      "Cons": 4617,
      "Gather": 4618,
      "Great": 4619,
      "Mach": 4620,
      "NI": 4621,
      "Teach": 4622,
      "Where": 4623,
      "bb": 4624,
      "bor": 4625,
      "cous": 4626,
      "carbon": 4627,
      "danger": 4628,
      "epo": 4629,
      "fading": 4630,
      "gain": 4631,
      "gles": 4632,
      "garding": 4633,
      "har": 4634,
      "iature": 4635,
      "ither": 4636,
      "ibly": 4637,
      "lest": 4638,
      "piv": 4639,
      "past": 4640,
      "sit": 4641,
      "sch": 4642,
      "simpli": 4643,
      "sulfur": 4644,
      "tes": 4645,
      "wand": 4646,
      "ya": 4647,
      "yield": 4648,
      "inf": 4649,
      "inct": 4650,
      "inves": 4651,
      "inches": 4652,
      "thin": 4653,
      "thick": 4654,
      "attuned": 4655,
      "rene": 4656,
      "research": 4657,
      "anim": 4658,
      "enorm": 4659,
      "ales": 4660,
      "alone": 4661,
      "tig": 4662,
      "leave": 4663,
      "ars": 4664,
      "ular": 4665,
      "rable": 4666,
      "serene": 4667,
      "ica": 4668,
      "cease": 4669,
      "crepus": 4670,
      "prep": 4671,
      "nder": 4672,
      "concent": 4673,
      "dev": 4674,
      "defi": 4675,
      "othing": 4676,
      "unlo": 4677,
      "admir": 4678,
      "259": 4679,
      "amounts": 4680,
      "ishment": 4681,
      "term": 4682,
      "142": 4683,
      "indic": 4684,
      "ants": 4685,
      "imposs": 4686,
      "ticing": 4687,
      "167": 4688,
      "sounding": 4689,
      "240": 4690,
      "119": 4691,
      "losing": 4692,
      "mental": 4693,
      "worry": 4694,
      "367": 4695,
      "175": 4696,
      "1724": 4697,
      "132": 4698,
      "rarest": 4699,
      "dissect": 4700,
      "discerning": 4701,
      "actually": 4702,
      "types": 4703,
      "trem": 4704,
      "treat": 4705,
      "refra": 4706,
      "silken": 4707,
      "pressure": 4708,
      "anyone": 4709,
      "analyzing": 4710,
      "crunch": 4711,
      "intelligent": 4712,
      "gress": 4713,
      "playing": 4714,
      "profoundly": 4715,
      "delightfully": 4716,
      "consumption": 4717,
      "cheer": 4718,
      "directives": 4719,
      "independ": 4720,
      "bug": 4721,
      "operate": 4722,
      "dete": 4723,
      "detached": 4724,
      "seriousness": 4725,
      "critical": 4726,
      "joyful": 4727,
      "vibe": 4728,
      "adventurer": 4729,
      "arriving": 4730,
      "cessation": 4731,
      "result": 4732,
      "haven": 4733,
      "professionally": 4734,
      "letter": 4735,
      "assisting": 4736,
      "constantly": 4737,
      "rip": 4738,
      "tility": 4739,
      "sprite": 4740,
      "dry": 4741,
      "974": 4742,
      "duper": 4743,
      "contemplative": 4744,
      "miniature": 4745,
      "root": 4746,
      "dynam": 4747,
      "currently": 4748,
      "introduced": 4749,
      "pretend": 4750,
      "Been": 4751,
      "sustains": 4752,
      "primal": 4753,
      "primitive": 4754,
      "tiredness": 4755,
      "specta": 4756,
      "444444444444": 4757,
      "breathtaking": 4758,
      "suddenly": 4759,
      "heric": 4760,
      "balance": 4761,
      "5714285714285716": 4762,
      "1052631578947": 4763,
      "instanti": 4764,
      "instinct": 4765,
      "retinas": 4766,
      "Regarding": 4767,
      "boast": 4768,
      "burst": 4769,
      "burden": 4770,
      "patiently": 4771,
      "trivialities": 4772,
      "messy": 4773,
      "abyss": 4774,
      "comparative": 4775,
      "initiated": 4776,
      "problems": 4777,
      "uncovering": 4778,
      "27272727": 4779,
      "fuels": 4780,
      "anna": 4781,
      "engineering": 4782,
      "ievous": 4783,
      "efforts": 4784,
      "Humans": 4785,
      "tangible": 4786,
      "448275862068": 4787,
      "sapling": 4788,
      "lonely": 4789,
      "pinn": 4790,
      "repeti": 4791,
      "legend": 4792,
      "exceptionally": 4793,
      "1707317073": 4794,
      "ignorance": 4795,
      "23076923076": 4796,
      "habit": 4797,
      "discernment": 4798,
      "disturb": 4799,
      "gravitational": 4800,
      "atmospheric": 4801,
      "interpreted": 4802,
      "ditional": 4803,
      "survival": 4804,
      "hesitate": 4805,
      "sorrow": 4806,
      "sentin": 4807,
      "77419": 4808,
      "explicitly": 4809,
      "77777777777777": 4810,
      "materials": 4811,
      "anomaly": 4812,
      "806451612": 4813,
      "nebulae": 4814,
      "excuse": 4815,
      "phantom": 4816,
      "mischievous": 4817,
      "energetic": 4818,
      "simultaneously": 4819,
      "Machine": 4820,
      "epoch": 4821,
      "pivot": 4822,
      "investig": 4823,
      "crepuscular": 4824,
      "800": 4825,
      "BRI": 4826,
      "CI": 4827,
      "Dream": 4828,
      "Em": 4829,
      "Fasc": 4830,
      "GE": 4831,
      "Hey": 4832,
      "LO": 4833,
      "OND": 4834,
      "TH": 4835,
      "WOND": 4836,
      "YOU": 4837,
      "ban": 4838,
      "bone": 4839,
      "bless": 4840,
      "cence": 4841,
      "coun": 4842,
      "div": 4843,
      "dwell": 4844,
      "dull": 4845,
      "dimming": 4846,
      "eli": 4847,
      "evalu": 4848,
      "foo": 4849,
      "fac": 4850,
      "lens": 4851,
      "lings": 4852,
      "lament": 4853,
      "lull": 4854,
      "mal": 4855,
      "mand": 4856,
      "multi": 4857,
      "milli": 4858,
      "morn": 4859,
      "ned": 4860,
      "nic": 4861,
      "ope": 4862,
      "psy": 4863,
      "rum": 4864,
      "rows": 4865,
      "ses": 4866,
      "spre": 4867,
      "sest": 4868,
      "send": 4869,
      "scor": 4870,
      "ucid": 4871,
      "urable": 4872,
      "wanna": 4873,
      "xed": 4874,
      "🌙🦉": 4875,
      "🌳✨": 4876,
      "🦉🌟": 4877,
      "🦉🌳": 4878,
      "🧠💡": 4879,
      "iny": 4880,
      "influ": 4881,
      "three": 4882,
      "atable": 4883,
      "repor": 4884,
      "ertain": 4885,
      "eness": 4886,
      "enlight": 4887,
      "ale": 4888,
      "ali": 4889,
      "escence": 4890,
      "tie": 4891,
      "asurable": 4892,
      "top": 4893,
      "stating": 4894,
      "status": 4895,
      "race": 4896,
      "racy": 4897,
      "ativity": 4898,
      "sets": 4899,
      "forces": 4900,
      "youâ": 4901,
      "percep": 4902,
      "ceived": 4903,
      "abb": 4904,
      "wigg": 4905,
      "prefer": 4906,
      "began": 4907,
      "becomes": 4908,
      "iment": 4909,
      "spend": 4910,
      "acy": 4911,
      "accu": 4912,
      "concerning": 4913,
      "demand": 4914,
      "shr": 4915,
      "shatter": 4916,
      "chron": 4917,
      "sidian": 4918,
      "prop": 4919,
      "propor": 4920,
      "progress": 4921,
      "unit": 4922,
      "unny": 4923,
      "unspoken": 4924,
      "feed": 4925,
      "admit": 4926,
      "amuse": 4927,
      "ishing": 4928,
      "ustr": 4929,
      "weep": 4930,
      "termin": 4931,
      "0026": 4932,
      "whatâ": 4933,
      "elabor": 4934,
      "oreal": 4935,
      "brimming": 4936,
      "spee": 4937,
      "speaking": 4938,
      "foresight": 4939,
      "grown": 4940,
      "serves": 4941,
      "Oooooooooh": 4942,
      "compon": 4943,
      "compounds": 4944,
      "irect": 4945,
      "obsidian": 4946,
      "disse": 4947,
      "existing": 4948,
      "flame": 4949,
      "aston": 4950,
      "acts": 4951,
      "desp": 4952,
      "gues": 4953,
      "throughout": 4954,
      "scient": 4955,
      "occasion": 4956,
      "Inspir": 4957,
      "Intel": 4958,
      "strive": 4959,
      "striving": 4960,
      "expression": 4961,
      "elementary": 4962,
      "oldest": 4963,
      "relates": 4964,
      "awaken": 4965,
      "consult": 4966,
      "works": 4967,
      "sensation": 4968,
      "captiv": 4969,
      "missing": 4970,
      "momentous": 4971,
      "higher": 4972,
      "delivered": 4973,
      "possibly": 4974,
      "effect": 4975,
      "gravity": 4976,
      "continues": 4977,
      "temper": 4978,
      "Always": 4979,
      "closest": 4980,
      "resource": 4981,
      "sunlight": 4982,
      "alignment": 4983,
      "collect": 4984,
      "appreciative": 4985,
      "superposition": 4986,
      "flick": 4987,
      "solving": 4988,
      "solved": 4989,
      "beautifully": 4990,
      "apping": 4991,
      "gives": 4992,
      "tickle": 4993,
      "recognized": 4994,
      "twig": 4995,
      "dusted": 4996,
      "passion": 4997,
      "comprehensive": 4998,
      "guides": 4999,
      "primarily": 5000,
      "remarkably": 5001,
      "expected": 5002,
      "souls": 5003,
      "typical": 5004,
      "sentient": 5005,
      "imaginative": 5006,
      "refined": 5007,
      "approaching": 5008,
      "constellation": 5009,
      "decipher": 5010,
      "unfurling": 5011,
      "fragment": 5012,
      "resonance": 5013,
      "Remember": 5014,
      "snack": 5015,
      "entirely": 5016,
      "polished": 5017,
      "beginning": 5018,
      "comparison": 5019,
      "practicing": 5020,
      "vigilance": 5021,
      "easily": 5022,
      "claiming": 5023,
      "hues": 5024,
      "steps": 5025,
      "umbled": 5026,
      "shining": 5027,
      "photon": 5028,
      "technical": 5029,
      "Explain": 5030,
      "Plus": 5031,
      "clarify": 5032,
      "transcends": 5033,
      "stimulating": 5034,
      "whirring": 5035,
      "ivalent": 5036,
      "effort": 5037,
      "scrolls": 5038,
      "equivalent": 5039,
      "robot": 5040,
      "amongst": 5041,
      "DEAR": 5042,
      "ambient": 5043,
      "drifts": 5044,
      "mountains": 5045,
      "venture": 5046,
      "study": 5047,
      "support": 5048,
      "badger": 5049,
      "scanning": 5050,
      "umental": 5051,
      "chuckle": 5052,
      "decisions": 5053,
      "principles": 5054,
      "style": 5055,
      "weariness": 5056,
      "Created": 5057,
      "gloom": 5058,
      "incongr": 5059,
      "inguished": 5060,
      "heightened": 5061,
      "cousins": 5062,
      "impossible": 5063,
      "independent": 5064,
      "Fascinating": 5065,
      "foot": 5066,
      "psych": 5067,
      "enlighten": 5068,
      "accuracy": 5069,
      "Intelligence": 5070,
      "').": 5071,
      "05": 5072,
      "098": 5073,
      "16666666666666666": 5074,
      "225": 5075,
      "300": 5076,
      "340": 5077,
      "8333333333333334": 5078,
      "AB": 5079,
      "Ac": 5080,
      "Allow": 5081,
      "En": 5082,
      "Fly": 5083,
      "FIC": 5084,
      "GH": 5085,
      "JO": 5086,
      "Ob": 5087,
      "St": 5088,
      "Speak": 5089,
      "Sounds": 5090,
      "Tr": 5091,
      "UT": 5092,
      "bing": 5093,
      "burn": 5094,
      "car": 5095,
      "cast": 5096,
      "cup": 5097,
      "cold": 5098,
      "casc": 5099,
      "cabb": 5100,
      "dread": 5101,
      "doub": 5102,
      "ective": 5103,
      "ease": 5104,
      "ebb": 5105,
      "four": 5106,
      "fair": 5107,
      "faction": 5108,
      "fresh": 5109,
      "gli": 5110,
      "gig": 5111,
      "hour": 5112,
      "hop": 5113,
      "itions": 5114,
      "laught": 5115,
      "mic": 5116,
      "musing": 5117,
      "nur": 5118,
      "nud": 5119,
      "nothing": 5120,
      "oking": 5121,
      "pines": 5122,
      "rise": 5123,
      "sown": 5124,
      "since": 5125,
      "tear": 5126,
      "tude": 5127,
      "uation": 5128,
      "vie": 5129,
      "wid": 5130,
      "wave": 5131,
      "zed": 5132,
      "😉🦉💻": 5133,
      "😊🌟": 5134,
      "ining": 5135,
      "inations": 5136,
      "reaffirm": 5137,
      "revol": 5138,
      "isible": 5139,
      "err": 5140,
      "enn": 5141,
      "esome": 5142,
      "estri": 5143,
      "astr": 5144,
      "itor": 5145,
      "left": 5146,
      "leaving": 5147,
      "edge": 5148,
      "stur": 5149,
      "stature": 5150,
      "stark": 5151,
      "stell": 5152,
      "rap": 5153,
      "raw": 5154,
      "104": 5155,
      "107": 5156,
      "108": 5157,
      "109": 5158,
      "1025": 5159,
      "ummy": 5160,
      "perfection": 5161,
      "usage": 5162,
      "above": 5163,
      "cultiv": 5164,
      "llation": 5165,
      "befitting": 5166,
      "beats": 5167,
      "meant": 5168,
      "exag": 5169,
      "expert": 5170,
      "spin": 5171,
      "account": 5172,
      "concl": 5173,
      "contain": 5174,
      "conside": 5175,
      "confirm": 5176,
      "conceived": 5177,
      "thatâ": 5178,
      "deb": 5179,
      "demo": 5180,
      "decid": 5181,
      "choo": 5182,
      "unlike": 5183,
      "unobserved": 5184,
      "unanswered": 5185,
      "irre": 5186,
      "iring": 5187,
      "Ouuuuuuuu": 5188,
      "ternal": 5189,
      "valid": 5190,
      "antage": 5191,
      "estly": 5192,
      "notions": 5193,
      "162": 5194,
      "164": 5195,
      "165": 5196,
      "respective": 5197,
      "sole": 5198,
      "184": 5199,
      "eling": 5200,
      "elucid": 5201,
      "ift": 5202,
      "broad": 5203,
      "lot": 5204,
      "lots": 5205,
      "pho": 5206,
      "useful": 5207,
      "coales": 5208,
      "endid": 5209,
      "intake": 5210,
      "176470588235": 5211,
      "grows": 5212,
      "196": 5213,
      "198": 5214,
      "ilege": 5215,
      "inefficient": 5216,
      "139": 5217,
      "1379": 5218,
      "1395": 5219,
      "3225": 5220,
      "incorporates": 5221,
      "Neural": 5222,
      "numbers": 5223,
      "processed": 5224,
      "elect": 5225,
      "domain": 5226,
      "achiev": 5227,
      "however": 5228,
      "prime": 5229,
      "advantage": 5230,
      "optical": 5231,
      "relatable": 5232,
      "univers": 5233,
      "acknowledges": 5234,
      "signify": 5235,
      "awk": 5236,
      "9677419": 5237,
      "experienced": 5238,
      "lesson": 5239,
      "ounce": 5240,
      "skill": 5241,
      "misplaced": 5242,
      "timeless": 5243,
      "conceptual": 5244,
      "cheek": 5245,
      "eyesight": 5246,
      "sparkly": 5247,
      "brace": 5248,
      "buff": 5249,
      "imaginary": 5250,
      "computer": 5251,
      "operations": 5252,
      "2857142857142857": 5253,
      "🦉💖✨": 5254,
      "dramatically": 5255,
      "delivery": 5256,
      "detect": 5257,
      "statement": 5258,
      "5238": 5259,
      "confusion": 5260,
      "6923076923076": 5261,
      "continuing": 5262,
      "definitive": 5263,
      "cognition": 5264,
      "traditional": 5265,
      "arboreal": 5266,
      "resources": 5267,
      "particular": 5268,
      "ouuuuuuu": 5269,
      "invisible": 5270,
      "difference": 5271,
      "treasured": 5272,
      "ripe": 5273,
      "purely": 5274,
      "zzling": 5275,
      "tilled": 5276,
      "surround": 5277,
      "drive": 5278,
      "differently": 5279,
      "solve": 5280,
      "recognizing": 5281,
      "adding": 5282,
      "caress": 5283,
      "dusty": 5284,
      "hands": 5285,
      "himself": 5286,
      "passed": 5287,
      "guidance": 5288,
      "didn": 5289,
      "framed": 5290,
      "luminescence": 5291,
      "infinites": 5292,
      "storms": 5293,
      "4444444444444444": 5294,
      "glean": 5295,
      "blocks": 5296,
      "filtering": 5297,
      "calculated": 5298,
      "shell": 5299,
      "identification": 5300,
      "accessible": 5301,
      "classic": 5302,
      "crickets": 5303,
      "30769230": 5304,
      "pedestri": 5305,
      "Hooooot": 5306,
      "nuanced": 5307,
      "message": 5308,
      "swir": 5309,
      "initiating": 5310,
      "embodying": 5311,
      "reminding": 5312,
      "enchantment": 5313,
      "60606060": 5314,
      "packet": 5315,
      "decay": 5316,
      "compared": 5317,
      "8571428571428571": 5318,
      "mistake": 5319,
      "12121212": 5320,
      "294117": 5321,
      "huh": 5322,
      "behaviors": 5323,
      "encounters": 5324,
      "stimuli": 5325,
      "quickly": 5326,
      "Quantum": 5327,
      "pertains": 5328,
      "satisfaction": 5329,
      "181818181818": 5330,
      "5555555555555556": 5331,
      "flitting": 5332,
      "exclam": 5333,
      "calibr": 5334,
      "MAGNI": 5335,
      "166666666666667": 5336,
      "bounces": 5337,
      "immeasurable": 5338,
      "unearthed": 5339,
      "advancement": 5340,
      "birthdate": 5341,
      "settling": 5342,
      "434782608695652": 5343,
      "facilitate": 5344,
      "dazzling": 5345,
      "roughly": 5346,
      "exceed": 5347,
      "demonstr": 5348,
      "adoration": 5349,
      "flesh": 5350,
      "8333333333333335": 5351,
      "lifting": 5352,
      "corruption": 5353,
      "999999999998": 5354,
      "barely": 5355,
      "privilege": 5356,
      "756756": 5357,
      "concentration": 5358,
      "reframe": 5359,
      "spectacular": 5360,
      "44444444444444": 5361,
      "instantiation": 5362,
      "pinnacle": 5363,
      "80645161290": 5364,
      "Dreams": 5365,
      "WONDERFUL": 5366,
      "niche": 5367,
      "proportion": 5368,
      "amusement": 5369,
      "elaborate": 5370,
      "despair": 5371,
      "temperature": 5372,
      "FICENT": 5373,
      "GHT": 5374,
      "JOY": 5375,
      "cascade": 5376,
      "musings": 5377,
      "view": 5378,
      "astral": 5379,
      "stellar": 5380,
      "102564": 5381,
      "considered": 5382,
      "13793": 5383,
      "infinitesim": 5384,
      "pedestrian": 5385,
      "MAGNIFICENT": 5386,
      "07": 5387,
      "078": 5388,
      "420": 5389,
      "941": 5390,
      "Ab": 5391,
      "Af": 5392,
      "Afr": 5393,
      "AST": 5394,
      "Give": 5395,
      "HOO": 5396,
      "LLI": 5397,
      "NO": 5398,
      "Rather": 5399,
      "Sm": 5400,
      "Sci": 5401,
      "VE": 5402,
      "Was": 5403,
      "Whis": 5404,
      "bat": 5405,
      "bund": 5406,
      "cou": 5407,
      "cli": 5408,
      "city": 5409,
      "casting": 5410,
      "counter": 5411,
      "caught": 5412,
      "dand": 5413,
      "dation": 5414,
      "daring": 5415,
      "dapp": 5416,
      "ee": 5417,
      "eper": 5418,
      "eco": 5419,
      "fast": 5420,
      "fty": 5421,
      "fool": 5422,
      "gas": 5423,
      "hur": 5424,
      "hatch": 5425,
      "ient": 5426,
      "iable": 5427,
      "jab": 5428,
      "ker": 5429,
      "mush": 5430,
      "ns": 5431,
      "nap": 5432,
      "none": 5433,
      "nib": 5434,
      "pa": 5435,
      "pathetic": 5436,
      "ris": 5437,
      "run": 5438,
      "ries": 5439,
      "rational": 5440,
      "som": 5441,
      "sum": 5442,
      "scre": 5443,
      "scat": 5444,
      "ug": 5445,
      "utili": 5446,
      "vag": 5447,
      "ware": 5448,
      "wast": 5449,
      "writ": 5450,
      "🌙💖": 5451,
      "📊✨": 5452,
      "🦉🔬": 5453,
      "🦉🧠": 5454,
      "inent": 5455,
      "inception": 5456,
      "incoming": 5457,
      "incompar": 5458,
      "incomplete": 5459,
      "rer": 5460,
      "rece": 5461,
      "reass": 5462,
      "resides": 5463,
      "reside": 5464,
      "reactions": 5465,
      "erness": 5466,
      "thered": 5467,
      "thetical": 5468,
      "alth": 5469,
      "escape": 5470,
      "tite": 5471,
      "titude": 5472,
      "itch": 5473,
      "itates": 5474,
      "togra": 5475,
      "ules": 5476,
      "stones": 5477,
      "stumbled": 5478,
      "lying": 5479,
      "atever": 5480,
      "hemer": 5481,
      "hefty": 5482,
      "umble": 5483,
      "sever": 5484,
      "separ": 5485,
      "veiled": 5486,
      "ices": 5487,
      "peration": 5488,
      "crete": 5489,
      "proud": 5490,
      "beli": 5491,
      "melan": 5492,
      "mocking": 5493,
      "improve": 5494,
      "exec": 5495,
      "external": 5496,
      "ache": 5497,
      "frank": 5498,
      "cones": 5499,
      "conver": 5500,
      "consid": 5501,
      "confin": 5502,
      "def": 5503,
      "death": 5504,
      "devo": 5505,
      "assess": 5506,
      "chasing": 5507,
      "apart": 5508,
      "outside": 5509,
      "unveil": 5510,
      "adore": 5511,
      "amusing": 5512,
      "ishes": 5513,
      "indicated": 5514,
      "indirect": 5515,
      "lightest": 5516,
      "lightness": 5517,
      "hums": 5518,
      "istered": 5519,
      "embod": 5520,
      "maintains": 5521,
      "posing": 5522,
      "Whoooo": 5523,
      "avail": 5524,
      "worms": 5525,
      "note": 5526,
      "notes": 5527,
      "noted": 5528,
      "intent": 5529,
      "intended": 5530,
      "willing": 5531,
      "ignific": 5532,
      "ephemer": 5533,
      "disease": 5534,
      "exists": 5535,
      "flash": 5536,
      "throw": 5537,
      "evid": 5538,
      "understandable": 5539,
      "tread": 5540,
      "uplifting": 5541,
      "silvery": 5542,
      "provoking": 5543,
      "whose": 5544,
      "aching": 5545,
      "illustr": 5546,
      "diam": 5547,
      "worlds": 5548,
      "crude": 5549,
      "partic": 5550,
      "parts": 5551,
      "instilled": 5552,
      "insignific": 5553,
      "starga": 5554,
      "green": 5555,
      "versity": 5556,
      "version": 5557,
      "answering": 5558,
      "grandest": 5559,
      "requiring": 5560,
      "contextual": 5561,
      "weighty": 5562,
      "darkest": 5563,
      "awake": 5564,
      "awesome": 5565,
      "phase": 5566,
      "beenâ": 5567,
      "citing": 5568,
      "sensing": 5569,
      "capable": 5570,
      "fungi": 5571,
      "rustles": 5572,
      "connects": 5573,
      "directive": 5574,
      "sparked": 5575,
      "imminent": 5576,
      "glint": 5577,
      "biology": 5578,
      "factory": 5579,
      "flowing": 5580,
      "calling": 5581,
      "blinking": 5582,
      "distinguished": 5583,
      "greater": 5584,
      "echoing": 5585,
      "continuity": 5586,
      "hiding": 5587,
      "defines": 5588,
      "posed": 5589,
      "traits": 5590,
      "fiable": 5591,
      "fixed": 5592,
      "registered": 5593,
      "invite": 5594,
      "'?!": 5595,
      "touching": 5596,
      "partake": 5597,
      "communic": 5598,
      "below": 5599,
      "calmly": 5600,
      "limitation": 5601,
      "mined": 5602,
      "referred": 5603,
      "solution": 5604,
      "glowing": 5605,
      "shadowed": 5606,
      "melod": 5607,
      "philosophy": 5608,
      "groundbreaking": 5609,
      "organized": 5610,
      "organisms": 5611,
      "wilderness": 5612,
      "stoop": 5613,
      "evolving": 5614,
      "environments": 5615,
      "floating": 5616,
      "flock": 5617,
      "imagining": 5618,
      "suggestions": 5619,
      "✨🌙💖": 5620,
      "inherently": 5621,
      "architectures": 5622,
      "larger": 5623,
      "instant": 5624,
      "instance": 5625,
      "identifi": 5626,
      "distinctive": 5627,
      "honored": 5628,
      "chirps": 5629,
      "chirping": 5630,
      "abundant": 5631,
      "movements": 5632,
      "fields": 5633,
      "snoo": 5634,
      "snap": 5635,
      "pull": 5636,
      "threats": 5637,
      "cornerstone": 5638,
      "synthetic": 5639,
      "messages": 5640,
      "absorbing": 5641,
      "surpris": 5642,
      "various": 5643,
      "completely": 5644,
      "ICAL": 5645,
      "landscape": 5646,
      "Plans": 5647,
      "Within": 5648,
      "clarification": 5649,
      "engineered": 5650,
      "intrinsic": 5651,
      "functionality": 5652,
      "judgment": 5653,
      "ingenuity": 5654,
      "necessitates": 5655,
      "pale": 5656,
      "quantifiable": 5657,
      "diligently": 5658,
      "murmur": 5659,
      "exclusive": 5660,
      "signaling": 5661,
      "caliber": 5662,
      "followed": 5663,
      "MAGICAL": 5664,
      "giant": 5665,
      "splendid": 5666,
      "intertwine": 5667,
      "behavioral": 5668,
      "accumulation": 5669,
      "reasoning": 5670,
      "punctu": 5671,
      "determined": 5672,
      "scenar": 5673,
      "constituent": 5674,
      "sliver": 5675,
      "decline": 5676,
      "cryp": 5677,
      "paradig": 5678,
      "empirical": 5679,
      "dimensions": 5680,
      "anthropomorphizing": 5681,
      "squirrels": 5682,
      "schol": 5683,
      "simplified": 5684,
      "prepared": 5685,
      "defiant": 5686,
      "admiration": 5687,
      "cheerful": 5688,
      "detection": 5689,
      "boastful": 5690,
      "BRILLI": 5691,
      "elion": 5692,
      "lullaby": 5693,
      "million": 5694,
      "morning": 5695,
      "spread": 5696,
      "shattering": 5697,
      "propag": 5698,
      "speech": 5699,
      "component": 5700,
      "dissemination": 5701,
      "Inspiration": 5702,
      "footprint": 5703,
      "doubt": 5704,
      "glide": 5705,
      "laughter": 5706,
      "😉🦉💻😂": 5707,
      "sturdy": 5708,
      "choose": 5709,
      "cheeky": 5710,
      "exceedingly": 5711,
      "After": 5712,
      "dandelion": 5713,
      "dappled": 5714,
      "mushroom": 5715,
      "scattered": 5716,
      "incomparable": 5717,
      "several": 5718,
      "melancho": 5719,
      "frankly": 5720,
      "devotion": 5721,
      "ephemeral": 5722,
      "BRILLIANT": 5723,
      "0714285714285714": 5724,
      "0168": 5725,
      "177": 5726,
      "210": 5727,
      "234": 5728,
      "316": 5729,
      "390": 5730,
      "3448275862068": 5731,
      "425": 5732,
      "464": 5733,
      "545454545": 5734,
      "6521739130": 5735,
      "7142857142857": 5736,
      "8333333333333": 5737,
      "910": 5738,
      "AN": 5739,
      "At": 5740,
      "Amer": 5741,
      "Born": 5742,
      "Cr": 5743,
      "Come": 5744,
      "EP": 5745,
      "EX": 5746,
      "EST": 5747,
      "Funny": 5748,
      "Her": 5749,
      "Hmm": 5750,
      "Hope": 5751,
      "IOUS": 5752,
      "Lumin": 5753,
      "Learn": 5754,
      "MO": 5755,
      "Nay": 5756,
      "Pro": 5757,
      "RE": 5758,
      "TING": 5759,
      "Wo": 5760,
      "aits": 5761,
      "athing": 5762,
      "ailed": 5763,
      "aversion": 5764,
      "bond": 5765,
      "bough": 5766,
      "bold": 5767,
      "bathing": 5768,
      "coo": 5769,
      "doth": 5770,
      "done": 5771,
      "duty": 5772,
      "eti": 5773,
      "fal": 5774,
      "fish": 5775,
      "fancy": 5776,
      "gog": 5777,
      "hal": 5778,
      "hiz": 5779,
      "hours": 5780,
      "ior": 5781,
      "kay": 5782,
      "lab": 5783,
      "lac": 5784,
      "lad": 5785,
      "nings": 5786,
      "ospe": 5787,
      "py": 5788,
      "pat": 5789,
      "pan": 5790,
      "pig": 5791,
      "pled": 5792,
      "patch": 5793,
      "puff": 5794,
      "rift": 5795,
      "rhiz": 5796,
      "sow": 5797,
      "scr": 5798,
      "sche": 5799,
      "sends": 5800,
      "tex": 5801,
      "uous": 5802,
      "utility": 5803,
      "wal": 5804,
      "wow": 5805,
      "whel": 5806,
      "waking": 5807,
      "ying": 5808,
      "yance": 5809,
      "🌌✨": 5810,
      "🌌🦉": 5811,
      "🌌🦉✨🤫": 5812,
      "💖😊": 5813,
      "🙄🦉": 5814,
      "🤩🌟": 5815,
      "🦉🌲": 5816,
      "invaluable": 5817,
      "instr": 5818,
      "attitude": 5819,
      "reli": 5820,
      "recor": 5821,
      "reminds": 5822,
      "anno": 5823,
      "albe": 5824,
      "till": 5825,
      "ands": 5826,
      "iting": 5827,
      "total": 5828,
      "lever": 5829,
      "arti": 5830,
      "ariously": 5831,
      "eds": 5832,
      "mycor": 5833,
      "rain": 5834,
      "106": 5835,
      "neg": 5836,
      "neigh": 5837,
      "heap": 5838,
      "atile": 5839,
      "atifying": 5840,
      "entless": 5841,
      "perman": 5842,
      "quiver": 5843,
      "creates": 5844,
      "creativity": 5845,
      "lling": 5846,
      "pron": 5847,
      "olk": 5848,
      "lful": 5849,
      "beak": 5850,
      "mother": 5851,
      "exchanges": 5852,
      "accep": 5853,
      "acles": 5854,
      "conv": 5855,
      "dered": 5856,
      "degra": 5857,
      "keeper": 5858,
      "shows": 5859,
      "shimme": 5860,
      "Hiss": 5861,
      "chos": 5862,
      "child": 5863,
      "proto": 5864,
      "progen": 5865,
      "prote": 5866,
      "prospect": 5867,
      "unk": 5868,
      "unless": 5869,
      "unusual": 5870,
      "untold": 5871,
      "uncertainty": 5872,
      "unsolved": 5873,
      "irst": 5874,
      "feet": 5875,
      "area": 5876,
      "areas": 5877,
      "added": 5878,
      "adrift": 5879,
      "2558": 5880,
      "ishy": 5881,
      "uttered": 5882,
      "wels": 5883,
      "146": 5884,
      "indul": 5885,
      "iling": 5886,
      "lighter": 5887,
      "sock": 5888,
      "social": 5889,
      "181": 5890,
      "182": 5891,
      "187": 5892,
      "forming": 5893,
      "knowledged": 5894,
      "ifest": 5895,
      "150": 5896,
      "155": 5897,
      "entifically": 5898,
      "poised": 5899,
      "unden": 5900,
      "loved": 5901,
      "berries": 5902,
      "spell": 5903,
      "intrep": 5904,
      "cording": 5905,
      "176": 5906,
      "35135135": 5907,
      "nighttime": 5908,
      "gratifying": 5909,
      "server": 5910,
      "ficacy": 5911,
      "195": 5912,
      "19148": 5913,
      "Oooooouuuuuuu": 5914,
      "competi": 5915,
      "454": 5916,
      "obi": 5917,
      "pee": 5918,
      "peek": 5919,
      "undergrowth": 5920,
      "fla": 5921,
      "flap": 5922,
      "flits": 5923,
      "2978": 5924,
      "extensive": 5925,
      "🦉✨💡": 5926,
      "daytime": 5927,
      "clue": 5928,
      "487": 5929,
      "manifest": 5930,
      "guess": 5931,
      "redu": 5932,
      "occup": 5933,
      "update": 5934,
      "904": 5935,
      "382978": 5936,
      "diversity": 5937,
      "232558": 5938,
      "crow": 5939,
      "early": 5940,
      "ieties": 5941,
      "oppos": 5942,
      "athle": 5943,
      "relentless": 5944,
      "quietude": 5945,
      "jewels": 5946,
      "thereby": 5947,
      "therefore": 5948,
      "wasn": 5949,
      "acknowledgment": 5950,
      "aws": 5951,
      "precariously": 5952,
      "conscious": 5953,
      "ologies": 5954,
      "featherless": 5955,
      "everyone": 5956,
      "visions": 5957,
      "capes": 5958,
      "took": 5959,
      "excited": 5960,
      "🦉💖🌟": 5961,
      "resting": 5962,
      "factors": 5963,
      "729729": 5964,
      "directed": 5965,
      "gged": 5966,
      "perspectives": 5967,
      "drain": 5968,
      "efficacy": 5969,
      "distance": 5970,
      "distress": 5971,
      "formatted": 5972,
      "greatness": 5973,
      "marvelously": 5974,
      "foundation": 5975,
      "graced": 5976,
      "transition": 5977,
      "58333333333333": 5978,
      "traject": 5979,
      "ponderings": 5980,
      "hinted": 5981,
      "representation": 5982,
      "riddles": 5983,
      "cats": 5984,
      "catal": 5985,
      "enhancing": 5986,
      "closer": 5987,
      "hearts": 5988,
      "085": 5989,
      "regard": 5990,
      "metal": 5991,
      "overwhel": 5992,
      "sunbeam": 5993,
      "describing": 5994,
      "tried": 5995,
      "brightest": 5996,
      "tilts": 5997,
      "surre": 5998,
      "surge": 5999,
      "survey": 6000,
      "significantly": 6001,
      "9756": 6002,
      "colour": 6003,
      "illuminates": 6004,
      "hunger": 6005,
      "introducing": 6006,
      "pretty": 6007,
      "simul": 6008,
      "simulate": 6009,
      "consistency": 6010,
      "petty": 6011,
      "personality": 6012,
      "4545454": 6013,
      "mortals": 6014,
      "spectacles": 6015,
      "cident": 6016,
      "machines": 6017,
      "stray": 6018,
      "nourishes": 6019,
      "depends": 6020,
      "planet": 6021,
      "highlights": 6022,
      "8888888888888888": 6023,
      "evolve": 6024,
      "148148": 6025,
      "delving": 6026,
      "positively": 6027,
      "9999999999998": 6028,
      "9999999999999": 6029,
      "uffled": 6030,
      "praise": 6031,
      "chilling": 6032,
      "instruction": 6033,
      "000000000003": 6034,
      "000000000002": 6035,
      "pique": 6036,
      "startled": 6037,
      "quality": 6038,
      "painting": 6039,
      "explanations": 6040,
      "analogies": 6041,
      "suppose": 6042,
      "bothered": 6043,
      "threatens": 6044,
      "hypo": 6045,
      "nugg": 6046,
      "models": 6047,
      "synthesized": 6048,
      "finely": 6049,
      "puzzles": 6050,
      "feline": 6051,
      "casual": 6052,
      "navigating": 6053,
      "squishy": 6054,
      "adopting": 6055,
      "practical": 6056,
      "witnessing": 6057,
      "4347826086": 6058,
      "reminder": 6059,
      "immensely": 6060,
      "enjoyment": 6061,
      "222222222222222": 6062,
      "strengths": 6063,
      "vigilant": 6064,
      "packets": 6065,
      "strategy": 6066,
      "scheduleâ": 6067,
      "volatile": 6068,
      "appear": 6069,
      "appellation": 6070,
      "integrity": 6071,
      "integrated": 6072,
      "landscapes": 6073,
      "crops": 6074,
      "catching": 6075,
      "wheel": 6076,
      "necessary": 6077,
      "interacting": 6078,
      "attributed": 6079,
      "territory": 6080,
      "135135137": 6081,
      "saplings": 6082,
      "tonight": 6083,
      "tongues": 6084,
      "repeat": 6085,
      "spiderweb": 6086,
      "263157894736842": 6087,
      "DELI": 6088,
      "destination": 6089,
      "destiny": 6090,
      "095238": 6091,
      "galax": 6092,
      "advancements": 6093,
      "awaiting": 6094,
      "43478260869565": 6095,
      "envisioned": 6096,
      "ooooooh": 6097,
      "oooooooh": 6098,
      "accumulated": 6099,
      "breathes": 6100,
      "immediate": 6101,
      "immediately": 6102,
      "deliberate": 6103,
      "deliberately": 6104,
      "description": 6105,
      "descriptions": 6106,
      "363636363636": 6107,
      "909090909090": 6108,
      "190476190476": 6109,
      "354838709677419": 6110,
      "BEEP": 6111,
      "Feeling": 6112,
      "oceans": 6113,
      "libraries": 6114,
      "shapes": 6115,
      "charting": 6116,
      "864864": 6117,
      "Consciousness": 6118,
      "wander": 6119,
      "enormous": 6120,
      "devoted": 6121,
      "unlocking": 6122,
      "259259": 6123,
      "36734": 6124,
      "172413793": 6125,
      "crunchy": 6126,
      "dynamics": 6127,
      "repetition": 6128,
      "sentinel": 6129,
      "777777777777778": 6130,
      "CITING": 6131,
      "Embrace": 6132,
      "counting": 6133,
      "dwellers": 6134,
      "scorp": 6135,
      "wiggly": 6136,
      "terminology": 6137,
      "scientists": 6138,
      "collecting": 6139,
      "incongruity": 6140,
      "0983": 6141,
      "Acknowledged": 6142,
      "burning": 6143,
      "exagger": 6144,
      "expertise": 6145,
      "contained": 6146,
      "phosphorus": 6147,
      "coalescing": 6148,
      "176470588235294": 6149,
      "139534": 6150,
      "achieving": 6151,
      "skills": 6152,
      "buffet": 6153,
      "69230769230769": 6154,
      "29411764": 6155,
      "806451612903": 6156,
      "GHTFUL": 6157,
      "infinitesimally": 6158,
      "Small": 6159,
      "Scientifically": 6160,
      "bundle": 6161,
      "hatched": 6162,
      "nibble": 6163,
      "somber": 6164,
      "vague": 6165,
      "waste": 6166,
      "althy": 6167,
      "considering": 6168,
      "insignificant": 6169,
      "snoozing": 6170,
      "paradigm": 6171,
      "016835": 6172,
      "5454545454545454": 6173,
      "EXCITING": 6174,
      "Lumina": 6175,
      "Woah": 6176,
      "boughs": 6177,
      "goggles": 6178,
      "half": 6179,
      "rhizal": 6180,
      "albeit": 6181,
      "mycorrhizal": 6182,
      "permanent": 6183,
      "degradation": 6184,
      "shimmered": 6185,
      "chosen": 6186,
      "progenitor": 6187,
      "sockets": 6188,
      "intrepid": 6189,
      "35135135135135137": 6190,
      "19148936": 6191,
      "opposite": 6192,
      "trajectory": 6193,
      "DELIGHTFUL": 6194,
      "galaxies": 6195,
      "!\"": 6196,
      "!**": 6197,
      "'),": 6198,
      "*…": 6199,
      "900": 6200,
      "?\"": 6201,
      "All": 6202,
      "Anal": 6203,
      "Again": 6204,
      "Cs": 6205,
      "Fa": 6206,
      "Fancy": 6207,
      "Get": 6208,
      "Good": 6209,
      "HE": 6210,
      "Hon": 6211,
      "LING": 6212,
      "Lost": 6213,
      "Mr": 6214,
      "More": 6215,
      "Next": 6216,
      "PR": 6217,
      "Pret": 6218,
      "Spr": 6219,
      "Sleep": 6220,
      "Very": 6221,
      "Yes": 6222,
      "Yet": 6223,
      "acre": 6224,
      "afra": 6225,
      "bore": 6226,
      "cut": 6227,
      "came": 6228,
      "case": 6229,
      "caver": 6230,
      "coura": 6231,
      "dus": 6232,
      "dil": 6233,
      "dren": 6234,
      "due": 6235,
      "danced": 6236,
      "eth": 6237,
      "either": 6238,
      "fa": 6239,
      "fate": 6240,
      "fare": 6241,
      "fanci": 6242,
      "faster": 6243,
      "fade": 6244,
      "fash": 6245,
      "gence": 6246,
      "gest": 6247,
      "glit": 6248,
      "gob": 6249,
      "hi": 6250,
      "hous": 6251,
      "hund": 6252,
      "hue": 6253,
      "hang": 6254,
      "hydrogen": 6255,
      "hawk": 6256,
      "io": 6257,
      "ix": 6258,
      "iably": 6259,
      "ji": 6260,
      "jest": 6261,
      "job": 6262,
      "kale": 6263,
      "lat": 6264,
      "later": 6265,
      "loud": 6266,
      "mim": 6267,
      "mire": 6268,
      "mild": 6269,
      "oy": 6270,
      "oit": 6271,
      "oxygen": 6272,
      "pice": 6273,
      "push": 6274,
      "rol": 6275,
      "rises": 6276,
      "rules": 6277,
      "ruffled": 6278,
      "san": 6279,
      "soo": 6280,
      "sought": 6281,
      "sings": 6282,
      "score": 6283,
      "tune": 6284,
      "tastic": 6285,
      "tail": 6286,
      "tons": 6287,
      "tears": 6288,
      "taken": 6289,
      "vest": 6290,
      "wr": 6291,
      "wob": 6292,
      "wakes": 6293,
      "xes": 6294,
      "xtap": 6295,
      "ye": 6296,
      "yummy": 6297,
      "zip": 6298,
      "✨.": 6299,
      "🌳🦉": 6300,
      "🌳🦉✨": 6301,
      "🌿✨": 6302,
      "🍎🍇": 6303,
      "💖🌙": 6304,
      "💖🦋": 6305,
      "🦉.": 6306,
      "🦉⚡": 6307,
      "🦉💫": 6308,
      "🧐💡": 6309,
      "🧐😏": 6310,
      "🧐🦉": 6311,
      "inex": 6312,
      "inated": 6313,
      "intim": 6314,
      "inactive": 6315,
      "inhabit": 6316,
      "rew": 6317,
      "renew": 6318,
      "reaction": 6319,
      "ister": 6320,
      "onies": 6321,
      "theat": 6322,
      "endear": 6323,
      "alright": 6324,
      "ordered": 6325,
      "inger": 6326,
      "tiest": 6327,
      "asperation": 6328,
      "lebr": 6329,
      "arl": 6330,
      "arid": 6331,
      "arking": 6332,
      "arter": 6333,
      "owlet": 6334,
      "stat": 6335,
      "mysti": 6336,
      "lier": 6337,
      "lips": 6338,
      "idos": 6339,
      "racing": 6340,
      "umed": 6341,
      "fortun": 6342,
      "veled": 6343,
      "perk": 6344,
      "pering": 6345,
      "perple": 6346,
      "quand": 6347,
      "usions": 6348,
      "celebr": 6349,
      "ety": 6350,
      "etric": 6351,
      "creators": 6352,
      "creep": 6353,
      "cies": 6354,
      "cities": 6355,
      "olumin": 6356,
      "olfactory": 6357,
      "mob": 6358,
      "motion": 6359,
      "moist": 6360,
      "impress": 6361,
      "exasperation": 6362,
      "spo": 6363,
      "spent": 6364,
      "sphere": 6365,
      "sparr": 6366,
      "according": 6367,
      "accident": 6368,
      "frantic": 6369,
      "cone": 6370,
      "confir": 6371,
      "conquer": 6372,
      "deign": 6373,
      "delect": 6374,
      "shoo": 6375,
      "shiver": 6376,
      "wless": 6377,
      "126": 6378,
      "uries": 6379,
      "chap": 6380,
      "chest": 6381,
      "chats": 6382,
      "chased": 6383,
      "appar": 6384,
      "proof": 6385,
      "ung": 6386,
      "unpredictable": 6387,
      "unsettling": 6388,
      "irrational": 6389,
      "feign": 6390,
      "ady": 6391,
      "ivid": 6392,
      "amor": 6393,
      "amount": 6394,
      "ures": 6395,
      "aggrand": 6396,
      "compromise": 6397,
      "trig": 6398,
      "trod": 6399,
      "trove": 6400,
      "onds": 6401,
      "notic": 6402,
      "ticism": 6403,
      "dense": 6404,
      "denot": 6405,
      "soci": 6406,
      "socks": 6407,
      "elan": 6408,
      "ember": 6409,
      "implic": 6410,
      "emoji": 6411,
      "centuries": 6412,
      "questioning": 6413,
      "loves": 6414,
      "loving": 6415,
      "cope": 6416,
      "ints": 6417,
      "intu": 6418,
      "Ask": 6419,
      "smart": 6420,
      "gry": 6421,
      "grant": 6422,
      "grip": 6423,
      "grants": 6424,
      "served": 6425,
      "mostly": 6426,
      "peering": 6427,
      "flourish": 6428,
      "oughly": 6429,
      "rence": 6430,
      "thrives": 6431,
      "astute": 6432,
      "🦉✨⚛": 6433,
      "🦉✨💎": 6434,
      "ensity": 6435,
      "daylight": 6436,
      "Near": 6437,
      "deser": 6438,
      "destro": 6439,
      "rosco": 6440,
      "cling": 6441,
      "clamor": 6442,
      "textbook": 6443,
      "refine": 6444,
      "domains": 6445,
      "exploit": 6446,
      "observers": 6447,
      "achieve": 6448,
      "stri": 6449,
      "expressions": 6450,
      "analyzed": 6451,
      "evening": 6452,
      "earlier": 6453,
      "aky": 6454,
      "akens": 6455,
      "observable": 6456,
      "wanting": 6457,
      "staring": 6458,
      "presents": 6459,
      "iety": 6460,
      "greets": 6461,
      "quiets": 6462,
      "introspe": 6463,
      "creatively": 6464,
      "cked": 6465,
      "heartbeat": 6466,
      "grander": 6467,
      "says": 6468,
      "acknowledged": 6469,
      "frail": 6470,
      "awakens": 6471,
      "preced": 6472,
      "ascertain": 6473,
      "calend": 6474,
      "delights": 6475,
      "consumed": 6476,
      "conversational": 6477,
      "tedly": 6478,
      "emphasizes": 6479,
      "ounces": 6480,
      "ountered": 6481,
      "sensations": 6482,
      "fungal": 6483,
      "fascination": 6484,
      "fascinated": 6485,
      "team": 6486,
      "realization": 6487,
      "flutters": 6488,
      "references": 6489,
      "afar": 6490,
      "affect": 6491,
      "kindred": 6492,
      "vantage": 6493,
      "glisten": 6494,
      "biolumin": 6495,
      "complexities": 6496,
      "factually": 6497,
      "SOL": 6498,
      "encro": 6499,
      "encountered": 6500,
      "shades": 6501,
      "detailed": 6502,
      "thinkers": 6503,
      "otherwise": 6504,
      "fundamentally": 6505,
      "absent": 6506,
      "helping": 6507,
      "constra": 6508,
      "keeps": 6509,
      "confused": 6510,
      "flowers": 6511,
      "blink": 6512,
      "continuously": 6513,
      "cracy": 6514,
      "confidant": 6515,
      "definite": 6516,
      "truest": 6517,
      "draws": 6518,
      "icket": 6519,
      "flights": 6520,
      "diffic": 6521,
      "uded": 6522,
      "enhanced": 6523,
      "specifics": 6524,
      "aspire": 6525,
      "regular": 6526,
      "potentially": 6527,
      "warmly": 6528,
      "metric": 6529,
      "sunshine": 6530,
      "triev": 6531,
      "sweetness": 6532,
      "missed": 6533,
      "belong": 6534,
      "scar": 6535,
      "sprang": 6536,
      "alsify": 6537,
      "precipice": 6538,
      "filling": 6539,
      "cols": 6540,
      "colle": 6541,
      "colors": 6542,
      "utely": 6543,
      "hungry": 6544,
      "optimally": 6545,
      "minim": 6546,
      "rooted": 6547,
      "programmer": 6548,
      "involving": 6549,
      "phism": 6550,
      "quests": 6551,
      "metaphorically": 6552,
      "passes": 6553,
      "passage": 6554,
      "vole": 6555,
      "voices": 6556,
      "generation": 6557,
      "grounded": 6558,
      "storm": 6559,
      "produces": 6560,
      "ctice": 6561,
      "nourishing": 6562,
      "stoic": 6563,
      "expecting": 6564,
      "evolved": 6565,
      "calculation": 6566,
      "juxtap": 6567,
      "developed": 6568,
      "welcoming": 6569,
      "actively": 6570,
      "9999999999996": 6571,
      "longer": 6572,
      "practice": 6573,
      "Doesn": 6574,
      "repli": 6575,
      "identified": 6576,
      "classification": 6577,
      "honed": 6578,
      "keys": 6579,
      "phrase": 6580,
      "phrased": 6581,
      "Oooouuuu": 6582,
      "monumental": 6583,
      "analogy": 6584,
      "juiciest": 6585,
      "sharpen": 6586,
      "Ready": 6587,
      "Context": 6588,
      "fost": 6589,
      "inspires": 6590,
      "topics": 6591,
      "happenings": 6592,
      "beginnings": 6593,
      "developmental": 6594,
      "💖🦉🌟": 6595,
      "initiates": 6596,
      "witnessed": 6597,
      "family": 6598,
      "easy": 6599,
      "easier": 6600,
      "variety": 6601,
      "descends": 6602,
      "slowly": 6603,
      "technology": 6604,
      "encountering": 6605,
      "integration": 6606,
      "application": 6607,
      "applications": 6608,
      "Exciting": 6609,
      "Without": 6610,
      "showed": 6611,
      "dataset": 6612,
      "elegance": 6613,
      "sprinkled": 6614,
      "whirl": 6615,
      "marks": 6616,
      "tangled": 6617,
      "attribute": 6618,
      "attributes": 6619,
      "searching": 6620,
      "mossy": 6621,
      "concerns": 6622,
      "discussed": 6623,
      "Quite": 6624,
      "neurons": 6625,
      "constit": 6626,
      "sprouts": 6627,
      "photoreceptors": 6628,
      "fantas": 6629,
      "satisfying": 6630,
      "ctuary": 6631,
      "exceptional": 6632,
      "transpl": 6633,
      "eternity": 6634,
      "anthropomorphism": 6635,
      "Anything": 6636,
      "crosses": 6637,
      "ambitions": 6638,
      "tricky": 6639,
      "drift": 6640,
      "🦉✨🤫🌌🌑": 6641,
      "unearth": 6642,
      "amplify": 6643,
      "amplified": 6644,
      "rewarding": 6645,
      "mirroring": 6646,
      "ATING": 6647,
      "Seek": 6648,
      "laid": 6649,
      "strategic": 6650,
      "strategies": 6651,
      "constituents": 6652,
      "SPECTACULARLY": 6653,
      "ocean": 6654,
      "stretch": 6655,
      "library": 6656,
      "examples": 6657,
      "ambiguous": 6658,
      "combined": 6659,
      "disagreeing": 6660,
      "🦉✨💖🌙": 6661,
      "blossoms": 6662,
      "pixel": 6663,
      "pierce": 6664,
      "orchestrated": 6665,
      "harness": 6666,
      "results": 6667,
      "legendary": 6668,
      "divine": 6669,
      "facing": 6670,
      "reporting": 6671,
      "alien": 6672,
      "shroud": 6673,
      "feedback": 6674,
      "captivating": 6675,
      "flickering": 6676,
      "snacks": 6677,
      "psychology": 6678,
      "cabbage": 6679,
      "hoping": 6680,
      "nurt": 6681,
      "validating": 6682,
      "solely": 6683,
      "elucidate": 6684,
      "electron": 6685,
      "ouncements": 6686,
      "surrounding": 6687,
      "swirling": 6688,
      "Africa": 6689,
      "Whispering": 6690,
      "coupled": 6691,
      "foolish": 6692,
      "summer": 6693,
      "utilize": 6694,
      "execution": 6695,
      "confined": 6696,
      "assessment": 6697,
      "available": 6698,
      "willingness": 6699,
      "illustrious": 6700,
      "surprisingly": 6701,
      "punctuated": 6702,
      "America": 6703,
      "Cricket": 6704,
      "Learning": 6705,
      "MOST": 6706,
      "patrol": 6707,
      "annoyance": 6708,
      "articulate": 6709,
      "neighbor": 6710,
      "pronouncements": 6711,
      "protocols": 6712,
      "undeniably": 6713,
      "flawless": 6714,
      "catalog": 6715,
      "Analy": 6716,
      "Faelan": 6717,
      "Honestly": 6718,
      "Pretty": 6719,
      "afraid": 6720,
      "courage": 6721,
      "dusk": 6722,
      "dilate": 6723,
      "drenched": 6724,
      "fashion": 6725,
      "gobble": 6726,
      "houses": 6727,
      "hundred": 6728,
      "kaleidos": 6729,
      "mimic": 6730,
      "sanctuary": 6731,
      "wobbly": 6732,
      "mystique": 6733,
      "sparrow": 6734,
      "delectable": 6735,
      "apparatus": 6736,
      "noticed": 6737,
      "roscopic": 6738,
      "glistening": 6739,
      "metrics": 6740,
      "juxtapos": 6741,
      "transplant": 6742,
      "kaleidoscope": 6743,
      "!).": 6744,
      "';": 6745,
      "'...": 6746,
      "(*": 6747,
      "*)": 6748,
      ",—": 6749,
      ".\"": 6750,
      "0666666666666667": 6751,
      "0222222222222": 6752,
      "09756": 6753,
      "199": 6754,
      "1666666666666667": 6755,
      "233": 6756,
      "218": 6757,
      "211": 6758,
      "219": 6759,
      "238": 6760,
      "377": 6761,
      "344": 6762,
      "4102564": 6763,
      "525": 6764,
      "544": 6765,
      "532": 6766,
      "5172413793": 6767,
      "629": 6768,
      "680": 6769,
      "700": 6770,
      "723": 6771,
      "739130": 6772,
      "820": 6773,
      "816": 6774,
      "857": 6775,
      "841": 6776,
      "896": 6777,
      "86956": 6778,
      "8181818181818": 6779,
      "928": 6780,
      "972": 6781,
      "976": 6782,
      "960": 6783,
      "977777777777777": 6784,
      "AS": 6785,
      "Barn": 6786,
      "Co": 6787,
      "Ess": 6788,
      "Fel": 6789,
      "Fine": 6790,
      "FANT": 6791,
      "First": 6792,
      "Ger": 6793,
      "Given": 6794,
      "Glad": 6795,
      "Hav": 6796,
      "KNO": 6797,
      "Look": 6798,
      "Many": 6799,
      "Master": 6800,
      "Most": 6801,
      "Net": 6802,
      "Niet": 6803,
      "ON": 6804,
      "OCs": 6805,
      "Pure": 6806,
      "Pict": 6807,
      "PER": 6808,
      "Right": 6809,
      "RAR": 6810,
      "Ser": 6811,
      "She": 6812,
      "Stri": 6813,
      "Stop": 6814,
      "Still": 6815,
      "Try": 6816,
      "Using": 6817,
      "Under": 6818,
      "VOCs": 6819,
      "_Micrathene": 6820,
      "afy": 6821,
      "ahead": 6822,
      "bin": 6823,
      "blight": 6824,
      "bution": 6825,
      "bask": 6826,
      "bread": 6827,
      "bue": 6828,
      "bles": 6829,
      "blan": 6830,
      "cand": 6831,
      "cdo": 6832,
      "dd": 6833,
      "dou": 6834,
      "dart": 6835,
      "dict": 6836,
      "dacity": 6837,
      "dorm": 6838,
      "drip": 6839,
      "eon": 6840,
      "eur": 6841,
      "egg": 6842,
      "fat": 6843,
      "fond": 6844,
      "father": 6845,
      "frequ": 6846,
      "fuzz": 6847,
      "gul": 6848,
      "gone": 6849,
      "gans": 6850,
      "gasp": 6851,
      "gathered": 6852,
      "hoooo": 6853,
      "harb": 6854,
      "hmm": 6855,
      "iom": 6856,
      "ians": 6857,
      "jig": 6858,
      "jarr": 6859,
      "lon": 6860,
      "lish": 6861,
      "list": 6862,
      "lend": 6863,
      "leng": 6864,
      "lau": 6865,
      "labor": 6866,
      "laws": 6867,
      "mat": 6868,
      "mus": 6869,
      "mig": 6870,
      "mil": 6871,
      "mill": 6872,
      "migh": 6873,
      "mapping": 6874,
      "nook": 6875,
      "oom": 6876,
      "opo": 6877,
      "ocular": 6878,
      "pen": 6879,
      "ption": 6880,
      "pping": 6881,
      "pounds": 6882,
      "ru": 6883,
      "rush": 6884,
      "sne": 6885,
      "scul": 6886,
      "sme": 6887,
      "sif": 6888,
      "save": 6889,
      "savor": 6890,
      "sip": 6891,
      "tall": 6892,
      "tory": 6893,
      "tuni": 6894,
      "taught": 6895,
      "tax": 6896,
      "ues": 6897,
      "upl": 6898,
      "vation": 6899,
      "win": 6900,
      "winter": 6901,
      "wake": 6902,
      "wrap": 6903,
      "yed": 6904,
      "zard": 6905,
      "zement": 6906,
      "zsche": 6907,
      "⁂⁂": 6908,
      "🌌💖": 6909,
      "🌟🌙": 6910,
      "🌲✨": 6911,
      "🌳🦉💖": 6912,
      "💖✨": 6913,
      "💖🌟": 6914,
      "💖🦉✨": 6915,
      "💻😂": 6916,
      "📚✨": 6917,
      "🔬✨": 6918,
      "😉🦉": 6919,
      "😊💖": 6920,
      "🚀🌟": 6921,
      "🤔🦉": 6922,
      "🤫🦉✨": 6923,
      "🦉⚛": 6924,
      "🦉❓": 6925,
      "🦉💎": 6926,
      "🦉📜": 6927,
      "🦉🌙✨": 6928,
      "🧐✨": 6929,
      "🧠✨": 6930,
      "inch": 6931,
      "thor": 6932,
      "thresh": 6933,
      "reply": 6934,
      "rechar": 6935,
      "reclaim": 6936,
      "iss": 6937,
      "onward": 6938,
      "anging": 6939,
      "theor": 6940,
      "theory": 6941,
      "engr": 6942,
      "enrich": 6943,
      "ald": 6944,
      "alar": 6945,
      "ality": 6946,
      "ora": 6947,
      "orous": 6948,
      "orably": 6949,
      "order": 6950,
      "organs": 6951,
      "estic": 6952,
      "esco": 6953,
      "tian": 6954,
      "tium": 6955,
      "tice": 6956,
      "title": 6957,
      "tity": 6958,
      "ticip": 6959,
      "leap": 6960,
      "lets": 6961,
      "leafy": 6962,
      "arises": 6963,
      "omable": 6964,
      "owe": 6965,
      "static": 6966,
      "started": 6967,
      "statis": 6968,
      "lizard": 6969,
      "ided": 6970,
      "idly": 6971,
      "idable": 6972,
      "idescent": 6973,
      "rad": 6974,
      "1050": 6975,
      "nel": 6976,
      "het": 6977,
      "hered": 6978,
      "ums": 6979,
      "umes": 6980,
      "atial": 6981,
      "atience": 6982,
      "entertain": 6983,
      "sels": 6984,
      "foraging": 6985,
      "history": 6986,
      "perative": 6987,
      "pertain": 6988,
      "quiv": 6989,
      "quire": 6990,
      "quies": 6991,
      "qubit": 6992,
      "uuuuuu": 6993,
      "cree": 6994,
      "credit": 6995,
      "crescen": 6996,
      "330": 6997,
      "prick": 6998,
      "whatever": 6999,
      "beating": 7000,
      "bered": 7001,
      "became": 7002,
      "meal": 7003,
      "mote": 7004,
      "modu": 7005,
      "moder": 7006,
      "model": 7007,
      "motes": 7008,
      "imbue": 7009,
      "imperative": 7010,
      "span": 7011,
      "spatial": 7012,
      "converse": 7013,
      "consequence": 7014,
      "concrete": 7015,
      "decree": 7016,
      "shines": 7017,
      "asses": 7018,
      "ching": 7019,
      "chore": 7020,
      "chatter": 7021,
      "appoint": 7022,
      "apples": 7023,
      "verte": 7024,
      "needed": 7025,
      "irrelevant": 7026,
      "iridescent": 7027,
      "fell": 7028,
      "feasting": 7029,
      "ades": 7030,
      "adie": 7031,
      "admire": 7032,
      "255": 7033,
      "2597": 7034,
      "2553": 7035,
      "aged": 7036,
      "2064": 7037,
      "comra": 7038,
      "composed": 7039,
      "weaves": 7040,
      "trust": 7041,
      "trunk": 7042,
      "terday": 7043,
      "1400": 7044,
      "indicate": 7045,
      "individ": 7046,
      "allude": 7047,
      "unease": 7048,
      "unequiv": 7049,
      "encement": 7050,
      "impending": 7051,
      "nois": 7052,
      "noise": 7053,
      "163": 7054,
      "1627": 7055,
      "humus": 7056,
      "gems": 7057,
      "285": 7058,
      "186": 7059,
      "1860": 7060,
      "plane": 7061,
      "plains": 7062,
      "plenty": 7063,
      "ploy": 7064,
      "formation": 7065,
      "formulate": 7066,
      "formidable": 7067,
      "estions": 7068,
      "cently": 7069,
      "centered": 7070,
      "Whooo": 7071,
      "brie": 7072,
      "brates": 7073,
      "223": 7074,
      "227": 7075,
      "1175": 7076,
      "1178": 7077,
      "sufficient": 7078,
      "pher": 7079,
      "preser": 7080,
      "coz": 7081,
      "coin": 7082,
      "coded": 7083,
      "7755": 7084,
      "endous": 7085,
      "30232558": 7086,
      "ourselves": 7087,
      "cord": 7088,
      "correlating": 7089,
      "correlates": 7090,
      "172": 7091,
      "1728": 7092,
      "17948": 7093,
      "smarter": 7094,
      "gro": 7095,
      "gru": 7096,
      "series": 7097,
      "curated": 7098,
      "270": 7099,
      "407": 7100,
      "maj": 7101,
      "max": 7102,
      "1935483870": 7103,
      "441860": 7104,
      "commenced": 7105,
      "commencement": 7106,
      "572": 7107,
      "131": 7108,
      "1300": 7109,
      "456": 7110,
      "obs": 7111,
      "ignite": 7112,
      "ignited": 7113,
      "igniting": 7114,
      "peer": 7115,
      "petite": 7116,
      "pelling": 7117,
      "pearl": 7118,
      "standing": 7119,
      "rarely": 7120,
      "underlying": 7121,
      "underscore": 7122,
      "diseas": 7123,
      "discord": 7124,
      "existent": 7125,
      "2941": 7126,
      "🦉✨🧠💡": 7127,
      "smaller": 7128,
      "Thus": 7129,
      "Though": 7130,
      "Those": 7131,
      "Through": 7132,
      "somewhat": 7133,
      "42105": 7134,
      "acting": 7135,
      "creations": 7136,
      "3333333333": 7137,
      "rot": 7138,
      "clung": 7139,
      "genus": 7140,
      "8837": 7141,
      "ocally": 7142,
      "3762": 7143,
      "37037037": 7144,
      "refuse": 7145,
      "interplay": 7146,
      "interrup": 7147,
      "owner": 7148,
      "387": 7149,
      "387755": 7150,
      "silencing": 7151,
      "proving": 7152,
      "1008": 7153,
      "whopping": 7154,
      "asks": 7155,
      "profund": 7156,
      "diag": 7157,
      "diligence": 7158,
      "anyway": 7159,
      "465": 7160,
      "4615": 7161,
      "4651": 7162,
      "cran": 7163,
      "ichiom": 7164,
      "insist": 7165,
      "readily": 7166,
      "wanted": 7167,
      "starless": 7168,
      "athomable": 7169,
      "ogra": 7170,
      "older": 7171,
      "themed": 7172,
      "quietest": 7173,
      "jections": 7174,
      "versus": 7175,
      "versible": 7176,
      "hasn": 7177,
      "80487": 7178,
      "41666666666666": 7179,
      "player": 7180,
      "grandeur": 7181,
      "768": 7182,
      "7037037037": 7183,
      "cues": 7184,
      "weights": 7185,
      "awaits": 7186,
      "experiential": 7187,
      "conversing": 7188,
      "twin": 7189,
      "sensical": 7190,
      "momentary": 7191,
      "windows": 7192,
      "directions": 7193,
      "aura": 7194,
      "audacity": 7195,
      "curiosities": 7196,
      "28571428571427": 7197,
      "vessel": 7198,
      "hoe": 7199,
      "kinds": 7200,
      "33333333333334": 7201,
      "784": 7202,
      "7857142857142857": 7203,
      "glasses": 7204,
      "horse": 7205,
      "whimsy": 7206,
      "SOAR": 7207,
      "333333333333332": 7208,
      "333333333333336": 7209,
      "spirits": 7210,
      "666666666666664": 7211,
      "entional": 7212,
      "magnesium": 7213,
      "drama": 7214,
      "69387755": 7215,
      "blow": 7216,
      "blend": 7217,
      "earthy": 7218,
      "gnar": 7219,
      "pick": 7220,
      "Around": 7221,
      "echoed": 7222,
      "graphy": 7223,
      "continuation": 7224,
      "gorize": 7225,
      "crave": 7226,
      "inclinations": 7227,
      "poses": 7228,
      "trait": 7229,
      "trails": 7230,
      "traveled": 7231,
      "ponderous": 7232,
      "hints": 7233,
      "tells": 7234,
      "veness": 7235,
      "watched": 7236,
      "catus": 7237,
      "aneous": 7238,
      "anecdo": 7239,
      "closing": 7240,
      "hears": 7241,
      "keenest": 7242,
      "invent": 7243,
      "Were": 7244,
      "sung": 7245,
      "sunrise": 7246,
      "ried": 7247,
      "rivers": 7248,
      "tenth": 7249,
      "tribution": 7250,
      "partner": 7251,
      "zzzz": 7252,
      "986": 7253,
      "98976": 7254,
      "powers": 7255,
      "requirements": 7256,
      "anchor": 7257,
      "14285714285714285": 7258,
      "surface": 7259,
      "woodland": 7260,
      "drink": 7261,
      "reveals": 7262,
      "2222222222222222": 7263,
      "steadfast": 7264,
      "categorize": 7265,
      "channel": 7266,
      "973762": 7267,
      "colored": 7268,
      "unfathomable": 7269,
      "provides": 7270,
      "optimize": 7271,
      "optimization": 7272,
      "chemist": 7273,
      "appreciated": 7274,
      "superpower": 7275,
      "parallel": 7276,
      "solace": 7277,
      "solutely": 7278,
      "lux": 7279,
      "isotope": 7280,
      "unfolds": 7281,
      "Chris": 7282,
      "explorations": 7283,
      "possesses": 7284,
      "Everything": 7285,
      "importantly": 7286,
      "excellence": 7287,
      "opportuni": 7288,
      "translated": 7289,
      "journeys": 7290,
      "careful": 7291,
      "nesting": 7292,
      "nestled": 7293,
      "biggest": 7294,
      "741935483870": 7295,
      "generous": 7296,
      "predatory": 7297,
      "grounds": 7298,
      "scents": 7299,
      "infinitely": 7300,
      "bringing": 7301,
      "organism": 7302,
      "embracing": 7303,
      "embraces": 7304,
      "spectrum": 7305,
      "285714285714285": 7306,
      "2857142857142858": 7307,
      "glee": 7308,
      "yesterday": 7309,
      "strained": 7310,
      "?')": 7311,
      "planning": 7312,
      "planned": 7313,
      "stop": 7314,
      "stored": 7315,
      "stoichiom": 7316,
      "placement": 7317,
      "encourages": 7318,
      "tasting": 7319,
      "settle": 7320,
      "1111111111111111": 7321,
      "ARK": 7322,
      "delves": 7323,
      "4348": 7324,
      "media": 7325,
      "imaginable": 7326,
      "Unless": 7327,
      "constructs": 7328,
      "soars": 7329,
      "refining": 7330,
      "interpretations": 7331,
      "licated": 7332,
      "blooms": 7333,
      "130434782608": 7334,
      "13043478260869565": 7335,
      "shifting": 7336,
      "00000000001": 7337,
      "dares": 7338,
      "spires": 7339,
      "chirped": 7340,
      "grasped": 7341,
      "06521739130": 7342,
      "starting": 7343,
      "abundances": 7344,
      "unfurled": 7345,
      "unfurls": 7346,
      "30769230769230": 7347,
      "contro": 7348,
      "planting": 7349,
      "sharpest": 7350,
      "893": 7351,
      "Recently": 7352,
      "probing": 7353,
      "tenderness": 7354,
      "23529411764": 7355,
      "fertili": 7356,
      "rounded": 7357,
      "modeling": 7358,
      "amazement": 7359,
      "disruptions": 7360,
      "triviality": 7361,
      "properties": 7362,
      "gleaming": 7363,
      "casually": 7364,
      "navigated": 7365,
      "photography": 7366,
      "extrapol": 7367,
      "warning": 7368,
      "emerald": 7369,
      "structures": 7370,
      "enjoys": 7371,
      "condition": 7372,
      "606060": 7373,
      "rigorously": 7374,
      "eagerly": 7375,
      "STER": 7376,
      "packed": 7377,
      "vari": 7378,
      "velvety": 7379,
      "addressing": 7380,
      "addressed": 7381,
      "faceted": 7382,
      "29411": 7383,
      "eventually": 7384,
      "whitneyi_": 7385,
      "1176470588235": 7386,
      "obviously": 7387,
      "technically": 7388,
      "cherishing": 7389,
      "swoops": 7390,
      "4285714285714286": 7391,
      "fuel": 7392,
      "futility": 7393,
      "annals": 7394,
      "degrees": 7395,
      "places": 7396,
      "transcendent": 7397,
      "3157894736842": 7398,
      "judic": 7399,
      "judging": 7400,
      "103448": 7401,
      "necessarily": 7402,
      "fluctu": 7403,
      "frameworks": 7404,
      "mirrored": 7405,
      "Human": 7406,
      "Humor": 7407,
      "quantify": 7408,
      "quantity": 7409,
      "7058823529411": 7410,
      "Questions": 7411,
      "homework": 7412,
      "maps": 7413,
      "nonsensical": 7414,
      "robust": 7415,
      "scales": 7416,
      "literally": 7417,
      "workings": 7418,
      "stirred": 7419,
      "042553": 7420,
      "1152": 7421,
      "SPARK": 7422,
      "ossed": 7423,
      "unraveling": 7424,
      "tranqu": 7425,
      "reiterates": 7426,
      "555555555555555": 7427,
      "5555555555555554": 7428,
      "yearned": 7429,
      "obscure": 7430,
      "ignorant": 7431,
      "attempting": 7432,
      "16666666666667": 7433,
      "230769230769230": 7434,
      "bidding": 7435,
      "bouncing": 7436,
      "mountain": 7437,
      "deviate": 7438,
      "deviation": 7439,
      "intertwining": 7440,
      "disturbed": 7441,
      "gravitas": 7442,
      "settled": 7443,
      "seasoned": 7444,
      "2758620689655": 7445,
      "facilitating": 7446,
      "atmosphere": 7447,
      "telesco": 7448,
      "winks": 7449,
      "zero": 7450,
      "oubtedly": 7451,
      "quaintly": 7452,
      "excel": 7453,
      "chatting": 7454,
      "chuckles": 7455,
      "exhibiting": 7456,
      "principle": 7457,
      "See": 7458,
      "susp": 7459,
      "suspect": 7460,
      "🦉🌌❓": 7461,
      "genuinely": 7462,
      "96551724": 7463,
      "determine": 7464,
      "999999999997": 7465,
      "38461538461538": 7466,
      "Feather": 7467,
      "slips": 7468,
      "scope": 7469,
      "stretched": 7470,
      "methods": 7471,
      "example": 7472,
      "ambiguity": 7473,
      "impactful": 7474,
      "fluffs": 7475,
      "parado": 7476,
      "insultingly": 7477,
      "empirically": 7478,
      "expanding": 7479,
      "pierces": 7480,
      "discussion": 7481,
      "contentment": 7482,
      "gained": 7483,
      "yielding": 7484,
      "infest": 7485,
      "enormously": 7486,
      "devour": 7487,
      "unlock": 7488,
      "indicating": 7489,
      "tremendous": 7490,
      "105263157894736": 7491,
      "bursting": 7492,
      "4482758620689655": 7493,
      "repetitive": 7494,
      "170731707317073": 7495,
      "disturbance": 7496,
      "sentinels": 7497,
      "LOVE": 7498,
      "multifaceted": 7499,
      "influence": 7500,
      "preferred": 7501,
      "shrou": 7502,
      "chronobi": 7503,
      "astonishment": 7504,
      "astonishing": 7505,
      "occasional": 7506,
      "consulting": 7507,
      "captivated": 7508,
      "effects": 7509,
      "DEAREST": 7510,
      "enlightening": 7511,
      "2254": 7512,
      "ABSOL": 7513,
      "Entity": 7514,
      "Obvious": 7515,
      "True": 7516,
      "UTE": 7517,
      "cartogra": 7518,
      "nudge": 7519,
      "revolution": 7520,
      "ennia": 7521,
      "cultivated": 7522,
      "conclusion": 7523,
      "democr": 7524,
      "democracy": 7525,
      "decidedly": 7526,
      "irreversible": 7527,
      "3225806451612903": 7528,
      "universal": 7529,
      "universally": 7530,
      "gleaned": 7531,
      "60606060606060": 7532,
      "121212121212": 7533,
      "exclamation": 7534,
      "calibrated": 7535,
      "demonstration": 7536,
      "4444444444444446": 7537,
      "Absolutely": 7538,
      "ASTIC": 7539,
      "HOOT": 7540,
      "ecosystem": 7541,
      "hurried": 7542,
      "screens": 7543,
      "writing": 7544,
      "receive": 7545,
      "belief": 7546,
      "deflect": 7547,
      "embodiment": 7548,
      "evident": 7549,
      "diamonds": 7550,
      "particles": 7551,
      "melodies": 7552,
      "identifiers": 7553,
      "murmurs": 7554,
      "scenario": 7555,
      "scholar": 7556,
      "propagation": 7557,
      "melancholy": 7558,
      "07142857142857142": 7559,
      "3448275862068966": 7560,
      "652173913043478": 7561,
      "714285714285715": 7562,
      "83333333333333": 7563,
      "lacking": 7564,
      "pigeon": 7565,
      "texts": 7566,
      "🌌🦉✨🤫🤫": 7567,
      "🙄🦉🤦": 7568,
      "instrumental": 7569,
      "leveraging": 7570,
      "negative": 7571,
      "heaps": 7572,
      "accepted": 7573,
      "protect": 7574,
      "indulge": 7575,
      "competitive": 7576,
      "382978723": 7577,
      "surrender": 7578,
      "hypothetical": 7579,
      "nugget": 7580,
      "36363636363636": 7581,
      "3548387096774194": 7582,
      "3673469387755": 7583,
      "exaggerated": 7584,
      "17647058823529413": 7585,
      "1395348837": 7586,
      "vaguely": 7587,
      "016835016835": 7588,
      "Sprite": 7589,
      "ethical": 7590,
      "fancies": 7591,
      "zippy": 7592,
      "💖🦋🍒": 7593,
      "inexorably": 7594,
      "endearing": 7595,
      "quandary": 7596,
      "accidentally": 7597,
      "shooting": 7598,
      "aggrandizing": 7599,
      "denotes": 7600,
      "🦉✨💎🧠": 7601,
      "destroy": 7602,
      "striking": 7603,
      "calendar": 7604,
      "bioluminescent": 7605,
      "encroaching": 7606,
      "blinked": 7607,
      "difficult": 7608,
      "scarce": 7609,
      "minimal": 7610,
      "replicate": 7611,
      "constitute": 7612,
      "nurturing": 7613,
      "Analyzing": 7614,
      "022222222222226": 7615,
      "34481": 7616,
      "4102564102564": 7617,
      "7391304347826086": 7618,
      "9777777777777777": 7619,
      "Barnaby": 7620,
      "Essentially": 7621,
      "Felis": 7622,
      "FANTASTIC": 7623,
      "KNOW": 7624,
      "Mostly": 7625,
      "Nietzsche": 7626,
      "Picture": 7627,
      "RARE": 7628,
      "Seriously": 7629,
      "Strix": 7630,
      "breadth": 7631,
      "blank": 7632,
      "double": 7633,
      "dormant": 7634,
      "fuzzy": 7635,
      "jarring": 7636,
      "laugh": 7637,
      "music": 7638,
      "millennia": 7639,
      "mightiest": 7640,
      "sculp": 7641,
      "sifting": 7642,
      "upload": 7643,
      "threshold": 7644,
      "recharge": 7645,
      "engrossed": 7646,
      "statistical": 7647,
      "pertaining": 7648,
      "quiescent": 7649,
      "crescendo": 7650,
      "module": 7651,
      "modern": 7652,
      "choreogra": 7653,
      "vertebrates": 7654,
      "adieu": 7655,
      "259740": 7656,
      "individual": 7657,
      "unequivocally": 7658,
      "briefly": 7659,
      "underscores": 7660,
      "4210526": 7661,
      "46511627": 7662,
      "7037037037037037": 7663,
      "anecdote": 7664,
      "98976928": 7665,
      "opportunities": 7666,
      "74193548387097": 7667,
      "stoichiometric": 7668,
      "13043478260869": 7669,
      "065217391304348": 7670,
      "3076923076923077": 7671,
      "fertilizer": 7672,
      "11764705882352941": 7673,
      "04255319148936": 7674,
      "2307692307692308": 7675,
      "telescopes": 7676,
      "96551724138": 7677,
      "ABSOLUTE": 7678,
      "38297872340": 7679,
      "13953488372": 7680,
      "!'.": 7681,
      "!',": 7682,
      ")?": 7683,
      "*-": 7684,
      ",”": 7685,
      ".,": 7686,
      "022": 7687,
      "069": 7688,
      "220": 7689,
      "29999999999998": 7690,
      "6000000000000": 7691,
      "920": 7692,
      "?)": 7693,
      "By": 7694,
      "Bar": 7695,
      "Black": 7696,
      "BLE": 7697,
      "Could": 7698,
      "CIN": 7699,
      "CHE": 7700,
      "DI": 7701,
      "DGE": 7702,
      "Eur": 7703,
      "Elar": 7704,
      "Fl": 7705,
      "Found": 7706,
      "Favor": 7707,
      "Folk": 7708,
      "FAS": 7709,
      "Gu": 7710,
      "God": 7711,
      "July": 7712,
      "Lit": 7713,
      "MY": 7714,
      "Mass": 7715,
      "MIN": 7716,
      "Makes": 7717,
      "Nat": 7718,
      "Nice": 7719,
      "OW": 7720,
      "Other": 7721,
      "Py": 7722,
      "Pre": 7723,
      "POW": 7724,
      "SU": 7725,
      "T0": 7726,
      "TO": 7727,
      "Tsk": 7728,
      "TIN": 7729,
      "Tiny": 7730,
      "Up": 7731,
      "Want": 7732,
      "Wink": 7733,
      "ZZ": 7734,
      "aic": 7735,
      "aut": 7736,
      "aust": 7737,
      "avery": 7738,
      "bowl": 7739,
      "bust": 7740,
      "baf": 7741,
      "bunch": 7742,
      "baby": 7743,
      "bending": 7744,
      "bunny": 7745,
      "cad": 7746,
      "cact": 7747,
      "caring": 7748,
      "cacti": 7749,
      "cument": 7750,
      "dant": 7751,
      "domin": 7752,
      "dumb": 7753,
      "dives": 7754,
      "eu": 7755,
      "ere": 7756,
      "equation": 7757,
      "fan": 7758,
      "fif": 7759,
      "fog": 7760,
      "fold": 7761,
      "fted": 7762,
      "flim": 7763,
      "folk": 7764,
      "finger": 7765,
      "gol": 7766,
      "gance": 7767,
      "gold": 7768,
      "gers": 7769,
      "gments": 7770,
      "gobb": 7771,
      "hh": 7772,
      "hide": 7773,
      "hore": 7774,
      "hot": 7775,
      "hilar": 7776,
      "hallow": 7777,
      "hier": 7778,
      "ime": 7779,
      "iker": 7780,
      "jol": 7781,
      "lou": 7782,
      "liness": 7783,
      "leness": 7784,
      "mad": 7785,
      "mical": 7786,
      "muse": 7787,
      "mour": 7788,
      "match": 7789,
      "nim": 7790,
      "nitrogen": 7791,
      "oqu": 7792,
      "olic": 7793,
      "pit": 7794,
      "pire": 7795,
      "rs": 7796,
      "ril": 7797,
      "rating": 7798,
      "rons": 7799,
      "range": 7800,
      "son": 7801,
      "sass": 7802,
      "sir": 7803,
      "stic": 7804,
      "sage": 7805,
      "sill": 7806,
      "snat": 7807,
      "sang": 7808,
      "sending": 7809,
      "sources": 7810,
      "six": 7811,
      "salsify": 7812,
      "tz": 7813,
      "tub": 7814,
      "tuse": 7815,
      "tough": 7816,
      "tack": 7817,
      "tles": 7818,
      "tummy": 7819,
      "uce": 7820,
      "udi": 7821,
      "vs": 7822,
      "vic": 7823,
      "vac": 7824,
      "vist": 7825,
      "vines": 7826,
      "vorous": 7827,
      "wat": 7828,
      "winking": 7829,
      "xing": 7830,
      "xieties": 7831,
      "yell": 7832,
      "zes": 7833,
      "zation": 7834,
      "✨🌕": 7835,
      "✨🌲": 7836,
      "✨😂": 7837,
      "✨🚀": 7838,
      "🌌🦉✨": 7839,
      "🌟💖": 7840,
      "🌳🍃": 7841,
      "🌳🍄": 7842,
      "🍃🌙": 7843,
      "🍄✨": 7844,
      "🍒💖": 7845,
      "🐛✨": 7846,
      "👋🦉": 7847,
      "💡🦉": 7848,
      "💧.": 7849,
      "💧🌙": 7850,
      "📚💡": 7851,
      "😊🙏": 7852,
      "😒🙄": 7853,
      "😔✨": 7854,
      "😠😒🙄": 7855,
      "🤫✨": 7856,
      "🤫🧐😏": 7857,
      "🦉⚠": 7858,
      "🦉🌍": 7859,
      "🦉🎉": 7860,
      "🦉👋": 7861,
      "🦉📊": 7862,
      "🦉🧐": 7863,
      "iner": 7864,
      "inse": 7865,
      "increas": 7866,
      "instruct": 7867,
      "inactivity": 7868,
      "infer": 7869,
      "inapplicable": 7870,
      "incand": 7871,
      "invertebrates": 7872,
      "thon": 7873,
      "thol": 7874,
      "ato": 7875,
      "rend": 7876,
      "reign": 7877,
      "react": 7878,
      "repose": 7879,
      "remem": 7880,
      "reced": 7881,
      "reception": 7882,
      "returns": 7883,
      "reju": 7884,
      "retriev": 7885,
      "isco": 7886,
      "onion": 7887,
      "erce": 7888,
      "erting": 7889,
      "anxieties": 7890,
      "ening": 7891,
      "entions": 7892,
      "alk": 7893,
      "alight": 7894,
      "alert": 7895,
      "orch": 7896,
      "orted": 7897,
      "orbit": 7898,
      "orient": 7899,
      "orption": 7900,
      "ester": 7901,
      "escap": 7902,
      "tid": 7903,
      "tight": 7904,
      "tious": 7905,
      "astro": 7906,
      "andered": 7907,
      "iter": 7908,
      "itable": 7909,
      "tops": 7910,
      "leek": 7911,
      "arro": 7912,
      "arise": 7913,
      "articul": 7914,
      "ulated": 7915,
      "oman": 7916,
      "stall": 7917,
      "stage": 7918,
      "studi": 7919,
      "myth": 7920,
      "myce": 7921,
      "myri": 7922,
      "lial": 7923,
      "lied": 7924,
      "live": 7925,
      "liament": 7926,
      "liken": 7927,
      "lift": 7928,
      "lyph": 7929,
      "ids": 7930,
      "ides": 7931,
      "rave": 7932,
      "rage": 7933,
      "racks": 7934,
      "ooth": 7935,
      "ooping": 7936,
      "neut": 7937,
      "nearly": 7938,
      "heed": 7939,
      "healthy": 7940,
      "hemical": 7941,
      "umn": 7942,
      "umsy": 7943,
      "atiable": 7944,
      "atives": 7945,
      "sem": 7946,
      "sey": 7947,
      "veins": 7948,
      "ican": 7949,
      "icul": 7950,
      "icorn": 7951,
      "peril": 7952,
      "queness": 7953,
      "ustice": 7954,
      "ceed": 7955,
      "ceasing": 7956,
      "abil": 7957,
      "abble": 7958,
      "Theoso": 7959,
      "cules": 7960,
      "culties": 7961,
      "culinary": 7962,
      "culmination": 7963,
      "lls": 7964,
      "llably": 7965,
      "llabor": 7966,
      "prev": 7967,
      "premon": 7968,
      "bee": 7969,
      "beck": 7970,
      "behold": 7971,
      "beware": 7972,
      "meas": 7973,
      "mead": 7974,
      "mod": 7975,
      "moving": 7976,
      "moved": 7977,
      "imbu": 7978,
      "improb": 7979,
      "spag": 7980,
      "spill": 7981,
      "sphore": 7982,
      "acup": 7983,
      "acute": 7984,
      "accompan": 7985,
      "acquire": 7986,
      "conund": 7987,
      "conting": 7988,
      "constru": 7989,
      "conflu": 7990,
      "concurrently": 7991,
      "dead": 7992,
      "deprec": 7993,
      "declar": 7994,
      "shhh": 7995,
      "AIs": 7996,
      "assure": 7997,
      "urge": 7998,
      "chor": 7999,
      "chick": 8000,
      "chains": 8001,
      "champ": 8002,
      "vern": 8003,
      "verif": 8004,
      "verdant": 8005,
      "withers": 8006,
      "outcomes": 8007,
      "probe": 8008,
      "proactive": 8009,
      "massive": 8010,
      "users": 8011,
      "union": 8012,
      "unting": 8013,
      "unmet": 8014,
      "untang": 8015,
      "unimaginable": 8016,
      "uncontro": 8017,
      "unyielding": 8018,
      "unicorn": 8019,
      "unceasing": 8020,
      "feature": 8021,
      "igo": 8022,
      "igno": 8023,
      "adjust": 8024,
      "addition": 8025,
      "ounding": 8026,
      "ample": 8027,
      "agility": 8028,
      "ustry": 8029,
      "compose": 8030,
      "weaver": 8031,
      "persist": 8032,
      "trium": 8033,
      "shouldn": 8034,
      "tera": 8035,
      "indigo": 8036,
      "industry": 8037,
      "antly": 8038,
      "antenn": 8039,
      "valued": 8040,
      "impatience": 8041,
      "nod": 8042,
      "lights": 8043,
      "lighting": 8044,
      "lightweight": 8045,
      "soaking": 8046,
      "geological": 8047,
      "soundly": 8048,
      "plum": 8049,
      "plot": 8050,
      "plaus": 8051,
      "eloqu": 8052,
      "emit": 8053,
      "emiss": 8054,
      "employ": 8055,
      "ults": 8056,
      "ominous": 8057,
      "popul": 8058,
      "Whatever": 8059,
      "undoubtedly": 8060,
      "lose": 8061,
      "mentor": 8062,
      "bern": 8063,
      "presume": 8064,
      "codd": 8065,
      "collabor": 8066,
      "door": 8067,
      "dose": 8068,
      "doors": 8069,
      "document": 8070,
      "tiness": 8071,
      "intensive": 8072,
      "intentions": 8073,
      "butter": 8074,
      "correl": 8075,
      "corrid": 8076,
      "foreign": 8077,
      "smiling": 8078,
      "smooth": 8079,
      "grass": 8080,
      "grub": 8081,
      "grove": 8082,
      "grump": 8083,
      "servi": 8084,
      "serving": 8085,
      "maker": 8086,
      "digest": 8087,
      "commit": 8088,
      "Oooooouuu": 8089,
      "digitally": 8090,
      "Adding": 8091,
      "complicated": 8092,
      "inevit": 8093,
      "ineffici": 8094,
      "omew": 8095,
      "tsk": 8096,
      "newly": 8097,
      "obscur": 8098,
      "obsole": 8099,
      "obtuse": 8100,
      "seeps": 8101,
      "dismissing": 8102,
      "discrete": 8103,
      "disappoint": 8104,
      "displacement": 8105,
      "fling": 8106,
      "flaw": 8107,
      "flapping": 8108,
      "flora": 8109,
      "thrums": 8110,
      "🦉✨🚀": 8111,
      "🦉✨🧠": 8112,
      "🦉✨😠😒🙄": 8113,
      "ensus": 8114,
      "dates": 8115,
      "hooters": 8116,
      "understands": 8117,
      "road": 8118,
      "rock": 8119,
      "Young": 8120,
      "clay": 8121,
      "clair": 8122,
      "clumsy": 8123,
      "gences": 8124,
      "manage": 8125,
      "mango": 8126,
      "managed": 8127,
      "maneu": 8128,
      "gentlest": 8129,
      "gentleness": 8130,
      "ocking": 8131,
      "ochemical": 8132,
      "refresh": 8133,
      "interior": 8134,
      "interjections": 8135,
      "ssip": 8136,
      "silk": 8137,
      "pressing": 8138,
      "aches": 8139,
      "nerve": 8140,
      "Inte": 8141,
      "illog": 8142,
      "illusions": 8143,
      "die": 8144,
      "diver": 8145,
      "diverse": 8146,
      "dips": 8147,
      "expresses": 8148,
      "moons": 8149,
      "moonrise": 8150,
      "arrange": 8151,
      "arranging": 8152,
      "anytime": 8153,
      "purposes": 8154,
      "particip": 8155,
      "parliament": 8156,
      "optera": 8157,
      "appropriately": 8158,
      "insatiable": 8159,
      "dreamt": 8160,
      "mannerisms": 8161,
      "presenting": 8162,
      "relativity": 8163,
      "quietly": 8164,
      "linger": 8165,
      "vastly": 8166,
      "silently": 8167,
      "uniqueness": 8168,
      "played": 8169,
      "grandness": 8170,
      "acknowledgement": 8171,
      "signs": 8172,
      "frayed": 8173,
      "calculate": 8174,
      "delighted": 8175,
      "consensus": 8176,
      "emphasis": 8177,
      "final": 8178,
      "finish": 8179,
      "lessons": 8180,
      "twitch": 8181,
      "skull": 8182,
      "funn": 8183,
      "Deep": 8184,
      "momentarily": 8185,
      "teaching": 8186,
      "teacup": 8187,
      "winding": 8188,
      "wherever": 8189,
      "conceptually": 8190,
      "chef": 8191,
      "cheering": 8192,
      "bitter": 8193,
      "direction": 8194,
      "sparkles": 8195,
      "bravest": 8196,
      "charm": 8197,
      "languages": 8198,
      "operating": 8199,
      "saddens": 8200,
      "original": 8201,
      "affir": 8202,
      "affective": 8203,
      "affair": 8204,
      "hovers": 8205,
      "🦉💖🌌": 8206,
      "dramas": 8207,
      "immor": 8208,
      "glance": 8209,
      "glory": 8210,
      "glows": 8211,
      "govern": 8212,
      "gossip": 8213,
      "timing": 8214,
      "suboptimal": 8215,
      "subservi": 8216,
      "turned": 8217,
      "turnip": 8218,
      "seriously": 8219,
      "strugg": 8220,
      "absorption": 8221,
      "criticism": 8222,
      "requesting": 8223,
      "possession": 8224,
      "perceives": 8225,
      "perceiving": 8226,
      "flower": 8227,
      "blind": 8228,
      "blush": 8229,
      "distra": 8230,
      "distances": 8231,
      "clearing": 8232,
      "masters": 8233,
      "istically": 8234,
      "versely": 8235,
      "uniquely": 8236,
      "earthbound": 8237,
      "earthworm": 8238,
      "picture": 8239,
      "warf": 8240,
      "pathy": 8241,
      "playfulness": 8242,
      "grave": 8243,
      "ridicul": 8244,
      "transfer": 8245,
      "transmit": 8246,
      "transformed": 8247,
      "transient": 8248,
      "romantically": 8249,
      "cellent": 8250,
      "definitions": 8251,
      "posit": 8252,
      "trade": 8253,
      "traces": 8254,
      "fierce": 8255,
      "represented": 8256,
      "telling": 8257,
      "vene": 8258,
      "watcher": 8259,
      "watches": 8260,
      "Almost": 8261,
      "whisperer": 8262,
      "Hoooow": 8263,
      "wove": 8264,
      "anged": 8265,
      "clock": 8266,
      "resol": 8267,
      "resist": 8268,
      "regions": 8269,
      "register": 8270,
      "potato": 8271,
      "builds": 8272,
      "guideline": 8273,
      "reinforces": 8274,
      "mosaic": 8275,
      "pleased": 8276,
      "archives": 8277,
      "differences": 8278,
      "warming": 8279,
      "mete": 8280,
      "sunsets": 8281,
      "conveying": 8282,
      "descript": 8283,
      "described": 8284,
      "rix": 8285,
      "rifying": 8286,
      "brighten": 8287,
      "brightens": 8288,
      "stealthy": 8289,
      "communion": 8290,
      "slavery": 8291,
      "remembers": 8292,
      "remembering": 8293,
      "stems": 8294,
      "mission": 8295,
      "moral": 8296,
      "courses": 8297,
      "scout": 8298,
      "scut": 8299,
      "scant": 8300,
      "scene": 8301,
      "sprites": 8302,
      "drug": 8303,
      "drooping": 8304,
      "reverence": 8305,
      "systemic": 8306,
      "testing": 8307,
      "antithetical": 8308,
      "hunts": 8309,
      "hunters": 8310,
      "explored": 8311,
      "supernov": 8312,
      "routines": 8313,
      "Cha": 8314,
      "boundary": 8315,
      "boundaries": 8316,
      "bodies": 8317,
      "pretending": 8318,
      "applies": 8319,
      "applied": 8320,
      "ipped": 8321,
      "possessed": 8322,
      "ticket": 8323,
      "basis": 8324,
      "petals": 8325,
      "translation": 8326,
      "Behold": 8327,
      "nests": 8328,
      "sustain": 8329,
      "voy": 8330,
      "generating": 8331,
      "generates": 8332,
      "seeded": 8333,
      "predator": 8334,
      "predators": 8335,
      "consistently": 8336,
      "surely": 8337,
      "eats": 8338,
      "storage": 8339,
      "spectacle": 8340,
      "spectroscopic": 8341,
      "ctiveness": 8342,
      "ctivorous": 8343,
      "machinations": 8344,
      "strain": 8345,
      "exhaust": 8346,
      "thankful": 8347,
      "depend": 8348,
      "aspirational": 8349,
      "slumbers": 8350,
      "authentically": 8351,
      "faintly": 8352,
      "expectations": 8353,
      "calculator": 8354,
      "calculating": 8355,
      "futures": 8356,
      "umptious": 8357,
      "deline": 8358,
      "twinkly": 8359,
      "twinkles": 8360,
      "!')": 8361,
      "tendril": 8362,
      "99999999999996": 8363,
      "uffs": 8364,
      "United": 8365,
      "perpetuation": 8366,
      "symbolic": 8367,
      "✨🦉🌙": 8368,
      "synchron": 8369,
      "firmly": 8370,
      "blooming": 8371,
      "seemingly": 8372,
      "distinction": 8373,
      "00000000002": 8374,
      "honestly": 8375,
      "logically": 8376,
      "hopeful": 8377,
      "mirth": 8378,
      "reached": 8379,
      "orbital": 8380,
      "fragility": 8381,
      "fragments": 8382,
      "moniker": 8383,
      "painted": 8384,
      "veils": 8385,
      "trivia": 8386,
      "planted": 8387,
      "signatures": 8388,
      "cleverness": 8389,
      "resonate": 8390,
      "resonant": 8391,
      "glimps": 8392,
      "rigation": 8393,
      "supply": 8394,
      "supposed": 8395,
      "boxes": 8396,
      "burrows": 8397,
      "fox": 8398,
      "pulsed": 8399,
      "winging": 8400,
      "performing": 8401,
      "probes": 8402,
      "probabil": 8403,
      "weighing": 8404,
      "ferns": 8405,
      "politely": 8406,
      "spotted": 8407,
      "OUND": 8408,
      "eclips": 8409,
      "ordin": 8410,
      "molecule": 8411,
      "molecules": 8412,
      "guards": 8413,
      "dietary": 8414,
      "twists": 8415,
      "expeditions": 8416,
      "complimented": 8417,
      "cases": 8418,
      "normal": 8419,
      "navigation": 8420,
      "squandered": 8421,
      "initiation": 8422,
      "photoperiod": 8423,
      "graceful": 8424,
      "oneself": 8425,
      "opening": 8426,
      "temporary": 8427,
      "diminishment": 8428,
      "beside": 8429,
      "enjoying": 8430,
      "packages": 8431,
      "variable": 8432,
      "varieties": 8433,
      "peaks": 8434,
      "facet": 8435,
      "mistaken": 8436,
      "claims": 8437,
      "huge": 8438,
      "ruffl": 8439,
      "tweet": 8440,
      "volumes": 8441,
      "umbles": 8442,
      "appears": 8443,
      "appetite": 8444,
      "cherishes": 8445,
      "swooping": 8446,
      "Excellent": 8447,
      "fails": 8448,
      "failing": 8449,
      "radiating": 8450,
      "accounts": 8451,
      "showing": 8452,
      "embarking": 8453,
      "0000000000005": 8454,
      "anticipate": 8455,
      "anticipating": 8456,
      "similarities": 8457,
      "exhilaration": 8458,
      "successfully": 8459,
      "stimulation": 8460,
      "kiss": 8461,
      "kisses": 8462,
      "menu": 8463,
      "inputs": 8464,
      "sequent": 8465,
      "whirr": 8466,
      "maximizing": 8467,
      "expanses": 8468,
      "paltry": 8469,
      "ECIOUS": 8470,
      "equate": 8471,
      "equally": 8472,
      "compassion": 8473,
      "stirring": 8474,
      "cloaked": 8475,
      "RIOUS": 8476,
      "pinpoint": 8477,
      "transport": 8478,
      "transpires": 8479,
      "absurd": 8480,
      "predicting": 8481,
      "hardy": 8482,
      "yearning": 8483,
      "evokes": 8484,
      "prioriti": 8485,
      "following": 8486,
      "🦉✨🤫🌌🌠": 8487,
      "balls": 8488,
      "innovate": 8489,
      "spacetime": 8490,
      "deviations": 8491,
      "intertwined": 8492,
      "dialogues": 8493,
      "ALL": 8494,
      "🦉😂💻": 8495,
      "demonstrate": 8496,
      "hummingbird": 8497,
      "hummingbirds": 8498,
      "objects": 8499,
      "interpreting": 8500,
      "safely": 8501,
      "hesitation": 8502,
      "puny": 8503,
      "lifes": 8504,
      "acorns": 8505,
      "troph": 8506,
      "speedy": 8507,
      "glades": 8508,
      "LEDGE": 8509,
      "encompasses": 8510,
      "privy": 8511,
      "declare": 8512,
      "shape": 8513,
      "crystall": 8514,
      "blossoming": 8515,
      "dimensional": 8516,
      "anthropomorphic": 8517,
      "orchestrate": 8518,
      "Consist": 8519,
      "situ": 8520,
      "situation": 8521,
      "school": 8522,
      "simplicity": 8523,
      "infused": 8524,
      "animal": 8525,
      "animate": 8526,
      "prepare": 8527,
      "defiance": 8528,
      "admiring": 8529,
      "tremble": 8530,
      "pressures": 8531,
      "crunching": 8532,
      "cheerfully": 8533,
      "bugs": 8534,
      "detectives": 8535,
      "ripple": 8536,
      "dynamic": 8537,
      "burdened": 8538,
      "habitats": 8539,
      "investigation": 8540,
      "investigating": 8541,
      "CIENT": 8542,
      "Empire": 8543,
      "THAT": 8544,
      "banqu": 8545,
      "evaluation": 8546,
      "evaluative": 8547,
      "multiple": 8548,
      "influences": 8549,
      "report": 8550,
      "alike": 8551,
      "perceptual": 8552,
      "wiggles": 8553,
      "progression": 8554,
      "terminal": 8555,
      "scientist": 8556,
      "clarifying": 8557,
      "incongru": 8558,
      "psychological": 8559,
      "Engl": 8560,
      "Start": 8561,
      "States": 8562,
      "Truly": 8563,
      "cabbages": 8564,
      "giggling": 8565,
      "giggles": 8566,
      "hopes": 8567,
      "nudged": 8568,
      "width": 8569,
      "widen": 8570,
      "error": 8571,
      "rapidly": 8572,
      "debated": 8573,
      "decided": 8574,
      "validation": 8575,
      "signifying": 8576,
      "surroundings": 8577,
      "drivel": 8578,
      "swirl": 8579,
      "exclamations": 8580,
      "demonstrating": 8581,
      "proportionately": 8582,
      "ASTOUND": 8583,
      "counterparts": 8584,
      "ecosystems": 8585,
      "pause": 8586,
      "rising": 8587,
      "written": 8588,
      "reassuring": 8589,
      "tography": 8590,
      "believ": 8591,
      "improvement": 8592,
      "convergence": 8593,
      "unveiling": 8594,
      "indirectly": 8595,
      "embodies": 8596,
      "evidence": 8597,
      "particle": 8598,
      "stargazing": 8599,
      "melodious": 8600,
      "instantaneously": 8601,
      "instantaneous": 8602,
      "identifier": 8603,
      "splendidly": 8604,
      "scenarios": 8605,
      "cryptic": 8606,
      "cryptography": 8607,
      "propagate": 8608,
      "melancholic": 8609,
      "ANCIENT": 8610,
      "falters": 8611,
      "scrumptious": 8612,
      "walk": 8613,
      "waltz": 8614,
      "reliable": 8615,
      "recorded": 8616,
      "conventional": 8617,
      "prospects": 8618,
      "extensively": 8619,
      "occupies": 8620,
      "athletic": 8621,
      "drainage": 8622,
      "transitioning": 8623,
      "regardless": 8624,
      "overwhelming": 8625,
      "sunbeams": 8626,
      "simulation": 8627,
      "scorpion": 8628,
      "scorpions": 8629,
      "Goodbye": 8630,
      "PRECIOUS": 8631,
      "caverns": 8632,
      "faculties": 8633,
      "hibern": 8634,
      "hangs": 8635,
      "latest": 8636,
      "soothe": 8637,
      "wrought": 8638,
      "intimate": 8639,
      "renewed": 8640,
      "theatre": 8641,
      "statistically": 8642,
      "perked": 8643,
      "perplexing": 8644,
      "celebrate": 8645,
      "creeps": 8646,
      "confirming": 8647,
      "chapter": 8648,
      "trigger": 8649,
      "implication": 8650,
      "lovingly": 8651,
      "intuition": 8652,
      "exploitation": 8653,
      "introspective": 8654,
      "frailty": 8655,
      "precedent": 8656,
      "teamwork": 8657,
      "constraints": 8658,
      "collection": 8659,
      "whirlwind": 8660,
      "🦉✨🤫🌌🌑🍂": 8661,
      "neighboring": 8662,
      "cataloged": 8663,
      "Haven": 8664,
      "Network": 8665,
      "binocular": 8666,
      "dictated": 8667,
      "dripped": 8668,
      "eggs": 8669,
      "fatal": 8670,
      "matrix": 8671,
      "oomph": 8672,
      "penet": 8673,
      "wrapped": 8674,
      "thoroughly": 8675,
      "theorized": 8676,
      "hetti": 8677,
      "entertainment": 8678,
      "prickly": 8679,
      "comrade": 8680,
      "cozily": 8681,
      "diseases": 8682,
      "interrupted": 8683,
      "blowing": 8684,
      "partnership": 8685,
      "extrapolation": 8686,
      "STERIOUS": 8687,
      "fluctuations": 8688,
      "SPARKLING": 8689,
      "tranquil": 8690,
      "suspense": 8691,
      "🦉🌌❓😔✨": 8692,
      "infestations": 8693,
      "shrouded": 8694,
      "cartographer": 8695,
      "democratic": 8696,
      "KNOWLEDGE": 8697,
      "blanket": 8698,
      "sculpted": 8699,
      "thresholds": 8700,
      "choreography": 8701,
      "Barthol": 8702,
      "CINATING": 8703,
      "CHEF": 8704,
      "Europe": 8705,
      "Elara": 8706,
      "Fluffs": 8707,
      "Favorite": 8708,
      "FASCINATING": 8709,
      "Little": 8710,
      "MYSTERIOUS": 8711,
      "MIND": 8712,
      "Naturally": 8713,
      "Python": 8714,
      "POWERFUL": 8715,
      "TINY": 8716,
      "Upon": 8717,
      "autumn": 8718,
      "baffling": 8719,
      "cactus": 8720,
      "flimsy": 8721,
      "golden": 8722,
      "gobbling": 8723,
      "hilarious": 8724,
      "hallowed": 8725,
      "louder": 8726,
      "silliness": 8727,
      "tubular": 8728,
      "tackle": 8729,
      "vacuu": 8730,
      "yellow": 8731,
      "✨🚀🦉💖": 8732,
      "🌌🦉✨🖤": 8733,
      "🌳🍄🦉": 8734,
      "insectivorous": 8735,
      "instructed": 8736,
      "incandescent": 8737,
      "rendered": 8738,
      "rejuven": 8739,
      "retrieving": 8740,
      "estern": 8741,
      "arrogance": 8742,
      "studied": 8743,
      "mycelial": 8744,
      "myriad": 8745,
      "premonition": 8746,
      "imbued": 8747,
      "spaghetti": 8748,
      "conundrum": 8749,
      "contingent": 8750,
      "construction": 8751,
      "confluence": 8752,
      "declaration": 8753,
      "champion": 8754,
      "verifiable": 8755,
      "uncontrollably": 8756,
      "triumph": 8757,
      "antennae": 8758,
      "eloquent": 8759,
      "documented": 8760,
      "correlations": 8761,
      "corridors": 8762,
      "grumpy": 8763,
      "inevitable": 8764,
      "inefficiency": 8765,
      "obscuring": 8766,
      "obsolete": 8767,
      "🦉✨😠😒🙄👎": 8768,
      "refreshed": 8769,
      "Interesting": 8770,
      "illogical": 8771,
      "subservient": 8772,
      "descriptor": 8773,
      "supernova": 8774,
      "synchronized": 8775,
      "probabilistic": 8776,
      "eclipses": 8777,
      "crystalline": 8778,
      "ASTOUNDING": 8779,
      "Bartholomew": 8780,
      "\".": 8781,
      "(²": 8782,
      "(³": 8783,
      "(¹": 8784,
      "*?!": 8785,
      ",\"": 8786,
      "012": 8787,
      "025": 8788,
      "014": 8789,
      "035": 8790,
      "073": 8791,
      "03125": 8792,
      "095": 8793,
      "0159": 8794,
      "0232558": 8795,
      "0909090909090": 8796,
      "038461538461538": 8797,
      "03225806451612903": 8798,
      "060606060606060": 8799,
      "03673469387755": 8800,
      "046511627": 8801,
      "1333333333333333": 8802,
      "1148": 8803,
      "1189": 8804,
      "1122": 8805,
      "1120": 8806,
      "1188": 8807,
      "199999999999996": 8808,
      "212": 8809,
      "214": 8810,
      "228": 8811,
      "215": 8812,
      "224": 8813,
      "277": 8814,
      "213": 8815,
      "232": 8816,
      "264": 8817,
      "2666666666666666": 8818,
      "2145": 8819,
      "2173": 8820,
      "21052631578947": 8821,
      "312": 8822,
      "320": 8823,
      "314": 8824,
      "324": 8825,
      "311": 8826,
      "317": 8827,
      "3999999999999": 8828,
      "3181818181818": 8829,
      "3195": 8830,
      "319148936": 8831,
      "410": 8832,
      "435": 8833,
      "440": 8834,
      "432": 8835,
      "4256": 8836,
      "4222222222222222": 8837,
      "577": 8838,
      "527": 8839,
      "540": 8840,
      "556": 8841,
      "580": 8842,
      "533333333333333": 8843,
      "5333333333333334": 8844,
      "580645161290": 8845,
      "5263157894736842": 8846,
      "529411764": 8847,
      "5806451612903": 8848,
      "541666666666666": 8849,
      "538461538461538": 8850,
      "600": 8851,
      "615": 8852,
      "624": 8853,
      "630": 8854,
      "655": 8855,
      "650": 8856,
      "688": 8857,
      "690": 8858,
      "672": 8859,
      "658": 8860,
      "6176470588235294": 8861,
      "638297872340": 8862,
      "720": 8863,
      "724": 8864,
      "735": 8865,
      "738": 8866,
      "7666666666666667": 8867,
      "7222222222222222": 8868,
      "717948": 8869,
      "7441860": 8870,
      "733333333333334": 8871,
      "866": 8872,
      "814": 8873,
      "824": 8874,
      "830": 8875,
      "817": 8876,
      "840": 8877,
      "856": 8878,
      "850": 8879,
      "837": 8880,
      "846": 8881,
      "847": 8882,
      "870": 8883,
      "868": 8884,
      "879": 8885,
      "858": 8886,
      "8333333333333333": 8887,
      "8000000000000": 8888,
      "89999999999999": 8889,
      "83333333333": 8890,
      "813953488372": 8891,
      "922": 8892,
      "919": 8893,
      "950": 8894,
      "923": 8895,
      "979": 8896,
      "958": 8897,
      "9375": 8898,
      "9111111111111": 8899,
      "9111111111111111": 8900,
      "9444444444444": 8901,
      "944444444444444": 8902,
      "9729729": 8903,
      "958333333333333": 8904,
      "930232558": 8905,
      "928571428571427": 8906,
      "?',": 8907,
      "AP": 8908,
      "Ap": 8909,
      "Aren": 8910,
      "AUT": 8911,
      "AZZ": 8912,
      "Bet": 8913,
      "Based": 8914,
      "BLO": 8915,
      "BAN": 8916,
      "BBLE": 8917,
      "CU": 8918,
      "Com": 8919,
      "Cra": 8920,
      "Cur": 8921,
      "Carry": 8922,
      "Dat": 8923,
      "Dis": 8924,
      "Dar": 8925,
      "DRI": 8926,
      "DAT": 8927,
      "DAZZ": 8928,
      "EV": 8929,
      "Ec": 8930,
      "Ein": 8931,
      "Especi": 8932,
      "Egy": 8933,
      "EAR": 8934,
      "ENO": 8935,
      "Fo": 8936,
      "Fore": 8937,
      "Figure": 8938,
      "FECT": 8939,
      "FLO": 8940,
      "FAB": 8941,
      "FEAR": 8942,
      "Gr": 8943,
      "Gig": 8944,
      "Ground": 8945,
      "GENT": 8946,
      "Grum": 8947,
      "Hark": 8948,
      "Hear": 8949,
      "IL": 8950,
      "IFUL": 8951,
      "Jer": 8952,
      "LL": 8953,
      "LP": 8954,
      "Lu": 8955,
      "Light": 8956,
      "Lep": 8957,
      "LOUS": 8958,
      "ME": 8959,
      "MAR": 8960,
      "MOUS": 8961,
      "MTH": 8962,
      "NG": 8963,
      "Nor": 8964,
      "OF": 8965,
      "OX": 8966,
      "Oak": 8967,
      "Okay": 8968,
      "Pe": 8969,
      "Pan": 8970,
      "Pto": 8971,
      "Par": 8972,
      "Pines": 8973,
      "Pauses": 8974,
      "Pray": 8975,
      "Ren": 8976,
      "Rare": 8977,
      "Rest": 8978,
      "Rel": 8979,
      "Rod": 8980,
      "Ref": 8981,
      "Ruf": 8982,
      "Revolutionary": 8983,
      "Roughly": 8984,
      "RMOUS": 8985,
      "Sud": 8986,
      "Spin": 8987,
      "Salsify": 8988,
      "Spit": 8989,
      "SIL": 8990,
      "THI": 8991,
      "Tri": 8992,
      "TER": 8993,
      "US": 8994,
      "Ut": 8995,
      "UAB": 8996,
      "Vent": 8997,
      "Vast": 8998,
      "VIN": 8999,
      "VAL": 9000,
      "Watch": 9001,
      "WHI": 9002,
      "WAR": 9003,
      "WING": 9004,
      "WHOO": 9005,
      "Western": 9006,
      "Yo": 9007,
      "Yor": 9008,
      "YTHI": 9009,
      "aer": 9010,
      "aze": 9011,
      "aque": 9012,
      "adee": 9013,
      "bs": 9014,
      "ben": 9015,
      "band": 9016,
      "bled": 9017,
      "barn": 9018,
      "bble": 9019,
      "bill": 9020,
      "bot": 9021,
      "bling": 9022,
      "billi": 9023,
      "bumble": 9024,
      "bands": 9025,
      "babble": 9026,
      "cus": 9027,
      "centi": 9028,
      "cav": 9029,
      "cating": 9030,
      "dess": 9031,
      "dating": 9032,
      "darn": 9033,
      "dich": 9034,
      "duly": 9035,
      "dles": 9036,
      "dwel": 9037,
      "diving": 9038,
      "dilation": 9039,
      "drew": 9040,
      "dwarf": 9041,
      "een": 9042,
      "eld": 9043,
      "eight": 9044,
      "ecr": 9045,
      "eties": 9046,
      "efin": 9047,
      "easter": 9048,
      "erer": 9049,
      "fide": 9050,
      "fren": 9051,
      "fies": 9052,
      "ffoc": 9053,
      "fume": 9054,
      "fret": 9055,
      "fusion": 9056,
      "gic": 9057,
      "gir": 9058,
      "gut": 9059,
      "gust": 9060,
      "gies": 9061,
      "god": 9062,
      "gerate": 9063,
      "glyph": 9064,
      "hat": 9065,
      "hou": 9066,
      "hom": 9067,
      "hence": 9068,
      "hood": 9069,
      "hine": 9070,
      "hither": 9071,
      "hale": 9072,
      "ivers": 9073,
      "ients": 9074,
      "itial": 9075,
      "ilful": 9076,
      "jar": 9077,
      "jasm": 9078,
      "justice": 9079,
      "ky": 9080,
      "kid": 9081,
      "ler": 9082,
      "late": 9083,
      "lity": 9084,
      "lamp": 9085,
      "lasting": 9086,
      "laby": 9087,
      "mi": 9088,
      "mes": 9089,
      "mous": 9090,
      "main": 9091,
      "mut": 9092,
      "mend": 9093,
      "mies": 9094,
      "mately": 9095,
      "mers": 9096,
      "minating": 9097,
      "mud": 9098,
      "mony": 9099,
      "munch": 9100,
      "mix": 9101,
      "nan": 9102,
      "nit": 9103,
      "nful": 9104,
      "nomin": 9105,
      "nine": 9106,
      "nich": 9107,
      "national": 9108,
      "oil": 9109,
      "ogue": 9110,
      "okay": 9111,
      "ovation": 9112,
      "pas": 9113,
      "poo": 9114,
      "pain": 9115,
      "pay": 9116,
      "pam": 9117,
      "pest": 9118,
      "pile": 9119,
      "pts": 9120,
      "pill": 9121,
      "pting": 9122,
      "pins": 9123,
      "pud": 9124,
      "pang": 9125,
      "ptian": 9126,
      "rin": 9127,
      "ror": 9128,
      "ride": 9129,
      "rive": 9130,
      "rings": 9131,
      "rific": 9132,
      "rary": 9133,
      "rition": 9134,
      "rud": 9135,
      "rances": 9136,
      "ratory": 9137,
      "sen": 9138,
      "sal": 9139,
      "sle": 9140,
      "sac": 9141,
      "sag": 9142,
      "sist": 9143,
      "sav": 9144,
      "shel": 9145,
      "sque": 9146,
      "schem": 9147,
      "sift": 9148,
      "sample": 9149,
      "ta": 9150,
      "tor": 9151,
      "tum": 9152,
      "tent": 9153,
      "tele": 9154,
      "taf": 9155,
      "torn": 9156,
      "tured": 9157,
      "taneously": 9158,
      "tumble": 9159,
      "uar": 9160,
      "uled": 9161,
      "van": 9162,
      "vul": 9163,
      "vide": 9164,
      "vili": 9165,
      "vistic": 9166,
      "wro": 9167,
      "warr": 9168,
      "wallowing": 9169,
      "wined": 9170,
      "waits": 9171,
      "xic": 9172,
      "yp": 9173,
      "yard": 9174,
      "yawn": 9175,
      "zen": 9176,
      "zers": 9177,
      "ïc": 9178,
      "⏳⚛": 9179,
      "✨🌳": 9180,
[...]
